# {"tokenization": 2, "inline_case": true, "protect_regex": "<[^>]*>"}
▁ .
▁ ,
e n
▁ d
▁ a
e r
▁ t
▁ c
▁ s
▁ p
▁ m
e s
i n
▁ n
a n
▁ l
o n
a r
▁ e
▁ v
▁ b
o r
▁ h
▁ ا
▁ i
▁d e
u n
a t
▁ w
i e
r e
t e
▁ g
▁ o
a s
c h
▁ "
o s
▁ k
▁ f
a l
q u
e l
i s
▁t h
▁ م
i t
▁ qu
l e
a m
▁ ب
▁ с
т о
▁ا ل
▁ н
e t
▁ in
r o
▁ un
▁ п
en t
r a
n g
o m
▁ es
▁ в
u s
▁ z
e m
i c
o l
i l
▁c h
▁ и
i r
▁ ה
u r
▁ j
▁ و
▁ đ
a d
▁ y
i m
▁ д
u t
р а
▁ к
▁ r
▁a n
u l
▁l a
d e
▁a l
▁ о
▁ ،
u m
▁ en
▁ א
т а
▁ د
▁ м
▁ ک
▁qu e
▁t o
c i
т е
a k
н и
▁d i
в а
н о
t a
▁н а
▁ ت
▁ ל
▁ ه
▁ ?
ا ن
▁ é
י ם
t o
▁ ש
e d
▁ מ
i a
e k
▁p o
▁ :
▁i s
t i
e g
d o
▁n o
ر ا
l i
▁c om
л и
с т
▁m a
▁th e
▁п о
▁s e
l a
▁t r
▁ re
▁c on
g y
▁ )
▁ (
ו ת
р е
in g
р о
c e
س ت
н а
ا ر
▁ ב
▁ أ
▁ ن
▁ ل
▁ —
▁l e
▁ '
i g
▁n h
▁d o
з а
▁ ，
▁ ف
ا ل
▁p ro
▁h a
i d
▁p ar
t er
i on
t r
▁e l
v e
er s
ی ن
▁p r
▁ б
р и
▁ ч
ar e
г о
i z
▁v o
i k
▁ 1
▁ е
니 다
▁n a
i j
л е
ن د
▁an d
▁d a
▁к о
к а
▁s i
▁ on
er e
м е
▁ î
к о
▁s o
▁es t
▁h o
▁ ش
▁н е
▁ ع
en te
en s
a p
▁ за
ن ا
▁д а
ه ا
▁ 。
▁w e
▁a m
▁م ی
t en
▁m o
▁d es
ı n
l ar
0 0
s z
▁i l
▁م ن
▁ س
و ن
▁ er
▁î n
▁v e
i v
م ا
▁d ie
▁b e
▁ ו
▁a s
▁m e
▁n e
▁د ر
▁k h
ã o
▁e t
d a
в о
▁s a
▁a z
d en
▁ то
▁ک ه
▁t e
a z
▁o f
▁p er
т и
▁s t
o u
in e
л а
л о
a c
d i
▁v er
▁n g
▁s u
▁ um
z e
▁ כ
в е
▁ خ
o k
es s
i er
д е
▁ب ه
д а
▁v à
▁l à
an t
i ch
▁b ir
m a
▁ 그
▁ ي
es t
▁a c
▁к а
н е
נ ו
▁ آ
▁ ك
д и
▁ ע
o g
▁j e
a b
▁ ح
▁ ş
м а
s t
▁b u
d er
▁ا ین
▁ ‌
▁о т
z y
ô i
ی د
т ь
▁ 2
▁s p
n h
▁a r
▁un d
▁g i
▁a p
▁с е
i en
و د
в и
▁ch e
▁ u
▁ 이
▁v an
ж е
o w
▁h et
▁ э
נ י
n y
▁ а
▁e x
n e
ا د
و ر
▁t ôi
▁g e
▁n ie
▁ف ي
▁ ج
▁ י
▁d as
ی م
▁p h
▁м о
▁ ر
an d
v er
▁a b
▁c e
▁ у
▁e m
к и
▁a u
g e
m e
▁c u
s e
▁ را
▁l o
▁ ی
d u
n i
▁ ра
л ь
ا ت
▁c o
▁e en
▁p e
▁ש ל
b en
i o
▁i m
▁ ç
▁s z
á s
▁ or
l er
ч е
▁ ra
l o
▁п ро
▁e in
at e
a y
▁p or
v a
▁ال م
▁o l
▁ب ا
▁s on
▁th at
g en
▁c ó
ו ל
▁de l
▁f or
▁h e
r u
ô ng
ي ة
▁ ق
ا م
▁ا ز
▁m u
á l
▁ 있
b i
▁é s
▁l es
▁م ا
an s
▁d at
습 니다
ו ר
ü n
н ы
▁un a
▁i t
و ل
an do
ر د
м и
▁n u
ê n
▁s ă
y or
d z
▁o p
▁א ת
is t
و ا
ז ה
で す
▁par a
▁f a
ộ t
▁e gy
o t
▁l u
é r
▁w h
an g
▁ ro
▁и з
▁ à
▁ch ú
b e
é s
▁s ie
▁m ột
t re
▁д о
ц и
▁ч то
▁t a
▁ پ
t u
▁d er
▁ т
▁ч е
▁ ent
▁ та
b er
▁w as
en d
▁m in
a u
▁ 我
г а
ا ی
▁ -
▁com p
ic a
▁w ir
▁c á
▁ چ
qu e
▁i k
▁chú ng
▁ ♫
▁ا ست
i i
ي ن
▁p u
te m
м о
e c
s o
▁э то
â n
▁p as
▁أ ن
▁p l
р у
á t
с я
ذ ا
on s
c a
▁ho gy
▁ è
ờ i
or t
▁i ch
os t
▁n ó
▁a t
al e
л я
▁m i
l y
n o
el e
▁y ou
▁ я
r i
י ת
ch e
▁ те
f f
p o
ö n
▁d u
▁m an
a g
▁ إ
l en
し た
▁v i
▁. .
on g
á n
з и
▁ک ن
ل ا
ل ى
z a
ш е
p er
х о
am os
at ion
▁is t
ま す
ữ ng
▁ го
ч и
▁н о
щ е
▁в с
▁t er
▁z e
▁nh ững
h e
▁п ре
▁e z
n a
▁in ter
▁ ș
▁ 것
ớ i
▁то ва
ר ו
▁ ח
b le
am o
p r
п о
▁t ra
h r
▁qu es
h a
u d
ل ك
un g
i re
ö r
é g
▁c a
▁ г
▁g r
▁ گ
▁a v
ü r
▁s ch
ó n
б о
ic i
▁آ ن
▁ה י
▁c ủ
in d
▁củ a
▁m on
ij n
▁e u
▁z u
i ế
▁si ę
▁m eg
▁ ز
c o
▁ا ن
f or
▁ 3
ấ t
at o
▁c ă
ни е
▁p re
ни я
m i
▁п ри
ч а
▁с а
▁g o
▁ال ت
▁d en
ad o
ه م
v en
▁ 사
n ie
n en
▁un e
ו ד
▁no us
▁m il
▁ه م
p l
▁о б
▁ל ה
▁a d
k e
ي ر
▁m et
▁kh ông
▁ x
▁f o
▁ş i
s i
▁ی ک
▁ з
▁ка к
▁ال أ
á r
ı m
ạ n
て い
ü l
▁ ż
▁es te
▁l os
▁n on
b a
▁ș i
el l
u k
▁c re
▁c are
ст и
j e
ad a
ж и
▁d is
▁ל א
▁.. .
▁ us
▁ра з
ت ر
▁д е
▁с и
▁в и
▁м е
ư ời
▁n os
k en
▁s er
ó w
c on
c z
o d
д о
▁d in
ב ר
▁qu i
▁n à
ch en
▁g en
▁м и
é n
ü k
▁w ie
▁ זה
ich t
▁p ers
▁в о
▁v ol
v o
▁đ i
▁đ ó
ư ợ
с то
t t
▁ 수
u i
em os
ề u
▁nh ư
▁o b
ف ت
eg o
k i
b an
m o
as t
o p
▁ر و
▁ה מ
▁c os
ا ب
g o
es e
an te
un k
am ente
▁th is
an o
ת י
▁ 우
ci a
▁v a
w a
ent o
▁al l
ad e
ъ р
▁b ạn
▁al s
te l
▁ 아
▁po ur
▁vo us
ol og
▁com o
ي د
ar d
▁b a
▁ma is
▁с о
с та
▁um a
ל י
▁м ы
is s
▁im p
ר י
ד י
j ą
í a
m ente
ı k
h o
ul t
▁n ão
i te
ك ن
▁ 하
c ie
▁ נ
ı z
е т
z i
ي ا
▁p os
▁ng ười
▁б ы
b il
▁w y
▁ こ
▁n em
▁d on
г и
▁ma i
i le
▁н и
▁re al
▁c i
입 니다
it o
▁s ol
▁b y
m en
▁с ъ
m ent
j a
ل ی
▁l as
ion e
▁ה א
ו א
▁a f
▁p i
▁tr ong
ی ر
▁e le
▁b en
ch t
▁d an
ạ i
ı r
л у
ל ו
▁ そ
▁g el
▁o m
▁ ת
in i
t ó
▁t em
▁в ы
u y
▁ب را
ı l
▁우 리
▁l i
▁w er
▁m ar
▁ع لى
k a
▁r es
▁ ק
▁con s
▁ !
u g
▁d ar
00 0
л ю
▁ 5
ו ב
or a
▁ch o
▁ ص
с и
▁ک رد
or e
▁in s
я т
w e
ل ي
ш и
é p
▁d ans
ま した
c es
▁ap p
▁ ü
▁ ö
i p
▁ ؟
こ と
▁ب ود
t h
נ ה
▁h ọ
ش ت
و م
f er
▁ż e
at i
▁м а
▁th ể
но го
ı ş
▁c an
و ان
b l
al i
y m
t ro
ượ c
▁ פ
un t
c u
▁w or
▁ 这
on d
▁m as
á g
▁ 가
▁k i
f t
r es
▁t en
ц е
ر و
▁vo c
in a
▁er a
▁م ع
▁мо же
▁nà y
▁ 4
▁ ط
ic o
▁מ ה
b re
р ы
▁h er
un d
▁a i
▁m it
▁ng h
a ar
▁cá c
ă m
▁2 0
▁voc ê
▁đ ược
▁pers on
c er
▁ ре
y s
▁r is
에 서
ر ي
▁đ ã
▁z ijn
li ch
ün k
▁a ut
â y
▁a ve
ق د
▁f el
д у
▁p ens
▁ال ع
c t
ذ ه
z t
▁v on
щ о
▁vo or
▁1 9
د ه
▁c ar
▁o s
e y
▁ע ל
м у
w o
▁w ar
ur s
▁ ф
מ ו
▁t ak
р я
u z
▁p ent
▁ب ال
▁a re
▁i ç
▁m ás
▁s om
p e
n ak
▁ ר
ț i
▁j est
▁برا ی
н я
▁pent ru
il l
ש ה
h t
▁po d
▁ ג
es te
ic e
b b
▁د ار
▁com e
▁c am
▁ хо
п а
▁es s
י ו
▁nie t
ح د
▁es ta
▁ ;
▁pro ble
▁qu el
k o
▁g er
v el
é l
ç ão
a ch
▁a k
▁b o
▁ه ا
▁k ö
ב י
í t
▁a g
▁d it
▁ 저
▁1 0
▁v ới
с о
▁k on
но ст
ci ón
ع د
i ệ
▁ %
ấ y
▁n icht
▁i de
ر ی
▁s ur
c k
ì nh
▁j ak
으 로
▁c er
▁ه ای
▁ 제
י ה
at a
▁б е
מ ה
b r
▁ ？
е м
ł o
י ות
m y
▁the y
▁ש ה
ar t
p re
▁pr im
щ и
á k
щ а
ع ل
▁ 여
é t
ess o
▁b un
س ی
▁б о
ti on
ó l
al l
y ch
▁و ال
▁ 、
ی ز
▁t u
▁и н
с ь
▁e ine
ל ה
▁o d
▁ه ذا
t ra
我 们
▁y ap
ق ت
▁ha y
▁o u
خ ت
▁s em
ie l
▁a us
▁我 们
w i
▁t i
し て
س ا
an i
▁au f
▁s ự
▁t re
ме н
ж а
נ ים
ţ i
▁в е
▁das s
▁f r
▁ש א
▁s c
ầ n
б и
▁вс е
z en
v ol
ذ لك
▁m ens
▁p ol
п е
n ek
▁ 보
ר א
or i
▁و ا
▁iç in
▁в а
ی ش
▁v or
▁и ма
▁ل ل
am i
us e
ا ه
п и
▁de m
▁ 대
g i
▁ب ر
it h
us t
g r
▁son o
▁b r
▁c ol
▁s im
▁f i
▁w at
ł a
▁ ס
▁ ד
ả i
▁ ”
一 个
▁k tó
v i
á c
ש ים
▁n as
c ă
ها ی
▁c or
u e
▁là m
د ا
em ent
▁p a
▁in d
▁k e
▁h at
х а
ב ל
▁v ers
▁ ú
▁b ut
▁b i
す る
с ка
▁t ut
▁ ở
▁v al
for m
tr u
le t
▁m at
▁g ro
▁ צ
מ י
▁د ا
▁m à
▁ «
er a
ו ן
p p
▁ك ان
▁m y
▁m ed
ст во
es z
▁b il
▁ко то
▁ »
▁с т
y a
▁d ol
к у
▁c s
▁v is
▁f in
or d
s en
▁o k
▁o ver
er en
▁ال ح
▁f e
▁ل ا
▁di es
с ки
▁n el
כ ל
▁ 다
▁ 어
ю т
y e
ın da
▁ ś
ı ğ
▁un s
▁m er
▁א ח
פ י
▁đ ể
▁א ו
گ ر
▁t am
▁ha ve
dz ie
▁pl us
d y
ent i
▁g ra
in t
an a
ח י
▁ه ست
▁l eg
en n
▁t ro
か ら
▁ו ה
▁đi ều
م ل
g an
▁par t
u x
é k
▁al g
ij k
▁м ного
▁c ả
▁k an
▁ ли
합 니다
▁ma ar
▁a le
on t
들 이
f ic
▁wh at
▁d ü
▁o ut
▁ ז
it a
▁ 6
el y
▁ו א
▁б и
▁c el
c r
ра ви
の です
ci on
er i
▁w ith
▁k om
و ب
▁kh i
et t
▁ 지
▁z o
ằ ng
▁nh i
▁ک ار
é sz
▁з на
▁c ap
▁d é
ed en
▁s ẽ
▁f az
▁j o
▁ 모
ق ع
os e
ro m
▁ жи
lar ın
▁al le
▁ال ب
م ی
н у
s a
ân d
▁no t
z el
▁t an
▁s ta
▁п е
ự c
j o
▁ 私
▁ ）
▁v ề
ו ק
l am
ś ci
っ た
ר ים
т у
▁ 일
▁he b
b o
▁ques to
▁ （
▁w o
h en
م ان
in k
▁א י
▁y a
▁n i
▁א נ
▁m us
ơ n
с а
m er
▁ 말
ש י
d an
ố ng
ни те
נ ות
▁f ac
l u
▁n at
▁m es
ا ز
б е
s ch
ậ t
ul d
ن ت
▁th ế
n olog
▁ع ن
▁ 생
ж но
▁c as
리 고
▁d ur
id a
e a
하 는
u re
c zy
▁f il
▁a an
с ле
ma g
כ ול
▁on t
▁s in
▁c z
▁ه ذه
id ad
▁מ א
ر ب
ı yor
w ie
p a
▁in c
▁est á
et te
▁א ני
il i
▁b ar
z ie
▁b el
á m
▁م ت
▁д ру
н ь
▁ “
з о
▁в ъ
al ar
▁ش ما
ầ u
u te
▁ 시
am en
▁ב א
h er
v ers
و ع
▁v ar
ر ت
▁있 습니다
▁с та
▁ب د
▁사 람
ع ت
m es
▁t im
on e
▁si ch
▁p ra
▁c r
▁ 기
▁qu ando
ł y
▁w i
▁ç ok
k t
l an
ur i
▁2 00
е то
ر ف
▁z a
▁re g
▁ه و
י י
ж да
▁t al
▁h ier
ư ớ
▁is so
▁s tr
▁ ще
▁ה וא
▁i h
▁m en
▁sa u
▁п а
ق ا
▁g es
▁j a
с ко
あ り
ă r
▁ 전
و ج
in s
▁ma g
ق ة
an e
c y
▁ל מ
▁ol du
س ب
っ て
▁ 자
▁н я
at t
▁a qu
▁h as
ế t
p t
▁ ut
な い
c ul
on o
▁ت ا
他 们
▁pi ù
lar ı
▁그 리고
b u
▁mo d
▁и ли
y le
▁ غ
اد ه
ti v
o ut
و ی
▁pr zy
▁per o
ш а
▁t ừ
ب ر
م كن
k el
ế n
à nh
ad os
с е
я х
ח נו
p i
▁ş ey
م ي
r en
k u
ec t
▁qu al
▁b as
▁f ar
▁to d
▁ 정
▁ 만
ol o
▁ch i
на та
▁như ng
▁imp ort
▁пре д
▁di re
▁s ind
▁s unt
ن ي
▁h ad
▁u it
é m
▁ 9
▁b iz
is te
▁đ ây
▁כ ל
im ent
د ي
▁있 는
▁y o
▁k o
▁ا ی
ב ה
▁de c
l es
▁gr an
▁w aar
ing en
▁te ch
ر ة
▁ ле
▁چ یز
▁ 7
te k
▁ab out
ك ل
it y
с те
é e
ł em
д но
よ う
▁th ere
и то
▁qu an
ch o
▁a ce
ו ם
▁de ğ
▁ab er
at ă
ie m
들 은
▁на п
▁i d
▁m ol
s ég
л ко
ва т
▁m om
▁m un
r y
▁ же
b y
▁az t
ق ي
▁ 8
ق ط
▁та к
▁א ות
▁ה ת
m as
▁pro du
ő l
▁vol t
iế t
▁ лю
▁ ¿
▁ ön
ü m
▁ко ито
▁إ لى
г да
▁c l
▁app la
▁to t
f e
▁ش د
ف ا
p le
ab il
▁il s
с ли
c s
т ы
ч но
▁so bre
tr i
▁ב ע
ש ר
▁الت ي
or es
▁as ta
▁m ak
▁es to
▁a h
▁mo ż
▁א בל
ک ن
é ny
▁م ث
▁s or
▁ב מ
dz i
is e
ar te
ح ت
▁f ür
ג י
▁é ta
v et
▁ 때
ứ c
er o
ب ا
▁tr ans
í nh
▁t y
el le
▁pr ze
▁s ig
▁א ז
o c
▁đ ến
▁h um
てい る
it i
▁b es
▁da ha
▁ра бо
ны е
▁ ذلك
▁ba ş
ی ست
ci al
ט י
▁nó i
▁ка то
▁ha ben
▁n um
m ek
▁ه نا
▁ال ذ
▁ל ע
▁ال س
▁ 「
▁ك ل
▁ 」
el d
▁ –
▁al so
ك م
▁ph ải
ar i
i yor
▁ent ão
ی ا
▁par te
▁vi ệ
ti g
n er
▁та ка
ו פ
▁con t
▁о ни
ś my
▁por que
▁c â
ar a
▁ال ج
m ak
am a
or s
á ny
▁g ö
▁s eg
h et
▁on e
j i
ướ c
▁با ش
or o
in de
ци я
it à
ま せ
▁ко ето
ס י
ו מ
le g
ст ь
خ ر
▁ar t
지 만
te t
en do
ş t
ра в
al a
▁c ent
▁по д
v ent
▁e d
ませ ん
▁t ud
▁w enn
ig en
▁ה ע
ik a
▁d os
▁và o
ve z
▁g u
▁đ ộ
▁di ff
▁de ze
l t
ר ה
▁م و
ль но
p s
▁ا و
▁v ie
▁ت ر
أ ن
▁k ön
▁na gy
▁đ ang
ố i
▁ال ن
▁ 나
▁h i
ik e
ś ć
ны х
г ра
è re
ك ون
▁저 는
▁m ul
▁va gy
▁1 5
an ie
▁י כול
گ ی
▁с ме
▁ 你
ư ờ
ди н
li k
i ent
▁w el
▁p la
n et
à n
▁del la
▁ 않
▁s h
è s
ст ва
▁t ed
▁ה ש
▁v ì
▁ت ص
▁no w
ig ht
m an
▁こ の
▁i r
ü z
▁t in
at iv
c ent
▁k ar
ی ت
▁k a
in iz
al ly
ي ل
で は
y n
ư ơ
▁việ c
▁nó s
v al
▁j ed
▁h an
てい ます
▁3 0
y an
כ ם
▁g a
▁d r
в у
▁m is
▁son t
õ es
ườ ng
▁l at
b ie
▁ч а
▁pr z
ig e
▁ ́
u p
в ы
▁as s
▁or gan
▁ ’
▁pl an
▁ave c
▁кото ры
iv ers
б а
▁خ وا
▁آن ها
f i
h at
▁th ấy
م ر
▁ 但
ج ا
▁م ش
p os
m al
▁1 00
▁י ש
▁g ì
ב ו
ות ר
▁ا ما
un e
▁de v
o i
те л
w er
▁خ ود
ậ n
▁ ט
▁en er
ın ı
о р
ç a
▁r é
ك ث
▁r ằng
im iz
u a
с но
▁g ör
п ро
ion i
▁ х
▁in f
н но
as s
▁5 0
▁ح ال
▁ה ם
б ы
▁i f
p en
▁r ất
▁こ れ
ار ی
▁m al
ار ه
▁ل م
▁ü ber
ع ة
▁h ơn
▁l ại
b al
ст ве
▁b ra
▁b eg
j ę
ש ו
▁di ese
י ן
▁c es
▁g et
▁po u
ent es
▁nhi ều
▁k un
▁ne w
▁b ien
▁fa it
▁са мо
op le
ả n
▁am er
n ow
▁ل ي
하 고
▁pr in
▁д ля
▁pas s
▁ 在
ul ui
▁ç a
ъ т
s te
li j
▁pe ople
▁i mag
▁ngh ĩ
را ت
t é
з на
▁to ut
з ва
it é
l ie
t es
c ol
▁ש י
д на
ق ی
あ る
ù ng
▁cá ch
▁t iế
▁ 위
▁여 러
ان ی
▁é r
▁ال ش
▁ي مكن
▁د ه
었 습니다
▁ا م
▁h ar
▁в ре
▁b ü
g el
ъ л
▁б у
▁heb ben
▁v en
▁f un
l d
it t
▁ 한
▁ה ח
▁ст ра
▁na ar
y en
bi amo
▁י ותר
l ı
ک ه
z er
ó r
▁wi ę
▁l ike
▁د ی
▁מ ת
▁ע ם
▁h ij
an ia
s p
▁ה ר
ch é
ょ う
▁с во
ц а
ler i
b or
▁دا شت
▁đ ầu
▁و ه
خ ص
▁ق د
▁ت وان
س م
▁ ur
g li
▁ [
▁pro gr
▁ve z
ва ть
▁oldu ğ
▁s al
▁ent re
▁ ]
ند ه
▁ 없
k et
▁کن یم
▁ רו
▁ ：
t or
و س
▁mun do
u ra
▁ 바
と い
▁ال إ
▁о н
▁ی ا
▁pro f
و ت
▁in form
▁우리 는
▁س ال
▁생 각
▁ال ا
▁f ol
し ょう
מ ש
▁el es
e i
à i
ow a
▁מ ס
▁p esso
z n
▁c ông
ו ג
▁ب عد
▁v ă
▁j ust
t y
▁מ ש
▁מ ע
▁ 인
▁m ijn
▁ch ỉ
▁c um
▁pro j
可 以
▁f rom
▁k r
im i
▁c zy
ل ة
ậ y
צ י
j uk
▁o g
▁z am
▁ ض
r os
▁מ י
▁ל י
ف ي
v es
▁th ực
た ち
m os
is che
▁pr es
▁хо ра
▁и с
▁م ح
▁ins an
▁m or
g ar
an ce
sz y
ו ח
p h
▁tr ên
▁de i
▁و ج
â m
▁mu ito
и ч
▁em ber
ệ n
ul a
ươ ng
▁b et
▁הי א
m in
ض ا
ور د
▁ ث
▁re c
qu es
▁min t
ו ש
▁com me
▁c ette
▁cos a
ל א
ک ر
했 습니다
▁f am
z z
で き
sz er
▁o ur
▁fa ce
ch a
ab le
▁s te
▁ا ون
▁am a
▁un ivers
sz e
es c
▁tod os
м ы
w n
н т
▁ال ص
▁ro z
el a
▁m ost
im os
r as
▁h al
▁c al
▁ 세
p u
ug h
▁с ле
▁n é
et en
▁여러 분
▁ 더
ổ i
c is
▁ه ر
▁ب ع
in o
я та
ص ل
im a
▁h ist
f a
г у
о б
▁v ậy
y i
들 을
ak i
▁ 중
▁ex per
ố n
▁وا قع
▁f ost
▁вс ич
▁те зи
▁di fer
ọ i
▁ال ق
ظ ر
ъ де
p ar
▁kh ác
s er
ny ch
▁h á
다 는
ạ o
▁ ̀
פ ר
ér t
ي ف
▁as í
▁họ c
id ade
에 게
▁ í
g er
▁n or
р ъ
▁제 가
ek et
ان ه
ce p
に は
▁no i
מ ת
ề n
▁w il
ны й
とい う
az ione
▁و قت
ion s
▁mens en
▁с лу
▁ це
к е
▁것 이
▁un o
▁ال ط
▁s ão
▁da că
▁m ie
ig n
ế u
ing s
ب ت
ci d
▁ques ta
▁k in
▁sol o
al mente
▁k ad
ка за
m el
▁د و
▁f ra
▁أ و
▁mil li
世 界
b ra
▁そ れ
▁th ese
ב ים
▁h om
к ти
é es
c ut
▁إ ن
▁ 되
▁ 해
▁al go
▁th em
▁m é
▁u p
▁n ăm
▁wh en
▁ش ده
▁ف قط
ет ся
ف س
i ş
▁خ ی
▁do or
▁ко й
il or
▁g y
▁ch uy
ż y
l at
ê tre
▁to do
▁ab biamo
am e
▁а ко
х ме
▁אנ חנו
▁o c
▁i ̇
it ate
u w
▁ 거
as e
eg en
or ia
ar s
ي م
▁h is
▁е дин
▁ ál
▁b iết
b t
▁הי ה
▁v ra
▁е сли
▁cá i
te d
ب ل
▁м у
are a
▁бо ль
▁k now
ци и
di ğ
▁s ą
▁ال خ
il er
▁y e
▁م ج
▁ال ف
is ch
▁éta it
un u
ل م
▁ ро
u ş
▁k or
▁ه ي
▁wer den
▁t ien
▁t ek
▁dü ş
li g
▁م د
▁p at
ă ng
▁b ij
▁ 笑
▁э ти
▁av ons
▁th ứ
▁ ・
ль ко
▁nà o
▁proble m
à ng
ت م
ơ i
▁ho e
▁ко гда
▁in t
▁fa ire
▁am i
▁ن می
▁v iv
al s
al es
s el
on y
▁א ם
ر س
▁هم ه
▁gi bi
▁wh o
con om
▁ال آ
ای ی
f r
▁sp e
ul ar
ñ os
u le
▁l et
▁h iệ
з да
כ ו
▁مث ل
h al
に な
il le
ت ی
▁f u
▁c ũ
an h
▁k ap
▁s us
گ اه
ir es
▁на с
bil ir
▁pesso as
g et
צ א
▁ل كن
▁per ché
ל ים
▁kun nen
l as
it en
ب ي
▁за що
▁i g
さ れ
▁th u
▁ 알
ול ם
▁д у
▁س ا
▁ex p
▁ein en
lar ak
▁g ru
ש ות
▁ت ع
ва не
▁be ca
w or
▁o amen
▁af r
▁a ng
▁vi de
▁sz er
▁th ink
▁beca use
ד ים
▁d om
pr es
en i
▁کن م
d ig
ר ות
▁우리 가
▁ 주
e de
▁o larak
▁po t
▁co is
▁s k
es ta
▁e v
ó d
ق ل
▁هنا ك
▁c ând
ק ה
че ски
▁s ul
en ce
д ы
▁th ành
▁п рави
ö yle
▁kö z
▁و لك
in den
ic k
▁것 입니다
▁d al
▁mu ch
▁چ ه
적 인
▁t ö
▁ro b
▁الذ ي
ể n
▁for m
م ن
bi le
l os
am ent
▁n ếu
tu ra
▁ver d
▁ ̣
at ie
ier en
б ва
▁s ens
ö z
▁이 것
▁kön nen
▁ع لي
▁da v
▁ac c
▁т ря
▁ap la
も の
▁кой то
ло ги
j ák
▁کن ند
▁r i
h n
▁по сле
▁cũ ng
ắ t
▁ا ند
▁e ver
▁don c
▁ ♪
ä n
ك ان
▁ 부
▁д и
ית י
▁inter net
▁ко га
ד ר
د م
ra f
▁ha b
ic ă
▁го во
▁zam an
▁p et
ть ся
is i
▁g li
ب د
▁ á
ess e
ве р
ב ע
▁ho w
▁pos si
▁ 무
▁ب ش
▁н у
з ы
▁тря бва
ie d
▁что бы
▁خی لی
▁d us
▁b em
z ą
▁gran de
g a
מ ר
▁m ult
▁ה ז
t s
is ta
am y
▁fo to
▁ac est
▁та зи
ج ام
ד ה
▁a y
▁som e
▁s ent
▁a ra
iế n
▁ver y
▁comp ut
az ă
it er
it u
al iz
בר ים
▁mu y
▁ 많
▁a ş
▁nh à
▁ت ما
ad as
▁ 마
▁na ch
و ز
▁i ş
▁4 0
▁кога то
▁o der
ا ئ
▁ar r
ل ف
an k
ım ız
▁d ụ
▁com un
id er
ی ه
어 요
ation s
▁on s
p ra
▁ولك ن
▁l um
▁ت ن
▁değ il
▁ol an
で しょう
un a
in in
it s
▁про сто
▁któ re
ó b
▁b ak
라 고
os a
▁mom ent
el en
▁م رد
ộ c
▁ا گر
▁você s
z u
▁أ ي
نا س
ر ك
▁es o
ı s
ни ма
▁ener g
he id
c re
▁t ym
▁es p
em y
で も
▁v ál
▁appla us
ش ان
▁g ente
▁ב ה
▁1 2
▁ut il
á ng
▁ 而
▁כ א
▁a j
▁w ant
▁g re
ğ er
ot t
▁r u
l and
k or
כ י
з у
▁b ị
is tem
ط ور
▁v il
▁на й
ال م
这 个
▁ко н
▁ 의
▁ac este
ç ek
ст ви
к т
س ي
et s
▁о че
ن گ
▁s ố
▁mol to
▁с по
▁su per
í s
▁for ma
מ ים
с у
▁g ü
就 是
▁m á
хо ди
▁an h
▁se in
es i
▁m ich
á ban
▁g lo
▁d la
▁e ff
ע ים
▁ل دي
▁p on
▁min den
▁tech nolog
▁ня ко
▁l át
p ro
ون ه
▁m ore
ör t
▁al la
el f
ed i
▁cs ak
▁с у
▁1 8
▁su a
▁ع ند
в ър
▁ت ش
▁ко м
▁ha cer
▁z ou
▁هست ند
▁ל ח
▁ה ק
▁k le
hr en
▁ ő
▁o la
ut o
▁چیز ی
▁in st
v or
ف ر
ją c
▁т у
▁کن ید
ن ی
▁ 방
▁そ の
▁س ر
at s
▁ف ر
▁res p
▁ל ש
▁progr am
▁cont in
ت ي
▁n ên
▁m ir
з мо
▁и ска
▁ن ح
▁se e
ме р
ú c
▁ac tu
و ق
▁go ing
▁ف کر
▁é l
▁ç al
▁v ia
▁ch ính
ấ n
▁ez t
c ou
▁fo arte
k al
▁с то
什 么
▁ان جام
▁g ia
▁n un
▁real mente
▁то зи
▁го ди
в я
re i
▁p om
▁lo c
▁cu ando
▁그 래
▁خوا ه
t am
▁ 상
▁in v
▁f og
▁z w
▁ال ك
b ar
▁f at
ậ p
▁al t
▁ 같
ồ i
â t
ın a
▁fil m
א ת
▁ה זה
v ar
▁те х
k ie
▁ب یش
▁st u
e z
ch te
▁ин те
am ento
▁am ik
j d
▁bü y
un gen
ни и
▁su c
it ă
▁и х
▁ 它
▁ 那
▁b l
▁su b
▁j u
▁s an
▁s en
ke z
כ ים
▁ت ح
▁el le
▁e conom
n ą
▁t el
▁п ла
▁sa y
▁ ‎
ני ת
in es
▁ac um
▁к у
p or
▁f ir
▁پ س
▁다 른
ở i
▁د ست
▁k ul
▁del le
r ij
▁mu ốn
п ре
ד ע
е те
m et
▁w a
▁nh ất
▁a o
u ro
▁v ir
der n
▁об ра
▁آ م
▁по лу
▁бе ше
▁wor ld
▁ 所
ا ص
▁s iz
▁ 비
▁ש מ
▁ger çek
▁د اد
▁w ill
im o
▁t ele
▁ 오
▁fo i
▁של י
▁mod el
▁vo i
id en
ic os
▁하 지만
c ess
▁ 他们
er t
▁qu é
▁v ida
ו י
▁d zie
▁את ם
▁o ok
▁ 一
ط ي
▁wo uld
▁с ре
▁m os
▁ 할
▁ 因
▁s ó
▁kan n
▁ 공
▁te c
كث ر
í v
▁ 실
▁m ég
▁ 他
▁faz er
▁des pre
▁ا ف
▁do en
▁g em
б ле
то му
▁and ere
▁س و
▁t or
▁au ch
ز ر
▁пе ре
▁вре ме
▁б а
nie j
▁độ ng
ữ a
я то
▁ה ג
▁ک ند
im ento
▁lu i
l us
▁tr ès
▁p un
▁pol it
ier t
ö l
▁כ מו
▁ 도
ید ه
▁cos ì
z o
ant es
▁çal ış
▁ч у
▁so k
▁k en
▁с ве
▁te h
▁pe ut
5 0
os o
▁no u
ä ch
ac k
▁k al
ל ק
ф и
▁ל פ
▁yo ur
tr os
ia ł
▁ 彼
d at
т ся
▁ה ה
▁the ir
▁de ci
ра н
v an
▁מ ח
▁ ông
ur n
▁cu i
▁l oro
▁me er
ś li
▁не що
те ль
▁t ại
▁po p
tu re
um ent
g es
▁מ ק
م ت
▁düş ün
▁ti po
▁gen er
و ش
▁gi ờ
ac t
▁gi ới
▁ 관
▁y ıl
▁w ere
ו כ
ност ь
▁t ạo
im e
▁ال ر
ặ t
ي ات
▁ya ş
▁e k
▁ра с
▁ と
▁pod emos
▁po de
▁ко ято
▁ein er
▁lo ok
it al
ó s
▁v re
▁ 문
▁ب گ
▁cel a
▁con tro
ys tem
▁е сть
▁b in
▁ج د
▁é v
א ות
ا ف
á i
з е
해 서
▁ż y
ci o
▁i le
▁ être
▁mo do
▁y er
▁s to
ce ğ
▁me in
▁k ép
▁ נו
▁ה פ
▁cons tru
ф е
▁ت و
s ta
▁ت ق
ی ل
on a
l ad
で した
ant s
▁ 미
▁b ul
▁tem po
の は
▁ 연
er n
▁a va
מ ן
ư ở
▁kad ar
▁t om
א ים
ưở ng
▁wor k
▁h un
ら れ
n ik
▁ 人
▁an im
▁me u
▁k il
▁m ê
▁n y
ü s
▁or a
▁про и
an y
▁f ie
▁ز ند
▁m ă
í ch
し い
▁n ur
▁ב ש
▁ب سی
г ле
ch i
▁ge b
ی ک
▁как во
▁ن یست
▁по ве
▁m ic
▁만 들
▁l iv
▁با ید
▁و أ
▁kh o
lij k
ر فت
on es
▁mon d
▁وج ود
▁ا ت
em p
ek t
▁ess ere
▁l ớ
▁ت ج
á z
at or
▁h ere
on i
▁כ ך
▁da ar
ic al
▁дру ги
ti k
▁של נו
▁an s
ò n
▁m ọi
▁ „
ố c
a i
▁f ut
ok at
t al
▁wh ich
ر ض
▁pu bl
f el
▁ה ד
▁к ра
▁с м
▁an che
▁r end
d ı
▁ب ین
h ing
▁ش ي
▁an i
th er
▁ф и
▁ol yan
▁dan n
▁f re
▁z ie
▁qu a
ak t
▁ 동
ap t
い て
נ ס
▁ל נו
م ة
▁e i
▁m ình
▁dü ny
▁am it
ra da
ро в
▁t ego
▁f are
om en
ны м
ô n
▁이 런
▁ein em
ه ر
צ ה
h i
▁ide a
▁ 不
ă t
▁an ni
▁gr and
â u
j es
▁گ فت
ç ões
▁ ست
▁خ وب
▁ب ل
п у
▁s ci
ư a
שה ו
▁sig ni
▁ 유
▁жи во
▁se hr
▁бы ло
▁그래 서
▁ 当
▁r en
▁hiệ n
▁м не
▁всич ки
ond ol
c tion
▁د ان
다 고
▁b ởi
▁l ie
▁ 소
▁tim e
▁an y
▁모 든
▁س ن
▁no g
би ра
▁k ur
▁tre bu
▁v ed
▁proble ma
ê m
▁wir d
▁on ze
▁h el
as z
▁п и
▁c ri
▁рабо та
f en
נ ט
▁и де
▁e la
כ ת
▁것 을
▁le het
▁real ly
▁bun u
▁nat ur
▁6 0
ди те
▁pu te
▁s el
▁ 경
▁pro b
ố t
▁n ad
▁ever y
▁han no
נ ת
os s
▁v iel
un da
▁ز ی
▁защо то
в но
▁to da
ö k
ent s
er d
an der
ț ii
ắ c
z ione
e ft
▁ت غ
▁k ie
ка та
c ar
▁با ز
▁person e
▁k ell
в ля
▁ú gy
▁w szy
▁qu and
де ла
▁vide o
▁ה ב
이 죠
▁אח ד
▁n eg
▁wszy st
如 果
ار د
▁qu in
▁그 것
▁بع ض
▁сле д
п ло
▁ме ня
▁h ình
▁prim a
di o
▁th ật
▁ו ב
را ر
ש ת
по л
▁може м
tr ar
▁com m
▁そ して
▁и сто
ير ة
▁nagy on
h l
ượ ng
▁i ar
w y
▁и м
▁оче нь
n es
▁до л
▁lu cr
这 些
چ ه
▁e g
▁des ign
▁ 내
▁în tre
f ica
▁w ay
▁el ő
▁ה ס
可 能
▁ 조
f ici
▁ר ק
ъ м
ể u
▁про бле
▁na j
▁vil ág
خ ل
▁то й
▁st at
▁y or
à y
ỏ i
w as
ş i
▁an os
ت ه
▁qu y
▁po der
▁est amos
▁ل أن
▁f al
на я
▁ו ל
▁ 물
▁th en
b ro
ב ור
ü yor
▁c ần
م ع
▁ques ti
▁на чи
▁hum an
a j
ط ر
▁c ada
m ie
▁е го
ê u
iv a
ny m
▁الآ ن
▁во т
ugh ter
▁cả m
▁ ers
▁sz ám
▁s istem
▁כ די
il d
on te
▁un ter
▁ב ת
▁p ic
▁în tr
▁ال و
▁f l
▁war en
▁t ất
ó k
る こと
ك ر
اد ی
▁s ống
▁ל ק
v é
b ól
ặ c
까 요
▁p ut
▁بیش تر
ó j
▁mon de
▁ب ی
▁ال د
r is
c om
▁comp le
▁كان ت
现 在
▁с ло
▁f em
ст ро
▁عند ما
▁c ir
▁m ut
▁وقت ی
▁г и
▁nh ận
▁inter ess
م ال
ì n
▁import ante
ج ه
▁son ra
▁c òn
ו ס
▁ב י
▁ش ود
没 有
▁aqu i
▁от к
▁יכול ים
▁mens chen
▁ag ora
▁1 1
▁sa b
▁ge en
ר ת
▁tec nolog
▁ ш
▁ל ב
▁ 합니다
▁an n
س ان
er es
ứ ng
ñ o
ل ب
▁ح س
▁mer t
▁а з
▁któ r
▁qu er
כ ש
▁a ños
▁l an
▁prze z
▁tr i
▁k ind
ci as
な く
as ı
▁h u
d s
á st
▁о на
▁g ens
cion es
▁b ek
▁которы е
ما ت
▁organ iz
▁这 是
ent a
▁пре з
í n
u al
л ы
▁t ự
ф ор
ó g
is chen
ל ות
非 常
▁ج ه
▁o h
▁b an
tel len
▁ب خ
▁g ondol
하 게
ي ث
▁quin di
▁ז ו
p ie
▁ 매
▁c ul
z em
▁رو ی
▁r á
▁d zi
▁ب ت
it ion
▁하 는
▁ 작
▁20 1
де й
ne j
ic z
ри я
▁כ י
▁پ یش
▁ک ش
וד ה
▁دار د
▁g an
y on
▁a ș
ap e
▁所 以
▁es per
▁la ughter
▁לה יות
▁po w
for ma
c ze
▁c ô
▁re m
ó t
ä t
▁n am
▁b is
▁ ý
▁m ent
is ten
حد ث
du c
▁f iz
▁alg un
el o
▁ك ه
▁ي ت
en a
v ir
▁س ي
ho z
▁ges ch
▁нап рави
▁w ur
▁j aar
▁때 문
▁و ب
ter e
▁quel lo
ри те
ünk ü
ên cia
▁ک م
▁ی ه
▁ни е
▁b al
▁ih nen
▁ 是
▁d ro
▁ 들
▁gi bt
▁пред ста
▁l ong
▁del l
▁the o
▁cu ộc
ю щи
▁ت لك
ור ה
적 으로
▁ex pl
▁büy ük
▁ 大
▁be i
▁إ ذا
en as
щ ност
▁е дна
▁th ì
ко й
▁2 5
к ра
a in
겁 니다
ع ا
▁đ ồ
▁y ar
▁아 니
▁ج دا
▁do ğ
▁wię c
▁on der
▁aut o
▁ك نت
י ים
▁lớ n
▁ 분
▁z ien
с пе
▁đ ị
▁it t
▁ ấy
▁pe u
ח וק
▁yor k
▁lu gar
▁م س
▁אנ שים
▁п у
▁nh ìn
▁b ắt
▁t est
▁ve de
h ar
▁ess a
▁ي ع
▁amik or
ע ות
▁ 영
or y
ch ten
▁m ia
el ijk
▁e c
▁tut ti
ص د
è me
сто я
い ます
▁за по
▁j ul
▁ 발
▁c ùng
▁kie dy
▁ç ünkü
▁đ ề
あり ます
▁l ang
▁8 0
כ ן
é re
ва ме
до б
▁ah ora
▁на м
▁h and
g l
ộ i
ic as
▁ 最
ح ك
▁sa o
▁co uld
▁ch ose
מ ות
▁an c
▁ 안
ę d
▁p ier
t an
▁e ven
т ре
▁ö s
ית ה
▁st ud
▁ня ма
▁con f
ter n
ł am
an n
▁n om
▁بسی ار
▁о ста
▁ex ist
▁f er
ב ות
ể m
la u
ţ ii
▁mê me
▁in to
▁mon do
▁rob ot
▁s iste
b be
▁no tre
ol a
▁m ö
▁c in
ọ ng
c are
▁no ch
t ar
▁s ystem
ol d
ло ве
▁ب زر
▁не ща
▁in te
un uz
ד ול
▁ا ج
ch er
n ia
ש וב
▁вс ё
pp en
▁ide e
▁is to
im y
▁wer eld
ü ş
▁ 좋
▁ز مان
▁es c
ר ג
ע י
يا ء
▁wh ere
at en
▁צ רי
ام ل
و ي
▁se hen
▁nh ân
▁ح د
as i
ın ız
▁ma in
▁ş ek
ı y
▁ص ح
on der
то в
dz o
▁т я
▁г ра
▁ 000
ś cie
▁것 은
ле н
▁tut to
▁ 自
다 면
od y
▁bar dzo
▁ 고
м я
▁p al
о н
lar a
▁l im
▁par ce
し ます
▁ 두
▁по мо
ò ng
▁pre cis
ד ו
е й
▁많 은
p ort
▁م ر
▁ 또
▁因 为
ad or
▁dol lar
з во
ast ă
▁apla us
ی چ
知 道
▁po ate
▁t ới
▁a ç
▁j us
ẫ n
▁z ro
▁câ u
▁ś wi
c un
ро м
▁ 개
▁far k
▁до б
▁pro p
c in
ł ad
д я
r ar
▁n et
▁k ör
▁ú j
라 는
▁ge ç
▁di d
н та
▁ب نا
wa ż
▁o ù
▁t ế
▁do ar
ع ه
u yor
▁l ên
ו ך
t to
▁این که
ו ז
á ra
f in
▁pro te
▁ /
▁کرد م
r ó
z ę
▁trebu ie
▁아 이
▁ق بل
▁на ши
ț ă
▁ç ık
l ık
el er
▁b ed
▁dies er
▁actu ally
▁ду ма
▁k ül
し ました
▁с дела
▁ ど
し か
▁je śli
ح ا
ier a
▁b ằng
گ ه
▁b ản
а л
▁wor den
ни й
g t
▁但 是
▁w ol
▁t ay
v is
▁ng ày
ч ни
ă n
▁vers ch
▁th ời
▁di vers
▁가 지
▁m em
▁ 如果
▁ 有
▁se con
▁et was
ص ب
▁b az
▁s ade
▁be au
ва ли
▁ال ناس
▁ge w
ک ل
들 의
▁та м
▁n ước
▁ 결
▁cam bi
▁19 9
▁א נו
▁по ка
▁ش خص
о на
ur ile
ح ة
ü ck
▁sin h
考 え
ığ ı
▁c ơ
ст ву
▁cre d
iv el
问 题
▁sade ce
رو ع
▁ace astă
▁k at
к лю
▁де й
▁م ورد
▁ג ם
▁b re
ר ח
ij d
▁z n
те льно
ut ion
▁ob j
▁wel t
▁ter m
▁y üz
▁é n
▁aplaus os
지 요
▁tr at
▁است ف
▁în t
▁tim p
▁z or
v ano
에 는
▁som et
▁زند گی
▁tr ước
ö tt
▁ 예
le d
▁siste ma
▁s m
▁au x
▁ל ת
▁ も
ди с
▁m ár
▁ва с
an no
▁و ت
▁де ла
▁c ứ
▁o ther
▁le ur
e p
▁kul lan
l l
ek en
▁여 기
▁ve el
▁b us
عل م
ست ان
т но
▁t we
ع ات
it ar
▁pro bl
▁v í
れ ば
ي ت
▁pr iv
▁ن ش
▁m ik
פ ה
▁th ay
én t
▁ye ars
▁d ir
▁d ist
▁e vol
ل ه
▁al ors
▁ 단
▁b er
▁l and
▁ge z
▁prin ci
▁th ings
m ad
▁n ơi
▁en con
l ko
▁f ak
▁ ア
de z
▁h or
▁me hr
▁m el
▁import ant
های ی
iz i
▁그 러
as ta
ול י
▁n ost
▁أ كثر
▁أن ه
▁dur ch
▁これ は
▁a ff
ic amente
▁ 웃
ın dan
▁est ão
▁tö bb
▁r ic
▁s he
le k
▁г е
▁com b
ả ng
ab a
▁ 감
▁ş im
د ام
▁pos s
▁私 は
▁استف اده
owa ć
נ שים
▁par e
▁i hr
▁be z
▁пове че
א י
▁ا ول
▁годи ни
▁l ar
▁се га
▁п ра
▁b on
▁s un
▁be en
▁жи з
ỗ i
▁p ay
る と
▁ha i
▁ 당
▁eu ro
▁ih re
▁k am
g u
et i
ț ie
í an
ş te
▁chi ar
пло дис
▁ha be
ה ם
плодис мен
▁хора та
ور ی
d ic
▁e di
▁sim ple
▁p ed
▁part ic
▁to àn
▁с те
no ści
ע ה
▁ان ت
▁í gy
ע שה
d t
▁s am
y cz
▁вс ъ
al ă
▁tr ở
▁گ رفت
в ле
▁私 たち
▁t ip
▁всъ щност
▁est as
▁f ă
▁ez ek
▁w ell
م ه
▁b ộ
▁h em
▁на и
de d
ור ים
▁d z
▁أ ع
▁ ти
▁nas ıl
▁ט וב
▁đ ổi
ow ie
▁по тому
▁en c
et a
▁ال ي
▁ 今
í amos
▁ל כם
t on
şt ir
n ego
▁all es
▁бе з
▁ ذ
▁to us
▁chuy ện
▁es se
▁ab s
▁а плодисмен
را د
▁am ely
▁در ب
▁к ъм
ח ת
▁на у
ك ت
▁b ine
▁r ze
ụ c
▁sa h
▁бо ле
▁dụ ng
▁z ur
的 な
▁n ăng
▁ngh iệ
ר ך
▁glo bal
▁ś mie
l ic
im in
▁לע שות
▁ex tra
▁کرد ن
▁ob ser
▁خ ل
▁ت ت
▁ش و
au x
▁ át
t at
▁c ur
▁t wo
▁su is
▁ch a
▁cz as
כש יו
▁s at
▁c ười
▁olduğ unu
▁pr ó
▁r ight
▁запо ч
イ ン
▁aqu í
▁ب ب
▁é té
s ter
▁w iss
▁cos as
▁gi á
▁ле т
▁раз ли
▁inc re
▁he eft
▁че лове
▁то лько
▁de ux
▁u z
פ ת
ж ду
g h
▁י וד
▁f ue
▁tra ba
ő k
よう な
▁ ̉
▁الع الم
▁di g
о ве
ва ния
▁си сте
よう に
的 人
р ь
an ti
▁про це
▁о ко
ạ t
▁ي ج
▁v ấn
qu er
▁g ar
▁ל ג
▁съ м
▁v u
▁se u
▁s ing
ک ت
mi ş
▁کرد ه
سا س
ệ u
cou p
▁ו מ
▁ph ần
k ö
ì m
▁nu est
▁mak e
▁ال ى
▁f apt
i es
▁ض حك
▁ن وع
▁mom ento
▁ty lko
▁b ro
ف عل
▁pu ede
ش ر
▁ 겁니다
▁be w
c en
ra d
▁в ър
▁cois as
ק ר
ic s
▁어 떤
▁ע צ
▁مرد م
▁دی گر
נ חנו
▁9 0
m az
研 究
an za
▁beau coup
و ه
▁a ici
り ます
▁웃 음
ر م
t ur
た め
ţ ă
ст ра
ع ب
ние то
abil ir
▁l in
▁צ חוק
ز ار
▁i yi
ow e
▁so u
▁s y
ó ł
▁g ed
it or
▁h ely
▁nh au
c ek
▁ap ro
▁t ap
▁d ön
e f
רא ה
▁б ъде
▁ ult
г е
▁ques te
▁m am
▁ass im
▁الم ت
▁tro u
▁خ نده
ğ i
ん な
▁ن ظر
m ış
ו ו
하 기
▁وا حد
▁r ich
i x
ș i
▁şim di
▁e igen
ả o
▁гово ри
ả nh
▁tele f
▁t as
ק ים
▁nel la
ت ما
▁fat to
j s
▁сме х
▁та ки
▁śmie ch
▁re d
▁הר בה
▁k ol
▁h ệ
▁c ell
▁и ме
▁tiế ng
▁ph át
re d
▁tra bal
▁sp ra
렇 게
▁cos e
j ük
▁см ях
▁사 실
n os
▁ك يف
la y
▁l og
▁رو ز
▁ 과
▁do ve
▁k end
▁문 제
▁ر س
b ir
▁t ính
عت قد
ла го
כ ה
▁시 작
▁ن ا
▁h ak
▁ل قد
▁со зда
itate a
▁k w
it os
▁пре ди
▁1 6
an da
▁p ap
▁có mo
j or
▁ה צ
▁t ar
▁ind iv
▁t uy
▁ت م
▁ce va
▁aus si
▁po z
▁ris as
▁را ه
▁yap t
▁لي س
▁gro ß
ض ع
do w
en e
▁하 나
▁tam b
▁d ự
▁r â
▁moż e
▁ال ان
ın ın
i as
▁سا خت
▁k l
ن ب
ac a
▁so cie
am b
▁ris ate
▁بزر گ
m it
▁m ới
ло сь
▁b ol
▁ne vet
▁aş a
▁th ông
▁l á
▁7 0
▁t ìm
▁po wie
ra z
ru ik
▁ن د
▁co p
רא ות
an ge
i que
▁en f
だ け
in ar
ق وم
▁cas a
re t
▁vra iment
▁em p
d ü
▁w sp
ח ד
▁пе р
ho gy
▁m iss
▁g dy
og le
ח ות
▁бы л
▁y ani
▁sa ğ
is m
ют ся
á ch
ti ve
ers t
но логи
▁ra g
us s
▁mo v
▁min ut
▁b om
▁il g
▁к и
▁gö re
p ă
▁ن ه
s iniz
▁ 스
▁می کن
▁s ử
pr ess
ement s
▁ ま
e v
▁на ча
ри и
el i
▁z um
ö s
▁ 불
▁ر فت
c ı
▁ch ar
▁ч ове
сти на
ب ی
▁ע ו
▁어 떻
d ik
▁ 구
는 데
▁מא וד
▁as p
ö v
▁person as
▁tamb ém
▁inter es
ا س
▁о пи
▁m ạ
▁re p
2 0
▁ח וש
▁ga an
ل و
▁tech n
▁cer ta
змо жно
ч у
б у
自 己
▁z we
▁v ật
▁ 진
يد ة
▁min ha
▁l itt
▁x u
▁ex em
ش ی
▁w id
▁то м
▁c res
▁ö ğ
▁k ết
▁ل ت
ç o
▁ا ين
▁la bor
ת ם
▁tr ường
▁pro pr
le c
▁ke z
▁a in
ש א
к то
▁kin der
▁mak en
하 면
▁r ires
▁l en
▁ 왜
a it
▁درب اره
▁sim pl
но й
ţ ie
▁gel ach
r ől
▁ال ث
▁h ã
p id
▁ש ע
▁z d
▁r ă
ри ка
あり ません
р ти
▁ig az
t à
▁و لی
▁ ц
ش ا
▁어떻 게
▁ ۱
r end
▁ו זה
▁so cial
ig li
▁م خت
ва м
ו ף
▁en d
á ci
▁th ose
▁ 然
▁i ets
te le
▁fam il
ing e
し ている
го во
▁ту к
▁nhi ên
د ة
▁jul lie
по ль
▁şek il
▁ember ek
tr as
д ни
▁до ста
t ak
ну ю
▁î m
ст у
▁نح ن
▁ка за
▁b it
▁ ―
▁m ów
▁nevet és
▁j el
▁ب ين
ق ه
▁כ מה
▁b at
▁fir st
ج ة
il en
▁go ogle
▁t ört
▁li ber
ع ی
ien i
▁le ven
▁đị nh
▁bun un
▁b est
▁باش د
▁r ész
▁대 한
▁es e
▁ع مل
▁t ốt
▁v ég
▁1 4
▁com ment
en de
▁wir k
طي ع
os es
▁из пол
зы ва
▁ע לי
▁б лаго
▁c ro
▁ce ea
▁alg um
ס ט
te tt
▁r ồi
ب ط
خر ى
idad es
▁دار یم
▁ 통
a v
▁ن فس
▁ل ن
▁شي ء
▁ז את
▁z ac
▁in forma
▁ش ب
▁min d
▁th an
از ه
▁ב ח
▁ 살
▁ه ن
▁h àng
▁m io
ál is
▁ע כשיו
▁چ ون
▁y ak
▁contin u
▁somet hing
et zt
en o
ấ p
하 지
▁یک ی
重 要
▁ch ang
n el
▁mo g
▁pa ís
▁може те
▁gru p
▁ne ces
▁같 은
▁мо га
▁g ot
ke it
▁so ci
▁ 걸
bi én
▁tod as
▁t un
야 기
需 要
▁tu do
c ur
▁f ant
h as
▁ф а
▁d na
▁e ğer
كث ير
ب ار
os ta
ور ة
▁г ла
▁v ro
▁to en
al t
▁aut re
▁tam bién
▁p es
▁m are
▁ن ظ
▁sem pre
ت ى
开 始
▁ 건
▁re la
ш о
ال ي
▁тех нологи
▁tra va
▁sa id
▁y ok
▁t emos
ک ی
▁ 신
▁от но
ú s
ק י
ma ya
▁le ben
ро ят
▁ind us
▁est án
▁e qu
▁ac onte
▁п ър
▁م ق
よ り
▁о р
c le
▁с каза
zn ál
▁ме жду
▁k ra
▁comput er
▁ 계
▁ש נ
ג ל
ד ם
▁en g
▁о сно
▁k ü
▁b ack
▁mat eri
▁ ри
▁tien e
on om
▁i z
▁م ست
▁ис поль
▁m ű
▁z m
▁t w
▁ş u
▁ва м
っ ている
w ay
▁че м
it iv
▁z ap
ả y
▁na p
ش ياء
ו נים
▁h ành
▁לה ת
▁ver b
▁lu dzi
▁داشت ه
▁הי ו
▁av em
▁m ặt
ッ ト
▁d am
▁oamen i
▁t ưởng
ب ع
ра т
k ed
ل ت
▁이 야기
ł u
is mo
▁그 런
▁a ch
d ır
▁d ru
ig er
c ji
▁bi olog
ấ u
▁w ä
se te
م و
に つ
▁m nie
in en
ва та
▁م ان
▁א מ
▁가 장
▁наи стина
▁ques tion
▁technolog ie
▁as l
▁ben im
▁съ що
▁s ü
w ia
▁du y
▁ ха
▁real iz
▁du e
▁ma y
▁p ie
▁d ingen
ler in
م ین
че ние
ł ą
▁ה נ
看 到
不 是
▁ch oses
li śmy
▁може т
ti ons
اد ة
▁ال غ
▁ne ed
í r
▁sp re
f ul
▁má y
ъ к
ق ول
▁م هم
▁m ad
t im
▁verd ade
▁nor mal
ك ي
▁боль ше
ç as
▁by ło
▁ak kor
▁z eg
▁tiế p
▁om dat
o f
▁n ar
el t
ay a
的 时
▁ 필
с ля
▁ו כ
▁któ ry
▁we b
ё м
▁این جا
▁mo eten
li che
л ся
▁ 장
▁ك ما
z ent
这 样
▁واقع ا
▁l ý
н ти
▁g ün
▁li fe
▁râ sete
▁a yn
▁o ce
▁ די
س ر
ve au
▁me ine
▁fr an
▁ב ס
▁l é
ur es
い ました
▁li ệu
▁ap enas
▁k re
ست طيع
a ge
▁en or
▁men os
▁אות ו
▁st ar
ợ p
▁ס י
▁z al
▁b lo
▁w ür
й те
ff en
▁mes mo
▁ka ż
la ş
▁arr iv
必 要
▁st ato
стве н
▁z elf
u je
k ing
is ti
▁geb ruik
▁f ü
▁ви де
▁sch o
▁publ ic
▁en s
ig h
▁أ ف
▁ви жда
▁ه یچ
▁то го
▁бы ть
▁ש זה
ле т
▁лю дей
▁be h
▁א פ
▁đ o
▁on de
▁t ijd
▁main ten
▁정 말
on ces
▁h ợp
さ ん
▁ن ی
▁ten emos
▁ا ط
he z
▁i o
▁teh át
▁to ate
▁litt le
▁sp o
こと です
▁ 박
יות ר
i or
ệ t
k er
▁din tre
▁ しか
wa ć
▁le v
▁indiv id
on en
at ed
ли сь
を 見
▁ra z
ב ת
▁об ще
те ли
ب را
▁tr ình
شت ه
ver n
り ました
▁бу де
is z
▁1 3
▁из ме
▁می ش
▁و ي
▁ze it
▁k ay
▁ent onces
▁ 何
ع ي
u ze
▁ב כל
▁pu tem
m t
▁cr é
▁ch am
ur ă
▁사람 들이
▁s ia
▁ph á
ج ل
de k
i ên
▁dis se
▁pu eden
ט ים
ע ת
x t
▁y ol
▁گ ذ
▁h ỏi
ij ke
▁أ نا
▁pre g
▁ح ول
▁we il
че н
▁wur de
ко м
ar am
▁c ou
▁asl ında
▁pr os
is h
z et
▁lu c
ئ ة
▁com men
ط ة
to tt
▁ 했
▁на ше
▁تغ ی
▁aș a
ו צ
▁d ra
ь ю
▁wirk lich
ري قة
▁p s
▁око ло
י א
ли я
▁sa g
▁ あ
▁gi an
▁е дно
و ات
▁ش روع
▁ele k
▁n in
▁대 해
ó a
▁c at
▁fol os
ست ه
▁zo als
не м
▁v ita
▁v amos
▁تن ها
▁lo t
إ ن
▁quan to
▁ 새
▁چ ند
▁ar be
▁사 용
▁п рав
▁ق رار
he it
eg y
▁ger ek
▁n ek
ъ н
▁א ל
س ل
▁이것 은
▁1 7
sch a
▁ب ح
▁es pa
га ни
▁دار ند
▁eg ész
ồ n
i bil
▁с мо
▁כ פי
▁est ar
pl ic
me ye
▁z ich
▁pute a
▁sch im
▁dies es
▁b esz
ạ c
фор ма
▁c ele
▁po int
ny i
er ek
ت ون
er de
zel f
ar ă
v in
i ón
し ています
ad ores
▁po i
m am
▁f und
el s
▁ 원
▁ein f
u ją
▁h ội
▁vo ir
í vel
▁ح تى
s ág
не то
o ir
▁re l
ş ti
▁fin an
▁i ci
▁s ar
▁og ni
b ol
▁sh ow
▁est os
ر يد
▁мо жно
ı p
▁w eg
▁ser v
▁al k
k s
же ние
▁în cep
▁sz ó
▁ci ò
▁şekil de
פ ור
▁с па
▁т ри
▁đồ ng
اد ر
ların ı
л но
r ól
r an
om o
▁ ảnh
▁שא ני
▁s co
ac ji
▁den ken
c ed
▁kin h
▁это го
▁esta va
▁e cht
▁beg in
ا ج
h am
sz a
▁m ang
б ли
g ra
▁hã y
a us
▁ ני
ж у
▁mainten ant
▁19 8
k ład
こと が
▁ش ا
▁х и
ח ה
▁ה ט
▁ayn ı
т ри
li chen
id os
es en
не р
▁m ij
▁in no
v ă
▁mul te
ur d
▁in tel
▁ar ch
▁ben e
▁el as
タ ー
▁있 었
▁và i
▁c lar
▁es a
▁nu o
▁go ed
ре з
ur t
▁мо г
ich e
▁util is
ري ق
▁cois a
اب ل
▁ي كون
ż e
em at
▁ح يث
▁k im
▁אי ך
ệ nh
iệ t
▁po tr
é st
k ol
▁w al
r ie
ab b
▁ 받
про с
щ ё
▁ng o
t os
is se
j át
▁o tt
▁b öyle
▁c él
ou w
▁n ữa
ắ n
ec ie
▁ה כ
的 是
▁d re
▁не го
▁ال وا
▁g az
d aki
▁م ي
▁мо з
▁x em
▁my ś
че ско
▁ га
х и
▁лю ди
om men
▁t ab
m ă
▁gerçek ten
一 些
▁t es
c é
▁fun cion
て も
▁ca us
▁s é
▁uns er
▁he el
▁gu er
▁дей стви
▁ч и
▁ma chen
g io
▁дру го
▁quel que
▁pro ces
▁ak ik
▁по с
▁si amo
a ção
▁ 并
j emy
▁ج مي
▁וא ני
▁ris os
ست خ
д ь
▁j ó
ö t
▁это т
▁t üm
▁th ing
▁g ir
o z
▁پ ر
▁د ور
ب ة
h men
▁мо мен
▁اف راد
▁par l
▁ה רא
▁t iem
▁ 就
ح ي
▁ne ur
▁ ла
▁s it
▁ava it
▁aut res
▁im mer
ط ف
la g
▁ 也
問 題
▁ه ل
▁ا ش
▁b ig
f í
ati ve
▁st ra
▁инте ре
em en
▁то лко
▁bu rada
▁ 현
▁ 남
ț a
▁s es
▁да н
v és
ول ا
▁d or
ны ми
▁مخت لف
m ény
۰ ۰
と 思
▁th ức
▁ 못
▁م نا
▁слу ча
▁dur ante
צ ו
ство то
▁然 后
▁しか し
▁ind ia
ont os
ح ظ
ül t
f ü
d ar
w ij
יו ן
▁ 배
▁an tes
▁no as
▁princi p
a ción
▁đ ối
▁필 요
▁cons eg
وج ه
▁th iết
▁있 을
▁ل ذا
ре н
ers te
▁l ượng
▁v om
▁hi ç
bl es
▁толко ва
▁ 성
ко в
р т
▁k ér
▁о с
ę dzie
▁re z
▁съ зда
ko z
i ro
に も
▁د اده
ש ב
▁sz em
▁ 선
ע ר
s ő
▁r ó
j ar
b el
▁ 서
at os
▁fak at
でき る
▁do u
ق ات
▁z i
ش ون
▁הא לה
▁vol ta
▁fă cut
▁지 금
▁g l
не с
▁это м
▁in di
ra it
▁ح ا
▁and ers
a is
▁tr ọng
▁sp a
▁tr as
ł e
▁diff er
▁ו י
c il
▁ع م
▁con d
▁و ن
▁ن ت
我 的
or ie
k ép
▁so bie
▁מ שהו
yor um
п рав
▁v ị
قي قة
の 人
▁con tra
▁م ص
▁an t
▁م غ
▁спо со
d és
▁ 싶
id s
▁笑 声
▁живо т
▁pr é
▁ap oi
d ir
b at
社 会
▁حال ا
ال ی
▁въ з
▁on ly
▁2 4
▁ل ه
▁ лу
▁во з
ל ת
s ten
ens ch
▁oamen ii
▁uns ere
▁г де
▁prz ed
یر ی
▁s ti
▁pier w
▁ ör
s an
ا ء
▁ar g
ú n
ac ak
▁s öyle
▁mo i
tru c
▁s wo
▁man y
▁ な
▁ ло
б ра
r ic
っ てい
ro und
▁do v
س ة
▁ü zer
▁д ви
et er
▁ha ce
об ра
▁ל ד
▁k ét
▁آ خر
▁b à
▁изпол зва
▁mów i
▁dis p
▁n eden
▁d ent
en cia
▁ 몇
tem ent
▁ل أ
▁sp un
▁pla ce
▁к ъде
▁ch iế
▁کرد یم
▁dzi ę
▁бы ли
▁т ре
▁ו ע
▁est u
▁ز ن
▁pu ò
▁gi ải
▁de p
▁ب أن
c an
▁r os
▁ 적
b ől
▁و ل
▁b ất
▁tiem po
א ה
де н
et ti
▁va i
▁of f
につ いて
▁ن ام
ё т
▁т ях
▁gi or
ро ва
▁ge h
▁про е
▁g al
▁ti ên
▁l ần
כ ות
▁מ מש
▁by ć
▁av oir
▁l lam
生 活
▁위 해
▁которы й
aca ğ
mas ı
と して
▁아 주
на ли
▁gö ster
ien do
emp lo
vel op
r it
▁twe e
▁kül ön
то м
▁la v
▁co ś
っ ています
▁ча ст
▁tal ál
▁l í
l ia
세 요
▁ث م
▁ch u
▁j etzt
▁ن گاه
▁שה ם
▁hak k
로 운
▁gi ống
▁exist ă
un ci
▁rze czy
в ят
▁у с
▁u y
i ère
▁ה ל
▁p aar
п ы
en ie
▁vo gli
▁ 변
▁b ệnh
▁ac esta
▁מ פ
ност та
들 에게
▁tak e
▁ い
▁moż na
▁ved ere
▁b ab
n é
v ing
▁خ ب
▁ga at
ま で
▁с ко
ض ر
ار ي
▁w ij
d es
▁т ы
но ва
▁vo tre
zy ć
▁е щё
▁th ro
▁m üs
â ng
▁les z
▁tr ẻ
▁se x
▁h iv
де р
ten i
▁med ic
le y
▁ön ce
▁wer k
ộ ng
u en
ien ia
▁un de
▁amer ic
▁pod em
▁ب ن
▁های ی
▁na y
▁des co
б я
▁cent r
▁ö l
▁el les
▁l or
▁ми сля
▁go od
▁раз ви
ș ti
▁di ğer
пре де
▁nun ca
▁h y
י ר
tu k
▁س ل
▁t ú
됩 니다
▁з ем
▁h ol
á nh
▁غ ير
id d
▁pu b
▁s ame
な ら
▁tem ps
▁h óa
▁ 잘
oc uk
ed er
سب ة
▁faz la
▁이 제
▁ב ר
▁ç ocuk
▁th ích
▁세 계
▁qual c
▁هم ین
▁lo ại
ض ل
w ar
▁kar ş
▁signi fica
h or
▁מ ב
▁y eni
▁th ường
▁he cho
ę k
▁не т
▁这 个
▁благо да
▁모 두
▁д ве
▁g ut
▁f ab
ص ول
▁ 반
▁c ost
vo ir
▁полу чи
▁그 들은
▁re f
ễ n
▁n ada
▁wor dt
▁siz e
▁des de
un o
▁у чи
▁매 우
ist an
▁comm un
ma y
▁v é
▁по зво
の か
▁đ ều
か った
▁ter az
▁바 로
▁ön em
▁p ek
▁방 법
â r
ш ь
▁h in
▁мо гу
ắ ng
ist as
▁после д
را ی
y w
▁раз бира
ţ a
▁bas e
ál l
ier o
▁ál l
▁fin al
m em
▁ 행
▁ 现在
▁ba ğ
▁as t
خ ذ
ве т
ler ini
▁mu cho
▁s il
▁ele c
ut a
▁at é
ation al
▁ک و
▁боле е
▁per m
▁حس نا
▁tr ung
н ски
▁这 些
▁на д
▁wiss en
▁in g
▁w ła
▁t ent
an ın
▁кото ро
▁чу в
▁ка ж
ט ה
re e
っ と
▁cz ę
▁вре мя
▁n im
tel l
ce j
v ons
mel er
▁бы ла
▁s os
t ı
▁jak o
um e
▁ú lt
u it
ol óg
ئ ي
▁س از
▁خل ال
▁ا س
▁us a
▁ا ح
▁ل و
az ioni
ف ة
▁ин форма
צ ים
at ori
th ing
ó m
▁nos s
t in
▁ 종
▁ 実
ș te
ス ト
▁ב ו
▁ ó
▁th ống
ر ق
▁ма те
▁luc ru
ut at
▁qu á
▁prim ei
▁pod r
id as
▁ב ק
▁ن م
▁wat er
▁stu di
▁has znál
▁p ag
й ки
el es
▁abs ol
▁2 1
▁се й
▁vi ol
▁כא ן
▁ну жно
▁hi ểu
▁einf ach
in ci
▁ج ز
▁всич ко
▁p ad
z g
▁kon uş
▁tört én
▁spe ci
ali śmy
도 록
vir on
ab ile
▁comp let
á bb
▁الي وم
▁an lam
n te
까 지
▁ba o
▁5 00
▁trans form
▁את ה
х у
▁د ید
▁de mo
ị ch
▁a hogy
it as
▁pra w
ве н
▁pers o
▁جه ان
▁ik i
▁وه ذا
▁st and
▁e f
▁diff ér
ver t
▁do wn
ce pt
▁hay at
▁f on
▁چ را
▁s ap
▁pu ed
▁ви д
ب ه
▁u ży
え る
▁מ מ
b st
▁tan to
▁and eren
ت اب
▁ש ב
▁ни ко
▁s ter
ッ ク
را ء
▁ח י
方 法
ę p
ла та
▁ال ما
▁qualc osa
ä h
szer ű
▁в з
ع م
▁מ חי
ن ج
ر ز
▁ש ם
в то
▁중 요
已 经
ad es
▁k er
ار ة
科 学
▁הז ו
▁обра зо
▁đi ểm
▁p an
ко но
▁начи н
▁en viron
▁ب ي
▁h ang
ни ю
▁ال كثير
▁ 찾
▁b ędzie
▁по ли
ча с
▁n ic
▁ma ch
▁v ier
▁to pl
v ed
ла га
▁fo is
▁den k
很 多
▁đ ại
▁per f
wi ą
▁de ven
ü le
▁come ç
こ の
▁שא נחנו
▁ke ine
▁c iv
▁מ כ
▁d im
ر کت
▁г ру
no ść
▁هم ان
ک ار
ח ים
in ál
▁hat te
▁t âm
▁n ú
▁сей час
▁ف ع
ë n
▁pens ar
ー ル
▁как то
л ли
▁nu e
g ie
▁ф ор
▁u gy
▁אות ם
ک س
い た
▁ でも
▁or ig
▁ات فا
▁pou vez
▁з де
▁insan lar
▁ 프
c el
▁du pă
د ن
▁зде сь
▁все ки
▁д ва
▁do es
▁s ho
cz ą
▁appla use
k ow
▁מ ו
▁све та
▁lat en
▁ 재
▁פ ע
▁res ult
▁f os
in ă
▁tor n
▁ter r
▁jo hn
▁pr end
▁z us
▁exper iment
s to
▁vie le
s unuz
▁possi amo
▁scho ol
▁g ł
▁mo et
▁mie js
pra w
▁ ül
▁о ще
▁se i
▁b ur
▁ngh ệ
し てい
на х
צ ור
נ ג
وج ود
처 럼
▁има ме
▁שי ש
▁sp us
▁ک ام
▁dent ro
é ly
▁an al
▁ace asta
▁م م
▁م ط
ه د
▁k os
▁pun to
▁ho ặc
▁d ic
ле ние
▁ 对
▁ор гани
▁бу ду
▁ 或
▁é let
z ion
▁organ is
ân ă
▁ח ד
▁ی اد
▁or d
▁amer ika
▁به تر
ж де
▁ar ra
z ar
í as
▁değ iş
scha ft
▁d ice
▁ 곳
▁של הם
▁fut uro
m ar
れ る
ensch ap
ay ı
▁в ме
хо д
r ig
▁esta ba
l ine
▁id ő
▁ak ar
ă s
ر ه
▁ 교
во й
▁б ях
▁וא ז
ק ום
te z
▁exper ien
▁ب ار
▁ве р
▁ל ראות
▁ل ذلك
▁differ ent
▁по ня
▁ح تی
ț ia
w ad
ュ ー
é ben
▁po te
▁energ ia
ни м
▁gi ả
ú ng
▁ز مین
▁den n
▁ 질
▁op en
▁ب م
▁м но
▁ 노
ar ak
▁vi ên
▁nat ure
s on
d im
▁g ọi
ığ ımız
▁alle en
▁t ương
m ed
el ő
▁сво и
▁ś wie
▁ac tiv
כ נו
ie k
こと を
▁לפ ני
ult ur
▁و ع
ung s
▁val ó
פ ים
▁em o
▁بود م
し ま
▁dol g
▁nu es
▁nh ỏ
▁fa ç
is a
工 作
▁те м
▁е ё
p ad
▁wh y
▁3 00
▁ב יותר
▁t ell
▁למ עשה
았 습니다
▁буде т
▁ا رت
▁s áng
▁é p
▁al tro
▁cre o
ch es
リ カ
ye z
▁ch ina
h os
cs ol
▁con c
▁하 고
▁alg u
وی ق
▁m ỗi
▁is ti
ö m
▁ 최
b ă
▁mil l
▁é én
▁nghĩ a
ü t
你 们
▁cứ u
ia ła
▁sel bst
▁a round
▁да же
▁تما م
▁ent en
i do
▁qu ốc
to k
▁ch ris
f o
▁ד בר
▁mic ro
c ak
▁تغی یر
▁to u
▁יוד עים
▁تش ویق
▁bo y
▁b ere
▁im mag
▁comple x
▁zwe i
▁don de
ش م
h re
▁lu dzie
▁בא מת
▁qu at
▁ap r
▁înt âm
án ak
▁wer d
▁ter ra
▁ex tre
▁b or
r zy
ти я
ни ка
l ü
▁l úc
at er
▁sah ip
▁co ur
▁dis e
▁ن و
▁s í
le m
ف ق
▁po co
▁ol d
▁שה וא
▁por t
▁ha ar
▁ל ו
▁к то
▁imag ine
א ר
но в
ie f
т я
ct or
▁при чи
em and
▁vo ici
▁f as
▁contro l
▁by ł
ד ות
▁آ ز
▁util iz
▁da y
▁th o
▁op er
▁ق ط
d ę
ま り
▁hogy an
▁съ с
▁tien en
▁ap pr
ید ا
▁p ati
قت ص
▁ни х
▁đ ưa
▁ком п
▁g dzie
▁ro dz
ک ان
▁ма лко
▁s ek
기 를
生 物
东 西
▁פ שו
▁cer to
u ur
▁ت كون
▁dan k
dü ğ
el or
▁inno v
▁afr ika
▁g ül
▁dies em
▁d ân
▁đ ất
▁fie care
▁بنا برا
▁đ ường
▁tecnolog ia
en za
ä r
w et
▁qu ả
▁ge be
▁ال ل
ک رد
▁ا فت
▁st art
▁س ه
▁полу ча
▁te ż
▁egy ik
ro p
כ ון
i ar
▁ت ون
▁ 집
3 0
▁о г
ция та
r am
▁t ara
▁müs sen
▁c ab
▁ 同
in do
的 事
▁pens e
▁در ست
▁v ẫn
▁dec ir
en ia
▁ ۲
▁لدي نا
▁o t
ś nie
▁당 신
▁świ at
▁v ard
v il
▁ми ли
▁въ в
o it
▁kü ç
▁зна ете
ци те
g raf
▁а ф
▁p ost
▁실 제
▁m ô
▁أي ضا
▁ג דול
▁us ar
as zt
ere a
▁s ort
▁ 以
▁ ру
▁в ся
ло ви
▁ お
u es
▁بب ین
▁ar m
▁b é
▁ 돌
мен но
▁저 희
▁m ely
را ح
n ic
▁le ute
is ter
i ß
гле жда
▁들 어
يا ة
ז ו
н г
▁f ond
▁ا حت
ą d
ra k
▁prob abil
ض ي
un s
k ę
li o
▁te j
ז י
▁ng uy
ци а
b are
un de
▁الم ش
▁y az
▁pa ci
▁besz él
▁al ap
▁t ác
ло то
▁k ész
▁ho àn
▁cas o
وس ط
▁ő ket
▁ 拍
▁ك ب
▁хо ро
к ва
▁t á
▁es pe
▁ein es
▁e erste
▁di zer
tr ă
▁ 학
▁a de
▁ب رد
▁ja hr
▁anc ora
▁د ول
un ta
in er
ר ט
▁d ùng
▁se us
▁ 점
ow i
في ق
ma al
▁ 특
ب ات
y ing
n ing
▁için de
▁של ו
▁т ру
的时 候
▁grand es
▁n ess
が あります
u er
▁19 7
▁پ ی
▁기 술
ص ة
ла сь
▁מ צ
▁כ ש
▁b amb
▁ver ander
▁seg u
▁lucr uri
▁ç o
▁ju ż
גי ע
▁ 世界
ver o
▁לה ם
ور ت
▁ج ا
▁ל ס
ני ים
et o
та та
▁dies en
▁بود ند
▁sol l
▁ess as
▁im m
▁cons ider
▁خ ط
▁се бе
▁dec is
▁ 和
부 터
认 为
ن ین
ان ي
▁med i
رو ز
▁pre mi
▁n ut
▁fark lı
ма та
▁m amy
c os
1 0
▁يج ب
▁ 강
▁с ти
▁우리 의
▁ ̃
و ار
v as
▁sp os
ست م
ض وع
c ri
▁ze i
▁כפי ים
▁hakk ında
▁an ti
d as
▁자 신
ופ ן
y t
is on
f l
eg e
▁بش كل
▁v ien
▁가지 고
م وع
の 中
▁박 수
▁ב כ
▁arch ite
▁الذ ين
▁f ic
▁ave z
ל תי
ване то
ä ng
ân t
c za
▁som mes
un i
ん で
▁ 음
▁v ỗ
▁کو چ
ח ר
▁me a
un que
部 分
一 种
ژ ی
▁x ảy
▁b ile
و ية
▁quel la
v ia
▁t ổ
to z
i ble
re g
▁produ c
▁mat er
国 家
出 来
▁отк ри
чи та
к ту
ie den
▁g ol
не е
m alar
▁từ ng
ij ken
▁afr ica
سب ب
に よ
▁تص فيق
▁t ych
▁ 누
▁od p
▁보 여
▁ró ż
▁appla ud
ج اد
▁f ind
да т
s al
▁ع ام
▁dat a
g al
我们 的
▁że by
▁b ây
▁무 엇
▁bes ch
te g
▁بد ون
▁bu eno
▁ca o
▁am b
▁telef on
ני ות
▁ş ti
さ い
iss ements
خ ی
ğ u
▁拍 手
▁2 000
▁do is
ọ n
á ri
um a
▁الوا قع
▁e j
ım ı
▁خواه د
ח ו
h ány
ek k
▁er g
du k
d ia
ع ر
ж ны
▁sp une
▁di ag
ك رة
▁с пе
▁co un
▁elek tr
דר ך
роят но
п ра
▁نی از
▁e ar
▁b ên
צ ר
▁ن شان
dzie j
▁מחי אות
▁st an
с по
▁e b
d em
▁kr ij
多 く
י נו
▁о дно
▁g én
▁t ár
▁po k
▁se ule
▁ 的
פ ות
▁enc ore
ê s
m ier
z és
▁няко и
▁צרי כים
▁об е
▁tap s
▁resp ons
▁inform ation
▁g h
▁ 달
▁int ér
▁ال ه
▁ре а
▁ 약
▁ș ti
▁d inge
же н
▁bel ang
▁v iz
et to
▁am bi
▁g ing
ar ia
вы е
リ ー
▁ф о
ás a
▁do po
ti ge
ta g
▁ما ه
az a
▁de gli
▁аплодисмен ты
▁زی ادی
ac ter
▁r est
▁thro ugh
▁ 될
▁ja hren
▁cs inál
ro l
▁о преде
نا ت
▁ме н
▁ص د
▁ده د
▁alk ış
▁благода ря
▁רו צה
▁zro bi
▁baz ı
▁ain da
▁his to
ال ت
▁f ik
▁پ ای
▁те ле
▁m ó
פי לו
▁med ia
ór ia
▁دار م
▁ 볼
▁е то
▁szer et
▁difer entes
п ри
il s
▁عن وان
▁tuy ệt
▁nghiệ m
ה יה
▁أ حد
▁و س
▁k is
▁سو ف
▁b iệt
тел но
▁کرد ند
▁о со
▁r ép
▁b io
m at
b ia
ди м
▁это й
▁încep ut
▁er re
▁19 6
è res
▁ng he
▁صح بت
▁al ler
де ли
▁chuy ển
▁ד ברים
▁sa gen
ec ek
▁خ ا
c esso
▁c ầu
▁wie der
▁st re
▁sul la
an ak
▁ 에
▁l ung
▁ל כ
▁in ves
iv o
не й
ti ğ
▁po tre
▁biz im
▁ 차
▁ös sze
▁أ م
ú t
▁ب ها
و ف
▁he p
s che
こ で
▁tel jes
▁s ym
▁연 구
ט ר
▁fe j
れ た
▁person a
▁k el
מ וד
▁k op
▁b ana
▁só lo
▁il k
▁at ra
▁بنابرا ین
خ وا
▁wie le
ти те
▁con st
ни к
ń st
ur en
▁پ یدا
▁ا ص
▁о дна
▁у же
▁ 했습니다
ú p
▁ 데
▁ج مع
▁z ak
▁彼 ら
▁küç ük
ẩ n
▁ка зва
▁g lau
▁person nes
ut i
ar io
▁ק ט
sz ág
▁ 她
ừ ng
▁th ou
▁p ia
ви те
ס ת
z ut
in te
▁tro p
коно ми
▁de z
지 는
▁kho ảng
▁es cu
n al
▁per cent
▁ע ד
▁van nak
▁m unk
ص ف
▁nos sa
re m
▁te ş
▁tr uy
▁kle ine
ю ще
▁شو ند
▁kh u
▁applaud issements
▁apla uze
▁fol y
g lich
▁t it
▁di a
▁s et
▁de fin
ف ع
ب ود
imi ento
▁آ یا
▁зна чи
▁이 렇게
▁pe w
▁ins p
▁일 어
▁нап ри
▁des en
▁כ מ
▁energ ie
ığ ını
▁cer c
▁напри мер
▁is te
▁pe que
it es
テ ィ
s k
发 现
▁ph ụ
ра та
▁спосо б
▁s amen
▁er k
▁הא ם
▁об и
ار ج
ки те
▁ان سان
▁v ac
▁v el
▁ا یم
ст ру
▁ви дите
▁hist oria
▁h im
▁ف هم
▁de po
h an
▁за да
存 在
▁dur um
▁ 심
د ی
د ر
▁시 간
▁ре ше
▁us e
ou d
ell es
t ü
き ました
▁has ta
▁tr ị
▁t egen
▁ann ées
▁س ب
▁ken di
▁ha ppen
▁מ ר
▁ni ż
が ある
▁hab ía
г ла
c te
▁vo y
▁at unci
змо ж
▁b la
▁مغ ز
▁ma jd
ẳ ng
v ie
▁ت حت
ar y
gen d
▁trava il
i f
▁الأ مر
ens e
▁er am
▁만들 어
▁мога т
ול ה
▁w z
▁me jor
▁ה סי
▁до ри
▁olduğ u
▁к ри
▁h en
▁t art
г ля
c as
▁el ső
▁le urs
ö ld
▁y an
▁کار ی
▁m ã
▁ 还
ı lar
▁j ama
ری ک
▁c ere
▁ 함
▁z osta
▁lu ego
▁ت بد
▁ה יתה
o to
▁الم ج
▁cap ac
ще ству
es to
▁то чно
▁ко лко
z ő
▁b ad
▁sag te
▁a ir
ん です
en en
▁sp r
▁gra zie
▁chiế c
▁be ing
▁thu ật
▁la at
▁m í
▁ch ild
▁말 이죠
▁ne vo
▁אח ת
▁ ！
ث ر
▁kö vet
▁bun lar
▁ 설
▁а ме
▁أ خرى
▁ 국
ţ ia
ü c
l ő
▁ma yor
ti va
▁m ine
▁s ans
▁r és
▁đ úng
▁ter min
▁во зможно
▁il yen
▁applaus i
▁여러분 이
ז ור
ent en
▁li ên
▁ch ange
▁z it
▁tri ển
ing u
▁сдела ть
▁о дин
▁l ig
▁ 얼
▁jo b
▁ 환
i amo
cu p
所 有
не те
ğ ı
ite it
▁مش کل
▁س ی
▁s le
들 과
发 生
▁t ür
▁lum ea
▁gül üş
▁ös sz
▁h ast
▁ف عل
▁ب یم
▁ch ủ
נ ק
ん だ
▁د ن
▁ре ши
▁bü t
▁по ч
▁ped ig
▁el los
но то
ما یش
er on
b res
▁미 국
u chen
▁ve ya
▁ac olo
▁ex iste
▁ 따
から です
▁t on
▁م ه
▁incre di
ни ть
er v
س ه
▁comp ort
iti es
▁ח יי
▁ilg ili
▁g it
▁ex am
▁y ön
▁m ús
▁né hány
ра я
▁ ظ
▁ب إ
▁quy ết
▁dzie ci
dz iał
▁ ár
▁m ess
▁ch c
un den
▁کش ور
▁cu al
▁car b
فت ه
же ния
to t
▁gro ot
▁fa is
▁ان گ
▁con ta
▁v ic
▁dec ât
▁ro bi
▁baş ka
▁של א
те н
▁инте р
女 性
חי ים
▁ح ل
▁at t
▁l ực
ко то
i ra
▁ent w
▁con vers
▁doğ ru
á val
em a
▁v ár
▁kon tro
si ą
▁tin ha
▁pro cess
д ня
c at
▁آ ب
▁ב פ
▁ur mă
▁tara f
▁ch ưa
▁th ree
▁gör ün
▁don t
▁со б
▁къде то
▁n ữ
▁gre at
но сти
v ăr
bo ok
an to
▁öğ ren
▁h os
ter s
▁э та
▁re vol
▁cer ca
ion al
a f
▁şey ler
었 죠
▁b ay
▁شا ید
ё н
▁الو قت
▁gen et
▁رو ش
▁פשו ט
▁in vent
▁faç on
▁b ảo
cion al
▁ام روز
j on
ف ل
▁p el
▁ک سی
▁ج ن
▁الأ م
▁pers p
am men
▁h át
▁es tr
ز ن
▁у ве
▁ف إن
▁ع د
▁جد ید
▁j ap
▁그 는
▁dav vero
l in
▁kom p
לו ג
▁بد أ
▁ 全
▁p elo
▁di vent
▁ah ol
▁الع مل
▁ü ç
ב ד
▁spos ób
▁p él
▁ch ất
▁moż emy
▁nost ro
ре д
ie ve
at ing
ל ט
gel ijk
▁des s
▁og gi
ch ien
▁الم ن
▁ц я
▁mos trar
le v
ich te
▁na praw
▁vis to
end ant
▁t ör
▁cons um
▁ط ول
ion es
יו ם
▁oldu k
▁ 파
нно й
▁plan et
▁de f
ıyor uz
ás ok
▁گ و
▁man era
▁ 큰
▁th ank
▁bil iyor
до ва
▁w en
▁הע ולם
▁inst it
án k
▁dam it
ow y
▁wür de
én ek
▁ком па
a ire
▁так же
▁sü re
▁s itu
ми те
گ ری
le icht
▁fa vor
▁ה ן
▁gu ard
▁ма л
й н
д ъл
re a
▁الب ي
▁ ơn
▁ח לק
▁pon ie
▁nos so
▁kö sz
خ اص
א ו
ско лько
▁h all
▁par ti
▁k m
▁a ki
▁ 게
r on
이 나
▁tra d
▁می لی
▁wię cej
▁pro d
ort un
ầ m
l ere
a an
▁새 로운
▁פ י
▁vro uw
▁s ang
▁ さ
▁s ür
▁ad am
▁önem li
▁er ano
▁cl im
ô m
▁tout es
ве те
▁מ ג
▁do k
▁ми лли
ti vo
ar on
▁tim es
▁p le
▁ex act
▁bu ild
ä l
▁t ão
▁do ing
▁b ár
ec to
▁все го
olo gy
ativ a
▁fac em
▁al iment
▁gem a
b io
理 解
▁жиз ни
▁gem e
▁câ te
▁ap ren
如 何
ק ט
▁we et
▁m im
ic ie
▁gra cias
▁ag ain
▁ab y
▁ре зу
▁dou ă
▁b ot
▁ع لا
▁ 역
▁t end
▁est ado
▁j este
▁왜 냐
▁و قد
▁mis mo
▁indus tr
▁i ma
▁lu b
▁ ръ
רו ן
▁있 었습니다
▁c y
▁то ч
ча т
到 了
▁ح ض
▁и гра
מ צא
л ни
▁man ier
▁di ễn
▁ave a
لا ث
▁ت د
▁napraw dę
さ せ
▁ب أ
▁s tel
u c
▁potr ze
▁lav oro
צ ת
大 的
▁ponie waż
▁הי ום
ー ト
▁g le
▁algun s
وج د
غ ير
iz e
▁depo is
▁na wet
▁m ort
▁gülüş meler
é z
▁ú n
▁m ód
ラ ン
▁או מר
▁re lig
▁ك م
▁x e
▁simpl es
▁p eg
▁ה ול
▁nú mer
ti jd
▁viel leicht
▁bes o
▁по л
▁k it
ра з
r at
g ht
ü ber
o le
▁иска м
▁h ui
ק ו
▁ב ין
▁wie l
▁con te
▁ве че
▁jama is
in as
▁o x
ợ i
ik us
▁büt ün
▁ ·
▁لل ت
▁d olog
ش د
它 们
▁r id
▁fac t
un to
에 요
▁و في
那 些
▁де ца
нер ги
▁pay s
j t
c olo
▁st ad
▁miss chien
▁cri an
▁ た
▁自 分
▁wszyst ko
щ у
▁ש נים
▁h ele
um uz
▁ra c
▁j á
▁foto graf
▁dal la
w are
es ti
as că
▁d ạ
▁af ter
▁imp or
▁ ul
지 를
▁다 시
▁مم کن
▁at ât
к ъ
l al
▁jus te
▁gi úp
▁그 녀
▁kh ó
▁4 00
▁mat emat
▁ter ug
▁pe qu
z ioni
▁tiế n
▁c li
▁있 고
i ve
▁apr ès
j en
▁nos o
▁materi al
▁ 从
qu oi
▁ 0
き な
▁baş lad
ле кт
g g
g ul
▁bir i
uz ione
▁הי יתי
▁ ذه
▁s w
▁ro ku
▁k ế
▁her aus
ậ u
使 用
▁z as
▁di fí
孩 子
▁t ur
▁h emos
г на
tr ic
om at
▁ch em
▁más ik
را ئ
つ の
▁g ab
▁по каза
▁nuest ra
п ла
el ijke
▁j eden
ß en
▁و ق
än der
▁أ س
▁az on
hat ó
▁któ ra
▁ 让
d os
▁それ は
▁س پ
▁si do
▁ という
ле ния
é se
▁p ână
▁mel hor
▁l ado
▁исполь зо
▁ro l
ма ти
的 に
▁giá o
▁ 느
но ви
▁ה כל
я с
해 야
▁дру г
kel ijk
▁лу ч
▁а р
▁ ăn
н к
al is
و ط
ס ים
▁ر ب
▁karş ı
▁s ł
▁по э
▁cor re
ف ك
▁ב ט
▁دو ست
ین د
▁er o
▁dis c
ال ب
за д
ứ a
的 一
▁l iter
▁alle maal
▁e ğ
▁noso tros
地 球
でき ます
▁gro te
▁ا خت
▁ע בור
▁o st
as ında
▁kap csol
▁c ố
ve is
▁ن ق
▁in de
▁دا خل
▁la chen
▁ho je
▁가 능
ג ע
▁ten er
م ون
ıyor um
の で
▁al an
ра бо
ра ди
1 9
▁دار ه
▁toda y
번 째
▁m ade
▁l leg
ле й
w ol
▁م خ
▁es col
▁спа си
▁tak ie
▁ess es
og o
ف ه
i ştir
▁g ần
▁我 々
jo urd
g at
▁چ طور
▁o tra
▁d ía
ро вать
보 다
▁б я
▁waar om
▁pour quoi
us z
▁t ant
▁au jourd
в ре
▁f unk
▁ت أ
▁بال ا
▁об ъ
▁t ư
▁함 께
▁di z
ą c
ici le
g s
▁ja hre
k od
▁pens o
▁c ine
▁s amo
▁ 속
گ ونه
▁nuest ro
も のです
▁întâm pl
▁있 다는
▁م را
au en
▁în cer
▁nost ra
zen ia
▁ב ב
▁reg ar
ти в
b es
▁мо и
▁in an
▁h igh
▁gö z
فا وت
▁natur al
с ы
le ş
▁ 후
▁ ци
け る
ני ין
▁أ ش
▁ge ht
ש מ
▁ا ب
▁exem pl
▁до ка
▁ng ay
▁do b
▁yar at
▁al tri
▁و من
r ijk
و ص
▁quel ques
و ة
▁в то
בי ן
▁м я
▁tud om
▁mar s
▁ 요
▁ 来
صب ح
▁tal k
▁str at
ל דים
▁ד רך
▁vor b
▁sp er
▁ש ת
▁po ten
ard s
▁та ко
▁го ля
▁няко лко
▁הא ח
▁ин ди
▁p ela
m u
▁quel le
te a
▁се го
con o
▁15 0
▁pu is
▁ח בר
s ek
▁א ולי
ار ت
▁c ie
地 方
こと は
▁се бя
▁же н
▁le ar
▁ci ent
▁ 됩니다
▁ど う
▁sy st
▁ma cht
ع ية
▁mer c
▁ت خ
▁اط لا
▁bi raz
不 同
y al
an os
ходи т
人 の
▁کم ک
▁wię k
▁ …
ва л
ut er
it ät
▁و م
▁де те
it ter
ł ec
bil i
▁сего дня
▁cres c
取 り
▁b iến
ắ p
▁enf ants
v am
▁a ğ
니 까
を 持
▁사람 들은
▁n ich
ar en
▁h ết
▁א לה
▁t ình
▁к ли
▁î l
▁n ell
▁그 렇
▁ما ذا
▁بال ن
▁доб ре
▁b este
▁w in
▁so ort
ن ع
▁הא י
▁vo u
▁inc lus
f ol
▁nie u
k ów
▁מ ד
▁zus ammen
▁z ul
▁b öl
▁ 처
▁بال ت
▁ 一个
▁ت ول
▁k eres
ot her
▁ב צ
▁đ ơn
▁ph òng
ч ва
f ico
▁ب چه
▁י די
▁phá p
▁o to
▁gel d
▁f ig
ر ن
▁مو ضوع
▁ش ه
▁מ די
n olo
ăr ă
ad y
▁ 라고
b ody
▁о ти
▁g ând
ư ới
▁zeg gen
▁real idad
▁fam ili
▁те пе
▁nom bre
▁he ute
▁ب ص
▁אי ן
▁ec co
▁t êm
os i
其 他
▁정 도
▁ho zz
ър жа
▁тепе рь
▁про ме
▁qu est
▁t ập
▁t ượng
▁câ t
▁ 간
ز ي
▁ma c
一 样
▁私 の
▁ph ân
▁ngh iên
▁사 진
▁r ów
を 作
▁mo tiv
▁kinder en
▁cu ối
▁ 놀
▁ce i
▁đi ện
▁encon trar
b ac
ت ان
de ki
▁on u
▁ 회
ו צא
▁esto u
b ier
d r
▁versch il
▁по доб
▁in izi
▁ex c
▁bis og
▁w ich
▁e de
▁ 직
ś wi
at es
이 고
▁ط ور
▁по че
ész et
▁ل ما
▁an no
k ént
▁j es
قد ر
גל ל
▁к ни
ot os
om e
вы х
u da
▁ка же
ول ة
▁t urn
b ui
닙 니다
▁s f
▁ho y
▁п ът
な る
▁ra pid
▁enor me
ב ודה
▁כ ן
▁l ời
t ák
▁프 로
ка р
▁이 건
▁su as
▁e du
l im
▁conseg u
gy el
と は
не ния
з ват
▁эти х
om a
for e
▁ar k
ن ة
äch ter
o are
▁الم د
▁gi ữa
а р
▁دان ش
ente mente
▁сре д
▁aç ık
gen de
k ich
▁в зе
▁don ne
ב וד
ли за
가 지
▁prof ess
▁inv est
ме т
▁myś l
▁الأ شياء
▁ко ли
▁truy ền
▁c et
g em
ar ı
▁ת ודה
▁cal led
▁tu ổi
▁ger i
▁bil g
▁そ う
▁ن فر
▁b ình
▁ast fel
ướ ng
▁spo łec
че ство
ill es
ba ar
▁kez d
▁کن ه
▁де нь
▁v os
▁nevo ie
▁mer ci
▁ ше
▁ف را
▁interess ante
▁p en
ك ا
▁ch im
را ف
▁ 목
▁to p
▁st wor
ئ ل
プ ロ
▁п ъ
▁tr anh
▁clar o
▁xu ất
▁des pu
us sen
▁ک ل
▁f all
▁وه و
▁و ك
▁gel ächter
▁cam p
נ ד
▁st im
ál y
ш у
▁그것 은
▁s ı
▁дру га
ذ ي
an den
▁при мер
w in
▁p az
▁is e
▁об ла
▁на зад
z za
▁con tr
▁tin h
طف ال
om et
▁qu iero
▁guer ra
▁am ig
ii le
▁아 닙니다
▁ل كم
▁است خ
▁do br
ę ż
ęd zy
il o
▁zur ück
▁r iv
ens cha
▁e a
美 国
▁일 이
▁st oria
▁私たち は
н да
н д
▁ob rig
▁ا ي
▁pol ít
▁inter n
ani u
▁зна ем
▁beso in
▁dol go
▁по я
ț in
▁ch iến
▁bu g
ặ p
▁n ici
▁difí cil
▁difer ente
▁ac qu
▁per g
▁face book
ز د
▁va is
ק ות
▁רו אים
▁pro ie
▁l ast
▁fa ci
▁er ő
▁el m
▁zelf s
▁ح ق
▁val ami
מ ד
ئ ية
il iz
▁pou vons
▁despu és
▁ва жно
▁غ یر
▁sol u
▁partic ular
▁س أ
ние м
▁а вто
b as
掌 声
▁kho a
ít ás
▁un ul
▁sa be
▁nieu we
be eld
▁א ך
▁szó val
at h
▁г ле
ne y
▁j ego
▁ 확
me z
▁شد ن
▁чове к
eg n
▁دن یا
j u
şt ır
▁can cer
▁ 为
▁ つ
ử a
▁w eten
▁a cho
ג ר
▁y ük
▁ne cess
зна ча
ü tt
そ の
▁per io
ص ر
起 来
▁pro cent
▁po wer
▁proj ekt
▁tek nolo
▁cha que
ف هم
ה י
▁ca ł
▁ش هر
ci do
年 前
▁ç ek
▁p us
ين ة
ст ре
▁поэ тому
ığ ım
▁تج رب
▁su pp
▁nat uur
▁ 존
h ões
▁с вър
نا مه
م نا
▁да ва
до в
v are
▁поли ти
▁pare ce
▁دی گری
▁le ad
▁ö zel
▁signi fic
▁on lar
▁kh ả
ą da
▁sen za
▁te il
▁sz cz
▁su y
▁из ве
ци ю
пи са
▁ب ط
tó l
as se
▁زمان ی
▁אות ה
▁ver w
▁je j
k an
▁s ản
▁ 디
au f
▁id ent
را ه
к ла
리 를
▁gi à
قتص اد
n is
▁ב ני
▁v in
▁tr ze
غ ي
▁f en
▁ог ром
ẩ m
ומ ר
ar ch
▁세 상
▁кото рая
▁خ ان
cht s
▁про ст
▁đ ặt
▁av an
ור י
пе р
n or
だ と
▁m ig
▁kösz ön
ş it
sz ak
た い
ال ة
▁ان ه
▁histo ire
▁ ша
▁g ek
ب ح
a h
▁има т
▁w et
▁su d
▁m ỹ
k es
▁و كان
at ok
an ne
始 め
▁أ ت
▁l ond
▁חוש ב
ز م
▁wid z
ر ى
tr ás
▁pop ul
▁d ép
▁at mos
با ط
▁mol ti
▁ci ud
▁ ス
io us
▁때문 입니다
▁mus s
га ва
al en
í cul
▁поче му
▁ 好
▁م رة
ik kel
でしょう か
ekk ür
▁we iter
لی ل
▁euro pa
▁da g
▁le b
▁而 且
▁ר א
▁qu ero
те р
▁teh nolog
▁d ó
عد اد
diğ im
▁w sz
▁con ne
▁ 화
▁рас ска
מ צ
▁k ỳ
تر نت
n ess
▁يمكن نا
▁teş ekkür
▁part ici
▁د ون
▁dei x
▁начи на
▁prof es
ي ش
v amo
▁st ati
▁proj ect
意 味
▁ ít
o v
▁sz ük
р та
▁glo b
ри а
z um
ber o
▁د ل
▁sci ence
▁par ler
▁ 掌声
▁n en
▁fant ast
▁прои с
▁не кото
▁m igli
▁실제 로
▁پ ا
▁p ul
و ى
ва те
v ál
ed ere
▁лю бо
▁lo ài
▁ה כי
ie t
for d
▁do c
▁o tro
▁l ấy
ال ات
li gen
▁z ag
не т
▁있 죠
▁wa hr
▁아니 라
да та
皆 さん
▁א פילו
▁am az
ز ه
▁pos so
▁ne i
ل ق
ذ ار
ва я
▁th ị
▁gy erek
▁ 언
▁z ach
▁o wn
ط ح
▁감 사
is tr
▁jo ur
▁cop ii
▁המ י
ро д
▁fund ament
í tó
zen ie
▁ש ח
▁on line
▁espe cial
▁az ok
یش ه
ui te
ich ten
▁нап рав
▁traba jo
▁ 都
ستخ دم
면 서
▁é tu
▁vogli o
ن ية
na j
리 는
▁رب ما
▁ 완
▁س یست
▁ا یده
ول و
as ă
▁ф у
ду ма
ic ally
▁و ح
ich en
▁не ве
▁be y
פ ו
▁ש ק
▁ב גלל
▁b ang
▁much as
r er
esz cze
政 府
▁за ме
ع رف
ס ף
ä hr
y l
▁би о
▁c ru
▁私 が
▁o v
▁h on
▁да ли
вы й
▁про гра
▁هم چ
▁ ある
ul as
ro k
▁se a
▁a do
な のです
▁الم ست
▁א מר
▁ма ши
▁con cent
▁3 5
си те
▁مج موع
▁gan z
▁b ast
▁у ви
▁могу т
▁ce a
و ام
거 나
▁사 회
▁ps ych
▁ コ
▁исто ри
▁aconte ce
▁כ שה
▁terr or
▁sho uld
▁ 네
▁خ اص
▁اول ین
d um
て く
▁h ik
к та
ti f
▁ش ک
▁аплодисмен ти
▁ti ền
כנו לוג
時 間
▁спаси бо
▁с вя
y se
▁p endant
ч на
▁ש ני
▁c ali
▁anc ak
▁во с
▁wy k
ób ál
▁wła śnie
at ura
▁إن ها
▁آن چه
▁ש נה
▁з ву
▁жен щи
▁mill ones
▁lehet ő
l ak
▁ka h
äch lich
▁proble mas
▁هست یم
ıyor lar
ため に
▁în că
▁individ u
▁вър ху
▁su o
▁pél d
▁nas ze
لي ل
▁düny a
▁ 줄
u b
el n
通 过
▁ال قي
▁ar te
▁dollar s
ש ית
vo or
です が
ıy la
▁em pres
ıs ı
is me
▁ب ده
▁ye ar
▁s are
wią z
▁만 약
▁ج ای
▁ö t
▁l er
▁са мы
▁tra in
▁m ü
▁kom en
פ שר
な り
▁for t
▁ess ay
ő t
▁이것 이
▁de tto
改 变
▁זה ו
▁sch w
▁war um
▁e der
am es
▁о знача
▁wil len
▁l ek
▁ 너
▁ ю
▁at tra
erst and
▁ش ك
ния т
▁我 想
ס ה
▁vagy ok
ا ق
tr es
▁иде я
▁ngo ài
б лю
á j
▁변 화
▁جمي ع
▁é le
▁qual quer
▁ 第
▁الم ح
▁k ab
um esc
am er
▁أ ح
▁d ort
▁st ess
▁sch on
▁î i
c ra
い る
▁tut te
▁id ée
خ اب
ro w
▁som os
▁hiệ u
▁exem ple
k om
▁на ша
▁g eg
to w
t ul
▁왜냐 하면
▁z ar
▁c so
g ál
▁ש ו
▁col oc
нт ро
zelf de
d ad
ー ド
▁ק י
▁v ô
▁trabal ho
▁fos se
кти в
▁vir us
▁اطلا عات
p la
▁ده ند
▁اون ها
▁p ă
▁h ard
á ból
が と
▁מש ת
▁sp ie
▁g ele
▁did n
▁ 크
و ض
에서 는
▁дол жны
▁y êu
ấ m
ч ь
с ло
▁само м
▁î mi
も し
▁or szág
▁jed nak
▁ins tr
ess ég
告 诉
▁x ã
ع مل
ut en
▁א לי
▁п ло
▁mon di
▁수 도
е н
そ う
▁pou co
▁b ức
▁توان یم
▁и та
▁все х
▁a gy
но е
ul es
iệ u
▁st arte
▁r it
▁c all
▁gen au
▁dó lar
▁дума ю
▁ي ك
▁ג י
og raf
▁أ عتقد
▁ph ương
و ك
な た
▁n ivel
i am
こ ろ
▁с ка
ر ج
▁tú l
▁در صد
▁ج ام
an de
▁کوچ ک
م د
能 够
▁בא ופן
▁к лет
▁inf lu
▁dim ens
▁m ente
پ ی
▁дока то
▁algum as
▁d ere
▁c ộng
áci ó
▁مث ال
▁я вля
▁pl at
▁av ere
ạ nh
k iem
ほ ど
▁ph i
▁ele ment
▁zou den
צ ות
n t
▁mús ica
▁좋 은
▁слу чи
▁azt án
▁ âm
▁ن ج
пи та
で ある
▁sab emos
▁ис сле
▁аме рика
u ch
▁vir tu
▁don n
▁ای جاد
▁ho ạt
▁ל ל
▁mö chte
▁ 生
▁이 해
▁n ast
u f
▁ע וד
ن ه
m ány
▁момен т
▁éta ient
▁s ape
▁extra ord
elle ment
▁من ت
▁علي ه
ñ a
g in
ي را
▁мно ги
▁hist ória
▁gen e
▁con os
لا ف
▁它 们
▁и д
رك ة
▁이 유
▁שא תם
였 습니다
▁ugy an
▁no dig
▁qual che
imiz i
▁ع ل
▁ا عت
▁מי לי
x im
▁ح رف
▁gior no
▁al te
▁ج ایی
▁تص و
▁pro to
ci ą
는 지
▁حا ضر
▁إن ه
▁a ten
▁ко не
ز ی
то ва
▁ve ux
▁cre do
▁систе ма
▁t ats
og ra
▁ch cia
ö ß
n ă
▁پ رو
▁y et
▁ז מן
▁tas ar
▁propr io
▁t v
▁حد ود
▁fo und
ра ме
▁ме ди
▁sun tem
▁sch a
v iv
ど う
▁أ خ
▁ча сти
▁m ất
ك ة
с на
▁ch eg
ли те
ie z
ד ת
▁то гава
▁b ỏ
べ き
en den
▁إ لي
▁dol ar
▁di jo
▁ay r
▁بخ ش
n ten
▁باز ی
▁é t
▁zn ac
▁za w
▁t ên
▁probl ème
方 式
▁aut or
ın daki
ativ o
ло жи
tri bu
▁id enti
ó ng
▁오 늘
▁or i
▁complet amente
ن ى
חי ל
▁ 열
j am
▁st ate
▁ne uro
bl ico
▁све т
▁де ле
▁b lij
ول وج
▁j eszcze
▁אח רי
▁r ég
▁ma ją
y di
▁с вят
▁tre i
ци она
▁ל מה
▁k to
▁ba h
▁인 간
▁ne ver
il es
▁د قی
▁re ci
▁poss ono
í tott
j os
▁wszyst kie
▁tr ả
со в
е ди
▁중요 한
on ie
▁없 습니다
og en
ти е
▁out ro
▁el la
ur as
ら の
▁пробле м
▁mo ins
▁lum e
ţ in
▁ق ب
▁каж ды
ע ל
▁اتفا ق
▁sto p
▁külön b
▁ein ige
▁w am
▁mo di
▁b ài
▁or ta
ár io
al th
▁s enti
▁cir ca
▁خ وش
▁ди за
c em
al ı
겠 습니다
▁다 음
希 望
▁не об
▁get ir
ed s
▁thou ght
▁ マ
מו נה
is p
i de
▁бя ха
▁ar ti
▁đ áng
▁th ân
▁col le
ون ي
لا ق
▁يمكن ك
á vel
▁în c
▁اح ساس
▁опи т
▁l ine
▁el len
▁dem ok
▁d ış
▁ade văr
in ess
▁an other
ien ie
▁알 고
▁r at
й на
▁אח ר
▁üzer inde
▁tou jo
▁o so
▁es emp
▁toujo urs
▁pr és
▁م سا
▁th ú
ve el
em ble
▁у ни
er ca
を 使
▁vre au
▁ih ti
▁be fore
ó p
▁из глежда
▁s ức
▁it s
▁ 比
▁при ме
▁sp ec
事 实
され た
▁боль ши
▁p ú
▁anim al
mes i
▁tem u
▁qu ant
▁on ge
设 计
▁ge f
▁t at
▁país es
▁lat er
▁ده یم
▁виде о
▁soci ale
▁j ou
▁had den
▁ве ли
▁ב די
▁t ény
ed a
▁t wor
▁ש כ
▁д ъл
ي ء
▁zo bac
▁w it
▁vien e
▁де н
▁st ory
▁par k
▁insp ir
ц ы
e x
▁않 습니다
▁tal vez
ra g
▁دا ستان
▁х ра
▁la vor
▁ش کل
гра фи
では ありません
起 こ
▁k ể
ва щи
▁хо чу
▁un ui
▁می د
▁ع ا
▁e duc
ژ ه
▁일 을
▁אות י
▁mu j
▁f ără
▁egy ütt
▁م كان
▁בע ולם
▁во прос
▁dzię ku
ж на
zt at
▁أن ها
ı cı
يد ا
▁imag in
▁ й
▁vagy unk
▁ 운
ו ני
▁đ ời
▁me an
▁belang rijk
▁app ro
re l
▁па р
▁ح قا
▁te am
▁ch í
▁al tern
▁ق ابل
▁mul ti
▁ک می
▁lu z
▁e h
á o
▁st ill
م ج
un do
▁ال ز
g le
▁исто рия
▁dr ie
▁وال تي
▁ 올
▁خوا هم
▁fe el
▁comp r
▁esto y
al om
z ni
ی ی
▁edu ca
▁mos tr
▁ 표
к ре
▁и менно
ان ات
ra do
▁r ess
تر ی
▁ф е
▁поч ти
▁sa va
▁i̇ n
▁al re
hal ten
▁lu ôn
do b
这 种
מ רי
к с
▁проце с
▁ми сли
▁pra c
▁e ens
▁سیست م
▁мя сто
ین ه
▁z ij
▁starte d
▁pat r
▁из у
ás i
h len
な かった
▁من ظ
▁א לו
▁че рез
▁по нима
▁köszön öm
اه د
▁su fici
▁esemp io
▁diff icile
▁d all
▁у ча
▁an o
▁д нес
▁mi ért
▁ا خ
▁tan ul
▁do ch
▁الأ ول
▁vez es
▁v it
▁tal án
▁vol na
▁m ẹ
▁بود ه
▁ו לה
▁живо та
▁kad ın
▁bet ter
д ра
ik an
中 的
▁tem per
▁seule ment
▁oce an
ب ان
▁insan ların
▁ст ру
▁ser á
▁követ kez
▁ 로
▁ha pp
▁gi ve
▁szük ség
▁nie z
▁des ig
▁sta at
▁jes tem
▁cal cul
▁tats ächlich
▁person ne
▁ح قی
▁بگ یر
▁peu vent
▁yaş am
▁much os
п рави
▁przy kład
▁م ى
▁וה וא
▁dé c
▁4 5
▁i edere
ל ח
é ge
ig t
▁な ぜ
▁s tellen
к ру
▁sz ab
▁f ato
تر ین
k in
▁좋 아
▁p este
▁obj et
▁mű kö
▁حض ار
▁h ers
le i
▁nel le
▁de ter
人 的
▁ 피
id ent
▁ol mad
▁こ う
是 一个
▁quy ền
diğ i
an ă
▁כא שר
▁świe cie
▁pote te
▁ 친
▁fo ur
ر ح
▁sa ben
▁ră sp
▁mul her
ami ento
▁mé d
▁ 新
▁ 초
pos ta
▁מ ט
▁ح ين
▁של כם
▁tr ês
▁by ła
▁ 포
▁v r
▁mö glich
▁ 손
▁z at
ون ی
ü ne
▁und erstand
▁j unt
▁el ég
▁noas tre
▁nghiệ p
во лю
あり がと
▁na uk
▁ho u
צ ב
▁작 은
▁mo le
v at
ありがと う
▁plan eta
▁min h
▁چ گونه
▁be de
к спе
om p
le p
▁ме ста
▁c ity
▁nin cs
▁ko bie
▁ 힘
え ば
ג ים
че ния
▁min dig
▁آم وز
▁э ту
▁ 本
k ą
▁m ight
▁comp rend
▁on a
ע יון
▁ar ri
ща та
í m
▁ن بود
▁mil iar
▁f ine
▁c itt
ér ie
wo on
▁باش ه
▁pi ens
▁a ver
ậ m
ני ה
대 로
▁נ ת
▁t é
▁me io
نا ء
لا ء
人 们
▁قد رت
on den
▁ 드
ق ب
т ни
h ir
▁때문 에
▁st ata
▁spe cial
▁f ur
گر ان
ци ал
не ние
d ur
▁k es
en z
▁ма р
▁szeret n
▁su p
▁son u
رو ه
▁e ig
▁ه د
▁د ع
▁th ử
▁bil d
م س
די ין
▁ي ح
▁vede a
▁van da
▁out ra
▁h am
b s
▁w ent
▁ti êu
▁s ách
▁mạ nh
▁gen o
▁жиз нь
▁on un
f é
▁t ér
▁un i
▁그 렇게
▁sz áz
▁so ft
任 何
だ った
▁pró x
▁ha ber
▁мо я
▁di ye
or g
b ur
▁أن نا
▁în s
▁mo der
об ще
клю чи
▁tr ái
vo us
你 的
▁не й
デ ィ
▁그 들이
▁ten ho
▁rag az
▁verd ad
完 全
▁من ط
▁الإ ن
▁real tà
▁ 맞
ро й
▁ст у
▁val am
ọ c
та т
al d
▁жи ве
▁st esso
▁l ập
▁ 명
▁al cun
关 于
▁کام لا
▁ك ن
ك بر
د يد
в ро
k ry
▁go ver
▁biz ony
▁שא נו
▁enten der
p ed
▁edi yor
▁dav on
▁b ill
▁j og
اب ة
▁по ста
▁ 치
▁과 학
á d
lik le
ci es
▁این ه
▁ע וב
▁необ ходи
▁y ard
▁em pe
▁dólar es
▁9 9
▁в я
▁let z
▁j ár
р ма
du ce
ch an
ar es
▁це нт
▁ma jor
▁می ت
▁شي ئ
▁ت علم
▁ 형
mi te
es tr
故 事
lar da
h es
▁o be
▁부 분
▁tut aj
▁out ros
▁kom t
ین ده
ă tor
em ber
▁proj ek
ừ a
h ol
▁צרי ך
▁beg on
▁ ژ
▁s û
▁dzięku ję
▁amer ica
ン ト
▁이 상
al len
▁но во
cid ent
▁fra g
וב ן
get her
el len
▁wich tig
▁w ł
נית ן
▁ו לא
ten d
▁خ ارج
▁kh í
▁cor po
▁a ño
ח ק
▁sa vez
▁nos tri
dzie ć
▁מא ד
▁mens ch
á b
子 供
▁م وجود
▁ten ía
er te
にな る
▁all ora
ys te
▁احت مال
▁м ъ
▁ph ố
▁part ie
▁l ors
▁a trás
▁yap ıl
ול ים
ş ey
id ir
▁لي ست
▁б ъ
▁b ele
ми на
c une
▁mon tr
▁ت ک
▁t ài
▁ek onom
qu ier
p es
enscha ft
▁tr í
▁fun c
▁ta g
▁이 러
▁отк ры
▁в нима
▁gebruik en
▁du ż
▁br it
▁ab le
▁помо щ
▁vra ag
▁v ụ
▁t ăng
▁200 8
▁re t
▁premi ère
▁n er
▁ 입니다
w ikkel
▁こ こ
▁ми р
▁re pres
كل ة
▁за па
▁ ٬
▁é po
ان د
▁av ant
▁ ê
و ند
iz z
▁الح قيقة
▁некото ры
▁câte va
▁p ak
▁es as
▁ 엄
it és
▁zul len
▁cour se
но ве
け れば
▁tro is
▁se ç
▁av ut
р ят
şt ur
may ı
メ リカ
▁וה ם
▁сле ду
▁n ord
▁עו שים
ك س
ו ט
ви ть
▁있 어
▁dav id
▁действи тельно
ce de
に お
ющи х
▁o y
ام ی
co le
▁감사 합니다
▁سن ة
▁ş e
▁x ây
▁un g
▁er au
▁b ęd
in ate
▁to gether
▁comp ar
▁ 첫
▁ 믿
▁d rei
▁for me
بد أ
il li
▁지 역
▁我 的
▁so it
▁ap ar
▁如果 你
▁про дъл
▁evol u
fr ica
ess en
y et
▁ج نگ
▁éta is
▁w omen
▁al tra
owe j
ir os
▁هن وز
▁ph oto
ال ية
cz u
сту п
b li
▁ك ث
▁kontro l
ğ in
分 か
▁đ ặc
ת ה
du ğ
▁zie t
▁re cu
▁ol mak
▁ng u
ز ل
系 统
▁ита к
▁انت خاب
▁une i
де л
ろ う
▁그러 나
▁fun zion
ع ض
מ נו
us to
▁мог ли
▁y en
▁gesch ichte
b bero
▁آم ریک
する と
▁د وب
▁к ла
▁ola bilir
▁h ướng
▁qu oi
czy ć
▁ص ورت
▁m ur
wo ord
▁k ans
技 術
▁in tr
ان ية
פ ש
ow ych
부 분
▁위 한
▁v id
но м
▁caus a
יו ון
ro d
▁ע י
▁фо то
▁to ute
▁mo dern
▁k iến
ow ania
▁el k
▁comp l
▁د لیل
▁p ur
▁dis so
▁böyle ce
т ра
è mes
h m
ent lich
ci endo
▁ارت باط
▁f ont
▁az ért
教 育
こ れ
▁توان د
▁tot al
▁re ce
گ ان
с ку
▁ph ẩm
▁وه ي
▁vă n
ț e
at amente
▁proj et
▁prob able
▁neg li
▁f alar
▁또 한
▁sa ját
▁númer o
▁e e
те м
▁بالن سبة
▁ す
▁с чита
▁не сколько
▁ 평
press ion
ic es
▁或 者
▁7 5
▁годи на
ẫ u
ph one
▁گ روه
▁ne xt
▁algun os
▁đ âu
d el
▁동 안
ă ri
▁ו ח
▁ 식
▁ 복
▁ي د
▁اند ازه
▁pas se
wi ęk
だ さい
▁و لا
▁أف ضل
▁tre bui
▁f él
▁loc al
ier on
▁yüz den
▁no v
og n
▁ze er
▁wy gl
▁us ando
וו ה
не н
ab les
▁ok ay
ien d
at r
▁ה שי
▁ 증
ạ m
к си
á ba
ch io
▁질 문
▁nh ạc
ید ن
ること が
▁пла не
ag a
▁아 마
▁gr os
▁dob biamo
ش ه
c ja
▁n ational
▁for se
▁c ad
▁ 쓰
▁ 正
ter i
▁حقی قت
▁tw itter
▁któr zy
ре с
▁ח ז
▁đ ấy
ün üz
▁여러분 은
▁th ư
▁d ẫn
▁ذ ات
▁ge ven
бе ре
▁علي نا
▁vo yez
▁ال ض
▁mạ ng
▁bra in
▁ 每
в ра
▁g as
▁ch ức
▁ben i
be i
전 히
では なく
▁nues tros
▁expl or
ti que
da g
▁ch ọn
▁توان ید
▁bra wa
▁ 갖
▁secon d
▁jak ie
▁de b
s un
ka ar
▁t ử
▁p unk
▁j ur
▁ch ơi
hal b
ت ها
ge b
▁ח שוב
▁у спе
▁moż li
▁mat h
ت ا
▁ка жа
▁sti amo
▁hat ten
ظ م
の ように
▁של ה
▁m c
▁gü zel
▁باش ند
▁на зыва
▁tr ă
▁prz ek
▁milli on
▁i emand
▁פע ם
▁kah ka
▁c ây
▁осо бе
▁par ç
▁n ig
▁واحد ة
▁исполь зу
▁го ло
▁ver k
▁m and
سا ء
▁정 보
▁الب ته
▁мо й
▁p ár
▁dig it
▁ش ن
il eri
am at
▁ב ז
▁men o
▁o czy
م كان
ti gen
▁من ذ
▁شك را
▁را ئ
▁s l
▁al ta
ва ет
▁am ér
an gen
▁s ic
▁li ve
▁ 就是
▁ح يات
▁var i
▁n ő
▁ ág
we ise
▁هست م
▁t ol
▁l em
▁hik ay
▁h ız
▁re con
▁possi bil
ш ло
до м
he im
▁돌 아
▁х у
▁bug ün
tr y
려 고
好 的
▁الح ياة
▁от ве
▁gü ç
▁че р
▁nat ür
ش ار
▁o tros
u v
ist s
ー ク
▁ر أ
▁po v
▁noss os
▁tár s
▁اج تما
▁с пи
▁bisog no
▁ 입
▁ 非常
le ment
▁ér dek
▁t iv
▁g ân
▁an aliz
ç e
▁прои зво
é o
▁mo bil
▁ 죽
o bb
▁א ר
▁gran di
▁t ier
is to
技 术
▁می گ
▁b ess
حد ة
▁imp ro
▁har eket
▁kép es
ud ar
ン グ
▁v as
▁so y
▁nu cle
怎 么
▁ل نا
▁при ро
▁зна е
▁yap mak
▁há rom
▁egy szerű
ذه ب
we en
▁ra pp
▁bar dziej
ka ç
ci amo
な ど
▁الم نا
▁lo ve
os z
ー ム
یم ی
▁c ier
▁at ta
宇 宙
▁이러 한
▁ق ادر
מ א
ul l
ow o
ci u
シ ョ
▁рабо ти
▁ez eket
▁т во
▁за ко
▁ac el
▁ri es
▁al tre
و يل
▁kön nte
▁k ijk
▁wer ken
▁mu itos
▁human os
ור ות
▁vie len
▁gr öß
▁d ost
▁ ứng
з ве
▁ня ка
▁gel o
it ori
▁t esz
▁s la
ال ه
ми ра
b ij
▁결 과
▁v ời
ạ ch
פ ק
▁пос мо
▁né z
▁ 날
قد م
데 요
▁ל צ
lij ke
▁你 们
▁ف وق
▁آن جا
▁מע ר
▁mo tor
▁ 된
▁ח יים
n em
▁実 際
▁milli ons
▁cap a
▁bir kaç
▁2 2
▁ 例
und an
un un
▁ي حدث
▁кажды й
▁mai or
▁م وا
▁ 現
▁ну жда
▁w r
▁out ras
▁l le
än dern
▁er ed
ま しょう
▁про ве
▁от гово
▁на де
▁un os
و مات
ch ter
▁l ink
▁cent ro
س انی
▁ל כל
▁verschil len
▁nguy ên
大 家
▁vers te
▁he y
▁ch ứng
с к
▁б ли
iệ m
▁تر ین
▁op ortun
▁bel ki
▁ 추
▁s yn
▁s ala
▁p il
ün de
▁مان ند
▁д ж
ز ا
מי ד
ви си
▁dis pos
to p
▁syst ème
▁ej emplo
▁bl og
▁be com
er ing
ati es
▁并 且
▁בע צ
▁א דם
▁но ви
▁mu itas
▁en nek
▁مو قع
▁ت ب
▁вся ка
▁f öld
tru ct
▁ 산
бо р
▁ط راح
▁univers o
▁pow in
▁e ach
ie i
si de
▁z ek
ô t
i y
▁ży cia
▁ment re
us es
ni o
▁and a
ъ п
时 间
▁prim er
▁el kaar
elle tt
ci os
b ri
▁bul un
دا شت
or den
もし れ
▁коне чно
▁cho dzi
pu is
进 行
实 际
▁a go
▁о ке
h ip
▁bast ante
ion ale
▁tr iệu
▁i gen
ד ור
▁مع م
▁is mer
ج ر
u cht
alar ı
▁vard ı
▁bun a
т во
▁بود ن
▁19 4
غ يرة
▁dự ng
▁ch ết
▁این ها
▁noas tră
е ма
と思 います
▁これ が
▁zrobi ć
ika i
这 里
▁ت وسط
▁ch ế
l é
来 说
▁보 이
▁ان ها
▁сказа л
▁ab b
zy m
▁ي تم
▁possi ble
بد و
мен та
▁j át
▁afr ic
▁стра на
▁k az
▁term észet
ie me
一 下
め て
▁разли чни
▁ف رد
▁proble me
▁ ł
▁ $
▁mor al
▁о бо
▁mic ros
▁на ли
▁c ân
▁за нима
▁l ẽ
▁jel ent
▁нау чи
▁v ost
▁k unt
ج م
ש ון
iti ve
只 是
▁ک ود
▁sa i
ją ce
▁sci enti
▁ 数
▁пред по
▁отно во
▁v inden
▁v ere
▁ge woon
▁f ontos
or ii
▁cap ital
ra is
▁ש בו
▁gr und
▁crian ças
ant al
כ נס
▁el ke
и мо
▁تول ید
про си
z us
p an
▁ol ur
▁mein er
▁얼 마
▁רו צים
▁wa ż
▁tr es
▁ 책
к ро
un der
同 じ
▁א לא
▁ön ök
▁krij gen
▁ac ele
ig u
利 用
▁میش ه
▁у прав
▁го да
▁or t
▁a ument
▁في ها
▁на блю
▁започ на
▁ży cie
▁per ce
わ れ
▁و ضع
▁nor m
▁któr ych
▁دی گه
▁направи м
▁wy s
▁difer en
▁אפ שר
▁în vă
ق ر
ز ة
に 対
▁ل حظ
à o
ve er
ik er
▁ч рез
▁т ър
▁ha c
h ang
▁ند ار
▁הד בר
▁z ab
▁c ấp
▁as se
ي ك
▁wie lu
ק רא
▁بل که
▁ag ric
▁201 0
öz ő
g ens
ら しい
▁ç e
▁l icht
▁in tro
▁kér dés
▁al to
▁a ta
▁م ؤ
▁بر نامه
▁ב ג
▁faz endo
▁ex emplo
▁ce ci
ü let
ジ ェ
▁dar über
学 校
受 け
▁на ри
▁r y
▁ih n
▁в ръ
▁v ele
▁p én
▁b ank
기 에
▁s nel
▁ث لاث
▁במ ש
▁wol len
▁c az
▁v emos
▁han em
▁dé velop
on de
▁we iß
▁euro pe
▁d ù
ic ar
▁na u
▁ka ç
▁g est
ضا ء
▁te x
▁no oit
자 가
ン の
▁מ ז
▁đ ạo
▁ 見
ю сь
▁باش ید
▁ה נה
▁we ek
▁c au
ش ف
▁f ui
▁rend szer
▁ －
▁말 씀
▁primei ro
▁ve ces
▁ni ños
▁zaman da
▁re den
▁gru po
▁biz e
▁sim il
▁alg or
л на
ber t
▁heb t
▁ 항
未 来
▁2 3
▁ch ia
▁c it
▁ 태
ầ y
گ ز
ag em
▁p ăr
▁p ac
▁app ar
k te
g ed
▁w anne
m edi
不 会
▁الم و
▁cul tura
▁un ite
с мо
p li
▁في ه
▁wanne er
▁vol te
▁s cu
▁ ؛
ющи е
▁لل م
z w
ha al
▁ا رز
▁s um
▁mil ion
▁م لي
▁נ כון
▁h ü
▁chi am
하 여
되 는
▁v ent
▁cos tru
▁cons tr
zz o
▁ع لم
▁داد ن
▁технологи и
▁ge hen
us ta
▁הל לו
▁челове к
▁ча сть
▁mog ą
um ento
应 该
▁ל זה
▁ha z
il t
都 是
▁боль шо
▁đ ứa
▁за това
▁pos ibil
▁im pl
▁ت وجه
▁pla y
▁g ặp
ن ان
bile ceğ
▁więk sz
▁n ền
▁he alth
ро и
om as
場 所
ス テ
▁th áng
▁t ir
そ れ
ش خاص
▁כ ול
▁neces it
▁fu ori
▁بت وان
▁persp ec
▁mo je
▁techn ology
▁res ta
▁me ille
▁e vet
▁ 순
▁с ним
wa ł
▁де мо
▁گ یر
▁imp os
▁c ụ
jąc ych
▁ה בי
▁cz ego
▁alcun i
с ъ
ow anie
▁прав ят
ר ק
isp iel
リ ア
▁つ まり
▁س طح
▁ا سم
▁sie m
▁sa ber
▁kör ül
ier te
▁존 재
▁вя р
se am
ac ja
▁go vern
▁ach ter
ler de
▁vál toz
▁taraf ından
▁ru im
▁k ons
▁cam e
че ска
p el
感 じ
▁تما ما
▁s ĩ
▁ave va
▁נ ראה
▁x in
▁ه وا
▁ter re
▁con se
ض ح
▁ста ва
▁to e
یک ی
ny mi
▁사람 이
▁因 此
▁ма й
▁vo it
▁ost at
▁n ere
▁ 참
pro wad
▁nue vo
▁hel p
▁commen cé
▁ 좀
ul o
ー ジ
▁那 么
▁د خ
▁ב נו
▁з е
▁đ a
▁í r
▁kh ỏi
▁أ ول
▁se ine
id i
▁ک تاب
▁دا ئ
▁k ijken
▁fe w
▁cam po
▁al kal
▁כ בר
▁us ed
▁생각 해
▁ي وم
▁луч ше
d ım
一 起
▁ra dio
▁gör düğ
▁ش رکت
▁t ussen
зи ра
ys ł
▁ult im
▁nuo vo
ль ные
▁لما ذا
▁الأ س
▁sit ua
▁발 견
▁mus ic
ün ü
g ono
▁исто рии
▁mar ket
▁le i
▁be ispiel
сле д
мо й
üm üz
f og
em o
谢 谢
▁ 앞
t unk
iế m
▁המ ח
▁person al
▁mar i
▁diff eren
ạ p
ا قة
▁vez et
mi yor
m and
▁ت س
▁эти м
▁sz ere
▁s vil
▁pl ane
▁in con
▁ 삶
e te
▁여 성
▁많 이
▁دوب اره
▁mà u
▁би л
▁sor te
▁r ip
▁המ ש
▁по гле
▁שה יא
▁d ưới
un ca
in ner
디 어
▁بد ن
▁th uy
▁wygl ąda
▁ambi ente
▁sû r
בר י
ab ili
▁đ ô
▁ch er
о ни
y k
▁to o
am p
▁ва ши
▁z on
▁me e
▁inter ac
▁de puis
▁ 절
▁r as
ش ین
d ade
ق ى
em ente
bilir siniz
▁yard ım
▁mag gi
▁통 해
▁t um
het ő
▁á frica
6 0
▁있 어요
▁대 해서
▁ola cak
했 죠
▁дела ть
▁we er
▁r im
▁op port
▁em er
ؤ ال
or en
▁ol uyor
▁dz iała
▁de ve
▁and er
▁lear n
▁ フ
й ски
1 5
▁nh óm
▁exempl u
▁ur ban
▁j ą
ру ю
fa ce
上 的
ー タ
▁wur den
▁tam am
▁r õ
▁extre m
де м
án d
ici ón
h ec
ent ar
▁ش نا
נ ם
o per
必 须
▁הרא שו
▁c la
ẹ p
רו ם
ти ть
▁на се
▁на ме
▁ver o
▁k ız
ä u
▁wol l
▁podr ía
▁ph il
▁mil yen
▁fik ir
ák at
2 00
▁въ прос
▁ki ş
▁ 얻
▁의 미
▁ت لا
▁tud ják
де ля
ва ние
ój ában
ların ın
▁없 는
▁ni es
に ある
▁köz ös
▁wer de
▁ph ys
пе ра
h in
تم ع
▁ف ى
られ る
▁вме сто
▁man o
▁bamb ini
▁הא לו
▁ut án
▁cél ulas
▁bà o
р д
▁아 무
▁사 이
▁u w
▁de velop
▁п ы
tr z
iz ione
▁지 구
▁ن سب
▁фи зи
▁ми ну
▁produ ct
▁i hren
מ ית
▁לה שת
▁mo gelijk
re z
成 为
▁opport un
▁ha cia
▁bin nen
▁aceste a
בר ה
ط ان
ת ח
▁siem pre
▁pro v
▁jed er
▁dire ct
cz as
▁گرفت ه
▁s ư
▁desen vol
▁d w
را ض
▁tra vers
ва н
▁ت ف
▁ס וג
▁con na
ל ד
▁sp az
▁pek i
▁в за
▁c ực
▁ac ela
▁до сти
▁fi gyel
▁cả nh
ци он
u ştur
is es
▁tud juk
▁th ần
▁ten go
▁soft ware
▁lé tre
觉 得
▁cas i
▁c ra
▁않 는
▁خا طر
ys cy
ut h
▁مت فاوت
▁ми ре
▁qual cun
▁pro get
▁pla ats
▁n ın
▁jeste śmy
▁ace a
▁yak laş
▁so us
▁ １
ı t
el lo
cr it
▁то гда
▁mas s
▁i̇ şte
▁isti yorum
▁ide as
▁w te
▁hab lar
▁çık ar
▁سل ول
▁estu di
▁у да
▁wte dy
▁las sen
ح ن
ו ע
way s
な ければ
▁por ta
▁on ları
▁gu ar
ع ث
т ка
▁بر گ
▁آز مایش
▁olduk ça
▁kil ka
▁bil im
cz ego
▁ش ان
▁precis amos
m uş
ul ta
▁ك ذلك
▁про ду
▁wy da
▁den ey
▁ 其
▁med io
▁imp act
▁gör üyor
▁est ados
▁ear th
رد ه
ain te
▁ו ש
▁ 谢谢
el de
▁s ett
c or
▁ف ه
▁len ne
ור ת
能 力
によ って
▁ch âu
on l
▁d ữ
▁и г
▁primei ra
▁onge veer
▁ke in
▁د را
▁per d
▁f ér
▁vis ta
▁pro g
▁iedere en
it ud
ei ra
бо ра
f ür
에 도
▁أ ج
▁אח וז
▁us ted
▁ge or
▁1 000
▁to v
▁m idd
ir i
▁م لا
▁er z
מי ן
こと に
▁des ar
н ско
不 能
▁позво ля
▁z mi
▁egy es
▁al att
ề m
▁تص ور
▁qu ay
ту а
льно й
▁et mek
し く
▁م قد
▁uz un
▁pl ant
▁h iss
▁du as
▁g id
ки е
ou gh
ff e
el em
▁part ir
▁ エ
▁따 라
▁계 속
▁пре кра
▁وال ت
▁vo le
か もしれ
▁которы х
▁res ol
و تر
ac y
▁ 온
▁bet ween
▁прост ран
▁eb ben
信 息
▁v ad
▁об у
▁me est
▁đ ánh
▁gi ản
ó c
▁vi ết
▁val ójában
ри о
te ch
▁ك نا
▁ر ؤ
▁man ière
▁ án
o ść
j et
▁그 들의
▁tecnolog ía
▁son dern
ä s
un ă
▁leb ens
시 다
▁jo urn
▁ent r
▁الخ اص
▁彼 は
▁xu ống
وی ی
l uk
写 真
▁quan h
▁lu dz
g ere
▁הג דול
▁al ak
ری ق
▁ا د
▁m ở
ш ки
个 人
мен т
▁ки та
▁ac t
م یم
wer k
▁ro bo
▁des e
стви е
▁preg unt
ر ان
ăr ii
▁ف ی
▁to ată
▁al bo
성 을
▁was hing
▁ac red
ắ m
tri b
▁r ien
▁obrig ado
нно е
▁egy et
▁au di
▁شد م
▁по стро
▁zd ję
▁unser er
▁prim o
▁k ıs
▁ デ
▁ا شت
▁оке а
▁sor un
▁gy ak
с си
▁vo il
▁ph im
▁d ịch
▁am o
ţ e
▁не о
▁не ка
▁traba j
▁ 얘
ומ ות
zen i
数 据
▁الم ع
▁у м
▁ка рти
▁p yt
re k
多く の
の ような
▁qu em
▁funk tion
л ё
ci ó
est ra
es ten
ante d
▁гле да
▁ob ten
an as
▁vanda ag
▁sin o
▁gel iş
▁es z
▁ci ą
▁ain si
▁acqu a
▁ です
ul s
▁ál tal
ل س
되 어
▁ال حد
▁com er
ر خ
ti z
▁wsp ół
▁ngu ồn
th at
▁for am
素 晴
▁mus imy
▁کن نده
▁y ay
diğ imiz
生 命
▁خ انه
▁пър во
▁szer int
▁p ó
▁ob ie
ي ب
pr im
ic kel
▁с к
▁un der
▁spa ce
▁mil jo
ç ok
▁proble em
成 功
▁הד ברים
▁aus tr
л ъ
▁sz ól
én k
k öz
▁ط بی
▁го ду
▁аф рика
▁dig ital
一 次
▁这 就是
▁z iem
▁ 양
ک ز
▁لل أ
▁o tras
▁ch ắc
ре ния
▁пробле ма
▁may be
▁ent end
▁dez vol
있 는
▁amely ek
▁ 中
פ רי
נ תי
hr t
这样 的
▁ا ع
▁ב מה
▁ngh i
▁ava is
▁у че
▁pr en
▁ko ń
▁ê tes
▁inves tig
▁hist ori
▁t ű
è ne
le j
因 为
▁대 부분
▁ق ام
▁ont wikkel
ab an
▁ع بر
▁לה י
▁הת ח
▁z naj
▁j ól
▁gew eld
▁200 9
▁ 근
f ten
c ów
▁jus qu
▁cons id
צ ע
an ça
▁се ме
▁zro zum
▁no vo
l ang
▁volt ak
▁mil yon
▁intel lig
▁h ôm
▁2 7
▁es os
c ere
▁стра ни
▁orta ya
▁g ig
ol i
▁ま た
▁باش یم
▁ا ذا
▁מס פר
▁wä re
▁lugar es
▁cul ture
ia i
b la
▁wä hr
▁ser ie
ق م
▁ско ро
▁kun st
▁ ща
é ment
样 的
▁آ ینده
▁s át
▁od kry
▁den en
▁ ות
ی ب
▁도 시
▁pro vo
▁gel eden
▁f lu
е го
▁p au
▁noss as
▁v ale
▁g egen
▁f le
▁comp lic
ди т
▁соб стве
▁няко й
▁or ice
▁ко нтро
▁dzię ki
▁all í
רו ב
▁x a
▁comp art
át ica
iv al
▁за щи
주 의
▁ו ג
▁слу чва
▁ин стру
▁as tr
▁ 뇌
▁וב כן
▁dé cou
c us
▁القي ام
▁wet enschap
▁de cid
▁생각 합니다
▁e au
▁cam in
▁до ма
▁seg ur
▁ תי
رف ة
f ik
▁ب یر
▁ç öz
▁gro w
ح ل
ó ri
▁хоро шо
▁go d
▁cin co
ق بل
▁خود م
▁ве роятно
▁в ла
▁pre o
▁app el
ي ز
وا ب
的事 情
▁המ ס
▁în seam
▁com inci
ł ug
つ け
▁모 르
▁à s
▁nic io
▁kh á
اب ه
io ane
人 が
▁と ても
▁الب ح
▁ne ue
d ő
▁می ده
▁ 뿐
▁میلی ون
▁má qu
▁mes es
▁con ect
כנולוג יה
▁rów nie
と き
▁위 해서
▁س خت
▁inte lig
▁b áo
k un
드 는
に と
▁th êm
▁h iz
▁da i
ire a
▁آ دم
▁x ác
▁kh iến
▁finan ci
▁ 컴
وم ی
kie j
他们 的
▁spra w
▁jo bb
▁citt à
an se
▁م رت
▁г ло
▁v ực
▁ad n
ult at
▁ver haal
▁s che
▁inclus o
▁ だ
▁あ なた
▁ü z
▁sich er
▁bus iness
▁b ru
▁време ни
▁pre a
▁pr ess
▁al tijd
▁ 투
p ot
▁ب ذلك
▁ва ж
▁în ce
▁é ch
▁ro m
ru p
▁이 미
▁вижда те
▁ph ía
▁ke er
ית ם
▁م ل
▁ح رکت
▁الأ رض
▁z onder
▁natür lich
▁ima ge
▁ 카
مي ع
я ть
▁너 무
▁ي كن
▁us o
▁exp ér
▁س ری
▁за тем
▁verschillen de
حت اج
▁말 입니다
▁pro cesso
▁mond ta
▁begin nen
▁ace ea
we j
▁ع الم
▁sur pr
ض ی
▁방 식
▁پ رس
▁orig in
k at
a ş
▁for d
ít ani
▁י היה
▁s zy
▁a im
ta ł
▁تما شا
▁ви дим
▁an lat
▁par ec
▁cre ier
▁ ありがとう
ق ية
▁algu ien
ность ю
▁proie ct
군 요
▁ver de
▁meg k
k im
ar lo
▁ע דיין
▁ér t
▁mad re
▁ 作
情 報
▁inf ras
▁famil ie
r ir
▁б ра
▁wsz yscy
▁en se
is er
▁ste eds
стро й
é d
▁ن تی
▁اج ازه
▁con fi
▁bir çok
в с
▁j aren
n s
▁hum ano
▁constru ir
▁child ren
ári os
自己 的
▁ل ها
▁ط رف
ь я
▁cer vel
▁ag ua
하 죠
▁و ما
▁са ми
▁ö yle
▁l ight
▁gel en
p ły
▁о ка
▁и сти
▁pl ut
בי ב
т ъ
▁washing ton
ج ار
מו ש
m us
▁ 타
▁ ши
▁것이 죠
▁נ מצא
▁mach ine
▁imp ar
▁qu ar
▁be b
政 治
べ て
▁на ш
▁vis sz
▁mu h
gr am
▁înseam nă
سا عد
dz ą
▁ت اری
ק ש
m on
良 い
の 一
▁처 음
▁이 용
▁جه انی
▁zm ieni
ث ل
▁و إ
▁ü st
ا ح
ки х
ва ют
ste in
▁پ ول
▁währ end
▁gener al
▁bew eg
▁בא ות
▁би ли
т ру
b ers
á sz
w eg
in y
ala x
か に
▁v ê
▁so gar
▁k las
▁ш ко
▁не м
▁đ àn
▁algu ém
▁알 아
▁ta ş
y ar
겠 죠
▁przy sz
▁kom men
▁ez ért
▁dat i
ur y
き た
▁se cre
▁c le
▁bilg is
▁poder ia
▁ez en
▁don e
▁لأن ه
▁in nych
▁ 会
▁seg undo
▁leg al
נו י
▁па ци
▁v ùng
▁י י
▁eu x
▁ 본
ем ся
▁컴 퓨
▁شب یه
▁أ د
▁ri us
fer a
▁pr is
▁intér ess
ؤ لاء
▁ح ی
▁does n
な が
▁当 然
▁é conom
▁who le
▁ki şi
▁cre de
▁そ こで
▁n ego
▁j öv
▁ig nor
▁还 有
▁nie uw
ס ק
▁با عث
▁ac ab
iệ n
ig o
▁ver g
▁man eira
▁hom e
▁בש בי
ید م
▁mater ia
▁certa in
ad en
にな ります
▁đ ôi
▁v esz
▁tek rar
l og
▁אח רים
提 供
到 的
▁na v
lik te
이 라고
리 카
▁obser v
▁is ra
ما ء
기 도
事实 上
▁گذ شته
▁ver i
▁czy m
▁con fer
cz nie
▁si x
▁pou va
▁dev am
▁be v
un ea
▁se c
▁ol uş
▁ 誰
▁ص ف
▁ph ép
▁bu d
ان ا
▁ви е
▁exam ple
an z
시 키
▁실 험
▁пу бли
▁st anno
▁m ức
col a
に 入
▁r un
ר כ
▁наши те
▁dire c
▁con du
до л
sz ín
▁ف قد
▁m ú
▁ 흥
в ши
▁v ọng
▁gü ven
▁cz ł
▁sok kal
▁ra p
▁apro ape
▁ي وجد
▁ו מה
▁בע י
ст но
ás sal
▁נ פ
▁ ula
é vel
j ed
▁wł as
▁se ja
▁pro va
ین ی
▁pr ost
▁j ut
e il
▁أ ب
▁no va
pi do
▁عد د
▁ج ان
▁ת ח
▁кон це
▁en fer
▁br ing
▁be et
ها ية
an ta
▁p is
▁g alax
وا ء
▁am en
▁ 충
创 造
▁pop ula
▁f ís
ب ور
▁nh anh
▁gel iyor
▁cs al
▁нико га
▁attra vers
ło ści
th et
▁onder zo
▁دار ید
▁qualcun o
▁ カ
▁vis sza
▁th am
ن ين
zz ük
▁نتی جه
▁o sz
▁ シ
أ ة
т ят
▁prim era
▁d és
t ır
▁그것 이
▁الت ح
▁se v
▁l ess
▁fra ge
▁f is
ان ون
z al
j ta
an ız
思 い
原 因
▁همچ نین
▁п ет
▁ma ak
▁m ér
▁da zu
ò a
en ces
▁ág ua
▁200 7
▁ 皆さん
zn ac
▁يع ني
▁ز یر
▁за е
▁gr at
▁asse z
се н
z ik
言 う
▁ک ا
▁отно ше
▁pet it
צ ל
ле нь
ä d
ar se
▁проце нта
è te
▁彼 女
▁резу ль
و ست
r im
ların a
▁בדי וק
▁look ing
▁el kez
t il
▁гло ба
▁eigen lijk
▁dis co
un ge
▁pro m
▁الع ام
▁ל ך
ر سی
▁прави м
▁би х
▁би з
▁imag ina
▁chú t
ıl ık
vi amente
ol ó
▁디 자
▁خان و
▁inter est
▁int ens
▁di v
ồ ng
н ци
ne hmen
n ę
▁der ni
▁ק צת
▁צ י
▁m use
н те
4 0
▁су ществу
▁tr y
▁değ iştir
▁سن وات
▁col or
p ital
ي ين
وان ات
▁컴퓨 터
▁re fer
▁органи за
▁her kes
▁مد رس
▁уве ли
▁or e
▁den ke
emen ea
▁о це
▁indus tri
▁fran cis
н ди
▁voil à
▁teljes en
▁a er
tet len
p ers
▁הא נשים
▁z od
▁tr ata
▁t ục
▁f ast
▁ember i
▁ ２
▁ 먹
lar dan
▁encon tr
▁de el
き ます
▁cali for
f te
▁ل كي
▁по том
▁в ну
▁é qu
▁fon ction
świ ad
▁بگ و
▁în ainte
▁per mite
▁ark ada
▁ara ştır
▁społec z
▁mol te
▁ek s
这 一
▁n öv
▁g ps
▁c àng
▁아 프
▁ي ش
▁zw ischen
▁sent ir
▁علي ها
▁ins ieme
▁ah í
li ğ
▁س یا
▁ال ام
公 司
ッ プ
▁ل إ
él k
st ra
at to
▁d um
▁cap ire
▁ 特
к те
▁nos tru
▁ オ
▁ن ي
▁פ ר
▁péld á
sz ych
ig keit
▁그 건
▁چه ار
▁jak i
▁cu enta
בי ר
ф о
ti es
▁خواه یم
▁at om
ogra ph
li ği
as on
a am
私 たち
▁أ ريد
▁demo cra
▁pre fer
▁i ra
▁dla czego
ن س
▁ه نگ
▁ 눈
an ych
▁по ле
▁th ậm
ăt ate
n ent
人 类
▁g ắng
غ ل
8 0
▁الط بي
▁си гу
ir as
으 면
ст та
▁сто ро
▁образо м
▁g ost
ль ных
▁fin den
m ê
▁т ран
▁senti do
▁nas a
▁kle in
مي م
te len
스 템
وا ع
end ir
정 을
▁з дра
▁es et
▁ 창
ند ان
qu é
p end
j as
▁ 각
ч ка
▁проис ходит
▁ко ле
▁tr zy
▁pr at
▁ha bl
▁на ре
▁şey i
▁tut ta
▁labor ator
▁bilgis ay
▁beg rij
▁ ór
▁با ور
▁k u
▁ch ẳng
▁b ı
▁a os
يد ي
in ek
▁해 결
▁않 았
▁informa ción
▁art ık
▁현 재
▁일어 나
▁آ ور
ú r
í tett
y o
y es
n ap
▁ма лень
ك ذا
н ка
re bbe
ラ イ
▁đ ủ
▁sonu ç
▁ 외
z am
ho ut
▁מ דו
▁а б
▁som m
▁re cht
▁i ată
▁ave te
▁algun as
ד ש
das ág
at al
▁س مت
▁הז מן
▁nh ớ
ma il
k ele
j em
ar de
▁وال م
▁nicht s
up ra
▁مح ا
▁vă zut
▁sp ecie
at ro
▁تبد یل
▁би ло
▁so ur
▁pre mier
▁and are
ל ב
ő r
uk tur
ler ine
▁も し
a ć
基 本
▁ان ر
▁quel qu
▁per form
▁as so
ми сли
b ym
▁بیر ون
▁от ли
▁ç ev
▁ 테
كن ولوج
то р
sz ör
▁э кономи
▁v rij
▁entw ickel
▁ens uite
il ik
▁en qu
▁be f
ند ی
ذ ن
n él
a va
▁친 구
▁י ום
▁ser a
▁ger ade
▁de te
▁ イ
▁op era
▁oh ne
▁köz ött
▁glau be
▁entre pr
▁ 버
ê ng
ni ę
ag gio
▁ب رو
▁n äch
â l
▁있 다고
▁mul ț
▁dro g
al ité
▁되 었습니다
▁می ک
▁trou ver
▁s ed
▁hiç bir
▁ ры
l ant
▁د نب
▁неща та
▁dạ ng
▁6 00
p ăr
▁ме ст
▁nat ura
▁mut at
▁ein mal
▁ 활
▁re li
▁hum a
▁ 뒤
▁ра сте
▁k ut
▁k iv
▁b acter
▁arg ent
ע ט
iss ance
ag er
ab et
▁شد ند
▁z en
▁per met
▁coun try
ё л
▁ка р
▁c ento
▁arkada ş
真 的
▁pour rait
▁ne h
▁gra v
▁end ro
lar ımız
▁לי צור
▁sare bbe
▁lát hat
▁ist nie
▁cre are
▁ap are
▁m ı
▁b ou
仕 事
▁igaz án
▁ch ance
▁al m
وا ج
▁к ру
▁se par
ir ur
に 関
▁خواه ند
▁s ö
▁mie i
▁j os
▁econom ia
et ta
▁gén ér
רו נות
yste em
▁לה פ
▁r ond
▁egy m
ê te
ie ten
▁új ra
▁w anted
▁vede te
▁ha ciendo
▁d ài
ع ادة
▁ت کن
▁ב רי
▁у ди
▁j on
▁e ch
▁ben ce
▁میت وان
▁طراح ی
یز ی
чески е
들 에
わ か
▁מ וד
▁случа й
▁пы та
▁гово ря
▁g ây
▁et k
▁ch ị
▁b lan
▁ق ال
▁fi ind
▁an nak
▁ バ
ik t
▁서 로
▁ت ط
▁מ בי
▁by ły
وق ف
▁e p
▁bu iten
ist es
▁информа ция
▁ez zel
▁cor p
с ни
▁да ле
▁вза имо
▁sab em
▁ex t
wi ście
c ken
▁ди а
▁su pra
ti re
력 을
▁ق ر
нь ше
▁ir gend
▁al ways
ar ía
发 展
▁v idas
▁u ç
▁kon us
iz io
el den
▁s and
▁inte gr
▁g iv
h ando
at ure
at ot
▁ש וב
▁t él
素晴 らしい
健 康
▁보 고
▁الح ي
实际 上
▁al i
▁absol ut
▁in tu
х ра
и т
ar k
正 在
▁diff ic
▁c ultur
g ang
▁întâmpl ă
▁b ent
▁ טי
w el
ar be
▁о но
▁mar av
▁czę ści
▁cre ate
ق ص
▁الت ع
▁đ ẹp
▁la p
▁پ نج
▁mil ioni
▁گ ی
ور ش
וכ לו
на ги
t are
▁questi ons
▁col la
安 全
▁ris p
▁ ț
cul o
▁얼마 나
▁nast ęp
▁m ys
ceğ im
ad an
▁מפ ני
▁se be
▁ge ben
س ات
ا ية
z in
ー ス
▁g ă
en zi
▁in ve
▁gema cht
ри м
j m
im es
▁д ву
▁거 죠
▁vál asz
▁v ũ
▁ter ri
▁któr ym
▁fa ut
▁d lat
▁행 동
▁thu ốc
▁in k
▁hal f
▁dlat ego
▁demo cr
▁dem and
▁a way
قا ء
ди ть
al ım
▁بین ید
▁има м
▁cer veau
1 00
小 さ
▁או ה
▁quer emos
▁geh ir
▁bun ă
こ う
▁경 우
▁ي بدو
▁v ul
▁gover no
▁f ác
▁düşün üyor
▁adevăr at
▁חוש בים
▁pov este
▁każ dy
▁bet er
▁as emenea
▁ 효
ủ ng
ستخ دام
y ac
え ます
▁s truc
▁ol uştur
▁has onl
▁어 디
▁آ ل
ál ó
ouw en
▁되 는
▁r us
▁c ére
▁be a
ie ke
▁경 제
▁الم ث
h ere
▁그런 데
▁ser ia
▁fin almente
ğ un
的 东西
▁prim ul
▁ha gy
le ştir
f all
col i
と も
▁társ ad
▁nue va
▁cervel lo
iss en
c am
ad ora
▁тру дно
▁l ider
sch ap
▁иде и
▁lucr urile
었 고
▁сво бо
▁ни ка
▁d ễ
▁ 암
لي س
ır ım
▁س اده
▁po tem
▁h ät
▁donn ées
▁alkış lar
s tellen
ili śmy
▁الأ خ
er den
結 果
た ら
▁ل ك
▁in ten
olog ie
▁szám ára
▁re pre
▁proble mi
했 던
▁ي قوم
▁ما شین
▁מק ום
▁vrouw en
▁leg yen
▁из об
▁timp ul
▁l ich
▁ רי
he iro
▁instr ument
▁ 번
ت نا
이 었습니다
▁г лу
▁ha via
й ти
▁пър ви
▁о нова
▁о д
ir am
▁ל ט
▁wy st
▁u c
▁tr ò
▁tak że
と ころ
▁ki ểm
▁al len
y ś
▁물 론
▁ph ản
▁nos tre
▁ihr er
▁g uy
▁difer ite
▁af gh
自 分
▁بعض ی
▁הי יתה
▁во змож
▁tr ang
▁bi ểu
ers e
▁مختلف ة
▁زن ان
▁re ag
▁kw am
ле ми
pi ra
k op
▁هم یشه
▁сказа ть
▁topl um
▁gia o
▁ イン
í st
t ă
▁ה חיים
▁pra ct
▁c and
و ها
▁oc ur
▁eğ it
▁ 看
ij f
he tetlen
g od
el eg
이 라는
▁s qu
▁pesso a
▁h ưởng
▁gen re
ما غ
ár ól
▁l ệ
ק רה
de o
ar do
▁جام عه
▁g os
▁a ids
▁nie mand
▁تص میم
▁الس يا
▁kar ar
▁h ív
▁fas cin
ال ك
oss ág
▁م رب
▁ ın
را م
▁كب ير
喜 欢
▁го ро
▁ü ret
▁f ő
▁nas z
▁değ er
ру жи
as yon
▁해 야
▁qu ad
▁des cu
▁a gen
▁таки м
▁которо й
▁ty pe
▁d ados
▁arr ól
rij ven
ier ung
做 的
▁زی را
▁tr ying
غ ة
▁ن یز
▁ع ظ
▁г у
▁în ț
▁kom mt
▁ide ia
▁dev ons
▁cap az
に 行
▁시 스템
▁も う
▁ک لی
▁ر شد
▁utilis er
▁ 즉
ze u
ke iten
▁ن ور
▁probl ém
▁nie k
▁każ de
▁b os
▁ 끝
ی ط
▁彼ら は
▁ط ريق
▁ה נו
▁комп ью
▁tra i
▁br en
c um
al mas
▁ab ord
פי ק
че го
d ık
▁استخ دام
▁ע ומ
▁по лови
▁z ast
▁hay al
▁bel ir
tu ur
理 由
▁경 험
▁ن قط
▁ف ا
▁ב ד
▁ 뉴
m ing
▁بگ ذار
▁work ing
▁was ser
▁mu z
צ יה
▁تق وم
▁נ ה
▁swo je
ющи й
ч то
ség es
j r
자 를
ません でした
▁rich ard
▁li bro
▁bil gi
ст я
в ни
k r
ett ing
▁ol ması
ط ق
y g
が あり
▁الش خص
▁ا گه
▁mon t
▁doc ument
▁dat os
▁ 등
t schaft
▁по тре
▁bas it
wo od
▁явля ется
▁комп ют
▁równie ż
▁et c
▁ 再
ie g
▁در یا
▁ved em
▁baş ar
▁b ước
▁ро бо
▁по зна
▁t ám
▁da für
▁d wa
wo ści
する こと
▁tr ời
▁g ăs
д ят
▁داشت م
▁mik ro
▁fr ank
iss ent
ec te
ar o
니 까요
▁ 움
me yi
ab ly
甚 至
▁ze igen
▁tény leg
▁ko lej
▁ح و
▁trad ition
▁példá ul
▁m niej
▁k ì
▁des tul
▁bel ieve
itiv o
화 를
にと って
▁pres ent
▁ 법
p as
on ia
▁كب يرة
▁прое кт
▁бъ дат
▁giả m
בו ה
ia łem
br os
▁kö tü
▁k ı
▁b og
▁سپ س
▁re pr
▁r ese
▁pre zent
▁ein stein
▁cual quier
▁pro pos
▁gy er
▁gi ác
ولو ژی
▁t ồn
▁l ed
▁cons ci
ش ق
ри ть
l ing
文 化
ネ ット
▁dolg ok
▁بال م
▁об ы
▁не за
قا ط
צ ד
▁or az
▁fo od
y st
r ent
b it
▁م حد
▁k ics
▁id é
кспе ри
w ard
leg a
ese bb
b un
▁pr on
▁bo ok
ק ד
ע ו
▁من ها
▁ми кро
▁f oss
▁h ig
▁cré er
▁beh and
▁ 音
ري ب
▁ت عداد
▁הרא שון
▁z ero
▁6 5
لا ب
ح ه
ós ág
ler den
di do
기 가
▁فع ال
▁funcion a
▁د نی
▁fr ente
▁b ố
x i
m un
ド ル
ш но
▁انر ژی
▁wiss enschaft
▁qu iz
▁ko y
▁expér ien
ц у
ami ę
▁مت ح
ag t
▁y ü
▁fác il
▁cre a
▁ 벌
це в
개 의
▁pro zent
▁ 높
و ء
ל ית
er c
▁вме сте
▁vis u
▁szy b
▁و ارد
▁o ko
▁nom e
▁2 50
ای ش
▁دخ تر
▁yük sek
▁sp ot
▁isti yor
▁every thing
▁c ậu
▁مس ئ
▁we it
▁usted es
▁dom in
í z
▁تجرب ه
▁челове ка
▁wür den
▁boy unca
to ztat
▁ع کس
▁p ont
نا ه
了 一个
▁تلا ش
▁me chan
▁cas e
ти м
ığ ınız
m ű
ck s
▁v end
▁ ク
iz a
之 后
▁нико гда
▁desco per
di amo
了 一
▁đ ình
▁cient í
▁a ún
ít és
e in
经 济
▁أن ت
▁гру п
▁strat eg
▁sm all
▁reg ul
▁ 想
y er
▁بیم اری
▁potre bbe
▁per cep
▁me us
▁afgh an
ف ی
▁наблю да
ше н
r us
解 决
▁ле кар
▁b ás
▁ 접
д ви
▁ف رو
▁وال ذي
▁جز ء
▁الت ص
▁hacer lo
▁fem mes
▁arbe it
ве сти
自 然
ない のです
▁mi ędzy
o bra
更 多
新 的
上 げ
ty w
▁س را
▁у би
▁zac zę
▁sp ir
▁di pl
▁ ¡
ő s
an ces
▁pro y
▁ge bie
▁cre ativ
lar ında
g ép
b ed
▁sens o
▁elec tr
▁bah s
î n
学 生
▁g am
▁bir bir
▁ak ár
da y
つ か
▁stre et
▁pro t
اب ت
вать ся
▁كان وا
▁на до
▁кра й
▁pens are
▁la b
n ál
드 리
네 요
▁예 를
▁suc cess
▁re ad
▁ers te
▁ap rend
f s
cho dzi
▁un idos
▁si te
▁p unt
▁diag n
▁你 可以
▁می تون
▁o ud
▁m ama
▁ha j
נ ן
▁thuy ết
t as
▁e ti
чески х
на н
아 요
▁以 及
▁pou voir
▁ihti yac
is en
b in
▁pi an
▁ken nen
▁centr al
ad ar
経 済
▁گ رد
▁qu asi
▁m alar
▁disp oni
▁それ が
▁بیشتر ی
▁ל ר
▁odp owie
▁تق ری
▁ببین ید
▁volt am
▁cont ar
תי ים
ва х
▁ph ủ
▁hozz á
▁e ş
▁не я
▁yo ung
▁respons abil
▁re ac
▁ob s
▁ب سبب
▁некоторы е
▁лю би
▁кото рую
▁все гда
▁mo t
▁fut ure
▁au g
ch ę
▁sie ht
グ ラ
▁семе й
▁f ény
▁er ken
р ю
ut ă
a ires
то чно
ol s
へ の
▁obe c
▁nou vel
ä m
ag es
▁đị a
▁đ á
▁yüz de
▁ayr ı
▁상 황
▁مح یط
▁п ря
▁други х
▁а л
▁h ic
▁v ệ
▁think ing
▁re ven
▁nu ev
▁atra vés
▁as k
▁an nyi
ג ות
ır s
▁ara b
▁ 빠
の に
▁о па
▁на ходи
▁muj eres
la ge
g os
▁tov ább
▁tom ar
ור ך
וא ו
em i
▁op tim
▁mon ey
un os
▁گ ذا
▁ق لي
▁آم د
▁mil hões
tek et
ati que
▁mil ioane
▁fin o
▁таки е
▁powie dział
то к
2 5
▁ר בה
▁nues tras
▁lan ge
▁commun ic
ще ство
▁움 직
▁تصو یر
▁ver tel
▁us ing
▁sape te
נ טי
▁של ך
▁по дума
▁produ ce
▁أ كبر
▁про дол
▁kör ny
▁f lo
z ă
▁cri ar
▁ 돈
ض ية
וב ה
же м
z ó
年 代
▁до ве
▁v ér
▁sa is
▁cr is
▁у жа
▁cr it
▁200 5
man ın
bilir iz
ー の
▁المت حدة
▁ми на
▁et wa
لي م
де ть
lar la
▁ك رد
▁بدأ ت
▁k utat
▁ サ
▁означа ва
▁é ner
▁gen i
▁g ay
▁bla ck
当 に
▁어 느
▁дете й
▁ه ؤلاء
▁świ ata
▁tr ud
▁th ương
▁sava ş
▁h ạn
▁de ver
ük et
n ung
ite t
た り
▁при я
▁siz in
わ け
▁עו שה
▁בע רך
▁seg ít
▁ 잠
ご ざ
▁چیز هایی
▁ş ir
▁prend re
ش رة
ű r
▁سو ال
▁mik or
▁me x
▁l ợi
▁de ber
فك ير
ъ ка
ö sen
ler inin
▁לה בין
▁fac ă
▁ي م
▁w onder
▁düny anın
▁bilgisay ar
▁verste hen
▁az i
вс ем
話 を
▁وال أ
▁واقع ی
▁sol ar
▁g yor
▁ は
▁ ניתן
ț ion
リ ス
という ことです
▁наше й
▁gle ich
▁gen om
ль ный
c ję
真 正
▁ي ن
▁ف كرة
▁le id
▁bil li
▁گفت م
▁מ יי
▁интере сно
▁tier ra
▁p ill
клю ча
is zt
城 市
▁min der
▁ の
si ę
pe ł
d üm
▁ty p
▁mul ţ
▁amér ica
ار س
▁چ ی
▁نظ ام
▁ו נ
▁tam amen
▁pl as
ט ח
ded or
▁گ ونه
▁ה צי
▁ви наги
▁versch ieden
▁m ục
지 도
▁ب ج
▁со вер
▁nou veau
人 々
▁по стоя
▁tot ul
▁pass iert
ăm ânt
in ç
▁наша та
▁re v
▁prim e
▁p ontos
▁in cr
▁ 병
ز يد
ול וג
▁לח שוב
▁בת וך
▁l ok
▁ir ány
▁c ant
ori es
▁ק שה
▁הז את
▁k ia
ự a
و نا
al ak
▁연 결
▁ن س
▁уни вер
▁în ţ
▁las ci
▁l ì
▁impor ta
▁hast al
▁ 要
л ната
影 响
少 し
▁למ ע
▁l eren
▁cre ar
▁chc ę
ב ול
▁سا عت
▁יוד ע
▁t ỉ
▁parl are
▁meg vál
n u
h u
ま れ
▁ver m
▁trans port
▁kon nte
▁con ven
▁ 去
اد ي
ло м
가 는
の が
▁م ب
▁יכול ה
▁ва ше
▁nig dy
▁gi o
ét é
▁g at
ч ки
▁شيئ ا
▁ты ся
▁so tto
▁pued o
▁inter pre
▁est es
▁do et
▁ن ف
▁دنب ال
▁ 깨
▁ ۳
qu ement
for me
▁찾 아
▁الط ريقة
▁у бе
▁му зи
▁вы со
▁su iv
▁sig ur
▁natur ale
▁különb öző
▁geor ge
▁gen era
▁g ou
ک تر
عل ومات
де ние
▁그 의
▁ه زار
▁מס וג
▁đo ạn
▁v òng
▁ni veau
▁j elen
▁e vent
▁인 터
▁на писа
▁fem e
▁b án
▁م ما
▁vár os
▁th ôi
▁t ari
▁comprend re
▁an f
ומ ים
ра м
▁sig n
oare ce
▁въ зможно
▁ab il
▁صح ي
▁пра кти
▁во да
▁s ık
▁ros sz
▁p ala
▁ca use
ъл но
is ce
al ia
스 로
▁ни що
▁or ada
il y
细 胞
▁الع ديد
▁ver amente
▁num ber
▁nere de
▁di k
z it
▁нари ча
▁rec ord
▁mulher es
▁gra do
▁del es
گ یری
ща я
ation en
▁про да
▁ş öyle
▁man h
▁ 코
▁ 只
ent ras
▁програ м
▁v ừa
▁milli onen
▁cine va
▁آ ورد
▁dé j
ط ا
ر ية
qu i
て み
▁영 향
▁zaw sze
▁v ak
ذ كر
1 2
▁учи ли
▁сло ж
▁car a
ید ی
か け
▁st anie
▁sie te
▁fi ve
▁con cep
го ля
▁с ла
▁ver tellen
í p
bil iyor
い い
▁خانو اده
▁за бо
س ية
ку с
tu be
st and
是 在
▁zie mi
▁hor as
לו ם
t ta
▁الب شر
▁اجتما عی
▁niek tó
ek om
され る
▁지 난
▁to c
▁stess a
ור יה
▁أ ما
▁בא י
▁lehető ség
▁inc l
u j
sz ym
▁pra cy
▁na zy
▁dar an
▁می ان
▁val or
▁ers ten
لا يا
í veis
qu el
me e
た のです
▁qu ali
▁me ans
▁bab y
گ فت
▁تقری با
▁wszyst kich
▁apren der
n ell
▁дава йте
▁trze ba
פ ל
v ra
t ö
▁carb on
作 品
▁د ي
و ير
ow ane
▁pr óbál
▁perf ect
▁in ne
ска та
▁s tem
▁s ant
▁revol u
▁ce v
ら に
かもしれ ません
▁о каза
▁v ast
▁f anno
▁comp ass
▁cam bio
ע ם
c je
▁to ch
▁sem bra
▁secon do
▁ra d
▁pre par
▁pos i
▁k ultur
us tr
した い
▁exp lo
▁algum a
че та
s tr
명 의
や って
▁k iếm
▁his zem
▁app elle
▁ ロ
ul u
kie go
h alar
▁ن عم
▁د هم
▁מ כו
▁та кой
▁k ids
5 00
▁s ze
▁m ój
▁la i
▁hom me
▁ch irur
▁be tek
פ ט
▁pe ux
ш ка
cz enie
▁ف ض
▁ב חי
p ri
▁در ک
▁במ קום
▁му зы
▁t ę
▁к ро
▁cere bro
帮 助
ニ ュー
▁아이 디어
▁е нерги
á v
pr end
ge f
▁이야기 를
▁deter min
▁d ate
zy st
v ő
나 요
▁گ وش
▁меди ци
▁интер нет
的 问题
▁ی ع
▁ق ص
▁sta bil
▁b ă
▁amig os
про стра
ư u
▁مت ش
▁ب سا
▁הא ר
▁которо е
▁в ра
▁preg unta
ни ци
情 况
▁پرو ژه
▁ي قول
▁ра ди
▁przy pad
▁i̇n san
▁con fr
ort h
▁وج د
▁ص دا
▁j um
▁s ì
▁certa ins
▁ 길
et r
▁یع نی
▁سي كون
▁ava ient
א ן
b on
▁私 達
▁ب ما
▁во й
▁fra uen
▁duż o
وا ز
i os
리 아
简 单
▁sem pl
▁ 将
ז ר
ст ри
mam ız
i um
▁데 이
▁مو اد
▁مت وجه
▁ط ب
▁מס ת
▁по м
▁étu di
▁comb in
ż a
iniz i
▁буду т
▁perso on
▁m iał
з ви
ną ć
릅 니다
▁ب یا
▁pens é
▁divers e
ut é
on os
ament os
▁전 에
▁últ imos
▁mac ch
▁kö ny
ظ ام
וד ות
к ъде
▁e li
ческо й
tan to
▁из обра
ien za
a ient
▁wy obra
▁v ão
▁tr ải
▁pens ando
▁m id
▁enqu anto
te ur
ent ie
▁vi te
ằ m
وم ة
لا ح
ons ág
▁있 게
▁чув ства
▁rá pido
ذ ج
这 么
▁흥 미
▁ن قوم
▁друго й
▁chcia ł
до ве
▁기 억
▁kom ple
▁dévelop p
▁ave vo
结 果
▁те р
▁mes ma
▁ho op
▁gro up
▁con cer
ler inde
▁국 가
▁tr u
▁re k
▁re cent
▁qu ale
▁mil es
خت ه
c endo
▁u waż
غ م
ân du
der en
者 の
ステ ム
▁vra gen
▁um an
▁s endo
▁in gen
▁groß e
▁amer ikan
▁ ジ
מי ים
选 择
▁с рав
▁и кономи
▁h ầu
p it
men o
at ur
▁h il
▁be teg
▁ 리
ну ть
▁أ ص
▁part es
n ement
間 の
▁엄 청
▁הש ני
▁к ъ
▁he ad
до ста
었 어요
스 트
▁ד ול
▁res to
▁cop il
▁на стоя
▁schim b
▁l ép
了 解
▁מ וש
▁ver r
▁mo gli
▁bir likte
ג ש
ט ו
нно сти
лект ро
ne a
di al
細 胞
▁الأ ع
▁си туа
▁се м
▁th anh
▁am int
ре ние
sz tał
ent ion
意 识
▁음 악
▁h ộ
▁ 很
мен ти
el li
▁کن ار
▁ط ريقة
▁to ok
▁re cher
▁oc é
▁mi entras
▁kam er
▁וא נחנו
▁r am
▁apro xim
or gan
▁to ur
ünk et
▁比 如
ات ی
آ ن
▁پ شت
▁зае дно
▁же ла
▁f est
▁ 用
сто й
в ън
á ja
▁é ves
▁mo eil
▁ا بت
▁par ad
گ و
s u
동 안
过 去
下 来
▁lu ật
▁biz tos
▁ 没有
▁ ご
ör en
ute t
▁th i
▁pod czas
▁de oarece
▁بیم ار
▁о п
▁б ър
▁kahka halar
ter o
め る
▁می ز
▁inform atie
▁har ika
▁al z
t ür
ją cy
▁و ر
▁zor unda
▁o ui
▁francis co
▁for mas
▁far lo
▁dom anda
▁cére bro
ar á
▁у ли
▁бе зо
▁niet s
▁gan ze
л ле
리 가
▁그것 을
▁ה חי
▁î ng
▁se qu
▁ben ut
ל ך
▁מ דה
▁ко р
▁v elo
▁sie bie
те ля
들 도
▁ده ید
▁د وم
▁מ וז
▁зем ята
▁z es
▁tre cut
▁hab it
▁déj à
▁czł owie
して く
▁만 드는
▁我们 的
▁そ こ
▁منظ ور
▁بسی اری
▁أ جل
▁de di
▁bes ta
رك ات
oló gi
왔 습니다
▁anders on
ist ic
ek kel
他 的
にな りました
к ри
▁клет ки
▁s ợ
▁más od
▁ 手
ви д
zy ch
▁у ро
▁необходи мо
▁r ộng
▁pass é
▁et ki
▁da bei
נט ר
▁ف ل
▁حد ث
▁ج وان
▁الع اده
▁m ôi
▁h ip
wij l
▁ي ق
▁со бира
▁el v
▁b le
ب ین
т ки
てい ました
▁appr end
ţ ion
▁لل غ
▁ש בה
▁mu zy
▁cro is
▁intel ligen
▁놀 라
▁tr ăm
▁g ri
▁fej lő
▁ch ân
▁ag it
如 此
十 分
▁저희 는
▁pom yś
▁po zi
▁neur on
ло в
▁לד בר
▁стру кту
ст ы
以 上
▁پ اس
▁tro chę
私 は
▁сво й
▁ő k
▁di o
▁com ida
よ く
▁ه ی
▁توان ند
▁mar k
▁a antal
▁ ハ
ст ъп
▁num ero
▁gi ữ
▁e pid
ния та
ź niej
s tell
ok o
▁ 넘
組 み
▁مو سی
▁plut ôt
▁model o
▁ens emble
▁ce ux
▁ ün
во е
ir s
▁وه ذه
▁сво ей
▁produ z
▁natuur lijk
ج ع
o ft
ier z
▁mondi ale
▁mag az
▁har v
▁ 독
▁ 事实上
ц о
▁погле д
▁wil de
▁nem en
י לו
▁ве щи
▁ter wijl
▁reli gi
▁pon to
▁miljo en
▁f im
▁em bar
اري خ
▁ن زد
▁ق سم
▁zac zy
▁dar win
▁ciud ad
до х
гра ни
ı la
abilir iz
▁במש ך
▁pal ab
▁letz ten
ای ت
ג ד
ze it
的 地方
▁الآ خر
▁su g
▁pa ul
▁következ ő
▁ann ée
l ıyor
组 织
▁디자 인
▁거 의
▁ 폭
غ لب
全 て
▁אות נו
▁mă s
▁któr ą
си ли
ás ra
▁بح ث
▁çalış t
▁h id
▁ein z
▁ ür
関 係
▁جد يدة
▁te ach
▁re pro
▁l ény
ent iel
重要 な
▁ج ل
▁gro u
▁人 们
▁פ ני
▁вы гля
▁sco per
▁ne hmen
▁ac ces
و را
us ti
j unk
de a
大 学
▁ven it
▁soll te
▁partici p
▁l ist
ф фе
ıl maz
ít s
変 化
▁у зна
▁mu dan
u el
▁ن ما
▁в лия
▁rese arch
▁cons erv
▁con v
▁ パ
ut ions
os os
▁по р
▁fra gen
▁ ış
ר בה
im de
時 に
▁vo ula
▁lu ận
no us
实 验
▁сигу р
▁z one
▁po pr
▁no kt
▁gre en
▁che z
대 한
有 一个
フ リカ
▁ה בע
▁то т
▁glob ale
▁czas u
▁c ard
ri que
▁ز یست
▁ни чего
▁rel ativ
▁esp ec
▁des cri
▁ 更
ز ینه
н ки
zt am
as a
▁simple ment
▁elő ször
▁ 혹
ظ هر
z ek
▁او نا
▁verander en
▁reg ard
▁l ett
▁ar ăt
▁ar ată
f ér
▁الأ ن
▁ב מי
▁по ко
▁ге не
▁con oc
ğ raf
▁pad re
▁con cept
▁ar qu
▁ 천
▁ 次
ша я
▁vers o
▁met a
▁ha ck
ic y
相 信
▁כ ת
▁hü cre
▁h it
us a
▁לג בי
▁с ми
▁t ích
▁desco br
▁b ody
wi ć
▁ز بان
▁וי ש
▁בעצ ם
▁suc ces
▁că n
д ържа
id es
▁ב סי
▁ziem lich
▁comp et
l ung
▁su e
▁pos sa
▁betek ent
▁ad esso
▁ 把
á ro
ul p
te il
▁الش يء
▁ma akt
▁en ough
ست ر
ár t
▁сво ю
▁ме сто
▁деца та
▁şir ket
▁teşekkür ler
▁ol ma
▁n este
▁kön nten
كنولوج يا
ري با
言 葉
▁z ad
▁po ți
▁p in
▁er r
п ъл
ok ban
ci ć
那 个
▁그 가
▁использо вать
▁đo án
▁resta ur
▁ph ục
▁ha cen
▁dụ c
▁ ä
▁فی لم
▁برا بر
▁להשת מש
▁у ста
▁момен та
▁е вро
▁so le
▁m ắt
▁ed il
▁aut omat
ل ات
to are
id ge
▁има ше
▁ör nek
▁build ing
וק ים
хо дя
у м
▁cab e
פ ס
d ată
▁unter sch
▁pes qu
▁becom e
ك ية
机 器
事 情
▁съ ществу
▁му ж
▁ver änder
▁ment al
▁char les
▁będ ą
رو ف
ст в
决 定
▁ми сле
▁pró pr
▁lim it
▁l ã
اف ظ
at ore
人 は
▁д ържа
▁st am
▁soll ten
▁o ch
▁minut es
▁dre pt
▁d ành
يم ة
▁تع رف
▁بال ط
▁san at
▁199 0
ח ס
pi amo
▁ع مر
▁ت وس
▁ת מיד
ن وع
í o
ta ble
cz ę
▁ק ור
▁v á
▁u da
▁se is
▁oczy wiście
tu al
ro y
▁ad min
ıl an
▁자 연
▁נ ק
▁фото графи
▁v ind
▁teknolo ji
▁inter na
▁dobr ze
▁cu er
▁cor ps
élk ül
t ér
di re
え て
▁ли шь
▁or ient
▁f otos
▁ 目
계 를
▁س خ
▁keres zt
▁esta vam
أ ك
ér ia
▁mo lek
▁h ồi
кто р
ネ ル
▁설 명
▁الا ست
▁до ла
▁wy kor
▁le ft
▁cam era
▁ ビ
▁خود ش
▁بال فعل
▁ب کن
▁k ellett
wa ch
t ti
▁회 사
▁세 포
▁미 래
▁나 타
▁هد ف
▁صد ای
▁па ра
▁t ối
▁ra zem
▁kon den
eni u
▁ج الب
▁v ẻ
▁ula ş
▁myśl ę
ي ه
ני י
▁многи е
▁meg old
▁m ele
▁ 国
ol are
よう と
▁가 진
▁ה רו
▁ма с
▁é lec
▁si de
▁sar à
▁m ân
▁cu án
▁bess er
▁arbe iten
▁200 6
ç os
ese hen
▁정 부
▁afghan istan
iler in
▁ح مل
▁מה ם
▁đ ầy
▁inve ce
▁dat ă
lam a
小さ な
两 个
▁이 게
▁re du
▁pl ast
ula jd
▁erz äh
▁ang eles
ز ش
u jemy
时 候
▁ي ا
▁ك ار
▁с ви
▁so f
▁ テ
ي ع
仅 仅
▁환 경
▁с пу
▁simpl u
▁n ối
▁kapcsol at
▁предста вля
▁w est
▁popul ation
на ми
t ate
or do
om ány
isch er
ge w
▁ת ק
▁ми ра
▁çe şit
▁el ér
▁200 4
▁ ţ
ту ра
ło ż
ン を
▁sz ak
▁ri êng
▁nouvel le
▁for a
▁خ ص
▁בצ ורה
▁e den
想 法
ク ト
▁w pły
▁201 1
r á
cy j
▁در مان
▁wit hout
▁tak i
▁cor az
▁büy ü
ج ب
ма н
▁나 라
▁ג ר
▁zod at
▁ir an
▁attravers o
▁al cune
kt or
ka ch
▁so b
▁j emand
ń s
▁време то
▁w all
▁qu ase
צי א
o b
im ente
▁به ذا
▁الأ طفال
▁ér z
▁ra ison
▁m ivel
▁l ịch
▁fr ont
▁bon ne
▁ 몸
▁ では
iz en
it ions
diğ ini
▁ف ن
▁né gy
را ب
得 到
▁그 게
▁па ри
▁ún ica
▁polit ik
▁comp on
ه نگ
자 들이
▁م ال
▁ad ol
é li
sta w
▁ア メリカ
▁ח שב
▁sub st
▁art ic
ん ど
▁وه نا
▁خ طر
▁com mer
▁ch ica
▁au ß
يا ه
ün f
▁من ه
▁המ ת
▁из след
▁го д
▁on ların
▁com es
▁ب سي
▁раз рабо
▁von t
가 를
▁co de
v ere
ca ğ
acağ ım
▁아 직
▁상 상
▁ב לי
▁повече то
▁об на
▁sz ko
▁o oit
قا ئ
um s
ー プ
▁아프 리카
▁こ んな
▁خوب ی
▁z ami
▁tip os
▁per mit
▁oko ło
▁l ic
▁ener gy
▁dan ke
▁ ほ
iel d
ber en
▁הש ת
▁mon th
▁min ute
▁hum ana
x o
ig heid
ec tiv
ス の
▁וכ ך
▁thu ộc
▁mat em
▁történ ik
▁m ant
▁c ic
פ ון
▁تکن ولوژی
▁למ צ
▁חד ש
▁sufici ente
▁suc cesso
▁su ff
▁de vi
▁ 편
▁ 可以
ạ y
وا س
ق ال
פ ול
ık ları
▁princip al
▁mis ma
▁minut os
▁đ ứng
▁s âu
▁pok az
▁nek em
▁k ỹ
▁ex isten
tel lt
照 片
ン ピ
▁و ی
▁כ שא
▁pú blico
▁op t
▁fac endo
ac je
▁보 시
▁مث لا
▁اف ز
▁וא ם
▁т ра
▁дол ла
▁p y
▁don ner
▁comun ic
▁bir şey
át ico
으 며
许 多
▁w ida
▁wida ć
▁go ede
▁d ak
▁bi ển
ל ם
ו ץ
▁الم علومات
▁آمریک ا
▁n ổi
▁an ima
▁ 메
적 이
環 境
▁교 육
▁ت وی
▁u ite
▁g etting
▁ 호
ъ в
re te
인 지
▁موسی قی
▁تح قی
▁meg lio
▁cell ule
▁ 머
vel mente
▁w ach
▁ví z
▁kics it
▁k ür
ня ть
ur ilor
で の
▁پ ذ
▁פ חות
▁ל דע
▁su ch
▁so und
▁r zą
▁n ation
▁erk ek
ac ję
▁nen h
cz enia
b et
▁ن داشت
▁הי ינו
▁е ще
▁c ien
▁ より
ش اف
▁선 택
▁ה דרך
▁produ k
▁meg ér
▁مدرس ه
▁ق منا
▁آموز ش
▁прои зве
▁l òng
▁di ện
▁comput ador
v án
na gy
성 이
▁例 えば
▁ 커
ח ור
an cia
项 目
だけ で
▁چ شم
▁وج ه
▁ش گفت
▁آ ش
▁פ ת
▁wel che
▁pos to
▁is lam
▁fundament al
▁algor it
ج تما
ow ą
il h
abile ceğ
ג ו
ư ỡ
imiz in
ay an
▁мо ей
▁в не
▁ар хи
▁u omo
▁il lus
▁av uto
ş a
ze ug
ber g
不同 的
わ り
▁ن ستطيع
▁ar asında
▁any ag
ut án
in ter
▁ساخت ه
▁ال قد
▁свър за
▁д ър
▁nim ic
▁ex istem
▁dol l
▁d ing
▁asp ect
▁196 0
ث ة
ג ה
un is
▁обра тно
▁нем ного
▁o znac
▁mor te
▁3 2
ra ient
影 響
展 示
大 脑
▁스 스로
▁و أن
▁vég ül
▁egyet len
жа т
▁پ د
ها م
ч ё
过 程
▁ج يد
▁ל לא
▁stu dio
▁laat ste
▁gebe urt
▁el l
owa ł
ist ra
il yen
▁э нерги
▁tr ợ
▁th iên
▁mer ge
▁con tre
ok kal
ment s
▁връ з
▁tal king
▁spre chen
ter en
er am
ap s
머 니
▁ي ست
▁مو فق
▁yak ın
▁woll te
▁man ip
▁gyer mek
▁energ ía
▁dat en
רג ע
▁or g
▁num a
▁gema akt
▁поя ви
▁опи та
▁pu țin
ج ات
ра ст
í teni
ip e
f ie
▁паци е
▁yer ine
▁o da
▁j ames
▁din heiro
کن ون
сте й
身 体
▁관 한
▁ک ی
▁p ământ
▁mak ing
▁de ta
ad amente
▁就 像
▁الع ل
▁фи л
▁trans par
▁j or
▁ered mény
▁pap ier
▁p m
ع ى
p ia
at ti
▁раз ка
▁иссле дова
▁stud ent
▁rodz aj
▁n is
unk at
▁وع ند
▁mus ik
▁ap ă
te i
▁نح و
▁میکن م
▁ע שו
▁стра хо
▁с пра
▁dollar i
▁di as
动 物
▁у строй
▁на зва
▁vol gende
▁mein en
▁k ir
▁유 전
▁دل ار
▁szem ély
▁se it
▁en de
▁ 떠
ל נו
сти ту
▁تعلم ون
▁הראשו נה
▁ver di
▁ ブ
류 의
▁למ ש
▁теле ф
▁неве роятно
▁mich a
▁me isten
▁labor at
▁interest ing
▁foto ğraf
▁e as
▁begrij pen
з ни
on se
▁ساز مان
▁ت ست
▁ام ید
▁компа нии
▁tot almente
▁pens amos
▁ol mas
r é
ler le
▁프로 젝
▁پ یچ
▁mein em
▁j ong
▁g or
▁ ấn
ي ار
ân cia
▁آ ف
▁נ ע
▁המ וח
▁sa at
▁s ir
▁közös ség
▁gaz daság
li cht
▁буду ще
▁răsp uns
▁on lara
▁k ır
▁app le
ца та
ли на
s am
▁같 이
▁l ut
▁ak tiv
▁ 僕
n ánk
▁동 물
▁چ نین
▁sc en
▁fu era
▁capa cid
ir d
場 合
▁بر خی
▁e con
▁desar rol
ه ن
b ere
ari os
▁въ змож
ко лко
u jąc
b all
环 境
之 前
▁작 업
▁об а
▁бо га
▁tel es
▁montr er
▁k ív
sche in
거 든
一 直
▁ش ی
▁بط ريقة
▁ב דרך
▁зна м
▁sa voir
▁qui te
▁probl èmes
▁d il
ها ت
чески й
ü gy
í tet
ch ar
▁г ри
▁progr ama
▁do p
▁dem ek
思 考
▁let ter
д ми
s ége
▁каж до
▁đ ạt
▁t ạp
▁prop ri
▁fond ament
▁19 5
ث ير
ק ס
ра не
▁이것 을
▁ر نگ
▁z et
▁n es
▁mo is
▁liv es
یر ه
pu esto
▁tör té
▁su re
▁n an
▁lé tez
תי ד
om i
▁مع نا
▁ع رض
▁един стве
▁to án
▁מער כת
▁технологи я
▁наши х
▁t ulajd
▁so pra
▁pierw szy
▁he ure
iế u
▁저 의
▁يع مل
▁ش ئ
▁נ ח
▁cel ui
ow ego
▁여기 서
▁partic ul
wie k
▁تماشا گران
▁sens e
▁qua is
מ נות
▁مع ا
▁проме ни
▁fl or
▁ 上
ح ية
▁по не
▁г ре
▁а ми
▁vre a
▁of er
j ego
b lich
같 은
▁학 교
▁だ から
▁כמ ובן
▁по хо
▁mal ad
▁ha bil
产 生
▁ج عل
▁tho ại
▁ro om
▁ ۵
▁بهتر ین
▁фи нан
▁ста на
▁ç iz
▁amer y
ولا يات
ف ض
▁é sz
▁son unda
▁k enn
▁en kele
w ort
tri es
hr ung
▁프로젝 트
▁کن تر
▁ند ارد
▁wła ści
▁vu el
▁prob ably
▁er an
▁di j
▁ 와
с ла
ros s
▁الأ شخاص
▁ד ו
▁ol har
▁mu dar
▁m ối
▁in se
▁du ra
▁af ry
וב י
о т
▁الم خ
▁י ת
▁maggi or
▁interes ante
▁fel iz
▁din ero
ст ли
со м
в ь
ter ior
t te
▁בה ם
▁те о
▁st uk
▁de ja
▁cl ass
▁c ut
és ek
▁우 주
▁îm pre
▁lan den
▁con hec
▁asso ci
è o
z ed
nik ów
▁ת ר
▁to ekom
▁s öz
▁ra um
▁milli ó
▁merc ado
▁lors que
ф а
bra cht
男 性
れ て
▁얘 기
▁س م
▁ب و
▁הול ך
▁import antes
m is
▁ن خ
▁ب پ
▁k as
▁ent ra
i ft
大 きな
▁말 하
▁ي أ
▁ا دام
▁прои зо
▁коли чество
▁y at
▁p ół
▁inter ior
▁harv ard
د ار
ва що
to ut
▁со циа
▁vi itor
▁t old
▁se vi
▁onderzo ek
▁ins egn
▁ 地
g ro
c ü
▁к ре
▁üzer ine
▁încer c
▁os ser
▁mai oria
▁in o
▁ho ch
▁ger eken
▁beet je
▁می خوا
▁أ ق
▁man n
▁le vel
▁ت ستطيع
▁zit ten
▁y ếu
ч ные
л ка
艺 术
▁다 양
▁له ذا
▁ро дите
▁z in
▁s truct
▁po ţi
▁fr um
▁abb ast
▁abbast anza
ụ p
ה לי
ıl ı
g est
▁ta h
▁incre í
▁gir l
▁alre dedor
v eg
il la
al og
1 8
▁그 럼
▁ál lam
▁v âng
▁mo yen
▁k ỷ
▁cre at
מ ם
ak at
通 り
自 身
った のです
▁א ף
▁бе д
▁teknolo j
▁j ug
▁hat ta
▁g ái
▁dz is
ث یر
בל ים
ва ется
ár ia
up art
▁ادام ه
▁е му
▁vis z
▁perg unt
▁مجموع ة
▁פ ה
▁x ung
▁vis ion
▁tr ông
▁komp uter
▁h art
▁ â
ig lia
▁여러분 의
▁م ف
▁тако е
▁y al
▁f öl
▁a í
itu de
ie urs
년 에
▁사 랑
▁че ти
▁po dob
▁pl upart
▁jo urs
▁americ an
▁ 체
ło ść
▁geno eg
▁fog lal
▁ב מו
▁par ents
▁oy un
▁met tre
el ked
▁moeil ijk
▁mi att
▁do świad
v iz
tt y
lam ak
▁أ مر
▁ro ck
▁po czą
▁m ek
ופ ה
sch ijn
ess i
▁ا ه
▁въ тре
▁possi bile
▁mi esz
▁happen ed
id ente
▁را ست
▁الم ص
▁hom bre
▁fre qu
s ız
했 고
이 는
▁ל מי
▁пере д
▁prof und
▁ni ente
▁neh éz
▁fe ito
▁bek ommen
жи м
ito are
ン ド
▁ط ریق
▁де ре
▁ço ğu
▁po ja
▁men ny
▁l ég
▁k la
より も
▁ل هم
▁כ זה
▁реше ния
▁w ik
▁p amię
▁12 0
ря д
▁זו הי
▁z wiąz
▁מי שהו
▁וה יא
▁zn ale
▁vál aszt
▁proget to
▁tudom ány
▁minden ki
רי ות
г ли
qu elle
ine a
方 面
拥 有
▁حاضر ین
▁כ עת
▁th ái
▁re de
▁po wo
▁ 地球
л ки
zi ć
em e
at z
意 思
▁то же
▁с ша
▁va ak
▁geç ir
▁ 훨
ш ли
am enti
▁v eg
▁v edi
▁precis a
▁fac ciamo
▁er f
▁cerc et
ль ного
ru k
▁po ł
▁kö zel
▁hist ory
▁ha ut
▁h ora
い う
▁这 种
▁други е
▁év vel
▁quest ão
را ع
ار ب
ч ных
ș it
b bi
지 고
▁ل ان
▁să n
▁potrze bu
▁famil ia
▁f igli
▁ 은
és i
ate ur
▁yaklaş ık
▁ord inate
▁köz ül
▁conf lic
▁ 규
▁kle inen
▁gen ç
че ства
▁훨 씬
▁пъ ти
▁şe hir
▁zac zą
▁uy gul
▁tr úc
ers i
▁милли о
▁mun dial
ער כת
z are
olog ia
lo tt
fic io
▁kép zel
к ви
fé le
▁dol ari
▁divers i
ем ы
v ény
of d
也 是
▁م ادر
▁س عی
▁в стре
▁sap piamo
▁hat ır
يل ة
лы ша
s h
ges ch
▁사람 들을
▁ר ע
▁больши н
▁înc ât
▁trat ta
▁junt os
▁h ö
▁ac erca
ئ ات
ら は
▁بعد ی
▁מי דע
▁ל נ
▁т вър
lus s
and on
▁למצ וא
▁резу л
▁ме се
▁vi ve
▁c idade
v ány
▁sa gt
▁re gen
▁pas sa
▁m üz
▁l ista
▁dis cut
бо й
ge z
ad aki
那 里
▁احتمال ا
▁א ור
▁мате мати
▁történ et
▁th úc
▁kil om
줍 니다
▁din tr
чно й
н ю
ма лко
▁پاس خ
▁أن ني
▁раз ме
▁tra vés
▁pap el
▁meg m
▁fér fi
▁cos ta
▁civ il
פ רים
했 어요
▁لحظ ه
▁در ون
▁بال أ
▁ب دا
▁дан ни
▁внима ние
▁безо па
▁si ano
▁pro be
н ные
zie k
が あ
▁съ щи
▁socie tà
▁situ ation
▁res pu
▁które j
▁hay van
▁dir ig
ő en
san ız
거든 요
▁마 지
▁гра жда
▁fe z
s gál
可能 性
▁as upra
خص وص
▁کن ی
▁уди ви
▁зна ю
▁mayor ía
▁kam p
▁califor nia
יו חד
schein lich
整 个
▁таки х
▁sp iel
▁pl ă
▁k ong
▁dar auf
стви я
ar si
되 고
▁۱ ۹
▁man ten
▁hu is
▁co urs
▁at ten
ijk t
タ イ
▁оби ча
▁де т
▁pa ese
▁kto ś
▁d aki
ئ ی
колко то
v re
elő tt
bl ic
1 1
▁פ רו
▁א שר
▁br an
urs os
▁افت اد
▁y es
▁vro eg
▁sistem i
▁pre tty
▁iş te
▁dis tr
▁am or
▁ai ut
▁ 家
▁ &
ط ل
í g
v os
▁لدي هم
▁си м
▁по ме
▁wen iger
▁v ận
▁te oria
▁se p
▁sc r
ï n
ad omo
▁ح ي
▁l it
▁c uri
▁af gan
ود ی
a ce
年 の
▁inc roy
ñ as
k ra
c ine
▁שא י
מ שים
ב ית
öt tem
ón de
が 必要
▁개 발
▁medic ina
▁liv ing
▁for te
▁comp os
ál t
变 得
を 受け
▁조 금
▁ла бора
▁ver en
▁rac con
▁mulț umesc
רא ו
ượ t
im enti
인 데
▁от вет
▁famil y
▁eig entlich
sz ik
言 いました
▁마지 막
▁انگ یز
▁случа е
▁pó źniej
یم ان
ó gy
ら い
で あり
▁2 6
عل ق
גי ש
тре ть
le o
iv os
d ür
cul ar
不 知道
ござ いました
▁완 전히
▁שמ ע
▁нап ълно
▁tro vare
▁b and
вле ние
u pp
f ac
b ut
や り
▁ن گه
▁الم س
▁има те
▁z g
▁wor d
▁powie dz
▁ng ữ
▁n ul
▁gl ück
▁esc ri
ó i
▁것 과
▁إ ذن
▁faci le
▁ba ix
▁any thing
▁ 난
ход ят
uk at
▁одно й
▁mus ica
▁is ter
▁gol f
з я
ва ла
a ines
▁لا زم
▁само е
▁pon ad
▁on ce
▁cier to
シ ステム
▁للغ اية
▁הע י
▁био логи
▁össz es
▁se em
▁s érie
▁pu ţin
▁prés ent
▁ 갈
▁人 々
▁さ て
▁ра й
▁ruim te
▁nau czy
▁l ata
▁identi fic
▁우리 에게
▁۲ ۰
▁кра си
▁stand ard
▁quat ro
▁prze ci
▁ess en
▁começ ar
▁ 与
حا ول
z on
h ou
▁sz ép
▁ki ểu
▁he iß
▁az zal
▁a ur
▁9 5
یت ی
з ма
ô le
sz or
▁демо кра
▁n ing
▁m ęż
▁journ al
לי ים
ow ied
d ük
建 筑
▁ال كل
▁поня ть
▁м ре
▁el kép
т ря
m ac
do or
al ne
▁rem ar
▁le p
▁l icz
▁kl in
▁espa ço
▁dzi ś
▁ذه ن
▁تغ ي
▁أ خذ
▁המ ק
▁g é
w s
▁کنتر ل
▁سال ه
▁בז מן
▁ch ip
▁br as
▁ 海
t ől
라 도
▁us are
▁ng ồi
▁mo zg
▁coun tries
▁con ten
اد ل
н ят
кти вно
l ığ
▁نسب ت
▁أن هم
▁z ona
▁poz w
▁ho a
▁ged aan
▁dise ñ
デ ータ
▁خ وان
▁pros tu
▁pro por
lo c
▁י לדים
▁гово рят
▁tört ént
▁pet ite
▁is kol
▁ب طور
▁ex tr
▁cambi ar
▁all ons
▁ac ross
▁ 使
רג יה
z at
▁pierw sze
▁k b
▁imag es
▁all ow
▁ 잡
▁ 라
tor no
性 的
例 子
▁ג בוה
▁э ффе
▁elec tric
▁eder im
▁cent er
▁ا قتصاد
▁éner gie
▁robot s
▁pop ular
▁m ặc
▁m ẫu
▁colla bor
ê t
ens ég
ンピ ュー
▁mar te
▁hız lı
d ro
▁않 을
▁ال نا
▁מ זה
▁מ וכ
▁כ ולם
▁kh ắp
▁g ép
▁ers t
н ни
ione ază
有 一
▁e er
اه ی
kun ft
答 え
▁раз ре
▁s ły
▁mie ux
▁f us
▁alkal maz
й де
m ö
▁为 什么
▁هنگ امی
▁ن کرد
▁при зна
▁голя ма
▁ho pe
▁eff ect
ver ti
ic io
▁た だ
▁tem at
▁pun ct
▁minut en
▁bu ra
▁ 于
ческо го
szín ű
sz ą
g ing
では ない
▁עלי ו
▁pol iti
▁jöv ő
▁go bier
▁espa cio
想 要
▁ק בו
▁би ла
▁val a
▁nicio dată
▁m ere
▁ch ương
▁bı rak
▁ 합
з но
j anak
▁g ust
▁ 멋
ש בו
t ie
▁فع لا
▁מ ל
▁spaz io
▁s łu
▁r ice
uw en
ad ás
▁دائ ما
▁ا سا
▁zeg t
▁num ăr
▁fu er
▁comple te
▁biz i
▁bij na
▁arg ument
w en
p ut
感 觉
▁че го
▁а н
▁tu ần
▁tr ụ
▁ke ş
▁fe h
▁ص رف
▁שה יה
▁w es
▁sistem as
▁sa che
▁inf in
▁198 0
б ри
▁val aki
▁ta x
▁num ai
▁do it
pl es
l ow
at ely
チ ャ
▁这 样
▁نزد یک
▁سر عت
▁wer kt
▁sağ lık
▁d ónde
▁ale x
ци й
▁에 너
▁رس ید
▁все ле
▁r and
▁new s
▁kom ór
▁i y
▁hou den
▁contin ua
▁ap lic
ت ح
тел ни
ema al
▁לק חת
▁הא נו
▁о кру
▁нап ра
▁szcz ę
▁pens a
▁parte a
▁gou vern
▁consegu ir
▁com ing
▁ 놓
ها د
▁م اد
▁раз бере
▁е сте
▁var ia
▁stu ff
▁sle chts
▁polít ica
▁po is
▁her r
▁ap er
вер х
li ş
j ek
▁전 체
▁وأ نا
▁لل ح
▁музи ка
▁ra di
▁oznac za
ız ı
id ar
c al
す れば
▁당신 이
▁uns eren
▁sz en
▁m ale
▁gel ecek
גי ל
ч ните
z na
▁qu ien
▁nies am
▁imag inar
ود ة
ست یم
בר ת
ő bb
y la
l ük
▁בא מצ
▁ви со
▁tasar ım
▁o sią
▁most ra
▁ 考え
жа ть
ni ć
▁순 간
▁هم راه
▁י דע
▁ב זה
▁rez ultat
▁pa esi
▁ 글
ву ю
ва ш
▁تر س
▁ה לא
▁универ сите
▁со л
▁мате риа
▁ве дь
▁împre ună
▁th omas
▁pyt anie
▁niesam ow
▁kor mány
▁il l
▁fil me
ă zi
os an
か り
▁بر خ
▁ris ult
▁k sią
▁impor te
▁el se
▁bra z
ك ار
vez et
▁مر ح
▁technolog ies
▁de ed
▁cham ado
ק ת
▁ن ک
▁ק ו
▁י ה
▁re lat
▁proble men
▁mod è
▁fel t
▁ch in
▁br on
▁b all
活 動
▁ос ъ
▁ 뭐
су р
▁사람 들
▁t iết
▁sos yal
▁pued es
▁pas ado
▁mie ć
▁ ％
▁چ قدر
▁هر گز
▁غ ذا
▁الم ر
▁leg jo
ר תי
n am
ch s
▁پیش رفت
▁לא נשים
▁ב ואו
▁u ds
▁seg unda
▁re ason
▁ch r
▁ 농
▁ 心
ro u
▁것 에
▁szab ad
▁pens er
▁mod ell
▁min dan
▁h é
گ یر
تما م
де ль
th ers
还 是
▁س نت
▁ج و
▁ال قط
▁ért ék
▁wh ile
▁de zelfde
то ри
ü şt
▁때문 이죠
▁今 日
▁á rea
▁po ter
▁pass er
▁m r
▁cso d
ъ ж
▁مع نی
▁الص ورة
▁ת ע
▁на ми
▁ 백
▁ 능
▁ 気
г ре
기 는
之 间
▁ק ורה
▁mog ę
▁mo ve
▁contro le
▁ap l
ו ות
ł ych
ító gép
ycz ne
bi do
▁حو الي
▁vo z
▁n iger
▁elektr on
же те
解 決
▁ре б
▁m ici
▁i rak
v ía
ザ イン
ってい ました
▁ک اف
▁ل لا
▁у ме
▁törté ne
▁sant é
▁ge we
▁đ ọc
▁á nh
▁vard ır
▁miejs ca
▁epid em
▁car te
at lan
▁sim ul
▁sa w
▁fam í
▁ch allen
▁bede utet
st re
pt ăm
▁무 슨
▁모 습
▁私たち の
▁پای ین
▁ר בים
▁ör ne
▁c ửa
و ح
י יתי
を も
▁v ui
▁v ille
▁ge vo
▁19 50
رب ة
▁مع ظم
▁де ло
▁su ốt
▁sa c
▁ref le
▁ksią ż
р на
á veis
▁ون حن
▁см ята
▁ide ea
на ча
ка х
▁większ ość
▁quat tro
ס וף
상 을
▁치 료
▁про ти
▁zw ier
▁lớ p
▁chang er
▁bas is
▁ ウ
▁الت ج
▁ме ся
▁sp ort
▁ré alis
▁cor r
ıl mış
ze ń
だ ろう
▁공 간
▁proj eto
▁ا هم
▁mov imento
▁gel uk
ặ ng
ها ب
an at
行 動
▁저 를
▁되 어
▁가 져
▁ط بي
▁כמ עט
▁ve ut
▁sch le
▁pol ity
▁micha el
▁mar ad
▁kereszt ül
▁est im
стоя ние
r ód
▁خ بر
▁ש ונים
▁ш о
▁ser ait
▁la quelle
▁ker ül
▁es pr
▁da cht
▁că tre
▁ab ban
ár d
sze ch
▁알 려
▁那 些
▁últ imo
▁lie u
▁fac il
▁aj uns
▁з до
▁ma u
رو ب
p ol
fic ie
私 の
▁这 里
▁чети ри
▁interess ant
в ъ
te urs
h and
▁항 상
▁ن با
▁расска за
▁việ n
▁mindan nyi
טי קה
▁결 국
▁ک لا
▁twe ede
▁ness uno
▁gehir n
▁dal le
▁ 막
p y
ann t
▁마 치
▁בס דר
▁до ро
▁per ci
▁for ce
▁ 굉
ست ند
ün den
lar dı
a ż
▁دنی ای
出 す
▁我々 は
▁ا ید
▁أ قل
▁на по
▁каза х
▁доста тъ
▁su puesto
▁sta an
▁mil i
▁are a
非 洲
後 に
▁굉 장
▁我们 可以
▁ב ית
▁ре ал
▁от колкото
▁ste ve
▁simple mente
▁ris k
▁ 知
▁ ト
א לה
un es
d ere
▁누 구
▁سر ما
כ ב
גי ד
ско й
ta in
ie ur
▁خواه ید
מו נות
y d
▁rem ember
▁i la
▁dolgo z
▁d ías
ش ة
j án
다 가
てく ださい
▁있 다면
▁보 면
▁t et
▁amaz on
و ال
ís ér
ur de
is ini
信 じ
ア イ
▁생 명
▁관 심
▁가 족
▁ま ず
▁ص غيرة
▁כי צד
▁ob ama
ко во
▁me c
▁lar ge
▁do i
م ند
百 万
なが ら
▁있 도록
▁않 은
▁ح ما
▁ا کنون
▁с це
▁доб ро
▁k és
▁im pression
יו נות
ки й
▁사람 들에게
▁그녀 는
▁관 련
▁ک سانی
▁ح صل
▁ola y
▁d ört
▁bet ra
رای ی
schijn lijk
iyor uz
前 に
▁хо тел
▁изоб ре
▁w ind
yn am
▁сло ва
▁зна чение
▁mód on
▁g ingen
▁expérien ce
си я
ä ter
w ier
ch u
▁학 생
▁mű v
▁kh ỏ
▁ 即
ط ع
朋 友
てい た
▁по ль
▁vis ual
▁problem ă
▁mo est
▁est ud
▁desig ner
ر ک
lie ß
▁단 지
▁са м
▁м ла
▁вы ра
▁ob ra
▁no ur
▁jed es
▁empres as
▁dạ y
▁co ol
▁ 똑
▁하 지
▁있는 지
▁מ דע
▁ст ре
▁мо ята
▁до во
▁máqu ina
7 0
注 意
▁所 有
▁th í
▁ter vez
▁mu ziek
▁kol ay
▁ke ep
▁ang st
▁ жу
ло жение
▁میکن ند
▁جد يد
▁إ ي
▁מע ט
▁אי נ
▁не у
▁vo ed
▁verb ind
vol ution
ut or
lie gen
之 一
しま しょう
▁yen iden
▁v ijf
▁na qu
▁ind ic
▁hel emaal
▁f ot
▁egy en
▁ 高
ens a
▁생 물
▁מ כל
▁odp owied
▁er var
▁disco ver
כ לו
▁с нова
▁mus ique
▁körny ez
▁kh ám
▁i a
▁bu y
▁b ost
cu ra
▁הק ט
▁отгово р
▁го р
▁v âr
▁m ù
▁hi ểm
ol gál
ch tig
▁לק בל
▁о грани
▁îns ă
▁punk t
▁nor te
▁ 채
▁ 검
ze ć
iv er
网 络
▁و ان
▁ت لف
▁по в
▁ме та
▁биз нес
▁é gal
▁z iel
▁sing ur
▁hos sz
▁ha ving
▁esp é
▁eff et
▁col ab
im m
fü hl
▁ارز ش
▁ב לתי
▁позво ли
▁praw dzi
▁n ano
▁mul ți
▁esc ala
ج ال
v ens
▁לע צ
▁чув ство
▁муж чи
▁vra i
▁rel ations
▁regar dez
▁pra cu
▁groß en
▁gan zen
▁comun ità
▁ 토
وا صل
ta ć
rem mo
ate urs
▁мо ло
▁кита й
▁sem plic
▁pos ible
فا ع
ğ a
í do
z lich
ons tr
l it
者 が
▁ک جا
▁י וצ
▁причи на
▁wahr scheinlich
▁l ow
▁ho use
▁h und
▁a arde
▁200 1
виси мо
と な
▁지 도
▁про во
▁ме ч
▁szám ítógép
▁mol é
▁kör per
▁ent sche
▁con o
▁b àn
▁위 험
▁これ らの
▁ل ح
▁ד ר
▁слу ша
▁изу ча
▁th ủ
▁mi esi
▁ ă
ńst wa
g é
した ら
▁م ض
▁ق مت
▁ה ופ
▁r icht
▁ink ább
▁ag li
运 动
为 什么
▁ق ا
▁ 브
▁만 든
▁الط اقة
▁аб со
▁tech nik
▁pro pre
▁min de
▁mag net
▁i̇ l
▁fra u
▁dep arte
▁bo ven
▁일 부
▁살 아
▁جمي عا
▁ال ولايات
▁раз гово
▁to ți
▁n ame
▁in vol
▁hely zet
▁ener gi
▁ch ine
▁ad at
сти те
лект ри
▁جن وب
▁ا نا
▁ש מת
▁т ъ
▁б ро
▁sim p
▁inc lu
▁ch ắn
hang i
er os
的 话
▁не по
▁w ier
▁te or
▁het zelfde
▁ch w
▁7 00
▁ 先
ter y
s in
ly wood
▁מא שר
▁управ ля
▁те чение
▁ 밖
ч ный
ór io
in ce
h ív
cz ne
▁мал ки
▁med ida
▁mas sa
▁mag as
▁m ong
▁i i
▁es cre
▁copii i
▁aj ung
ک و
p al
l ess
er w
▁לע ולם
▁לא חר
▁че сто
▁y ea
▁tem el
▁pro wad
▁pet re
▁her hangi
▁en vi
▁ 둘
▁پ رد
▁قلي لا
▁ר צ
▁по сти
▁vo ul
▁nh iệm
▁liv re
ic ul
cid ente
▁وي مكن
▁ق انون
▁زی اد
▁מ גי
▁ver der
▁espa ce
▁descu br
سا ئل
гле да
▁も っと
▁ه فته
▁וא תם
▁хи ля
▁r àng
▁oamen ilor
▁mak es
▁d imin
▁comp or
ás át
la yan
dzi ć
abilir siniz
▁ملي ون
▁ف أ
▁ر ود
▁сту де
▁prz estr
▁informa ção
۰۰ ۰
ک ا
é let
ro t
来 自
▁כ ה
▁öğ ret
▁yea h
▁ont dek
▁kom mun
▁ke zel
▁gro e
▁ch ung
▁br ut
▁ 민
ك و
el eri
違 い
▁بل ه
▁experien ce
▁di je
▁200 3
ئ لة
чи ть
icz ne
▁долла ров
▁se ama
▁l âu
▁br ingen
▁alg una
▁또 는
▁یا فت
▁sem ana
▁r io
▁elő tt
la gen
ens t
▁혹 은
▁را ی
▁ко го
▁вз гля
▁бъде ще
▁ric erca
▁hem en
▁h ala
ل ية
ני ס
מ רים
u u
▁형 태
▁pat ru
▁ 번째
פ וא
ד בר
ב א
п ля
ra c
▁정 치
▁leg tö
▁ih m
▁hos pital
▁extraord inar
▁cl as
▁arqu ite
malar ı
장 을
就 会
▁organiz a
▁n ight
w here
ler ce
▁의 사
▁مر گ
▁ل د
▁البي انات
▁y ine
ek ed
▁이 는
▁대 단
▁האר ץ
▁ус лови
▁к ва
▁se en
▁ny om
▁math emat
▁k é
▁elek tro
ج ان
ا طر
ang er
▁인 도
▁ס ט
▁резуль та
▁про фе
▁колко то
▁y ür
▁quan ti
▁po ver
▁par ole
▁ont wer
▁ler nen
▁glau ben
ئ ن
m io
iv i
en ci
ak e
▁دول ت
▁اص لی
▁най ти
▁sempl ice
▁r igu
▁n ők
▁i liş
▁hoe veel
▁faz em
変 え
▁وب عد
▁ت حد
▁לכ ך
▁כא ילו
▁оче ви
▁repr és
▁pers ze
ול ות
жде ния
b é
▁同 じ
▁ح قي
▁ج واب
▁ל ומר
▁א רו
▁tr an
▁per man
▁do od
▁c ung
▁bu ổi
ér er
é ma
k omen
isse z
el te
dz a
わ せ
▁무엇 을
▁بإ مكان
▁из ку
▁comm una
▁c ima
▁b ác
م ار
сте н
つ も
▁пробле мы
▁pr aten
▁nagy obb
▁ex ista
▁e erst
к нове
구 요
▁cô té
▁as ked
▁201 2
te c
f us
스 를
時 代
▁sc or
▁co in
无 法
▁t ard
▁svil upp
▁re to
▁khỏ e
▁disc uss
ij den
ens o
变 化
▁س ف
▁ה פר
▁pr ès
▁p lek
▁ok ul
▁fem me
וד ל
by śmy
주 는
▁داد م
▁ל יי
▁való színű
▁pro beren
▁on gel
▁kh ủng
▁geme enschap
▁da u
▁con ce
▁ 혁
▁ 科学
▁ 社会
ام ت
ik en
hal en
▁ت مر
▁ا ث
▁t able
▁pi ano
▁mil ie
▁innov ation
▁e ing
▁b ada
▁a it
v on
um p
mê me
len e
em t
▁ص ورة
▁א ה
▁с ли
▁п си
▁ö ff
ij s
▁پ زش
▁مد ت
▁קט ן
▁re ak
▁bra uchen
▁b ăr
ذ ب
ar den
▁r ăm
▁meg sz
▁malar ia
▁lu cre
▁g hi
▁e fici
▁alt ă
▁ メ
ка ми
á hoz
w ir
urs a
g re
▁قد م
▁созда ть
▁way s
▁pla at
▁lich aam
يف ة
ها ز
к ры
▁ك ت
▁ق لب
▁הר עיון
▁su i
▁st are
▁roz um
▁męż czy
▁en gel
ni os
land ır
▁همان طور
▁ش ناس
▁а у
▁ng ôi
▁k ier
▁im plic
▁că r
▁ ３
ạ ng
ح ات
▁마 음
▁가 치
▁ка кой
▁wir tschaft
▁toekom st
▁or ic
▁necesit amos
▁el imin
▁ 뭔
▁ 多
men in
ー を
▁говори м
▁nas zych
ши е
ле ку
г не
▁לת וך
▁tem a
▁result ado
▁mu a
▁interes ant
▁do ty
▁ 『
ب اه
us i
fi que
레 이
▁이 루
▁ún ico
▁tro v
▁sing le
▁re tro
▁p ieni
▁commun ity
▁ayrı ca
▁ 』
ся т
льно е
▁دول ار
▁מש מ
▁re gi
▁dom u
us and
ow an
参 加
▁于 是
▁ب زن
▁ste p
▁l ingu
خر ج
▁мо дели
▁до ба
▁raz ón
▁incredi bil
▁car r
ки м
voor beeld
か を
▁مج رد
▁între b
▁str uktur
▁b óng
ف تر
▁ت رت
▁архи те
▁sp esso
▁simples mente
▁oc cident
▁impos si
▁grup po
▁alm ost
ما د
س ن
b ben
植 物
たち は
お り
▁ن های
▁на циона
▁t eg
▁ser ía
▁k ed
▁d h
▁c io
ло же
f on
ck t
▁دریا فت
▁أ شياء
▁לג מרי
▁помощ ью
▁w is
▁prova velmente
▁ch ạy
▁ap art
ży ć
om an
bar dziej
大 き
▁vedi amo
▁s ở
▁res ulta
▁kay nak
▁enf ant
▁dise ño
▁c ort
是 个
ため の
▁נו כל
▁ב שי
▁е е
▁tent ando
▁naj bardziej
▁gân di
▁comp te
▁데이 터
▁מ נס
▁ку л
▁v es
▁s li
▁ave am
не ц
v em
l à
▁про у
▁к ръ
▁conne ct
▁ah hoz
ها ي
צ וב
ле но
ś cia
ĩ nh
n unk
▁단 순
▁مط ال
▁sou vent
▁s ır
▁quel li
▁problem s
▁me et
▁hom em
▁ 논
יי נו
生 き
完 成
▁오늘 날
▁میکن ه
▁كيف ية
▁érdek es
ét ica
f et
▁효 과
▁چیز های
▁وال د
▁ه ند
▁ב ן
▁то му
▁го леми
▁fab r
▁ 直
ра ни
si te
el im
です ね
▁역 사
▁נו ס
▁no thing
▁ilg inç
▁gez ond
▁evol ution
вы м
p te
o ver
i at
是 一
大 な
变 成
▁по и
▁з о
▁simil ar
▁in side
▁egy re
▁chica go
▁bij voorbeeld
و قع
ch is
▁م ک
▁lu ce
▁con to
▁bu en
▁8 00
ри е
ス を
▁سری ع
▁افز ایش
▁man if
▁ein s
▁c ogn
▁ass ist
س ون
▁그 냥
▁我 认为
▁ре сур
▁épo ca
▁g ön
▁dzie je
ta ge
ier ten
▁هست ید
▁da ys
▁acc ord
ز ال
ско ль
it iva
もの を
▁zek er
▁og rom
▁g esehen
▁ 떨
▁하 죠
▁자신 의
▁מ לא
▁преди зви
▁waar schijnlijk
▁sm s
▁di fic
▁de vo
▁2 8
کر م
lich er
話 し
▁있는 데
▁말 이
▁ś ro
▁ig ual
▁gondol kod
▁d ale
ט ות
o ści
n it
民 主
▁گذا شت
▁מ ור
▁използва ме
▁iş e
▁con he
▁att ention
юще й
ще й
ци о
це то
ó st
る のです
▁کم تر
▁прави тел
▁ver t
in are
ad em
▁świe t
▁vor ba
▁száz al
▁repres ent
▁is s
▁inf ec
▁er inner
▁différ entes
▁bu ch
▁ ere
▁ה ו
▁pom ysł
▁egy szer
▁d łu
ску ю
ții le
pl an
i ques
h eden
子 ど
▁фор ма
▁trou ve
▁p f
▁do ctor
▁ap plic
▁ 답
▁ ۴
tiğ ini
n ot
ie de
ey e
▁ط ی
▁الب عض
▁أ ل
▁значи т
▁vor m
▁l ou
▁isra el
ريق يا
ás s
s iz
▁ه زینه
▁دقی قا
▁милли ар
▁мили она
▁sur face
▁konus unda
▁ki ện
▁h ô
▁gu vern
ور ي
án t
se hen
▁ي ستطيع
▁хи ми
▁се ку
▁év ek
▁op los
▁gel ir
وك ب
תי י
と んど
って も
▁ف ضا
▁נ א
▁чу де
▁мили ар
▁sc ris
▁o tur
▁don na
▁cá nh
מו ן
is mer
興 味
▁רו ב
▁абсо лю
▁emp lo
ни ки
wor k
i ę
d ra
▁ت ل
▁с мы
▁we ise
▁v ag
▁um ani
▁qui én
▁czę sto
el as
▁것 도
▁و صل
▁ش رای
▁тво р
▁реше ние
▁вс ем
▁á p
▁sa ú
▁pas t
▁p ł
ن وان
بح ث
▁ص ن
▁рабо те
▁zu kunft
▁c ấu
ё р
bile cek
説 明
▁ד וג
▁pr est
▁lev ens
▁j im
▁esta ban
ári as
t amente
k le
fic os
▁дола ра
▁mat ter
▁j en
▁ex pos
▁deven it
▁ 몰
ين ي
ف ظ
бу дь
b us
分 子
今 天
▁گرفت م
▁ع ج
▁интере с
▁pati ents
▁ot ten
▁o or
▁lu at
▁co oper
ون ها
k ommen
▁自分 の
▁vost ro
▁valam it
▁tr ưởng
▁e chte
▁b ăng
т ро
ー ショ
▁않 았습니다
▁기 본
▁ص وت
▁شرای ط
▁رفت ار
▁pic colo
▁mod ul
▁hiz o
▁ges und
▁elkez d
ли ги
ş e
y as
ug ht
o us
m iss
k on
ed ia
▁трябва ше
▁stad t
▁some one
ler inden
iyor um
▁ب ان
▁истори ята
▁b ell
it ie
it are
▁شب که
▁про шло
▁кни га
▁д же
▁os ób
▁bizony os
▁3 6
ص ال
се ща
с ъл
ire d
졌 습니다
▁میلی ارد
▁מ כי
▁ця лата
▁se ite
▁con tribu
▁ 광
▁ 到
że j
ta j
ri le
자 는
▁私たち が
▁ש נו
▁ко лле
▁ин ститу
▁wie m
▁t ă
▁mulţ umesc
▁conta ct
та ть
й д
í that
es a
状 況
ロ ー
▁성 공
▁שה ת
▁при нци
▁prim ero
▁ad ult
▁ 별
הלי ך
re as
▁시작 했습니다
▁מס פיק
▁י חד
▁не бо
▁ven gono
▁oso b
▁ho tel
▁dat o
▁ak art
اب ی
л ън
▁인터 넷
▁이 름
▁الأول ى
▁из пра
▁tar de
▁mat t
▁k ne
▁cre ë
▁be pa
▁ans wer
ológ ia
imiz e
年 間
られ た
し ない
▁الب ل
▁ל שי
▁си ла
▁за ста
▁so zi
▁poss ível
▁nh ập
zą c
z int
um u
▁ча сто
▁по до
▁rela cion
▁lung o
▁can ti
▁b g
ség et
gra ph
▁하나 의
▁بود یم
▁ש ג
▁א ית
▁спе циа
▁sa ys
▁ré alité
▁nut zen
▁gel di
▁alz heim
▁ 애
▁ か
де ния
ze j
ak ter
精 神
▁ن یر
▁خل ق
▁ו כל
▁зако н
▁достатъ чно
▁sem mi
▁kos ten
▁enfer med
▁ 출
▁مق ابل
▁افراد ی
▁ver l
▁par le
▁op owie
w ers
dz ę
く さん
▁part ner
▁ne in
▁ch ứ
▁cel le
▁ad apt
▁ 금
ا پ
ネル ギ
▁مع ت
▁ت كن
▁ת א
▁המ די
▁s b
▁nou ă
▁del en
▁ ；
▁ 측
on ti
▁내 가
▁می کرد
▁مش ابه
▁ко ра
▁peque ño
▁lu a
▁civ iliz
▁be im
▁acontece u
y at
b iera
었 던
▁지 나
▁متش کرم
▁vers uchen
▁somm ige
▁ho ofd
▁gebruik t
▁dan e
▁ca ły
▁an tig
וי ים
id elijk
has znál
co p
att an
是 什么
▁כ דור
▁ту т
▁изве ст
▁unite d
▁struc ture
▁stat es
▁mil yar
▁go es
▁ge val
▁bew egen
▁a ge
יה ם
ט ית
sel f
発 見
々 な
▁この ような
▁met er
▁h ind
l endir
▁اله ند
▁ש תי
▁я зы
▁saú de
▁par la
▁jed no
حي ط
נטר נט
um ul
▁ر خ
▁خ د
▁מילי ון
▁ג ור
▁возмож ность
▁v ẽ
▁prod ut
▁ihre m
▁bun ları
ic ia
am az
一 点
▁це ли
▁înce pe
▁kes in
п я
но к
식 을
▁영향 을
▁ر ه
▁ده ه
▁rész e
▁dru gie
▁bost on
во го
pr óbál
im at
学 习
▁وعند ما
▁ת ש
▁постоя нно
▁наре че
▁tak ich
▁gördüğ ünüz
▁fr ü
▁fi atal
▁el j
▁dolar ów
ri ère
is o
▁را بط
▁خص وص
▁мно же
▁а нг
▁segu ir
▁gel iştir
▁et ti
▁environ ment
▁cá m
▁ 水
ar ele
자 들은
行 为
▁어 려
▁گ یری
▁این ترنت
▁д ни
▁incroy able
▁imp ac
▁ben ne
▁b í
را ق
r ont
基 因
動 物
▁ש ש
▁прое кти
▁độ c
▁đ ông
▁últ ima
▁x ét
▁tho usand
▁of ten
▁k ísér
▁gi usto
▁em l
▁conte x
li yor
9 0
▁па к
▁é ve
▁sp oso
▁rag gi
▁h ale
▁g la
▁cambi are
기 로
▁تما می
▁ח וק
▁сте пе
▁обна ружи
▁взе ме
▁x úc
▁wen ig
▁tổ ng
▁pub blico
▁gez egen
▁empres a
▁des sa
▁d ương
▁3 3
▁ を
י רות
にな り
ち ろ
▁복 잡
▁تاری خ
▁ко ро
▁ok é
▁cuer po
ál ni
ot h
ekt ir
bl ica
続 け
找 到
▁그 림
▁ס פר
▁дан ные
▁ál lat
▁zobac zyć
▁yer de
▁nad ie
▁mili ard
▁chuy ên
▁auto ur
▁ad d
▁ 청
inde ki
年 に
▁방법 을
▁каже тся
▁un iti
▁mo ja
▁increí ble
▁constru it
▁concent r
ס פר
ot s
했 을
キ ャ
ら ない
▁آ وری
▁re in
▁ener ji
▁bun e
טי ן
ên cias
diğ iniz
▁상 태
▁문제 를
▁なぜ なら
▁م ار
▁ста ть
▁wsp ól
▁wat ch
▁tec n
▁t este
▁qu o
▁mó z
▁happ ens
▁eğit im
▁cr imin
▁דול ר
▁ре лиги
▁scu ola
▁kab ul
▁k ẻ
ル の
▁أ ين
▁про мя
▁with in
▁un ele
▁társad al
▁te xt
▁rzeczy w
▁fant as
▁do anh
▁czas ie
▁ ж
ح ال
с лу
w id
pie j
ien e
▁الخاص ة
▁الأ خرى
▁לח לו
▁לא י
▁с ча
▁put ern
▁prend ere
▁powie dzieć
▁pic ture
▁ny el
▁min un
▁f ing
▁endro it
▁dolg okat
il a
hal t
▁발 전
▁我 在
▁د یده
▁ק וד
▁vor rei
▁hasonl ó
力 を
▁それ を
▁علي ك
▁ع صب
▁ثلاث ة
▁рабо ты
▁po tra
▁n ằm
▁meg j
▁j ij
▁i di
▁ein d
▁dav ran
▁csal ád
▁car acter
▁bot h
▁b ag
н с
wa ją
ol ar
i ți
ens ion
▁کام پی
▁мате ри
▁untersch ied
▁s elf
▁rez ol
▁mes aj
ка ра
어 서
▁الخ ط
▁пока зва
▁под дер
▁trava ill
▁industr ia
▁car ro
▁alre ady
▁ 接
عب ة
ie c
f li
▁по е
▁znale ź
▁vorb esc
▁vede ți
▁sett im
▁m än
en g
▁wie my
▁th ập
▁s ess
▁d nia
▁as c
▁ara ç
で あ
▁هن الك
▁سخ ن
▁í n
▁super ficie
▁miejs ce
▁k í
▁in j
▁af rique
ع ين
ши х
ня ва
事 を
▁וה ת
▁vo ce
▁pr oss
▁po łą
▁ph í
▁he ar
▁eff etti
ma i
지 가
물 을
▁他 の
▁ú t
dz in
a ine
▁رؤ ية
▁toda vía
▁so ha
▁quat re
▁by łem
▁bo a
ut ie
k ün
er as
▁所以 我
▁т ради
▁осно ва
▁sp or
▁sor án
▁re mo
▁o urs
▁min ket
▁képes ek
▁cell ules
▁b ö
يا رات
ő d
▁이 걸
▁و لم
▁осно в
▁д ре
▁program ma
▁h ơi
▁co le
ство м
k ı
h il
▁со циал
▁war to
▁trans por
▁liv ello
▁f ünf
▁el de
▁de ep
▁c ạnh
▁ 준
ק יי
פ וס
ё тся
y si
an ken
하는 데
자 의
예 요
▁مقد ار
▁לה ע
▁ל ז
▁о пера
▁viv o
▁proy ecto
▁pres ente
▁kil omet
▁fe ed
▁f á
▁con vin
ای ل
ו כל
ръ ща
н ных
f re
a a
가 가
并 不
▁mag am
▁k ing
▁di go
et her
ale ż
ン は
▁توس عه
▁עלי נו
▁ст рои
▁l ijkt
▁guer re
▁gez ien
▁az ien
▁ 医
ن ظر
c ina
▁صحي ح
▁соб ствен
▁z au
▁pute ți
▁дол жен
▁sul l
▁st rada
▁mely ek
▁inter no
▁dis par
▁da chte
g ia
▁ح قيقة
▁е фе
▁p é
▁me este
▁gy ógy
▁cu ốn
▁comp rom
▁ 被
פ ורים
к ли
t onság
▁있을 까요
▁않 고
▁ت حدث
▁ре ша
▁же на
▁ś rod
▁s ẻ
▁re qu
▁old al
▁h ạt
▁h ón
▁gerek iyor
un ter
ent ă
▁اتفا قی
▁направ я
▁а т
▁wh ether
▁se ñ
▁s ắc
▁in ici
ü p
死 亡
▁محد ود
▁про те
▁ве сь
▁str ut
▁mais on
▁jed y
▁iç er
▁des a
▁b undan
ص اب
▁نقط ه
▁пер вый
▁pro do
▁ny il
▁hin ter
▁arri ve
us al
▁現 在
▁ت ه
▁بزر گی
▁الن وع
▁men ge
▁dz iał
▁des c
فعل ه
ond ers
▁داشت ند
▁הח ל
▁с ър
▁un ii
▁s iker
▁rze cz
▁n élkül
og at
ge hen
科 技
作 用
▁こ こで
▁ن مایش
▁می خ
▁به م
▁ب س
▁пря мо
▁ме то
▁во про
▁ung lau
▁r ug
тру дни
c n
ad ă
自 由
▁داد یم
▁تق ريبا
▁ци ф
▁ro man
▁ng ạc
▁cond iv
ти л
ö g
してい ました
▁مط م
▁ق رن
▁ис кус
▁е зи
▁spe ak
▁em pre
▁간 단
▁نش ون
▁ن خوا
▁у ров
▁доста точно
▁вижда ме
▁um ie
▁inform azioni
▁hac emos
▁değiş ik
mem iz
▁الد ول
▁свя за
▁vál lal
▁se ul
▁cap it
▁a ime
м па
ко е
ijn en
hr er
主 義
▁것 처럼
▁م من
▁שו נה
▁ח וד
▁ה גי
▁oc chi
▁fapt ul
▁cs ap
in os
里 的
▁се дми
▁пра во
▁го то
▁tan e
▁k ích
▁fais ons
т рите
te ken
k li
리 에
▁по ра
▁ren con
▁pe ł
▁ma ș
▁cu atro
▁comp ren
▁ave vano
▁ ‘
p ont
is ation
었 을
▁plan eten
▁p ir
▁h ữ
▁hữ u
▁dis tribu
▁ 物
зи я
est re
dow is
▁ف ق
▁מה מ
▁ку ль
▁pr ieten
▁haz ır
▁er de
д ж
aszt al
的 方式
▁و كل
▁שא ם
ح ق
пре ки
ow ym
▁문제 가
▁ש כל
▁ש ום
▁у по
▁wie cie
▁tem p
▁ph otos
▁ne v
▁n esse
▁cu ál
▁ch ỗ
عد ة
سم ى
거 죠
の中 で
▁如果 我们
▁ش اهد
▁ز نده
▁ה די
▁h ậu
▁fig ure
▁co leg
▁ 《
ב ט
ga an
と ても
▁아 름
▁مش اه
▁waar in
▁som s
▁op in
▁ex cep
▁comun ica
▁ 》
ب رد
ś niej
ók at
tik us
is cono
美 元
ちろ ん
▁ش ع
▁ام کان
▁ני ס
▁באות ו
▁אות ן
▁uz ak
▁pati ent
▁moż ecie
▁g ast
▁cev ap
▁20 50
בר ות
ro g
on ge
fo is
▁제 게
▁waar op
▁sch nell
▁me zzo
▁kön ny
▁gevo el
cu pa
▁الك ب
▁اب زار
▁иссле до
▁probabil mente
▁olma yan
▁inst itu
▁ind em
▁düny ada
▁di yor
▁con ex
▁cl in
▁ 극
ent os
ed ir
르 는
▁sp end
▁ră z
▁pén z
▁powo du
▁pi ęk
▁mo z
▁in gl
▁ele g
л ните
е мо
or de
el ik
ap ta
者 は
▁کاف ی
▁ül kel
▁to ţi
▁sent iment
t ir
r ions
ism us
▁누 군
▁개 인
▁さ らに
▁مع ل
▁أ صبح
▁soci été
▁per c
▁mi ra
с ет
르 게
计 算
く な
▁نیست ند
▁rid ic
▁nad zie
óg ł
any ag
経 験
組 織
▁프로 그
▁بگو یم
▁prof it
▁pay laş
▁gen ere
▁fi x
▁en vo
ни будь
s em
is ég
する ことが
▁것 들이
▁الم ل
▁за д
▁w cze
▁odpowie dzi
▁lead ers
am in
ッ ド
の でしょうか
▁مش خص
▁الح صول
▁проти во
▁szer in
▁ng ành
▁mé ly
▁l ány
▁hón ap
▁ba jo
же т
n ız
in ig
ab y
▁به ذه
▁zo veel
▁le c
▁comput ers
ả m
לי ות
▁것 들을
▁постро и
▁очеви дно
▁ül ke
▁înt âl
▁univers um
▁en cu
▁dön t
כו נה
ър т
u ję
k ar
▁بش ه
▁pr ób
▁gost aria
▁en ige
▁de pen
▁annyi ra
صب حت
i an
enti al
▁자 동
▁י צי
▁sp äter
▁ny ug
▁ch ụp
ش ي
ér ől
리 스
▁ת נו
▁הס פר
▁пи са
▁ö ld
▁le er
▁gen es
▁ 쉽
è ce
▁ب فهم
▁също то
▁desenvol v
ăt ă
sz ük
▁بنا ء
▁ש ר
▁בט וח
▁фу нк
▁пе рио
▁ż ad
▁ü gy
▁pute ţi
▁a ile
ıyor du
z ás
o ur
声 音
关 系
▁과 정
▁新 しい
▁ن عرف
▁فر ص
▁أ رد
▁и но
▁mens elijke
▁jel enti
▁he art
▁ 읽
רי קה
te x
자 면
▁そ んな
▁וג ם
▁спо ред
▁us u
▁műkö d
▁molé cul
▁fel ic
▁billi on
▁ 권
ве ни
▁מ וח
▁точ ки
▁én or
▁vid éo
▁quer ia
▁ph út
▁of t
▁leg nagy
▁l ựa
اب ان
▁우 린
▁말 을
▁بع نوان
▁ע בודה
▁за бе
▁е й
▁z bu
▁semplic emente
▁plan ète
▁in fer
▁ge eft
▁dale j
ko ń
c c
▁לת ת
▁say ing
▁osią g
▁milli ards
▁met al
▁legjo bb
▁ját ék
▁aconte cendo
디 오
▁взаимо дей
▁şey leri
▁sal ud
▁bren gen
ti amo
▁моз ъка
▁n ạn
▁hom mes
▁chị u
▁ch ống
▁amaz ing
▁al lo
רי ק
ưỡ ng
▁و ف
▁طبی عی
▁حق وق
▁ne e
▁la k
▁inan ılmaz
▁h ét
▁ent de
▁c en
▁ リ
ag gi
▁مح ل
▁ر ی
▁الح ك
▁الأ ح
▁w ra
▁rá j
מ ור
ú ly
ff t
el ing
▁ن رى
▁נ שים
▁работа ть
▁на в
▁t ale
▁sul le
▁pas so
▁j an
▁individ ual
▁cir cu
▁ 트
or ten
▁الم ؤ
▁диза й
▁в д
▁ş unu
▁ris ol
▁rec ursos
▁mo tivo
▁cu ra
見 せ
▁خود مان
▁th é
▁sc ri
▁mo im
▁des se
▁at tiv
▁archite c
▁그 걸
▁tijd ens
▁si è
▁pre cum
▁geç en
▁fel ul
ف ضل
сту па
vo le
ra ge
r ia
pp i
a je
▁도 움
▁свои х
▁ме ха
▁yal nız
▁e mail
▁be ha
ł ę
cs ak
▁바 꾸
▁داشت ن
▁משת משים
▁фи ль
▁обще стве
▁év ben
▁kö lt
▁ins te
▁des ta
▁con duc
▁an ci
רו נה
mit tel
e ază
食 物
▁الش ب
▁לב נות
▁ugyan az
▁pod ía
▁hist orii
▁aqu ela
▁alle z
▁agric ul
ج د
ü st
▁ل كل
▁آ غ
▁ча са
▁говори т
▁tent ar
▁sp é
▁ma p
▁lum ii
▁emo tion
з м
ların dan
▁اط راف
▁מח דש
▁לש נות
▁לפ ע
▁x anh
▁s ysteem
▁ob raz
▁naj lep
▁mig lia
▁constr ui
▁bed o
ж ды
▁י ח
▁ин вести
▁śro dowis
▁techn ológi
▁ph ức
▁job ban
▁ide al
▁hay ır
▁cat eg
▁bol yg
▁alzheim er
▁ 子供
á u
ativ as
它 的
て は
▁예 술
▁보 세요
▁بر ق
▁ה פי
▁мо р
▁scha ffen
▁ra y
▁mu cha
▁ke inen
▁każ d
▁hat almas
▁bel le
▁ 빨
אר ד
óri as
c to
ati f
历 史
▁работа ет
▁s ust
▁an a
な ん
▁한 번
▁놀라 운
▁ع دم
▁سرما یه
▁باش م
▁сло жно
▁к е
▁é cole
▁t ấm
▁pens ate
▁kr ank
▁inste ad
▁in ner
▁ec os
▁ 판
ti ene
ok nak
b ly
电 脑
▁ن صف
▁со гла
▁пла ни
▁quer ía
▁pozi om
▁log o
▁laborator io
▁gü ne
▁bak ter
▁af l
▁ 희
ỏ ng
ع ام
ığ ında
ér io
l ığı
られ ます
▁받 아
▁ל כן
▁ин же
▁z an
▁rap pres
▁inizi ato
▁groot ste
▁ 라는
wo hl
fe je
▁ét ats
▁mys elf
▁migli ore
▁er fa
▁aqu ele
▁ 찍
к ция
hat unk
한 다는
▁기 회
▁而 是
▁اند از
▁ל וק
▁re pe
▁et raf
▁e ta
▁be ş
п ли
o ci
ing t
hat juk
▁енерги я
▁çalış an
▁famili ar
ție i
w ania
m é
isi ón
▁결 정
▁تع مل
▁уви деть
▁по па
▁за ба
▁somet imes
▁id ées
▁ez előtt
▁escu ela
▁că l
▁au d
вле ния
z ung
w is
p ing
om ini
学 家
▁לע בוד
▁сре да
▁изме ни
▁zas ad
▁z ile
▁sch er
▁nuo va
▁inter esse
▁g ame
ind re
が 見
▁respu esta
▁po bre
▁müz ik
▁kaz an
▁est re
ג ן
▁这是 一个
▁قسم ت
▁сем ь
▁произво д
▁mal att
▁fen omen
▁egész ség
▁d ys
▁b eden
z uk
rij f
れ ます
▁لدي ك
▁ل ج
▁الف كرة
▁מ ול
▁trou vé
▁t ức
▁sor u
▁kıs m
▁ 협
اب د
程 度
▁пример но
▁tu v
▁ges ell
▁cin que
ط لاق
än d
by t
as sen
▁الن ظر
▁נ ש
▁traba jar
▁paci entes
▁man ch
▁begon nen
t ım
ette k
▁ol tre
▁lí der
▁kobie t
▁in şa
▁ent er
▁ 感
ב ח
сть ю
д не
▁לה גיע
▁wie ku
▁que i
▁pia ce
▁milie u
▁miliar di
▁br and
ви м
ű n
d p
▁떨 어
▁تا ثیر
▁الس ي
▁sol d
▁prz esz
▁im per
▁d unque
ا ط
ç i
c cio
簡 単
▁טוב ה
▁בב ית
▁zrozum ie
▁m â
▁la iss
▁je de
▁intern ational
▁comp a
▁auß er
▁ 相
▁ ち
رك ز
д н
um in
n ier
▁구 조
▁갖 고
▁מכ יוון
▁точ ка
▁on i
▁hep si
ظ ار
m od
▁ن اب
▁بر رسی
▁от да
▁д нк
▁въ преки
▁num e
▁környez et
▁ho og
▁gi ov
▁ed in
▁bár m
▁bas ically
le me
れ ました
▁자 기
▁שי כול
▁до каза
▁ş ans
▁su oi
▁jed nym
▁fu eron
▁entw ick
▁comp any
▁c ổ
▁8 5
▁ ダ
la şt
▁الو ح
▁прав я
▁î și
▁put ut
▁look ed
▁ 真
ו וי
к ции
ut tos
et zen
▁하 면
▁الحد يث
▁לה ש
▁это му
▁ста нови
▁öl üm
▁t ệ
▁str ă
▁sem anas
▁ng ôn
▁kh ăn
▁coloc ar
▁azon ban
ا خت
כ לה
בי בה
an ho
▁الد ماغ
▁ח ס
▁wr ong
▁istnie je
▁hät te
▁beg an
▁ ô
ec ta
시 피
遺 伝
▁пока жа
▁pa is
▁en fr
▁bl ue
▁arti fici
는데 요
▁중 국
▁се вер
▁моз га
▁pi uttos
▁piuttos to
▁met ri
▁major itatea
▁czy li
▁ 향
ẩ y
ко го
жи те
ıy ız
▁سر طان
▁égal ement
▁vor be
▁ter üle
▁pres que
▁ok las
▁be c
ی رات
پ ا
k ken
出 现
▁بخ شی
▁ve c
▁sz tu
▁sig ui
▁sc ar
▁immag ine
▁ca łe
נס ות
op en
別 の
▁مش كلة
▁ق اد
▁ف كر
▁داشت یم
▁u omini
▁sol ution
▁so g
▁co ca
▁осъ зна
▁за ради
▁дви га
▁zobac zy
▁propr ia
▁legtö bb
▁ex ac
▁do ktor
▁diagn ost
▁co d
дя м
▁当 我
▁וא י
▁ста ли
▁vost ra
▁su jet
▁n ingu
▁b ouwen
▁ 먼
ẵ n
وس ي
ë le
s ınız
立 ち
▁يع رف
▁הה ת
▁ב ל
▁tras form
▁ter ap
▁răz bo
▁ora ș
▁oklas ki
▁modi fic
▁gre u
▁ent rar
▁ben zer
▁aut os
ш ком
ńst wo
来 的
▁생 산
▁существу ет
z as
and ır
akt ır
▁건 강
▁مج بور
▁لدي ه
▁ض د
▁الت ق
▁ا كت
▁одна ко
▁m ógł
▁kul land
▁j ę
ك ب
ז רת
ari amente
▁س فر
▁trop po
▁program m
▁ken ya
▁fait es
▁es en
▁comport amento
ка я
数 字
▁по да
▁о ча
▁музы ка
▁jed ną
▁ima gen
▁ges agt
ا و
ш ни
не на
zi u
ien ds
と の
▁نک ته
▁لل إ
▁ط رح
▁ни кой
▁взе ма
▁tr ue
▁every body
р ва
▁ле г
▁иде ята
▁legnagy obb
▁kar ma
▁is ol
▁esz köz
▁apl ica
тели те
▁ک لم
▁ه كذا
▁прави тель
▁з ве
▁tr im
▁ph ạm
▁in do
▁hel pen
▁dess as
▁be eld
▁سرا سر
▁с лън
▁ă sta
▁stess i
▁ex atamente
▁cou p
▁ast ăzi
▁ 另
س د
н тов
ule z
k ami
iz in
▁بالط بع
▁độ i
▁zm ienia
▁róż nych
▁h ề
▁gł ów
▁ 년
▁ 脳
שי נו
ש ור
ра ми
cul os
▁ن هاية
▁wor ds
▁lar go
▁ino va
▁ex press
▁el b
▁dev let
▁197 0
▁ 二
ר ב
ще ства
on ych
od ată
j al
しま う
▁ס רט
▁המ ע
▁wsp ania
▁eks per
▁aut om
ک اری
щи х
do tt
d am
로 부터
내 는
か か
▁کن ن
▁resol ver
▁or der
▁oce ano
▁obj ect
▁dự a
▁dru g
▁be vor
ע ד
жа ва
中 心
▁일 은
▁말 했습니다
▁نم ونه
▁đ en
▁revol ution
▁r uss
▁im pres
▁gen el
عل ام
▁이유 는
▁ساز ی
▁المث ال
▁סי פור
▁prof ond
▁pow sta
▁je ff
▁fre e
▁co pi
è tres
ują ce
▁비 슷
▁تغي ير
▁zd ro
▁nek ünk
▁lle var
▁d are
▁ci bo
ко га
ł ym
ı ma
▁يمكن كم
▁ع بار
▁מ צי
▁w on
▁vre m
▁roz po
▁niger ia
▁mã e
▁me can
▁h old
▁eigen en
▁edi ficio
▁conc lus
▁bea uti
و ما
ль ным
дн ъж
v io
▁신 경
▁مس یر
▁دانش گاه
▁این طور
▁מת חי
▁пи та
▁ме ньше
▁ép ít
▁które go
▁g ute
▁bun ların
▁ 앉
ế p
ve aux
地 区
▁י וצא
▁миллио нов
▁компа ния
▁ду ши
▁аф ри
▁tan ım
▁ov viamente
▁l lev
▁gior ni
▁er van
▁d ung
▁2 9
唯 一
世 纪
して も
▁但 我
▁مص رف
▁بص ورة
▁المش كلة
▁послед ните
▁иска ме
▁wh ite
▁qu ím
▁inst ant
▁fa j
▁chu ẩn
▁blij ven
n ünk
▁작 품
▁ف ك
▁ج لو
▁الج د
▁öl ç
▁proces o
▁og get
▁ni ño
▁k id
▁inform ations
▁funktion iert
▁ele t
▁digit ale
하 며
▁ví deo
▁probable mente
▁no we
▁fr iends
ول ی
שי ך
доб ре
ró ż
変 わ
タ ン
▁나 는
▁به ش
▁гра д
▁yapt ık
▁paz i
▁expl ic
▁empe zar
مو ذج
ти ли
qu iera
▁мо би
▁v est
▁t ái
▁ps ic
▁güç lü
خ انه
t ing
at y
经 历
▁ك تاب
▁الس ؤال
▁robi ć
▁ję zy
▁is ted
▁govern ment
را ج
רי ך
чу в
im as
印 度
▁안 에
▁میکن یم
▁ك ال
▁це лия
▁đ ức
▁zaczy na
▁s ẵn
▁progr ess
▁ningu ém
▁month s
▁mach ines
▁comp ag
ț ele
á tok
ti er
or da
全 球
サ イ
も あります
▁של וש
▁את כם
▁гру па
▁ver ant
▁scoper to
▁g ang
y iz
d om
▁започ нах
▁pequ eno
▁obser va
▁iste diğim
▁ 페
▁ 可
▁ 公
קה י
▁ط ويل
▁שא תה
▁בשבי ל
▁בע לי
▁чове ш
▁учили ще
▁trat ar
▁res te
▁ind ie
▁bol do
▁beauti ful
ás okat
ons tru
ci pl
집 니다
食 べ
プロ ジェ
▁ب بر
▁за пи
▁potrze b
▁gondol om
▁fab ric
▁er w
ד מה
lar ım
ab e
され ています
▁نوع ی
▁الج ميع
▁ا ک
▁б ло
▁sch auen
▁ro t
▁przy p
▁gr en
▁dé but
▁cou ple
▁col l
▁ch oro
▁ 듣
م م
ä lt
ti ver
os as
al an
对 于
▁داد ند
▁أع رف
▁рабо ту
▁лю дям
▁горо да
▁бе с
▁pad r
▁o bi
▁gen iş
▁er n
▁ 팔
▁ 通过
ن ون
te ş
ar em
令 人
▁الما ضي
▁מה ר
▁ин ду
▁đ au
▁pian eta
▁lleg ar
ו ה
어 를
▁대 학
▁yan l
▁qu ý
▁mut ter
▁insan ları
▁da ir
▁con j
▁cell s
され ました
▁گفت ه
▁ي ريد
▁بن فس
▁الع لا
▁המ ט
▁но рма
▁w oman
▁ris posta
▁ra is
▁niez wy
▁ngo ại
▁mult ă
▁mil itar
▁med ical
▁el é
▁e go
te za
mes ini
le ti
il miş
gef ähr
間 に
付 け
▁全 て
▁ult ima
▁str ess
▁siz i
▁pok aza
▁fam ille
▁ember eket
▁col leg
خ ش
и те
ţii le
w czy
nik i
▁це л
▁совер ше
▁ко ло
▁ok az
▁exp ect
▁biz tonság
▁at te
▁ łą
م ق
kép pen
デ ア
▁زند گ
▁ка ме
▁trabal har
▁lond on
ż li
u de
tot ta
管 理
たち が
▁ج نب
▁tud unk
▁sa vons
▁recu per
▁gelo of
▁dü zen
▁compa ñ
▁cl asse
▁b ic
▁as tea
▁ 탐
▁ жа
ни ца
ti vi
ia j
em u
do wać
▁ب ق
▁الإن سان
▁أ رب
▁un til
▁ra j
▁im edi
▁ein zel
▁d ần
▁comp rar
▁ch ac
те лей
li er
ent r
主 义
▁전 혀
▁그러 면
▁ت عد
▁бу ква
▁temper atura
▁pu di
▁pom oc
▁mar y
wn ą
ass em
か な
▁الن ساء
▁szerin tem
▁sp in
▁ne u
▁environ nement
▁ 无
▁ ám
het ünk
f ta
▁필요 한
▁م کان
▁ع وض
▁не и
▁t ây
▁sm art
▁nerede yse
▁met ros
▁do e
▁bi y
▁a ți
ط لب
ز ء
де ни
s ay
▁но ва
▁tien es
▁sol a
▁socie ty
▁roz wiąz
▁me is
▁amerika i
▁alg ún
мо би
fl é
引 き
バ ー
▁stan ford
▁nyil ván
▁mint ha
▁len ni
▁in ac
▁g ag
▁essay er
▁de dic
▁có dig
ử i
ק ל
ek nek
の人 々
なり ません
▁ك ام
▁мо леку
▁mau va
▁lap top
▁fut ur
▁c uno
▁au gen
ז ם
е шь
ä us
r ă
po d
era is
▁노 력
▁ありがとう ございました
▁گ ر
▁أ قول
▁הי חי
▁x ử
▁ver te
▁sol di
▁rich tig
▁móz gu
▁k lar
▁gr as
▁er fol
▁econom ie
▁da ca
▁biolog ie
خی ص
ли бо
bil d
시 간
▁و مع
▁الخ لايا
▁הול כים
▁u ğ
▁man nen
▁chang ement
▁ 像
р ё
le gen
cu le
空 间
▁לה ראות
▁s ắp
▁or an
▁norm ale
▁gra du
▁ 퍼
▁ 太
m m
ci er
ap oi
▁하나 는
▁الن ظام
▁suc cede
▁al ter
ور ك
ş im
ép h
in ță
en in
によ る
▁אפ ש
▁мо ми
▁đó ng
▁was n
▁res posta
▁m s
▁kon nten
▁kl ima
▁i p
▁ha v
▁esp ecie
▁contin ue
▁הע בודה
▁המ א
▁ц ве
▁ре волю
▁н ю
▁c ore
▁b ani
ק ן
ın ır
zy sta
ow any
le mek
h áz
ag ę
初 の
▁ب كل
▁о жи
▁wykor zyst
▁w under
▁mes i
ص نع
ль ная
ва йки
ę pu
niej sze
사 를
じ ゃ
▁ممکن ه
▁ش كل
▁ات اق
▁сво его
▁é cr
▁á reas
▁wyst ar
▁via ța
▁seg uro
▁produ kt
▁mind ent
▁ho z
▁fem in
▁acc ess
خص ص
rei ben
k re
it ing
▁میک ند
▁كث يرا
▁ز ده
▁няка к
▁í ch
▁f amos
▁eng ine
▁ 实际上
ч ната
v elles
ur re
フ ィ
ゆ る
▁本 当に
▁دیگر ان
▁о чи
▁po tere
▁mo eder
▁man e
▁la w
▁in vers
▁in izio
▁bak ın
看 看
▁싶 은
▁نو شت
▁مرب وط
▁дву х
▁ви ру
▁mar ché
▁l ạc
▁ ذا
ו נ
u do
j ard
i ţi
den ken
bor en
怎 样
▁ک اه
▁چ ال
▁со ста
▁pet rol
▁nou velles
▁naj więk
▁m üm
▁lát ható
▁kh ắc
▁j ön
▁gyak or
▁com en
▁ 혼
▁ 女性
قي ق
ско го
の ある
▁منا سب
▁sa v
▁począ t
ư ng
l ä
b ot
▁엄청 난
▁사람 들의
▁것 으로
▁vogli amo
▁tulajd on
▁perspec tiva
▁con di
وب ا
d na
通 常
様 々な
にな った
▁살 고
▁ن حتاج
▁تش خیص
▁بخ وا
▁з да
▁întâmpl at
▁th a
▁stat ist
▁reg ion
▁nucle ar
▁müm kün
▁l ắng
▁hum ain
▁diffic ult
▁cie ka
▁bu z
ו פי
에서 도
意味 着
▁정보 를
▁по мисли
▁здра ве
▁özel likle
▁wcze śniej
▁un gefähr
▁meg fel
▁m ơ
▁capac ità
▁bey in
▁anim ale
▁... .
▁ ź
ши м
t z
地 域
▁종 류의
▁l y
▁des tek
à u
▁че ты
▁ph ysi
▁b ri
ỏ a
ק רו
▁هم ون
▁מה א
▁по те
▁ино гда
▁ве к
▁pre dic
▁ka f
▁fel fe
▁bil ir
וד ו
方 向
フ ォ
▁있 기
▁من هم
▁נ ות
▁וה מ
▁заме ча
▁waż ne
▁t ellement
▁look s
▁grou pe
▁den kt
▁cią gu
되 었습니다
プロジェ クト
▁말 하는
▁ش ر
▁الم حيط
▁абсолю тно
▁znaj du
▁travail ler
▁sin ce
▁res im
▁ol mal
▁l ạ
▁l uni
▁k g
▁ap res
حظ ة
ب ری
方 が
与 え
▁واقع یت
▁رفت ن
▁אח רת
▁при ш
▁yap ıyor
▁so uth
▁liter almente
▁l ik
▁heiß t
▁ 늘
▁ 下
با س
ál tal
ten ek
ap te
的 一个
▁الم ب
▁uite ind
▁s ente
▁on g
▁nh iệt
▁m ist
▁exper i
▁de al
▁ 를
اب ق
y im
nie uw
ag li
ってい た
▁있어 서
▁са ма
▁пробле ми
▁tr end
▁jum ătate
▁is n
▁cris is
▁ 패
ще ние
id ing
h le
at ele
가 요
▁предизви ка
▁wo j
▁vă d
▁pi ę
▁num it
▁mé dic
▁lie f
▁k ant
▁expl os
▁conte xt
▁be yn
نت ج
ق ف
ק ור
ве д
新 しい
才 能
に いる
▁알 게
▁ص ور
▁سب يل
▁tah min
▁s ost
▁do kład
▁de li
▁amik et
z te
ev ens
治 療
ン が
▁우리 를
▁ي خ
▁و ظ
▁مع د
▁عن ه
▁بل ند
▁משמ עות
▁хо тя
▁со всем
▁ра к
▁изпол зват
▁pr ior
▁nieuw s
▁mar kt
▁ent ire
▁chc emy
▁ 無
▁ み
ль ше
▁де ся
▁бър зо
▁t yle
▁schw ier
▁sch ön
▁ 神
ב תי
б ър
ul uk
ro om
as ındaki
abili yor
시 에
或 者
▁ب لا
▁y em
▁widz imy
▁ur m
▁stim ul
▁long o
ن ف
فه وم
те ра
za ć
wer ken
pi os
c ro
▁これ を
▁ال سا
▁לה ח
▁бы стро
▁tra g
▁re duc
▁olduğ umuz
▁meg t
▁hom bres
▁ar ă
▁ =
▁الر يا
▁дви жение
▁ta i
▁fiz ik
▁ev id
▁esper o
▁cien cia
▁ q
ur al
dzie li
이 를
建 立
の でしょう
▁아 닌
▁ب ك
▁الح قي
▁î şi
▁nel lo
▁mil jard
▁inter ag
غ ب
p on
cia is
開 発
▁ب واس
▁מ ים
▁אר בע
▁сли шком
▁v ine
▁th ách
▁plus ieurs
▁h í
▁every one
▁daar om
ers ch
ce i
인 이
にお いて
▁پای ان
▁نوع ا
▁ع دة
▁أ ث
▁épo que
▁szcz eg
▁lum ière
▁f äh
▁democr at
▁de pres
▁anal og
ва ем
al de
患 者
复 杂
▁گذ اری
▁пра ве
▁диза йн
▁ré flé
▁por tanto
▁ne vez
▁market ing
▁gen ug
▁des te
▁commen cer
ő tt
cz ek
的时 间
▁ا ضا
▁со обще
▁с гра
▁som ente
▁kur z
▁h ứng
▁dik kat
▁aconte cer
▁ 용
v á
uy u
g ın
▁你 知道
▁ку пи
▁во до
▁é pp
▁v ượt
▁tár gy
▁sz él
▁rep ül
▁fiz emos
▁ch ăm
▁br ill
▁ や
רי ה
b ru
세 계
意 义
▁ne uen
▁midd le
▁bu ena
с фе
ieni u
概 念
有 趣
▁مج د
▁п ръ
▁vo ulez
▁v em
▁t ỷ
▁sour ce
▁sistem ul
▁result ados
▁quiz á
▁dzie c
▁doll ár
▁costru ire
ומ רים
ב נה
re di
g as
지 어
を する
▁پ در
▁بین ی
▁מ צא
▁спо деля
▁wik ip
▁voor beeld
▁stwor zy
▁ragaz zi
▁o tr
▁mort al
▁gi ro
▁de press
▁czę ść
כול ת
стой чи
í cio
lig ht
多 数
▁정 신
▁برخ ورد
▁آ ما
▁таки ва
▁sobre viv
▁rapid amente
▁r ák
▁een v
▁commen ce
▁ch ữ
▁br z
▁al b
▁ 임
▁ 多くの
ţie i
us ement
olo j
c ci
ひ と
▁و ش
▁منط قه
▁голя м
▁а нали
▁re ale
▁n ak
تر ك
van gen
ut to
n ienia
d is
▁분 명
▁خ ر
▁е ди
▁z im
▁wo orden
▁t esta
▁sf âr
▁nek i
▁lény eg
▁by li
▁astr onom
▁app ena
ü li
家 庭
▁об яс
▁из ключи
▁дово льно
▁большин ство
▁v ue
▁llam ado
▁de le
▁de j
عت بر
го ва
各 种
▁보 는
▁非常 に
▁ج ال
▁большо е
▁po za
▁k ính
▁d ens
▁c urs
▁c ale
▁baz en
▁ad or
ون م
да р
sz ego
努 力
▁أن فس
▁וא ת
▁ки ло
▁к лю
▁до ступ
▁все му
▁té cn
▁sz olgál
▁rép onse
▁nar r
▁ 담
دی گر
ט ת
해 보
▁پذ یر
▁ש מש
▁מ וצ
▁v all
▁s ale
▁iz in
▁fe ite
▁escol a
▁c ég
▁ 甚至
مي ل
ס יה
в ли
宗 教
子ど も
▁ت اب
▁כא לה
▁пре жи
▁stud enten
▁ngh èo
▁mul ţi
ти ци
го ре
k ta
▁제 공
▁아 버
▁不 过
▁ن یم
▁خ ورد
▁לל כת
▁הב א
▁ç ift
▁re j
▁ola cağ
▁még is
▁g and
▁constru ire
▁c ade
וס ר
일 까요
制 造
ベ ル
▁对 于
▁پ وش
▁و ض
▁ب حا
▁י ע
▁sos ten
▁pos ta
▁p une
▁nov amente
▁mon itor
▁lavor are
▁he ard
▁fam iglia
▁colle ge
▁anim ali
ши й
est as
▁от де
▁об я
▁е д
▁th iếu
▁sch re
▁pra kt
▁moder ne
قتص ادی
רי ים
רו ע
щи е
us ias
j ék
도 를
年 的
▁میش ود
▁رفت م
▁تو ضی
▁تر ون
▁па за
▁име ет
▁sk y
▁sh are
▁secon da
▁pak istan
▁ma h
▁exp li
▁ele f
▁alt ında
וב ות
тел на
▁저 에게
▁ن ريد
▁تبد و
▁t are
▁sek s
▁res ist
▁es cr
ح ص
ıy dı
re bbero
机 会
暴 力
控 制
初 めて
▁تر يد
▁при ходи
▁widz icie
▁ve il
▁macch ina
▁kr it
▁każde go
▁ha us
▁foly amat
ą t
m eg
ン ス
▁정말 로
▁ای ست
▁ש בע
▁הא דם
▁telef o
▁pon er
▁le cz
▁fic ar
▁experi ência
▁av anti
ات ي
י ד
owa łem
a ți
成 長
▁س ان
▁رو ب
▁در س
▁آ سی
▁műkö dik
▁jur ul
ك ال
br ingen
at om
▁ど んな
▁peque ña
ش ن
ва ше
ş ık
r icht
mas ını
我 々
と 同じ
▁충 분
▁보 다
▁کش ف
▁صن عت
▁מא ות
▁כ יום
▁או מרים
▁о пы
▁ко му
▁probable ment
▁nasze j
▁j ud
▁esper ienza
▁a ż
▁ 군
vert ir
ur ch
▁조 직
▁עוב ד
▁na cional
▁micros oft
▁de g
p f
om os
in n
음 을
어 나
▁و سی
▁رائ ع
▁фе р
▁кла с
▁ка зват
▁sz ár
▁sein er
▁se ver
▁pill anat
▁nek ik
▁nature za
▁g ere
▁f ek
▁conne c
רו פה
נ ע
unk u
iyor lar
ien ne
e tem
想 象
してい た
▁הש נים
▁поня кога
▁th ất
▁psych olog
▁kés őbb
▁dr amat
▁bas icamente
起 き
状 態
▁정 확
▁م تر
▁ساخت مان
▁زمین ه
▁اون جا
▁ס ביב
▁хо те
▁való ban
▁univers ity
▁pu d
▁obec nie
▁megk ér
▁ma ş
▁bu ilt
▁b iss
▁af in
m s
ik at
do po
ミ ュ
イ ル
した のです
▁م با
▁ق وان
▁из ра
▁đ ột
▁via g
▁p ły
▁ense ñ
▁bil hões
ộ n
fi ques
el ves
▁ص نا
▁şti in
▁link s
▁impro v
כל ים
n ika
es inde
化 学
ニ ア
▁느 끼
▁بسا ز
▁ת וכ
▁ult ra
▁schim bă
▁näch sten
▁gobier no
▁es ki
▁b lu
نت اج
פת ח
us te
k w
iz ar
ar et
▁מס ו
▁י ל
▁объ яс
▁меха ни
▁yön et
▁mó zg
▁inves ti
غي ير
ро де
임 을
演 讲
国 の
▁שה מ
▁та н
▁bu dy
ام ة
us u
▁거 기
▁небо ль
▁şti ţi
▁ven ir
▁szyb ko
▁kre eg
▁idee ën
▁crian ça
ün ün
▁ج ور
▁соверше нно
▁parç ası
▁huma ins
▁clim at
ש יתי
ס ון
кра я
am ız
acy j
▁הבע יה
▁sor prend
▁n ép
▁m ică
▁industr ie
▁cl ă
▁bi ç
让 我
▁다양 한
▁也 许
▁گرفت ن
▁الأم ور
▁мисли м
▁învă ț
▁yanl ış
▁pro ced
▁ho t
▁fel ad
▁让 我们
▁دست گاه
▁الم ال
▁по зи
▁ś mier
▁sz ív
▁stud y
▁r ând
▁pla ces
▁p ick
▁meg né
▁m ật
▁is land
▁h ạnh
▁den iz
▁col o
▁ang e
▁ 说
לי ה
h el
制 作
を使 って
▁ال سبب
▁ا قتصادی
▁צ עי
▁é ppen
▁st il
▁r on
▁pas a
▁int ent
▁gezond heid
▁ge wor
▁cambi amento
▁bamb ino
▁an lay
пу ска
н ска
ú j
is inde
ile a
icz nych
ard an
▁ر وا
▁же ни
▁mudan ça
▁le var
▁je ż
▁gł os
▁fal ando
▁différ ents
▁av ions
mo i
ic on
在 一起
▁영 화
▁про тив
▁ви дя
▁ra zy
▁pre cies
▁mar tin
▁inc or
▁erzäh len
▁ay ak
وب ة
кру г
ł ada
ch os
▁الم كان
▁де ти
▁д ъ
▁us amos
▁u cz
▁t àu
▁ra con
▁próx imo
▁prz em
▁produ it
▁m ère
▁kh án
▁g usta
▁do t
▁ 베
ف ية
ie j
eg u
▁진 행
▁ت فاوت
▁الت كنولوجيا
▁ا كثر
▁ק יי
▁u ur
▁ou v
▁li b
▁k ry
▁fol low
▁encontr amos
▁co lec
▁5 5
ле ни
u ge
li am
치 는
▁여러분 께
▁سپ اس
▁тъ й
▁t ett
▁przy j
ля т
é qu
le ben
ec ten
더 군요
件 事
▁ي س
▁ل ب
▁ف ال
▁נ כנס
▁авто моби
▁lã nh
▁gru pos
▁bo x
vie w
it ás
elf en
den do
▁나 오
▁проу ч
▁говори ть
▁в пер
▁wo hl
▁vi ent
▁uiteind elijk
▁t ầm
▁să ptăm
▁sz eg
▁de dim
▁cs ök
▁co û
▁cere br
ış ı
ジ ー
▁같 습니다
▁آ ید
▁од ного
▁за вър
▁perci ò
▁pens ez
▁d v
▁d ers
فا عل
ъ ра
zą dz
at ar
로 서
▁کود کان
▁ف یز
▁آ س
▁ни кто
▁нача ли
▁vel oc
▁re pu
▁pet its
▁moje j
▁mag n
▁infras tr
▁fer ic
▁en vol
▁ac cept
вре мен
▁في ما
▁ح ياة
▁או פ
▁vol gens
▁sc rit
▁poten cial
▁m ust
▁gyor s
▁a tiv
тел ност
vi do
전 에
▁모두 가
▁も ちろん
▁ک امل
▁قب لا
▁powin ni
м ся
wi ę
alar ın
▁ال كون
▁ה בר
▁та й
▁szeretn ék
▁nel er
▁experien cia
▁dess es
▁ci ência
▁a ider
▁201 5
k os
ere i
▁아마 도
▁보 호
▁wi adomo
▁voed sel
▁stwor zyć
▁pes o
▁manh attan
▁jed na
▁demand é
ری ف
n elle
価 値
う ち
▁س نگ
▁بين ما
▁الط ب
▁أ هم
▁לה ר
▁לד וג
▁ço ğ
▁vers t
▁some body
▁per ic
▁ 침
▁ 범
▁ 電
را ک
ל ול
ı c
根 本
を 行
▁شو یم
▁оби кнове
▁во круг
▁manip ul
▁an ul
▁aceste i
▁ 빛
ora ção
as ına
ale ży
还 有
質 問
シ ャ
▁تق ول
▁שא נשים
▁st ories
▁ro bert
▁p ág
▁inst al
▁f ica
▁e ben
▁ant woord
w elt
sen iz
하면 서
▁ł at
▁v et
▁ult imi
▁t ą
▁sch ul
▁hig gs
▁ech ip
▁e is
▁d ấu
▁bus h
▁b ono
شا ء
ства та
ę g
ú lt
▁مد ل
▁ع ق
▁обще ство
▁инди я
▁yap ar
▁parad ig
▁komple x
▁em lé
▁d á
▁csod ál
▁aut onom
פ א
ту р
kol wiek
普 通
▁한 다는
▁발 생
▁т ро
▁стра ны
▁çöz üm
▁y eter
▁możli wości
▁fo cus
▁certa ines
▁ac tion
▁대 신
▁کاه ش
▁عا ما
▁ب سر
▁الت فكير
▁שנ קרא
▁לדע ת
▁ф ран
▁сним ка
▁бли з
▁tor na
▁sz uk
▁sap ere
▁regar der
▁en gl
▁başlad ı
▁ 훌
▁ 핵
مل ه
שוב ה
ç ar
ien den
ac ie
▁모 델
▁ن کن
▁ال دا
▁контро ли
▁компют ър
▁w od
▁recher che
▁pequ ena
▁pass ado
▁ok tat
▁estr ut
▁es pos
▁cu vin
▁as col
▁af ac
▁20 20
ство вать
po dar
f il
尝 试
中 の
▁それ で
▁ק רי
▁כול נו
▁mole cul
▁kon fer
▁bi ológ
▁bi b
▁an um
▁ 허
v ious
gen es
정 한
最 も
▁然 而
▁ژ ن
▁میز ان
▁ק רו
▁на ма
▁ști ți
▁pens ato
▁nim eni
▁le a
▁gra ag
▁con tem
▁con g
رائ ه
нно м
ér é
im et
이 가
ア メリカ
▁프로그 램
▁хиля ди
▁со бой
▁t ội
▁prop ag
▁par fois
▁learn ed
▁kon k
▁immag ini
▁ide i
▁espr it
▁en kel
▁do bre
▁d y
▁br in
▁ 봅
ור ק
ást ico
ci da
選 択
确 实
活 动
形 成
▁同 时
▁你 会
▁۱ ۰
▁فر ان
▁ع ال
▁ش م
▁بحا جة
▁ש פ
▁о фи
▁s end
▁meg próbál
▁m ăr
▁j as
▁g ửi
▁fol ose
▁faz emos
▁des cr
▁cel or
▁ap o
▁200 2
т вер
зыва ет
ımız ı
력 이
▁כ וח
▁tem por
▁né ha
▁m era
▁kor k
▁h ong
▁c ải
▁ay udar
▁al ém
▁ac ord
ב ק
le yen
렸 습니다
ディ ア
▁تغی یرات
▁wel ke
▁ren ge
▁muh tem
▁bom b
▁ 꽤
نا ک
با ء
ion a
cz es
機 能
よ ね
▁دار و
▁כ סף
▁анг ли
▁viz sgál
▁tab ii
▁t âr
▁re un
▁f ert
▁as a
▁ が
و غ
пе чат
î tre
uz ioni
s ak
j ünk
do k
▁我们 在
▁לה בי
▁кра я
▁viv re
▁st os
▁os s
▁no emen
▁nhi ễ
▁l ưu
▁gro ep
▁funzion a
▁des ap
▁can ada
▁be o
وا جه
к ты
und os
▁그 곳
▁مسئ له
▁ق اب
▁ا ر
▁с п
▁про г
▁ко е
▁um ano
▁koń cu
▁k art
▁col lec
▁bağ lant
▁b ât
▁ab andon
ג רים
ci p
▁وهنا ك
▁ma anden
▁c ư
н ный
д ро
uy ên
ma is
l or
▁چ رخ
▁س وم
▁מ נת
▁גדול ה
▁ze igt
▁unser em
▁pron to
▁miliar de
▁l ent
▁ját sz
▁incredi bile
▁dar um
▁będzie my
▁ 小
يا س
то рии
ва ща
rie ben
an ic
疾 病
几 个
▁پیچ یده
▁حال ی
▁în apoi
▁t ố
▁op pos
▁car ta
t ad
e ze
al k
▁برگ رد
▁э кспери
▁кни ги
▁to tu
▁sz int
▁sen e
▁par ten
▁aj unge
не зи
i b
f inden
视 频
▁ع اد
▁جدید ی
▁מדו ע
▁חוש בת
▁ו זו
▁אי ש
▁via ță
▁resp ir
▁l iste
▁h òa
▁c unos
▁b ord
מ נים
v it
▁جن سی
▁اهم یت
▁систе мы
▁простран ство
▁от во
▁из о
▁pub lik
▁gând it
▁cin q
נט ים
де те
è tement
z s
z nie
ow aliśmy
ast ro
▁아니 면
▁وب الت
▁عا شق
▁رابط ه
▁ö zg
▁t ốc
▁t ü
▁t òa
▁s ınır
▁pro mo
▁polit ici
▁piens o
▁met o
▁me j
▁famí lia
▁cent re
▁c ận
▁abs or
▁ ۶
ğ ini
lo t
br ar
做 了
▁توضی ح
▁ş aş
▁th ụ
▁pa i
▁mar t
▁dan ych
כ תי
겠 지만
▁기 계
▁بگ م
▁ול מ
▁ști u
▁svil up
▁n iệm
▁he en
▁b auen
▁acest or
▁ 면
ק שר
ı da
der t
alt ă
重要 的
持 ち
でき ない
▁work s
▁no ta
▁k em
▁dos ta
▁din osa
▁ 넣
ه ور
ه تمام
ض ة
こ そ
▁굉장 히
▁不 是
▁نفس ه
▁مش ا
▁صف حه
▁ج يدة
▁بی ان
▁неве роят
▁über all
▁thou gh
▁th er
▁suc c
▁s ad
▁no ite
▁k ey
▁k ali
▁h ük
▁f ly
▁del as
▁again st
▁ad ul
▁actu al
an iem
音 乐
▁ми ру
▁вну три
▁ser ve
▁profess ion
▁is tem
▁hom ens
▁hol lywood
▁biss chen
ü ler
ウ ェ
ること は
▁след ващи
▁wil liam
▁web site
▁w cią
▁ter men
▁sym bol
▁r esso
▁pa in
▁cle ar
▁alk ot
те ше
ţ ile
第 一
▁э лектро
▁виде ть
▁u ita
▁signi fie
▁indi en
▁her um
▁educ ation
▁don né
▁aşa ğı
اب ات
마 다
▁چیز ها
▁الما ء
▁שמ א
▁сдела ли
▁ré se
▁rec ente
▁qu ick
▁o gr
▁lo in
▁in e
ir ől
h end
gen o
ge ben
意识 到
▁ها ي
▁ل ش
▁при бли
▁по тен
▁вер ну
▁zami ast
▁ra k
▁qu ân
▁m äd
▁kh ách
▁guard ate
▁empe z
▁ 言
вре менно
iz ioni
▁من كم
▁عمل ية
▁из гра
▁h elfen
▁del lo
▁au rait
ab er
▁훌 륭
▁행 복
▁ا رائه
▁ש מו
▁по гово
▁é tat
▁pouva it
▁muj er
▁migli or
▁len g
▁kne w
شم ند
us st
tel t
owi ada
센 트
▁아 래
▁و ذلك
▁نهای ت
▁ببین یم
▁ا عتقد
▁ми ни
▁ph úc
▁ni ềm
▁kit ap
▁gdy by
▁espec í
▁beg ann
▁b lei
مه ور
ست ی
фи ка
um en
り ません
▁전 쟁
▁أح ب
▁на сколько
▁на дя
▁ми ро
▁tum or
▁pie ce
▁mel h
▁lu cht
▁d ă
▁come cei
▁anima is
ס טי
юще е
가 능
して み
▁특 히
▁심 지어
▁مح صول
▁علا قه
▁מת וך
▁rend el
▁r an
▁ges am
▁dost ęp
х е
이 라
▁여 전히
▁שי נוי
▁tin ham
▁sp elen
▁perg unta
▁me i
▁divers o
▁dep art
▁constru c
▁cin ci
▁canti dad
▁bene fici
▁a ţi
סט וריה
וצא ה
m ento
대 에
▁الص ور
▁الس ر
▁осно вно
▁други те
▁inv isi
▁gewe est
▁app are
ری قا
צ רים
ért ék
o ta
ig de
한 다면
감 을
▁로 봇
▁그러 니까
▁کلم ه
▁در د
▁خود شان
▁tr ực
▁ongel o
▁acc ad
г нем
era it
たち の
▁по пита
▁но вые
▁sch wer
▁on d
▁mus i
▁insan lara
▁gos podar
▁em b
▁derni ère
▁alap vet
ב רו
iss ons
act ér
教 え
▁했 죠
▁tanul mány
▁liv ro
▁embar go
▁değil dir
▁de cy
▁appr is
▁ap a
p et
ol ni
hi b
c ando
叫 做
▁어 린
▁چ یست
▁وب ال
▁مد یر
▁у до
▁nu ôi
▁n ö
▁h es
▁gr â
▁el t
▁bad ania
▁al can
▁ag gi
з ъм
ar da
装 置
い に
▁ز ي
▁الأم ري
▁многи х
▁ба кте
▁resso ur
▁dzis iaj
▁de be
ו גי
是 否
ダ ー
を 通
▁ن قل
▁ש מי
▁ל פי
▁ха ра
▁с проси
▁ви ди
▁wal k
▁ve h
▁svilup po
▁frag ment
▁exact ly
ба та
di ó
と 言
▁م قا
▁via ţa
▁tehnolog ie
▁na cht
▁hor iz
▁el las
▁am ar
▁ 뜻
▁ グ
▁ ٫
ו מי
на т
zy s
r ów
습 니까
▁최 근
▁비 행
▁مو سي
▁ق صة
▁מע ל
▁о дни
▁w ró
▁tr en
▁tele vis
g ek
au fen
ab ol
인 데요
目 の
▁چال ش
▁شخص ی
▁уча ст
▁пър вата
▁sat is
▁ha br
▁d ź
▁ 研究
نا مج
ש ם
▁ר ח
▁במ ח
▁univers e
▁preo cup
▁m ali
▁e ur
▁bib lio
▁amig o
▁a cht
ری س
ان ب
во д
truc tura
is ine
iler ini
ig ur
czu cie
▁изме нить
▁zor gen
▁system s
▁du idelijk
▁dist in
▁acest ui
ре ди
ę t
rad os
isch es
▁人 間
▁مطال عه
▁مشکل ات
▁جمع یت
▁par tout
▁milli arden
▁fon do
▁deci ded
▁códig o
▁curi os
▁a unque
▁ 키
с ми
ле на
и н
合 作
効 果
▁ز د
▁المج تمع
▁כ נ
▁é c
▁w ow
▁vul ner
▁tak ing
▁peg ar
▁manch mal
▁ma pa
▁lim ite
▁karma şık
▁incr ível
▁güne ş
▁gi oc
▁dolg ot
▁bec ame
w amy
▁س ای
▁ש צ
▁пъ ту
▁şti u
▁raz ão
▁pe ur
▁organiz z
▁n amen
▁mé de
▁b au
▁apprend re
▁anim ales
re mos
▁약 간
▁분 야
▁所以 我们
▁ع الی
▁توان م
▁الص غيرة
▁yaş ad
▁v s
▁sz ín
▁photo graph
▁geg evens
د ان
фи ци
wo ść
说 的
▁ا ثر
▁теле ви
▁perso ană
▁h uy
▁d ad
▁beszél ni
ري س
ít ja
ra gen
al ement
ず っと
▁배 우
▁最 后
▁گذ ار
▁ال كم
▁ת וך
▁yapt ığımız
▁technolog ii
▁n ikt
▁egyszerű en
щи те
же нии
á rok
im p
▁현 실
▁생각 을
▁در آ
▁се к
▁с ни
▁раз но
▁tro va
▁speci es
▁sc an
▁nhi êu
▁man ag
▁ka v
▁he ures
▁gr ond
▁di eren
▁chi ều
را ط
تر ة
ז רה
电 影
▁מה י
▁pra wie
▁pet ró
▁mond tam
▁l ös
▁kh ối
▁k ok
▁ară ta
▁ ẩn
ری ه
ра зу
ț ile
ıy ı
te in
ol t
este d
ac es
a ções
하 도록
感 到
▁특 별
▁لدي ها
▁سی اره
▁מ כם
▁между на
▁wer t
▁százal ék
▁ric ord
▁me z
▁kür es
▁de va
ج و
mad an
ili yor
ch è
フ ァ
▁فر ز
▁خ ي
▁الس ل
▁חשב תי
▁ה לי
▁показа ть
▁п ле
▁właści wie
▁k ik
▁h ir
▁acred ito
og li
lar ca
ek re
▁ف نا
▁دقی قه
▁ا ساس
▁на ко
▁въз раст
▁za j
▁probl éma
▁mon tag
▁mar ch
▁loc uri
▁inte ligen
▁ins ul
▁encon tra
▁doğ al
▁din am
▁afr ik
ze z
het jük
eg d
대 의
기 의
した り
▁되 고
▁대부분 의
▁ب ک
▁работа та
▁đ ấu
▁pres idente
▁pod staw
▁ng ược
▁män ner
▁bre ak
▁b f
▁anim aux
къ в
з д
um ente
u fen
n ale
进 入
平 均
▁szeretn ém
▁războ i
▁pozw ala
▁mo uv
▁man i
▁kobie ty
▁equ ip
▁ele v
▁bo b
ط لق
n itt
され ている
▁当 你
▁خ ورش
▁المست قبل
▁sh ar
▁pos ition
▁plane et
▁meg tan
▁fir ma
▁enor m
▁ 能
й т
cho dz
为 了
▁여기 에
▁ни во
▁rzeczyw isto
▁petró leo
▁lie gt
▁k éo
▁gör üş
▁demok rat
▁com enz
שי ר
o h
b ack
어 야
▁자 유
▁جز ي
▁الس ن
▁sö yl
▁origin al
▁no bel
▁mon tre
▁m ers
▁fer r
▁au cun
▁ レ
ще ния
ции те
ó ch
és re
er ra
d on
私 が
深 い
映 画
▁ב רח
▁у сеща
▁precis o
▁másod ik
▁mu d
▁kh ổ
▁i̇l k
▁es qu
▁es em
▁ 問題
وج ب
خ ي
къ сно
fa jta
パ ー
▁自 然
▁voit ure
▁s ilen
▁pel ícul
▁palab ras
▁neg ó
▁l isten
▁họ a
▁ho ff
▁hij os
▁ge boren
▁energ ii
▁c ử
▁boy ut
قی ه
ор к
обра зи
cha ffen
▁دان ید
▁לפ ת
▁на сто
▁дъл го
▁sci ent
▁mo ther
▁ 북
▁ 갔
בר תי
zn ą
ri te
p unk
n as
jen ek
ins on
▁ت قل
▁ק ול
▁לל מוד
▁וה א
▁ה גיע
▁ф он
▁um ane
▁tari h
▁sz av
▁ris adas
▁resp ect
▁prog res
▁no che
▁l am
▁in iti
▁imag em
▁il er
▁h ice
▁expl ica
▁amer ik
ку ю
tu ig
▁توان ایی
▁بد م
▁الق ص
▁ר ב
▁perio do
▁dw óch
▁19 0
غ ط
s or
ar la
▁장 소
▁غ رب
▁להפ וך
▁но в
▁вид ях
▁y as
▁vol l
▁na z
▁mé dia
▁inter ak
▁fir m
▁f ire
سب وع
щу ю
то й
на л
ç u
wia ć
j cie
im al
an ten
지 에
保 护
▁시간 을
▁آغ از
▁הסי פור
▁w egen
▁t ù
▁publ iek
▁pro c
▁pic cola
▁nh ờ
▁mes a
▁complete ly
▁ai de
▁ag r
اد ث
бе р
és ét
ic ii
▁문 화
▁מת כו
▁кото ром
▁информа ции
▁világ ban
▁v ond
▁to eg
▁pro ven
▁no kta
▁a umento
שי מה
y ment
治 疗
▁멋 진
▁당신 은
▁يج عل
▁mera v
▁l hes
▁ide en
▁geweld ig
▁ ､
▁ 깊
ля р
ţ ele
z one
w ards
re au
or to
점 을
▁이루 어
▁с ы
▁społec ze
▁s r
▁pom i
▁lig ne
▁lie be
▁av rebbe
ồ m
פ חה
ö ket
mi ar
这 是
计 划
突 然
作 为
▁تر ى
▁ה רי
▁ро ди
▁pro z
▁fac tor
▁compl ètement
▁car ne
عي ش
iv amente
em d
d it
ck er
al o
カ ー
▁م ز
▁الأ كثر
▁тех ните
▁множе ство
▁гла в
▁tap asztal
▁nour rit
▁le piej
▁f ro
▁cor ect
▁ ド
ش رات
ти й
вле ка
k ant
il ler
▁인 생
▁را حت
▁بد ست
▁מ בו
▁пере да
▁женщи н
▁poz osta
▁paci ente
▁mu ita
▁meta for
▁intern ation
▁hossz ú
▁ev ren
▁cas os
▁ 素晴らしい
n ök
acağ ız
들 입니다
继 续
▁ن ع
▁раз по
▁объ е
▁érz ék
▁un as
▁o gen
▁grâ ce
▁b ott
▁arriv er
ظ مة
לו ן
â ne
is inin
enn ent
ar ci
首 先
へ と
▁바 다
▁م ذه
▁במה לך
▁особе но
▁гене ти
▁t án
▁no te
▁mon te
▁enten du
ua ge
r itt
il lo
将 会
▁오 래
▁가 르
▁大 きな
▁у чё
▁проме ня
▁s ak
▁l un
▁er ről
טי בי
容 易
▁기술 을
▁وال آن
▁ل ط
▁ض رب
▁رو ند
▁دو ستان
▁بگذار ید
▁מילי ארד
▁המי דע
▁су пер
▁исследо вания
▁su gg
▁nie j
▁kı sa
▁kim se
▁j az
▁gener ation
▁et h
ğ e
z cie
wij s
ti di
mel iy
ho de
체 를
▁ي فعل
▁الم شا
▁по вто
▁trans forma
▁happen ing
▁eng ag
▁des tin
▁cam ino
▁anti bio
מ תי
т на
wol u
調 査
▁мо дел
▁el lo
▁c d
▁bei de
ر انی
סת כל
че стве
л ён
sel ves
ler imiz
h under
as ını
▁له ذه
▁أ صبحت
▁промя на
▁z de
▁them selves
▁sy tu
▁program me
▁plat form
▁ours elves
▁min dez
▁megvál toztat
▁hers enen
▁gouvern ement
▁19 3
ت ين
בל תי
ond ere
le te
듯 이
联 系
▁ست كون
▁ș tim
▁pu iss
▁pass ion
▁n ửa
▁int im
▁egy etem
▁chi ama
▁bir leş
▁al ın
▁ن قا
▁مد ى
▁طبی عت
▁ת היה
▁фа кт
▁zmi an
▁z byt
▁ver tro
▁tud ja
▁san ırım
▁pop ol
▁plast ic
▁pala v
▁măs ură
▁kind s
▁et tiğ
▁ ổ
ä che
▁ش مال
▁zw yk
▁każd ym
▁i ce
▁dan h
▁ce p
▁ 플
щи й
bi or
多 少
を 得
▁전 문
▁کامپی وتر
▁מדה ים
▁הת ע
▁ре ги
▁мре жа
▁ка пита
▁zich zelf
▁tehnolog ia
▁prz es
▁j er
▁in n
▁fem ei
▁dé cid
▁cor por
رس ة
خت لف
ри т
ма га
w anie
po tr
om ra
ist ro
fe j
am ay
事 が
▁주 변
▁ص نع
▁при нима
▁đ êm
▁velo cid
▁tr ạng
▁d wie
▁aqu eles
ري كا
fe ito
es ter
に する
▁سپاس گ
▁أن ك
▁wsp om
▁vol le
▁vis elked
▁r ę
▁pro cur
▁de den
▁cer care
▁bat ter
▁au cune
üs ü
所有 的
デ ル
▁рас простра
▁го ре
▁в роде
▁z aba
▁socie dade
▁roz ma
▁profess or
▁mi asta
▁ee uw
▁ch ce
▁ ~
ست ن
on ta
es o
ン プ
▁저희 가
▁말씀 드
▁彼女 は
▁ق لت
▁آف ریقا
▁ид ва
▁no vas
▁naturale za
▁n ội
▁n ỗi
▁intér ieur
▁dise ase
▁bo ek
▁b ắc
יי קט
ופ ים
ar m
an ță
▁ق ل
▁компью тер
▁ten ni
▁rag ione
▁ra dic
▁partic olare
▁kra j
▁fel é
▁complex e
▁ch ữa
▁bre ve
ци ей
ло н
го в
ot y
iv ent
那 么
把 它
に 見
▁하 기
▁반 응
▁منظور م
▁مج ال
▁ق ائ
▁بد ان
▁o yn
▁lu d
▁lang uage
▁im á
▁f ru
▁bez pie
▁ 分
ي نات
سم ح
أ ل
чи е
us o
rie z
rad aki
dea una
어 가
歴 史
▁자동 차
▁ظ اه
▁رس د
▁ו פ
▁как ва
▁természet esen
▁rat her
▁nh u
▁jap an
▁impac to
▁es pl
▁am is
▁4 2
כול ם
um enti
iz ed
複 雑
▁무 언
▁بال إ
▁ו ד
▁w rit
▁tá vol
▁kommun ik
▁g ór
▁aug ment
▁ar ten
رو س
че ни
ста н
j ect
e b
方 を
▁最 も
▁همین طور
▁مید ان
▁э к
▁réflé ch
▁qu ieren
▁númer os
▁kel lene
▁fin ans
ש בים
וד י
не го
н си
r al
f it
▁관 계
▁למ ד
▁כ ח
▁בע יה
▁пре доста
▁ço cu
▁mäd chen
▁cso port
▁archite kt
▁ 취
ما م
حا ء
ו נה
e ver
▁있었 죠
▁시간 이
▁באמצ עות
▁ва ми
▁y uk
▁turn s
▁st att
▁point s
▁ordinate ur
▁ob sz
▁milli árd
▁köny v
▁k lu
▁em in
▁de jar
▁cel ul
▁ 잃
р ко
ö ny
p ta
ni ą
ia ło
em de
文 字
当 时
ら ゆる
▁없 었습니다
▁образо ва
▁đ ẩy
▁ste hen
▁se y
▁get s
▁fun ction
▁durum da
غ ر
עי לות
tu d
g ers
▁생각 하는
▁پر واز
▁ل س
▁بد لا
▁אמר תי
▁пред при
▁é crit
▁serv ice
▁samo ch
▁perso ane
▁over al
▁m ii
▁j em
▁ile ti
▁gesell schaft
▁f ok
▁expl icar
▁cre c
ya ç
j esz
g un
립 니다
過 去
▁也 就是
▁עלי הם
▁ра вно
▁sex ual
▁real idade
▁qu ell
▁process us
▁n esta
▁mas ch
▁information en
▁fol gen
▁dön üş
ار ک
ופ ו
z ien
f ice
企 業
く らい
▁이 를
▁أ ود
▁ста л
▁vo ud
▁palav ras
▁or vos
▁do ua
▁ 탄
وا قع
се ти
h äng
b m
a cht
▁어 머니
▁나 무
▁وا ضح
▁ن وی
▁ن كون
▁مه ند
▁хо тим
▁ско лько
▁z is
▁tr uc
▁ne ut
▁gr am
▁düşün ün
▁de tal
▁ado tt
ر ون
zen do
iel le
ieden is
参 与
共 同
▁موا جه
▁مطم ئن
▁н ью
▁же ните
▁yaş ında
▁u czy
▁sein en
▁objet ivo
▁növ eked
▁har c
▁g iz
▁f ull
▁cerc ando
▁cel ular
ul ent
▁아이 들이
▁무엇 이
▁ي نب
▁بواس طة
▁الط ريق
▁עצ מי
▁מ רו
▁обы чно
▁не вро
▁наше то
▁vers u
▁tra um
▁tra dic
▁model lo
▁mo ts
▁gro und
▁fr onte
▁ent sch
▁an ten
▁ak ıl
▁a ang
ви ли
ék ony
▁참 여
▁몇 몇
▁نق شه
▁خ م
▁الم سا
▁לה צי
▁вс ю
▁yap maya
▁sci enza
▁relig ion
▁o thers
▁m ét
▁idé ia
▁deney im
▁compass ion
▁al ong
▁נ עשה
▁наше го
▁в клю
▁y ere
▁groß ar
▁ex isti
كت ب
طر ح
w end
语 言
获 得
実 際
だけで なく
▁دور ه
▁أ ستطيع
▁הש אלה
▁обла сти
▁yo urs
▁nen nen
▁is m
▁elkép zel
▁ci ęż
▁bo ş
ze y
z an
tig t
que i
d iler
支 持
主 要
ち ゃ
▁돈 을
▁الق اد
▁r ent
▁pro cha
▁praw dopo
▁possibil ità
▁miesz ka
▁jeż eli
▁gewor den
▁ge ïn
▁ge he
▁de ath
▁bak t
ری ان
hn lich
h ung
cur ité
解 释
他 の
▁ل ذ
▁ب قیه
▁ا رو
▁להת חיל
▁ста ти
▁él ő
▁ver ändern
▁r è
▁pati ën
▁d òng
▁d ây
▁cre ato
▁az ul
сти е
yw at
tel d
最 后
小 时
包 括
ら く
▁روش ن
▁الأ ساس
▁сре щу
▁при е
▁образо вание
▁моз г
▁voy ons
▁vil lage
▁ver tra
▁próx ima
▁ness a
▁k no
▁folos i
▁comb usti
▁aj udar
י קה
ז ון
ше ния
су дар
呼 ば
デ オ
▁t ête
▁on es
▁nul la
▁di ch
▁def ini
▁d ni
▁comb at
دا ء
ומ ת
wn ego
模 式
▁바 이
▁ק ל
▁сто ит
▁vre me
▁ph óng
▁ph ong
▁nhiễ m
▁nas zym
▁nar zę
▁j am
▁inde pend
▁h ỗ
▁gr á
▁car to
ق اد
فك ار
עי ל
ności ą
i une
he iten
cu te
速 度
▁생각 하
▁사실 을
▁چ ین
▁دع ونا
▁الم زيد
▁מ נה
▁то р
▁вели ко
▁milion ów
▁ke v
▁colab or
و اره
ד ל
br idge
▁تغ ير
▁сторо ны
▁sz ok
▁se cur
▁princip io
▁pontos an
▁politi que
▁nature l
▁mess age
▁f it
▁dem asi
ле е
zint ă
▁진 짜
▁чове шки
▁помо га
▁t ens
▁róż ne
▁rend re
▁maak te
▁l onge
▁ ước
ше ние
m eden
i ção
f es
ar ono
革 命
工 具
上 の
に対 して
▁ק רה
▁рас по
▁за тво
▁szen ved
▁p ied
▁k ształ
▁fo c
▁dis trib
▁ben n
стра да
âng ă
c les
市 场
价 值
▁وس ط
▁سی اه
▁الر ئي
▁الت ن
▁ה תי
▁ши ро
▁предпо лага
▁моз ък
▁месе ца
▁w and
▁vo ort
▁viol ence
▁ro k
▁développ ement
▁d ynam
▁comun idad
▁boldo g
в на
б ро
er ă
ce a
遺伝 子
合 わせ
内 容
ー ン
デ ザイン
ょ っと
▁작 동
▁사람 은
▁عم ومی
▁стра н
▁отно си
▁окру жа
▁pol ic
▁lar g
▁göster iyor
▁gyak ran
▁erken nen
▁chciał bym
▁b ầu
▁ 毎
ا ول
пу сти
to ff
miş ti
냈 습니다
났 습니다
サ ー
ク ノ
▁را جع
▁îm păr
▁znaleź ć
▁socie dad
▁sob ą
▁r ừng
▁proto ty
▁pro je
▁praw da
▁n sa
▁materi ale
▁lo cul
ỉ nh
хо да
n an
j el
iv es
cion ar
ag ne
▁حال ة
▁ت قد
▁שלו שה
▁жи в
▁örne ğin
▁sta va
▁re chts
▁ho urs
▁b ạo
▁absol ute
▁ 레
ش ري
ко логи
ığ ın
d ades
c ing
▁활 동
▁الع م
▁الش مس
▁עלי ה
▁ז ק
▁мал ка
▁współ pra
▁propr ie
▁lí nea
▁há z
▁görüyor sunuz
▁duy g
▁dete ct
▁chim pan
▁ 可能
ok ra
d ést
不 可
▁其 实
▁ръ ко
▁zmieni ć
▁st orie
▁desig ur
▁bar át
ير ان
بع اد
לי ון
ß e
pr en
cte ur
cid os
▁ش ركة
▁امروز ه
▁у г
▁телеф он
▁нача лото
▁sch war
▁qui ere
▁mar che
▁it self
▁hey ec
▁dön üşt
ار ك
льно м
ug i
tr uzione
te j
n ék
神 经
つ は
▁تخ يل
▁מב חי
▁дела ют
▁ter en
▁f la
▁da gen
▁d él
▁communa uté
▁aș adar
שי ים
тель ные
вь те
é hez
ã i
ow ali
os zt
って く
▁ع ائ
▁ان ق
▁ха рес
▁zu peł
▁zet ten
▁vers ion
▁prote in
▁l ĩnh
▁köz ép
▁f ala
▁dem onstr
▁cau za
▁ 外
▁ +
其 中
会 社
アイ デア
▁표 현
▁시 장
▁물 질
▁我们 需要
▁دید م
▁с лыша
▁нап ред
▁може ш
▁x ấu
▁szeg ény
▁sc re
▁s ân
▁qu ản
▁ok yan
▁n orth
▁g ore
▁encu ent
▁bir isi
ي ج
כ ר
יי ן
шу ю
ли во
er ii
bor ú
後 の
▁منا طق
▁יה יו
▁א ק
▁ше ст
▁из пъл
▁большо й
▁târ ziu
▁sun te
▁str on
▁im pr
▁hi hetetlen
▁găs it
▁5 000
нти те
де ми
â ni
em mel
クノ ロ
▁자 료
▁آن را
▁при те
▁насто лько
▁wy t
▁tél éph
▁spie len
▁reg el
▁j elle
▁gust aría
▁g ent
▁fe et
▁comun idade
▁car ol
▁20 30
▁ 압
▁ ラ
ت هم
ח תי
ри сти
si asi
ok e
重 新
規 模
土 地
▁필요 가
▁第 二
▁نش ده
▁אח רות
▁с ку
▁об ър
▁во обще
▁б ри
▁viv ere
▁sigui ente
▁qual siasi
▁l ỗi
▁em is
▁déc ada
▁ 왔
▁ âu
î t
ás ára
trz eg
▁گو ید
▁الق رن
▁мо щ
▁zro b
▁w zi
▁polit ica
▁g ates
▁could n
▁at ing
з ь
ügy i
vi amo
do wa
何 か
▁ר עיון
▁ק ר
▁фор ми
▁сре ди
▁н рави
▁perm ette
▁mi ş
▁h onder
▁cheg ar
ча й
на ся
领 域
進 化
▁흥미 로운
▁вто ро
▁đ ê
▁voor al
▁r itu
▁m ắc
▁iç ine
▁g anh
▁bere its
▁ben z
ж ни
áci ót
y ed
f ia
en iz
cis i
b ek
恐 怖
に対 する
▁아름 다
▁процес с
▁пла н
▁дол жно
▁prim i
▁po ka
▁muhtem elen
▁kijk t
ت ل
ای ید
לי נו
ме на
ut s
▁운 동
▁도 구
▁기 업
▁энерги и
▁увели чи
▁по жа
▁u ș
▁ru ch
▁re le
▁nav ig
▁kon u
▁il us
▁ihti yaç
▁i e
▁hastal ık
▁fís ica
▁egész en
▁cał ym
▁199 8
су т
1 4
小 的
同 时
以 前
り の
から の
▁بد ین
▁الإن ترنت
▁ב תי
▁твър де
▁самы х
▁é duc
▁vr iend
▁tak en
▁supp ort
▁rius ci
▁red or
▁przed sta
▁mia łem
▁econom ic
▁des halb
▁baş lay
ва ются
違 う
▁인 구
▁دان یم
▁الر جل
▁ا مر
▁гра ни
▁r w
▁pub li
▁las er
▁k ider
▁folos im
▁cał kow
▁camin ho
▁bes onders
▁am íg
▁3 000
כו נות
o ch
ita ire
h ad
面 白
量 的
▁성 장
▁ו בע
▁пре по
▁го судар
▁pat h
▁ch ấp
▁ch or
▁ar c
r à
f äl
▁달 러
▁ع شر
▁хра на
▁рабо тят
▁ра м
▁s con
▁pas ar
▁ha va
▁entsche id
▁comb ina
▁ch cie
▁c m
▁au zit
▁ 악
لي ات
tem ps
b ler
非常 に
▁مرت بط
▁مر کز
▁عن ها
▁س ؤال
▁اشت باه
▁أ ر
▁ye ux
▁ti ve
▁tech ni
▁poveste a
▁n ível
▁hom o
▁histori as
▁heyec an
▁happ y
▁be at
▁arr iva
ра х
od ów
ni es
▁일 반
▁가능 한
▁طول انی
▁ال گ
▁са щ
▁означа ет
▁о нези
▁май ка
▁во л
▁é tr
▁rencon tr
▁mie li
▁met od
▁ma łe
▁lear ning
▁ber aber
בו ע
res p
▁です から
▁مست وى
▁سیا سی
▁ر د
▁آم ده
▁מק בלים
▁חיי בים
▁ç in
▁vo ya
▁t ả
▁lo op
▁gön der
▁art ist
صل ه
жде ние
ită ţi
h y
gli chen
▁사진 을
▁부 모
▁ש יו
▁по пы
▁zdję cie
▁th ê
▁th ird
▁ru h
▁riv ol
▁pros per
▁olduğ una
▁me as
▁geb ouw
▁b ons
▁atmos fer
▁ ót
v amos
材 料
▁전 세계
▁일 입니다
▁実 は
▁کود ک
▁پس ر
▁و هم
▁م الی
▁دار ن
▁بخ اطر
▁не во
▁pres o
▁op nieuw
▁miglia ia
▁mas zy
▁kat ıl
▁hal en
▁felfe dez
▁f eder
▁f akt
▁bes l
▁aj utor
را ك
сте р
v ille
tem ente
n ich
j ść
itt ing
원 을
人 に
▁역 할
▁در خت
▁الم ط
▁ת מונה
▁üz ere
▁work ed
▁pel os
▁pac j
▁cer tamente
▁atmos ph
رو ج
ie ht
▁گ ل
▁فر هنگ
▁ху до
▁пред вид
▁получи ть
▁ver me
▁ox ford
▁mindannyi an
▁h ulp
ită ți
有 些
位 置
シ ュ
▁کار های
▁ق صد
▁الم مكن
▁ży ciu
▁yap an
▁unter nehmen
▁tö lt
▁sm ith
▁pre oc
▁mus ste
▁li bre
▁hu ge
▁f enn
▁ent fer
▁e ten
▁dov uto
▁desap are
▁ad em
치 를
反 应
中 国
い は
▁съ бира
▁wikip edia
▁sonra ki
▁re vel
▁pró bu
▁ott h
▁létre hoz
▁in tre
▁for sch
▁aff ront
غ ان
וק ר
три м
▁وكان ت
▁иска т
▁има х
▁trabal hando
▁pl ante
▁pass ato
▁nuo ve
▁le ef
▁for za
▁elm ond
▁ear ly
▁comp asi
▁cl ase
▁cham ada
▁c ập
▁bás icamente
ا ع
ț ine
ę b
k m
as es
▁문제 는
▁ま だ
▁טוב ים
▁ט בע
▁доб ра
▁wcią ż
▁rius c
▁mes ela
▁mas a
▁geh ört
▁cre ated
▁an tar
ث ي
לו ב
än dig
ã os
it ul
he its
b ab
att am
▁هن ر
▁ن سل
▁مشاه ده
▁рассказа ть
▁предста вя
▁ten den
▁rend ben
▁r ig
▁pa io
▁kon iec
▁k ün
▁décid é
▁dre am
▁desarrol lo
▁der ek
▁de vez
▁comp ani
▁comb ien
▁chiam ato
▁ що
ze p
y dı
几 乎
▁직 접
▁بح يث
▁женщи ны
▁önök nek
▁spa ți
▁se chs
▁di am
▁anim als
▁ ря
ع ط
ז ל
▁я сно
▁дан ных
▁ver halen
▁vede ţi
▁pet er
▁modè le
▁miss ion
▁le uten
▁hep imiz
▁g au
▁an ume
بي وتر
年 轻
▁我 是
▁یا فته
▁آما ده
▁לס פר
▁с прав
▁продол жа
▁прежи вя
▁ду ми
▁vie w
▁sch ule
▁par al
▁normal mente
▁cul tiv
▁col um
▁chirur g
▁beteg ség
▁audi ence
▁ ۰۰۰
p ul
ent as
c iler
였 죠
▁바 라
▁م اده
▁قط ع
▁ب كثير
▁ام ن
▁أ ست
▁ли де
▁истори ю
▁w ed
▁s ik
▁przeci w
▁pre ced
▁mil har
▁marav ill
▁mag uk
▁kesin likle
▁intéress ant
▁di os
▁bel ül
▁ab bia
ít ő
mi yorum
i ć
▁태 양
▁지 속
▁ك ني
▁شد یم
▁ול כן
▁הי לדים
▁st up
▁pu oi
▁or tak
▁méd ico
▁herr ami
▁düşün düğ
▁cam bridge
▁al es
ầ ng
ית נו
ду т
вали сь
w art
t ia
lan mış
代 表
▁رفت ه
▁ح جم
▁възмож ност
▁wyda je
▁ty god
▁th iện
▁re form
▁ni ên
▁muse um
▁labor atori
▁dever ia
▁ 갑
▁ 明
za hl
s emos
le ć
iz ia
ess em
ba ut
目 标
实 现
に 出
▁계 획
▁בע זרת
▁по пу
▁как ви
▁zrozumie ć
▁w ody
▁valószínű leg
▁roz wij
▁ont mo
▁ob viamente
▁milhar es
▁mi re
▁all á
è ces
in ho
i po
hat áro
▁의 해
▁پی ام
▁ا ق
▁wyobra ź
▁wpły w
▁vál toztat
▁vu ole
▁per chè
▁ou de
▁nourrit ure
▁mat éria
▁he et
▁foly am
▁arr ê
▁ad ică
▁ 는
▁ 如
é ra
é di
tr ze
tal ál
la ştır
ish ed
ege ven
を持 つ
▁모 릅니다
▁غ ذ
▁со бра
▁плане та
▁đ u
▁tut ur
▁prze prowad
▁natur almente
▁ga ve
▁beha vi
▁am ici
▁ 봤
дь ми
ro ll
人 間
▁첫 번째
▁매 일
▁作 为
▁و ليس
▁ف ان
▁حس اب
▁برد ا
▁се рь
▁го род
▁ér tel
▁ça ğ
▁van uit
▁u im
▁stud enti
▁ser vi
▁real ity
▁poz wol
▁po or
▁lat ach
▁k ent
▁i̇ s
▁divent are
▁cá n
▁ben ef
جه زة
сто в
ü ng
é be
át icas
ur er
ce u
▁ש יה
▁с фе
▁ra hat
▁r b
▁nad al
▁n ami
▁c ult
▁am ire
▁ 日
▁ 政府
ع مال
õ i
tel or
石 油
▁שו נות
▁במ ע
▁пре вър
▁пре вра
▁ür ün
▁çev re
▁yol u
▁voula is
▁th ẳng
▁szab ály
▁s tell
▁prod us
▁gebe uren
▁elm últ
▁descoper it
▁comp an
▁bre in
▁b ại
فا ء
س یم
бе н
а н
ż ę
n ers
ct ie
ネルギ ー
▁살 펴
▁пси хо
▁за ра
▁v egy
▁thousand s
▁só c
▁red es
▁por te
▁micro bi
▁megfel elő
▁dor m
▁csodál atos
▁cs up
▁creë ren
▁ab stra
וצא ות
к тов
紹 介
上 が
く つか
▁그 저
▁ندار ند
▁ت ازه
▁лю дьми
▁ész re
▁stud ents
▁segít ség
▁roz wią
▁mi ș
▁jahr hunder
▁inst all
▁be iden
▁ba j
▁a tu
▁ 出
שמ ע
п рия
k y
el ege
ed y
ars anız
체 가
もの は
▁ال کتر
▁האח רונות
▁дела ет
▁w szech
▁v öl
▁n erv
▁intro du
▁indie tro
▁f rei
▁f id
▁erre ichen
▁di f
▁desenvolv imento
▁d ang
▁cl os
▁사 는
▁رو ان
▁دید ن
▁по бе
▁ни м
▁zupeł nie
▁w iz
▁twor zy
▁sep tem
▁p sz
▁nis so
▁net work
▁dem on
▁19 00
ج ابة
ско ро
ру ет
vent ion
er to
att le
an ţă
答 案
▁사람 을
▁گ اهی
▁ق ض
▁شو ید
▁מ שו
▁ос вен
▁би ха
▁ün ivers
▁stel le
▁sok at
▁rep et
▁oplos s
▁kop f
▁kali for
▁j ack
▁fin ally
▁biolog ia
▁ 풍
ış tır
z ett
n ant
ha j
at ív
려 는
す べて
▁у го
▁világ on
▁tutur or
▁so orten
▁műv ész
▁k ê
▁j unto
▁intelligen ce
▁imp uls
▁entwickel t
▁der in
▁cl ose
▁ モ
ول ه
ז ים
ше й
zą d
as te
9 9
ら ず
にお ける
▁최 고
▁보 내
▁پ وست
▁فعل ه
▁ع ض
▁تر کی
▁بش ر
▁ب اره
▁ר ג
▁ר בות
▁מע ניין
▁т ръ
▁од ну
▁uz ay
▁tr att
▁so át
▁risp etto
▁pens ei
▁n ém
▁meille ur
▁l ing
▁gerek ir
▁bağ lı
ặ n
接 受
▁소 리
▁иска те
▁çocuk lar
▁per h
▁n ik
▁kra ju
▁inter ven
▁grand s
▁folos it
▁dłu go
▁da qu
▁biliyor uz
▁aut omo
ски х
не ш
ven do
to wać
ient os
三 个
リ ン
と か
▁더 욱
▁مو ارد
▁тыся ч
▁послед ние
▁th ơ
▁sc el
▁objet os
▁nam ens
▁m iel
▁ara ya
▁4 8
üc ken
d ol
서 는
▁ک دام
▁سپاسگ زار
▁изме нения
▁t ắc
▁perh aps
▁fun da
▁egyes ült
▁difer encia
▁diag nos
▁c ities
▁am éli
▁ 天
t ant
m ur
ar g
を 取り
にな って
さ に
▁진 화
▁انت ظار
▁בכ ך
▁z s
▁z aten
▁ter em
▁t ầng
▁renge teg
▁net z
▁nasz ego
▁me v
▁kw amen
▁k li
▁jo c
▁inter ne
▁gesch ichten
▁av en
▁ 빈
vi de
len ül
▁있 으
▁만들 고
▁것이 라고
▁ک شت
▁ل ع
▁فرو ش
▁стра да
▁сми съл
▁жи ву
▁şey in
▁ver ke
▁gi ết
▁fo ot
▁f ul
▁descobr ir
▁c idades
▁ay uda
би те
b os
ンピュー タ
ミュ ニ
▁ش ش
▁мъ ж
▁ка та
▁vide os
▁tex as
▁profes or
▁krij gt
▁e po
▁começ ou
▁4 4
מ ט
k unde
▁۲ ۰۰
▁ا غلب
▁nuev as
▁lo ca
▁l enn
▁kö t
▁g ồm
▁asp ett
▁and eres
▁ ニュー
ter a
stell ung
実 験
▁적 이
▁인간 의
▁세상 을
▁ماه ی
▁הח ד
▁е волю
▁гла за
▁repre zent
▁la g
▁ho ạch
▁eu ch
عا ية
ح ب
פ ע
во м
zt ő
p ass
ede d
적 이고
類 の
▁사 업
▁مص نوع
▁מ ני
▁ко ма
▁за ле
▁дол го
▁több et
▁rész t
▁p ère
▁gesch iedenis
ג ור
са та
ét ico
ç ons
na h
n isse
leg es
j ét
il ag
法 律
全 体
▁ا فس
▁ге о
▁ter mos
▁przypad ku
▁pic coli
▁lu ogo
▁l ái
▁ke vés
▁hum or
▁hind istan
▁g on
▁ferr ament
▁deux i
ד ן
че ството
мен ты
ли м
з ем
abile cek
鼓 掌
グ ル
さ え
▁것이 었습니다
▁وع لى
▁ر ان
▁الم رض
▁şaş ır
▁t ali
▁n ông
▁gy ű
▁difer it
▁biblio te
▁ant wort
ك ه
כ ך
ю щая
мы ш
лу ч
ви я
zn ego
z ato
시 는
挑 战
处 理
▁گفت ند
▁обще ства
▁yü zy
▁vis ão
▁ng àn
▁ge omet
▁ex pres
▁equ ipo
▁câ m
▁cré é
ک یل
ח לט
ле нието
ui do
p ak
c jon
▁それ から
▁ו מת
▁которы м
▁verschieden e
▁tr il
▁t iện
▁mid den
▁lek ar
▁de la
▁cos to
▁con cre
▁ch au
▁also f
ق ق
ز اء
ческо е
é ter
回 到
は ず
▁那 是
▁那 就是
▁لل ع
▁מא ז
▁есте стве
▁zat em
▁t ôn
▁jeste ś
▁dep end
▁cân cer
▁convers a
▁bil der
ve ille
ith er
ier i
하 다고
に関 する
▁קוד ם
▁раз ру
▁о щу
▁mond ja
▁le ast
▁kon t
▁czego ś
▁ 宇宙
צ ח
uy la
pp ed
k ten
at yw
看到 的
▁혁 신
▁이 후
▁înț eleg
▁vé ge
▁fr ustr
▁fil le
▁adol esc
l át
ită ții
e ur
出 了
の を
せ る
▁올 라
▁با قی
▁עומ ד
▁ли чно
▁иска х
▁sta ło
▁ne ve
▁nagy szerű
▁lát ni
▁l ắm
▁l id
▁k ost
▁imagine z
▁d ado
▁b ire
▁aten ción
▁ap ós
ظ ن
g az
▁الأ د
▁zak en
▁sl ow
▁sa j
▁s int
▁relations hip
▁nenh um
▁k ỉ
▁jap on
▁inse ct
▁inform acji
ле м
ycz nie
d et
ad t
▁영 국
▁آز اد
▁לה גיד
▁ре д
▁раз ных
▁маши на
▁архите кту
▁învă ţ
▁re par
▁plant as
▁ox y
▁nie go
▁moż esz
▁mo jego
▁m ão
▁m ág
▁die u
▁co i
سب اب
ט ל
ри й
ri ve
ett es
1 3
▁מ גיע
▁חד שה
▁הה י
▁у стойчи
▁интере су
▁za jm
▁vir gin
▁sz üle
▁ser io
▁sağ lay
▁rad ical
▁ol v
▁di y
▁con trar
▁ass ol
▁ambi ent
▁ 母
▁ 体
е р
ди на
me yen
させ る
▁안 전
▁비 용
▁만들 었습니다
▁افت د
▁עצ מו
▁לא ח
▁כ כל
▁сто л
▁пре да
▁до стъп
▁все й
▁sent ito
▁reg res
▁más ok
▁kh ai
▁in torno
▁fal ta
▁du iz
▁değil di
▁derni ères
▁da chten
▁cel ule
mal s
la in
l á
游 戏
▁ו ר
▁במ יוחד
▁via ţă
▁pa ge
▁mé di
▁mer kez
▁centr um
ا ث
ш та
á ját
v ore
h lt
ek s
▁싶 습니다
▁い い
▁نفس ي
▁الك ه
▁ال دي
▁станови тся
▁е кспери
▁vol unt
▁uit ge
▁k ult
▁in té
▁in ny
▁h áló
▁exac tement
▁de us
▁comport ament
▁cele br
▁al d
ـ ـ
нте ре
▁개 의
▁ک وت
▁см ърт
▁ви дове
▁tud tam
▁ser es
▁se b
▁om ge
▁h ören
▁architec ture
ائ ج
че т
р ка
д ле
ö nh
ens es
▁내 려
▁نج ات
▁إ ست
▁آ ه
▁тран с
▁sli de
▁sig nal
▁pesqu isa
▁kullan arak
▁kal an
▁je u
▁g ider
▁ap re
ئ و
ó z
ícul o
om m
le ye
id im
a ţi
政 策
学 者
▁大 家
▁مش غ
▁ع می
▁ا حد
▁со стоя
▁social es
▁podr ían
▁méd icos
▁ma chte
▁h ại
▁g ốc
▁dom ande
▁dis cipl
▁besta at
▁ 밀
▁ 녹
al m
讨 论
▁متح ده
▁زی با
▁оп ти
▁не да
▁înţ eleg
▁tulajdon képpen
▁repe de
▁re por
▁p si
▁obj eto
▁kor áb
▁ab e
ł ego
pl ant
ci ale
目 的
想 像
信 号
を作 り
▁말 해
▁کشور های
▁وبالت الي
▁مد ينة
▁ت را
▁тем пера
▁самы й
▁пра ва
▁осо зна
▁w prowad
▁potra fi
▁o ben
▁la ge
▁in w
▁g dp
▁econ óm
▁dzie wczy
▁bro wn
▁ 長
▁ チ
ческа я
iss imo
er à
alar ını
아 서
▁후 에
▁وه كذا
▁цент ра
▁а кти
▁vezet ő
▁se j
▁mon ter
▁jus to
▁imag ens
▁gra fik
▁chú a
اف ة
ze ich
ti fic
ow nie
m ér
我 在
▁시 각
▁보여 주
▁我 不
▁ج ست
▁ت ری
▁נ ס
▁на вер
▁день ги
▁въ проси
▁zwier zę
▁tr ừ
▁torn ar
▁obser w
▁j ane
▁i̇ ng
▁educa ção
▁dis po
▁di zendo
▁başlad ım
▁am in
▁ ١
ج اه
ő le
öz ben
ul os
l att
bo x
and an
a ç
现 实
▁싶 어
▁ア フリカ
▁نظ رت
▁שה יו
▁сним ки
▁wer kelijk
▁util ise
▁takie go
▁stu den
▁speci fic
▁se ven
▁rendel kez
▁re i
▁podr íamos
▁mik tar
▁lát juk
▁je unes
▁impossi ble
▁da w
▁d ług
zt ük
y in
ti ques
m ut
iz m
ig es
f ak
시 킬
都 市
▁بسر عة
▁ב נ
▁тако го
▁инди ви
▁söyl üyor
▁rep ente
▁met tere
▁geb äu
▁g old
▁esc al
▁ 밝
то н
z ul
ati ques
の ために
▁مع رفة
▁الحي وانات
▁الا جتما
▁צרי כה
▁חד שות
▁живе е
▁вся ко
▁vo is
▁terri ble
▁lo ts
▁ha fta
▁et tik
ي ام
ба ты
▁пол ностью
▁đ ừng
▁visz ont
▁ver li
▁v ân
▁th ấp
▁sie ci
▁s ını
▁s eti
▁re lev
▁po ve
▁je ito
▁gondol tam
▁creier ul
▁ 给
دا ع
è n
zt ék
u ale
en cias
ラン ド
ボ ット
▁ن علم
▁جه ت
▁שה א
▁כ וכ
▁התח לתי
▁це ль
▁предста вьте
▁se ctor
▁ho ş
▁hal ten
▁foto gra
▁folos esc
▁egy é
▁con gr
▁ac asă
ان و
met ros
i u
c area
1 6
事 実
ま た
ない と
▁ز وج
▁الح رب
▁обра з
▁въ про
▁vr ienden
▁sö y
▁stud ie
▁secon de
▁qu is
▁mer g
▁melh ores
▁le quel
▁ko ş
▁especial mente
▁de k
▁cresc ita
▁a x
ד ק
ва на
m mo
ン ジ
▁여 자
▁مش تر
▁م رض
▁ح دا
▁ت فعل
▁البح ث
▁ש זו
▁חוד שים
▁чи сло
▁vac cin
▁sen ki
▁né cess
▁mo ich
▁mes ure
▁küres el
▁instit ution
▁iliş k
▁hic imos
▁her şey
▁habl ando
▁dis ent
▁deven ir
▁ 皆
שי ג
▁사 고
▁من ح
▁رأ ي
▁بزرگ ترین
▁الر جال
▁الخ ارج
▁הט בע
▁започ ва
▁între aga
▁vi br
▁s ku
▁s ali
▁prin c
▁ob lig
▁ju ego
▁fl ow
▁ez er
▁differen za
▁bo om
ט רו
ター ネット
▁te p
▁rapp ort
▁hand s
▁c ắt
▁c lu
▁acela și
▁ac cep
▁ ​
וא ר
it ation
in nen
某 种
ック ス
▁수 준
▁남 자
▁اضا فه
▁לחלו טין
▁הסי בה
▁בר ור
▁мо его
▁зву к
▁ва ша
▁tip i
▁ră u
▁imá genes
▁igaz ság
▁film s
▁estr at
▁cho ix
▁capac ité
▁bi om
▁ 必要
וא י
ım da
스 러
英 国
并 不是
▁언 제
▁내 용
▁ال قا
▁yok tu
▁malad ie
▁llam a
▁he ut
▁gra ph
▁bro ok
▁9 6
▁ 美国
ید ار
b c
曾 经
の 問題
▁معم ولا
▁مرد ان
▁ч ём
▁не ё
▁наши я
▁а ль
▁trebu ia
▁própr io
▁job s
▁hist órias
▁educa ción
▁der de
▁ ボ
ول د
ات ر
та ли
ière ment
持 续
▁当 我们
▁ز دن
▁أخ بر
▁прое кта
▁ży w
▁pres up
▁pr ison
▁eas y
▁des af
▁da ğ
▁cominci ato
▁at tend
▁ 색
ha gy
里 面
模 型
家 族
中 で
▁我 要
▁ל סי
▁בפ ני
▁от ка
▁tr ách
▁t ine
▁ora ş
▁k ore
▁dev ine
▁ 싸
▁ 关于
ه ند
רא ים
ek te
du ğu
▁ك ي
▁ле сно
▁из вън
▁trov ato
▁stra ord
▁siè cle
▁pr ue
▁pet ro
▁min ister
▁mere u
▁k aar
▁dur ing
▁comple to
▁böl üm
▁ahogy an
▁199 9
ро вания
ми ни
ö ne
ac s
区 域
▁물 리
▁말 할
▁در سته
▁сигур ност
▁ди ре
▁воз ду
▁v lie
▁ri f
▁m ell
▁hal ál
▁fiind că
▁c id
▁af gel
▁ 야
ımı za
re mo
更多 的
感 染
があり ました
▁ينب غي
▁فعال یت
▁حال ت
▁ра ньше
▁ин ф
▁ty pes
▁tan r
▁kahka ha
▁inter v
▁gel u
▁der nier
пля ска
v ant
ceğ iz
▁他 说
▁م بت
▁су щество
▁ръко пляска
▁по верх
▁особе нно
▁обе спе
▁мои х
▁до м
▁бъдеще то
▁virtu al
▁vers pre
▁to ile
▁se colo
▁ok re
▁mem br
▁kül tür
▁her z
▁gör mek
▁czas em
▁ar h
▁ 낮
▁ 行
ע ור
ль ную
än de
ac ă
った り
▁ان سانی
▁ця лото
▁ри су
▁trebu it
▁techn ológia
▁te ilen
▁stat en
▁qual unque
▁gând im
▁fil hos
▁des con
▁conj unto
▁comun idades
▁cl ima
▁ar asındaki
▁anal ys
▁ œ
לח מה
ва ни
ut t
ra y
p ara
est os
分 析
レ ー
▁実際 に
▁שה ן
▁сме тка
▁по со
▁боле з
▁vole vo
▁v ig
▁rá pid
▁f an
▁er h
▁dire kt
▁di vert
▁al p
שא ר
ק רים
ст ват
ло г
ograph ic
fa hren
dz iel
ant ă
1 7
학 자
▁لم دة
▁כל ל
▁ז וכ
▁пред лага
▁ut az
▁trava ille
▁tr iste
▁sc ott
▁mód szer
▁lehető vé
▁göre v
▁do g
▁csup án
ول ي
ion o
as h
들 로
都 会
か の
▁있 지요
▁없 을
▁فنا وری
▁الم ق
▁pra g
▁mú l
▁man ieren
▁gir iş
▁eer der
▁diag ram
▁appel é
▁a ire
פ קי
до й
▁하 루
▁이 곳
▁خوا ستم
▁é g
▁spie g
▁ro d
▁ni ște
▁mej ores
▁cr ise
▁az okat
з ья
ą ć
at koz
an kt
도 로
社 区
▁했 던
▁الد را
▁מא יתנו
▁למ ח
▁от не
▁tám ogat
▁tre at
▁tak es
▁pub blic
▁pier d
▁od ak
▁k ĩ
נו ך
ско м
г ло
во л
de el
am ad
이 에요
ア フリカ
▁と 言
▁سخن رانی
▁разбира те
▁ис пы
▁yön tem
▁lin ha
▁k amen
▁j ard
▁hall gat
▁gân de
▁foglal koz
▁eff ici
▁bew usst
▁a id
گ ار
ג ת
г ни
вля ет
br en
い ている
▁ص ند
▁ز م
▁не ф
▁ze iden
▁ir m
▁for ça
▁fac cio
▁eff ica
▁dé f
▁dar ab
▁cán cer
▁comer cial
▁bic ic
▁al f
▁ 붙
קש ורת
жда т
é ro
ycz nych
に より
▁건 물
▁مت وسط
▁între bare
▁ró la
▁mis mos
▁mil le
▁merc ato
▁merav igli
▁histo ires
▁du ce
▁bed rijven
ierz ch
观 察
▁我々 の
▁ال لا
▁أف ريقيا
▁עוב דים
▁находи тся
▁ме нее
▁изве стно
▁ç ar
▁z na
▁ver ici
▁unglau blich
▁par is
▁log rar
▁fel használ
▁düny ayı
▁ 즐
غ ذ
ţ ine
ăt ori
n ienie
iss ion
he ad
ak a
只 有
プロ グラ
ど こ
▁없 이
▁ви да
▁ва риа
▁ış ık
▁si êu
▁pol ice
▁persp ek
▁peque ños
▁out side
▁o koz
▁now y
▁mag ni
▁ma at
▁gi ấy
▁est ás
▁al ber
ظ يم
س ال
zt ünk
pi de
都 有
緒 に
す べき
▁گ ستر
▁لأن نا
▁ت ان
▁חד שים
▁нача ла
▁sem br
▁sebe p
▁po bla
▁kur al
▁k ín
▁hor en
▁ho ud
▁emlé kez
▁dr it
▁cent ury
▁ 뛰
▁ 建
的 大
気 づ
▁המ ון
▁ста ло
▁пове дение
▁мисли те
▁đ ổ
▁représ ent
▁obrig ada
▁far m
▁an laş
▁13 0
רכ ז
tre i
시다 시피
其 实
▁보이 는
▁먼 저
▁ن فعل
▁ن ست
▁ض خ
▁الم هم
▁ל נסות
▁tes zi
▁t ận
▁ste ht
▁s àng
▁s ca
▁par c
▁görün tü
▁düşünüyor um
▁dar in
▁cap able
▁b ł
گ ون
گ رد
бе ра
ig r
f iz
ers on
ap or
없 이
▁ر ح
▁ب نی
▁الن و
▁לג רום
▁ли це
▁га ла
▁ra ğ
▁pr ende
▁min has
▁i bm
▁h ír
▁exact amente
ی ار
م ية
cent r
a w
▁목 표
▁مسئ ول
▁تلف ن
▁الق صة
▁א ג
▁val ley
▁n edir
▁le uk
▁gen oma
▁event u
▁elet tr
▁bed rijf
▁ 블
לי ח
ופ ר
y z
n im
lo ed
iz ado
do u
汽 车
い け
▁누 가
▁هی جان
▁ج ریان
▁ب اد
▁מד ברים
▁הת א
▁до йде
▁бях ме
▁đ ích
▁világ ot
▁própr ia
▁o li
▁her o
▁gebe urde
▁f bi
ö lt
ar nos
이 지
更 加
▁تع ریف
▁اص لا
▁שה י
▁שב א
▁съ зна
▁возможно сти
▁буде м
▁x uyên
▁se col
▁r ối
▁id ade
▁ha iti
▁chang ed
▁ р
ви л
ycz ny
is el
c ą
a al
世 紀
一 定
され ます
▁す べて
▁امید وار
▁آ بی
▁הח לט
▁במ די
▁предста вить
▁которо го
▁vr ut
▁p and
▁mun că
▁mag a
▁ihtiyac ımız
▁do el
▁des per
▁am pli
生 产
关 注
▁뿐 만
▁م فهوم
▁ع صر
▁خ ار
▁حی وانات
▁ت وجد
▁الا قتصاد
▁כ כה
▁неза висимо
▁ted a
▁sür ü
▁sé culo
▁best imm
▁be zie
▁be we
▁alt ı
وا ئ
ни ли
ny it
d al
ar re
ak es
ー マ
▁앞 으로
▁سپاسگزار م
▁ت لو
▁направи х
▁дви же
▁w ist
▁u ş
▁j ac
▁for r
▁dış arı
▁dzie ń
▁dispos itivo
▁beh ind
ج وی
סי ס
е в
w and
h ão
h au
b ble
ass er
▁حيات ي
▁ت نا
▁sec und
▁re te
▁inter act
▁ila ç
▁dé mo
▁di zem
▁7 2
ما ی
לו מר
ди ли
ı ları
át icos
ác s
verti do
孩子 们
▁비 디오
▁на края
▁ка кие
▁е к
▁zmi any
▁v illes
▁sur viv
▁pew nie
▁of fer
▁oc cup
▁mo bile
▁lehet séges
▁er uit
▁equ ival
▁beo ba
▁amo unt
ק ב
ב ן
a ją
소 를
产 品
▁그 리
▁건 축
▁ل باس
▁رو ح
▁بین یم
▁שא ין
▁לש ם
▁резул тат
▁vo ie
▁sé curité
▁str ony
▁sig lo
▁sag ten
▁re ach
▁pat tern
▁meg y
▁kil ku
▁ge vol
▁extraord in
▁el fog
▁dec en
▁deber ía
▁3 7
▁ 思
لي ون
سم ع
بل غ
bb ől
▁재 미
▁두 려
▁مجموع ه
▁ל מו
▁прав да
▁társadal mi
▁ter ren
▁ta us
▁secre t
▁muzy ka
▁in cer
▁elő re
▁băr ba
▁b ese
▁acela şi
ذ ر
וד ת
ıl dı
ós ito
ols ó
lad ı
ke y
▁적 용
▁사실 은
▁بع مل
▁الما ضية
▁ال ات
▁מסוג לים
▁во ды
▁y eten
▁vor bi
▁quer em
▁par ola
▁ne ar
▁megm utat
▁k uş
▁fle x
▁emp ec
▁da her
▁cer teza
▁bât iment
▁ 총
ủ y
ود ه
لو ك
יו ני
ey i
b amos
am ak
트 를
は ありません
▁준 비
▁가 까
▁گو یند
▁فر ض
▁رائ عة
▁بدأ نا
▁أن واع
▁מ מו
▁четы ре
▁за х
▁за гу
▁ya ğ
▁wo ord
▁thu is
▁ta ille
▁reg ierung
▁n imi
▁kh ởi
▁hük üm
▁gyerek ek
▁fl ores
▁décou vert
▁con trib
▁comm on
▁cir cul
▁chi esto
▁bra ucht
▁bilir siniz
▁an te
س ين
ג ני
цо в
ди я
ri ft
h h
▁있 지만
▁민 주
▁기 록
▁ر جل
▁بگیر ید
▁الب دا
▁ко смо
▁ка ра
▁зада ча
▁дж о
▁го раз
▁tű nik
▁săn ătate
▁szár maz
▁rodz in
▁pregunt as
▁pract ic
▁es att
▁dok ument
▁ 젊
ме ни
зе й
де на
ım ın
nic y
j ak
imiz de
iel t
こ こ
▁ب ند
▁שא לה
▁למ רות
▁בע וד
▁кон ф
▁з рения
▁аме ри
▁urmă tor
▁u d
▁tiv emos
▁re u
▁mo esten
▁kel im
▁influ en
▁gazdaság i
▁fl ug
▁dipl om
▁dic en
▁ch ie
▁bed ankt
رس ال
دي و
מ שיך
כ ז
ד או
öt tek
▁الص ين
▁гораз до
▁vad er
▁sein em
▁né zzük
▁g ara
▁er ic
▁compani es
▁ca fé
▁aj uda
▁ セ
ه ي
ä re
os op
ig keiten
한 테
病 気
是 我们
▁كل ما
▁י צ
▁по ми
▁wszyst kim
▁voul ons
▁tab i
▁son g
▁sh ort
▁redu z
▁pad res
▁muz ică
▁l una
▁guy s
▁eff ic
▁chac un
▁bu radaki
▁benut zen
▁ 팀
צא ת
zt ak
od em
lü ğ
do by
년 간
リ スト
し ようと
▁ме ре
▁viv ir
▁ver wa
▁potre mmo
▁need s
▁is ten
▁irgend wie
▁hal lott
▁can lı
▁bio d
▁bes lo
صد ر
נה גות
at ul
▁주 는
▁こ ち
▁الص وت
▁الح ا
▁الج ل
▁сдела л
▁ви зу
▁tr ip
▁oc or
▁esatt amente
▁do bra
▁cam bia
▁braz il
▁bil miyor
▁ 밤
▁ 골
▁ ミ
نا ها
го ди
вы ми
ăt ură
ti ği
j ár
始め ました
向 か
い った
▁و كن
▁ت اريخ
▁מש נה
▁от ра
▁ín dia
▁x ếp
▁sok an
▁rağ men
▁plaat sen
▁num er
▁mij lo
▁llam ada
▁g ấp
▁baix o
▁ °
כי ר
че м
во бо
ва ха
ğ im
ter r
sz t
si yon
ativ os
ak en
我 想
▁포 함
▁마 찬
▁되 면
▁گستر ش
▁المد ينة
▁נפ לא
▁име ть
▁д ли
▁говори л
▁équ ipe
▁vál t
▁val óság
▁ten ían
▁st or
▁s now
▁recu er
▁r um
▁min i
▁ervar ing
▁ein de
▁econom ía
▁düny adaki
▁differen ce
▁com une
▁ 궁
w ne
m idd
c l
观 众
▁ش امل
▁أ ليس
▁רו אה
▁помо чь
▁перио д
▁называ ется
▁дъл бо
▁tre ffen
▁so ff
▁sc ale
▁ob iet
▁máqu inas
▁mus ul
▁líder es
▁legal ább
▁jed nego
▁ira q
▁ga f
▁em pie
▁chuy ến
▁al ıp
л ния
ве на
reg istr
m niej
结 构
んで います
り 返
▁پ یر
▁م ری
▁باز ار
▁الج ن
▁آخر ین
▁י לד
▁разбере м
▁матери ал
▁ку да
▁забо ле
▁гово рю
▁x x
▁sal ute
▁per der
▁l ost
▁had d
▁göre bilirsiniz
▁eksper yment
▁ 政治
ید یم
ל ל
וק ה
т ър
ograf ia
c ate
at ta
로 는
战 争
不 可能
▁단 계
▁ی خ
▁поглед нете
▁няко га
▁z ene
▁voor uit
▁v az
▁szám omra
▁sa it
▁priv ile
▁milli ers
▁lond res
▁lin ie
▁lea ve
▁kün st
▁inner halb
▁hiz met
▁gia i
▁gh ana
▁dov remmo
▁democra cia
▁d imos
▁cho ć
▁amb os
▁ 숨
וב דה
ло жения
im ientos
ho od
al te
力 量
▁لأن ها
▁смо жем
▁tou ch
▁schim ba
▁ress emble
▁po bres
▁p ena
▁olmad ığını
▁neces ita
▁nadzie ję
▁carb ono
▁av v
▁9 00
ч о
дно й
ț ei
iv en
增 长
▁کلا س
▁ساخت ار
▁الم وسي
▁الم دن
▁тя лото
▁оста на
▁демокра ти
▁в ключи
▁ś red
▁yapt ığı
▁vesz ély
▁serv ici
▁par ado
▁ja v
▁eg al
▁comp ris
▁arbe ite
רו א
וח ר
让 我们
んで いる
▁خ دا
▁ت ض
▁الج زء
▁إ د
▁آ ت
▁מע בר
▁אי פה
▁прави ла
▁ма га
▁връз ка
▁viv er
▁see ing
▁pol ar
▁osz t
▁ol mam
▁matemat ik
▁leg y
▁kra cht
▁hist or
▁comun que
▁bl ind
▁améli or
▁ 됐
▁ 女
ре е
it ari
com p
스 가
▁상 당
▁بگیر یم
▁או כל
▁ус лу
▁въз ду
▁ur ma
▁pat ent
▁pas o
▁nuo vi
▁la o
▁faz las
▁ 흔
سا طة
מי נים
ö ff
or szág
k ív
ag ă
▁여 행
▁마찬 가지
▁منا بع
▁م مت
▁خ ور
▁ت ك
▁با ستخدام
▁помо щи
▁w ort
▁pre ven
▁opportun ità
▁mà n
▁lead er
▁giv en
▁fr iend
▁começ amos
▁clas si
▁ ガ
▁ ۷
ł op
la łem
었 는데
相 当
▁높 은
▁공 동
▁نس خ
▁كث ير
▁ט כנולוגיה
▁пре зи
▁ка на
▁доб ри
▁ya va
▁verl oren
▁tol er
▁sp ar
▁son s
▁sind s
▁ré du
▁robi ą
▁oportun idad
▁leg f
▁in ev
▁guar da
▁ger ne
▁come ça
▁bl is
▁bes ten
▁19 2
н до
y ka
man ia
la p
el la
b and
▁لكن ها
▁ذه بت
▁الام ر
▁הח לק
▁אמ רו
▁сказа ла
▁под ход
▁виде ли
▁ress em
▁przyp om
▁migli ori
▁mer ak
▁kend ini
▁inform at
▁fil oso
▁ev ident
▁eu a
▁dem ande
▁ar me
▁aqu ilo
ع امل
س ام
ו נות
мо в
z onder
ap csol
하 다는
종 의
▁변화 를
▁今 天
▁المن ط
▁מתחי לים
▁מע ור
▁חיי ב
▁zan im
▁z ape
▁wid zie
▁ver bre
▁tră i
▁sic ure
▁sci enzi
▁ren de
▁my śli
▁mag át
▁ac cident
ש ורים
וב ים
wa ar
ina ire
f al
con d
atie ve
▁강 연
▁为 了
▁تون ید
▁الص حي
▁التع ليم
▁מבי נים
▁מ וג
▁фа кти
▁о ши
▁нача л
▁дол жна
▁го спо
▁yüzy ıl
▁su k
▁nh ảy
▁h ung
▁diferen ça
▁d ầu
▁d àng
▁ 反
м ня
ț ilor
val u
tet te
h az
飛 行
物 語
在 这里
こと で
▁كني م
▁ص غير
▁تج د
▁тех ни
▁ver lie
▁val ore
▁un ique
▁ty sią
▁trabaj ando
▁sc ă
▁res pe
▁r in
▁o jos
▁następ nie
▁mo o
▁fre und
▁eng ed
▁cons er
يد ه
و ث
رب ون
د ت
ס ות
ż enie
ce án
be c
的 故事
工 程
准 备
イ ス
▁سب ب
▁אוה ב
▁со еди
▁разви тие
▁из то
▁воз ра
▁vic ino
▁spec ta
▁ple in
▁e yes
▁cham p
▁as ia
▁ 휴
▁ ۹
le tet
gr und
ec tive
ci i
ce au
am ment
성 의
え た
▁و ید
▁جزي لا
▁vor men
▁uw agę
▁univers al
▁swo ją
▁roz m
▁ris c
▁har mad
▁b ánh
▁b ie
▁ 基本
ре ни
z ott
gy ar
▁مش روع
▁راه ی
▁تون یم
▁א ד
▁ста не
▁зем ле
▁во йна
▁ví rus
▁vor stellen
▁popr zez
▁n ick
▁fü gg
▁d ando
▁bo ut
▁ 空
łe ś
ód ik
ess a
ec ted
시 켜
超 过
▁보여 드
▁ي ؤ
▁מ וק
▁те к
▁милиар да
▁z da
▁t ıp
▁relig ie
▁ou vir
▁gio co
▁des tru
▁challen ge
▁3 50
و ک
с ма
но за
н га
re ven
▁ط فل
▁пре в
▁wy zw
▁of fen
▁mak in
▁khi ển
▁düşün düm
▁dic ono
▁di cht
▁cz ek
▁bl ok
وي ورك
ё те
ве нь
p ir
ließ lich
it able
성 에
▁الم ياه
▁أب دا
▁לה ו
▁предизвика тел
▁направи те
▁v árias
▁süre kli
▁strut tura
▁squ are
▁k up
▁imm edi
▁ekonom ik
▁dev ono
▁cá o
▁au ra
▁at lan
انی ه
ا ور
ńst w
ł um
ás ban
re w
iment os
▁ي ستخدم
▁ف ت
▁تص بح
▁ה ני
▁нача ть
▁économ ie
▁un or
▁pr ix
▁kiedy ś
▁intelig ente
▁ge fühl
▁exper imento
▁cor rup
▁ ۸
ك ات
رب ما
ви н
ó an
f lu
be z
机器 人
就 可以
▁잘 못
▁ه ات
▁ה טי
▁под го
▁направ ят
▁мо м
▁кон те
▁voi x
▁vissz at
▁swo ich
▁re cept
▁insan ın
▁ha ver
ś ród
h amos
金 を
こと も
▁접 근
▁و حت
▁مح لی
▁س ع
▁خ شون
▁الن هاية
▁בש נה
▁по ради
▁океа на
▁здра во
▁yava ş
▁um welt
▁st äd
▁s s
▁nauk ow
▁guard are
▁f ırs
▁demasi ado
▁ 很多
▁ ワ
▁ ță
یش ان
تم عات
ס פ
ol y
ha us
수 를
以 及
▁삶 을
▁깨 달
▁ع امل
▁اعت ماد
▁מת חת
▁לע זור
▁мал ък
▁выгля дит
▁win dow
▁sem ble
▁sb agli
▁pau ra
▁mov imiento
▁miejs cu
▁jed em
▁grup pe
▁dokład nie
▁d ừng
▁ab d
▁3 1
ז רח
т ко
tro p
명 이
되 지
驚 く
▁중 에
▁따라 서
▁당신 의
▁مشغ ول
▁إلي ه
▁раз простра
▁кру п
▁éle tem
▁yuk arı
▁power ful
▁oor log
▁mus zę
▁gesch ä
▁e duk
p ier
le tek
ha f
病 毒
物 理
物 を
▁사 라
▁彼 の
▁ح دي
▁آ گاه
▁t íp
▁rapid ement
▁n ü
▁mar ca
▁l ad
▁grat is
▁gi ây
▁geme in
▁final ement
▁fe u
▁dov rebbe
▁bu reau
▁bem er
▁ 꿈
خر ه
וא ה
ч ёт
就 能
下 さい
に 戻
なく な
▁증 가
▁보 통
▁당 시
▁پزش کی
▁تص او
▁ש עות
▁отноше ния
▁изключи телно
▁tör vény
▁tud ós
▁t ante
▁sel on
▁ro de
▁over le
▁impl ica
▁démo cr
▁ 슬
▁ 숫
قي ام
де нт
las sen
il lag
ic ion
fol y
at ten
보 면
や す
▁점 점
▁誰 も
▁نق ش
▁خ وام
▁بأن ه
▁ب وجود
▁أع ني
▁спу стя
▁посмо трите
▁ожи да
▁ат мо
▁vie t
▁ve zi
▁ta al
▁przysz łości
▁pomi ędzy
▁per to
▁mes mos
▁her inner
▁ac uer
▁ 美
▁ л
ير ي
أ خذ
רו ק
ép ar
wia ją
ver te
ti j
for der
▁방식 으로
▁ي صبح
▁مرا ق
▁ق وی
▁آمریک ایی
▁או קיי
▁атмо сфе
▁l g
▁hät ten
▁form ă
▁e bből
▁cabe ça
▁av ion
▁ ı
ш на
ell ow
cu par
bar en
랍 니다
探 索
▁공 유
▁الج نس
▁ו יותר
▁мага зи
▁компью те
▁информа цию
▁k ro
▁isto t
▁ha u
▁fl ux
▁f ase
▁escu ch
▁bak ış
y ű
in ile
ade văr
意 識
巨 大的
▁我 说
▁شی وه
▁си гна
▁мог ла
▁един ствен
▁între bat
▁yours elf
▁to x
▁ng ắn
▁meg lep
▁l ưới
▁k ern
▁i ba
▁emer g
▁că ut
▁cond itions
▁comp ara
▁ad ı
מ ק
и м
г ри
ön t
ol it
服 务
▁사람 의
▁يمكن ني
▁لد ى
▁دار ی
▁ut olsó
▁tart ış
▁jak by
▁gyor san
▁feh ér
▁ef ect
▁dol ayı
▁cu id
▁cr ia
▁cent ina
▁capaz es
▁af ir
▁a w
أك يد
фе рен
z ig
ege ben
c ta
3 00
상 이
表 面
考 虑
▁وإ ذا
▁ت ونه
▁الع د
▁ال ظ
▁از د
▁במ קרה
▁с ю
▁за б
▁th ải
▁sal var
▁pre z
▁począt ku
▁ob vious
▁na am
▁mu o
▁lu ister
▁hikay e
▁gele ceğ
▁f um
▁davran ış
ч ная
▁뉴 욕
▁中 国
▁ای الات
▁الث لاث
▁الا خت
▁раз бра
▁đ ợi
▁wys ok
▁term ine
▁phil ip
▁model os
▁industri al
▁f ish
▁erő szak
▁ciud ades
▁ 由
ز مان
тель ный
ıl d
ven es
ud ur
nolog ie
iv ing
う ま
▁에너 지
▁ساخت ن
▁בא ר
▁нако нец
▁ве щей
▁si endo
▁sam ym
▁pow ierzch
▁parec er
▁me te
▁gebie d
▁electr on
▁dv d
▁ce o
▁card ia
▁art ista
▁archite ct
ج ی
vers e
ti le
te it
sz em
bb y
を見 て
の も
▁می اد
▁م حت
▁دست رسی
▁ت عل
▁מש ום
▁הח ו
▁о пу
▁не пре
▁é rez
▁vorb im
▁vis it
▁t ony
▁onder wijs
▁le on
▁et tim
▁ 少し
un ile
ich er
带 来
分 钟
が 生
▁最 近
▁الم ري
▁الأ ش
▁בש ם
▁те ла
▁мои те
▁ма ги
▁а к
▁în cre
▁sent ire
▁repres enta
▁kev esebb
▁ec olog
▁ 前
ط ه
حي ان
ству ет
ă l
ann te
角 度
十 年
人 口
▁لذ ت
▁س ري
▁الث انية
▁מע ולם
▁тър се
▁sa ge
▁pal est
▁minde gy
▁ik inci
▁glob ális
▁chiế u
▁ave vamo
▁admin istr
▁ 結
k ent
ato are
▁얼 굴
▁私達 は
▁پ رت
▁س يا
▁ر قم
▁جنگ ل
▁برا ي
▁ней ро
▁мину ти
▁де во
▁безопа сно
▁tra di
▁t iss
▁sin n
▁pa ce
▁o are
▁mo unta
▁ing redi
▁ 케
▁ 少
y tu
rad as
ik al
cza j
일 한
▁ש ול
▁из че
▁же рт
▁între bă
▁sz inte
▁seç im
▁po ko
▁perio d
▁ne eded
▁n ä
▁met abol
▁investig ación
▁he de
▁do ilea
▁design ers
▁cél ula
▁com in
▁centr ale
▁bine în
▁ 幸
פ יה
ul ás
tet és
入 れ
ること を
▁تص ميم
▁ت یم
▁מ מה
▁כנ ראה
▁בי חד
▁е лектри
▁до ку
▁го ри
▁spo jr
▁schim bat
▁res our
▁pued a
▁ng ân
▁lé vő
▁k ém
▁k ett
▁fü hren
▁dis ser
▁dev ant
▁198 4
خ فض
ש רים
át or
ta bil
los sen
d ing
고 요
色 的
人 生
ナ ー
▁מדי נות
▁свет лина
▁öld ür
▁ö z
▁pi x
▁ng ăn
▁min uto
▁l ont
▁inf ra
▁igaz i
▁f urn
▁ent ram
▁conse qu
▁bu ona
▁bri an
▁algor ith
سا زی
ł od
시키 는
过 的
と思 う
▁ת ת
▁ו ק
▁öt let
▁zie kte
▁yalnız ca
▁szám ít
▁serv ices
▁repre zintă
▁qu en
▁prop ia
▁perform ance
▁l ângă
ס ם
íst icas
za ją
in ța
in ha
观 点
最 近
显 示
发生 了
▁ع قب
▁اي ضا
▁أن حاء
▁הע צ
▁след ва
▁pot uto
▁met à
▁ke vin
▁kapcsolat ban
▁hum ans
▁fa ir
▁er lau
▁da gli
▁beg int
▁ 땅
קה ל
זי ק
чи м
y ız
cio us
라 이
ま だ
▁원 하는
▁사용 하는
▁其 中
▁ک ان
▁م ور
▁لل ن
▁رس انه
▁ر یا
▁تحقی قات
▁ку р
▁nyel v
▁mov ing
▁minut i
▁impar ato
▁er geb
▁de ad
▁cy ber
▁com um
▁bes cher
▁an ne
зи те
so ur
ill as
di es
ag ens
资 源
认 识
生物 学
性 を
中 に
▁و ص
▁زی ب
▁خوا ست
▁ма ло
▁segur idad
▁sat ell
▁regar de
▁ra dy
▁popol azione
▁pati enten
▁médic ament
▁min im
▁inv it
▁in tra
▁gü c
▁global iz
▁cał kiem
▁blo od
▁as tero
▁ab a
▁ 教
▁ ändern
potr iva
으로 부터
纽 约
している のです
▁نو شته
▁مح افظ
▁م مكن
▁س وی
▁إ لا
▁ту да
▁се рд
▁ре кла
▁казва м
▁е же
▁ó ri
▁yaş ayan
▁wyk on
▁volle dig
▁sp ę
▁son ras
▁ric onos
▁r ar
▁ng ươ
▁k lo
▁deb emos
▁com ún
▁ 経済
▁ űr
ẩ u
ט רה
ék et
m ina
en ne
an ą
으로 써
利 益
なん て
する のは
▁필요 합니다
▁چ يز
▁ل غ
▁קט נה
▁начи ни
▁м ной
▁жи ть
▁sang ue
▁obser var
▁nh ắc
▁dép la
▁dziec ko
▁dar k
▁ 뭘
▁ 死
▁ ヒ
רח ש
בר סי
p is
j ából
as to
ans a
▁방 향
▁مق ای
▁شک ست
▁الم وجود
▁الس نة
▁מדה י
▁у луч
▁сто й
▁мас шта
▁и на
▁де не
▁wy ja
▁verschieden en
▁u ro
▁turn ed
▁t ấn
▁scr iv
▁orig ine
▁gen itori
▁exper imente
▁eff ort
▁contro ll
▁bedo el
▁auf g
ع اب
ז יה
z eda
om er
c si
냅 니다
人 を
ることが できます
く と
▁여러분 들이
▁می بین
▁ث رو
▁بزرگ تر
▁אחוז ים
▁не что
▁не доста
▁исти нски
▁zdję cia
▁yür ü
▁wy ra
▁tél é
▁repro du
▁r öv
▁ol hos
▁inc ent
▁ha wa
▁fe ar
▁dru gs
ان س
計 画
動 き
▁훌륭 한
▁نم ود
▁عل می
▁למע לה
▁כש את
▁המ מש
▁tak a
▁sta vo
▁st unden
▁spa ţi
▁sar anno
▁qu ê
▁polit ical
▁ng ờ
▁mówi ą
▁mor gen
▁m ük
▁g ond
▁emp at
▁e ast
▁dr um
▁c ust
▁c ina
▁ak k
و ید
ار ع
לו י
el ek
드 를
대 를
出 的
▁아 시
▁我 会
▁ج هاز
▁המ דע
▁wh ate
▁whate ver
▁t â
▁su ite
▁sc ala
▁powinni śmy
▁niektó re
▁menny ire
▁loc ale
▁jak ą
▁hor ri
▁h ồ
▁g om
▁bit te
▁americ ani
че ли
ol en
分 の
▁인 류
▁돌아 가
▁ل ی
▁אי זה
▁тако ва
▁ст ро
▁систе му
▁éduc ation
▁um ana
▁ob wohl
▁contin ent
▁ch y
▁capacid ad
שר ות
מו קר
от вет
j én
co ală
向 け
▁你 的
▁הי כן
▁лекар ства
▁дви жения
▁đ ỡ
▁vol ver
▁k uze
▁j h
▁impar are
▁ent usias
▁endro its
▁eh hez
▁b ốn
▁b ür
▁ 겪
▁ 学
▁ 単
قل ت
é ken
in da
市 場
另 一个
▁יכול ות
▁финан со
▁се ти
▁по мага
▁бу д
▁át lag
▁próx imos
▁od w
▁mu estra
▁inf ect
▁hor m
▁gu id
▁geluk k
▁estu dio
▁e şti
טי ים
ări le
tr ato
m üş
leri yle
ja ch
ab ban
構 造
兴 趣
▁مقای سه
▁قد یمی
▁ر م
▁خشون ت
▁الطبي عة
▁إ عادة
▁я по
▁пу теше
▁по вър
▁па рт
▁организа ции
▁tam anho
▁perspec tive
▁p ig
▁osser v
▁eb ola
▁c ens
▁atmos fera
▁ag g
ıl ıyor
len ia
ges tellt
危 険
▁هزار ان
▁ت ام
▁за виси
▁tu ve
▁trat ando
▁tra du
▁tam a
▁jed nej
▁import anti
▁ed ad
▁dis ney
▁cultur al
▁ 尽
▁ わ
п ти
е му
ion y
co pe
c ado
스 럽
▁音 楽
▁ک س
▁خ ون
▁حين ها
▁на мира
▁ö d
▁se an
▁pag ar
▁ngh ị
▁gă si
▁gr ij
▁ex tin
▁cu v
▁as la
▁ 석
h á
eg t
行 动
感 谢
▁مج تمع
▁ح ب
▁ال نت
▁со дер
▁б ю
▁ár bol
▁yıl da
▁yıl d
▁yapıl an
▁term s
▁prawdopo dob
▁ol sun
▁fran c
▁edi fici
▁do ść
▁ 请
ه ما
ش ب
ذ ك
e it
cri re
ai x
有 了
▁是 的
▁اول یه
▁أش خاص
▁стра не
▁поко ление
▁п ти
▁нам ного
▁part s
▁on dan
▁le ver
▁kw est
▁ide ias
▁cz ar
▁cs illag
▁begin ning
▁ar ia
وان ی
си гу
▁ه فت
▁م لی
▁الجد يدة
▁ти п
▁а да
▁zde cy
▁sta p
▁scienti fiques
▁hu id
▁gi de
ئ ك
וו ים
ш ла
со р
er weise
ab ad
父 母
有 人
分 享
▁창 조
▁어 쩌
▁الف ضاء
▁מי ני
▁одна жды
▁но вый
▁ни ми
▁вз я
▁în de
▁wil den
▁w ok
▁pró pri
▁prim it
▁lim ba
▁geme ins
▁entwickel n
▁el tern
▁cand id
▁behavi or
כול נו
юще го
ша т
ye ar
ik i
ik et
cze j
리 의
てみ ましょう
▁ج ي
▁ان واع
▁מ ן
▁прия тел
▁а в
▁îng rij
▁zi ua
▁vi es
▁szükség ünk
▁supp os
▁med o
▁l el
▁incl ud
▁espé cie
▁csinál ni
▁blo ck
▁baş ına
▁b ày
▁ 빌
ברי אות
ב דה
ze tek
d in
ac o
運 動
数 学
▁而 不是
▁وال ع
▁مهم ة
▁المد رسة
▁الح ل
▁ال رائ
▁י פה
▁בע יות
▁при ве
▁за пла
▁е ки
▁бо р
▁â ge
▁ver mel
▁u gan
▁sopra v
▁roz wo
▁ris or
▁ph one
▁pesqu is
▁ol up
▁nenh uma
▁mit tel
▁long temps
▁lev ant
▁le iden
▁jou er
▁hes ap
▁cresc imento
▁201 4
فا ظ
сту пи
г ъл
ń sk
é f
t kow
p é
p ek
duğ umuz
か が
▁ما ست
▁بد یم
▁إ حد
▁э волю
▁пи ше
▁đ em
▁yardım cı
▁vala ha
▁une ori
▁phil osop
▁orig ami
▁möglich keit
▁fog ok
▁es iste
▁de t
▁const ant
▁can cro
▁ 멀
س ك
מרי ק
מ אות
punk t
diğ inde
ac z
중 에
总 是
▁它 是
▁因为 我们
▁ע מו
▁ръ це
▁прекра сно
▁ина че
▁vogli ono
▁tre m
▁rappres ent
▁por ów
▁pol io
▁perm is
▁o ka
▁ko ck
▁h ú
▁h à
▁gyógy szer
▁fo gy
▁demok r
▁cz emu
▁cou le
üt zen
ón ak
z ia
uyor um
en iem
医 生
▁완 벽
▁ほ とんど
▁موفق یت
▁أ ولا
▁א ש
▁иска л
▁î ți
▁él ément
▁uda ło
▁sto ppen
▁med izin
▁ma ñ
▁f ii
▁bud get
▁4 6
ומ ית
ч ност
ся къде
á ig
os ci
og os
es cent
en der
b ul
사 가
나 는
寻 找
とい った
でき ません
▁مبا شرة
▁יוד עת
▁повър х
▁направи хме
▁par lam
▁oud ers
▁nar o
▁lond ra
▁kar akter
▁cientí ficos
▁bew ust
▁ 共
רו פות
pres a
cza ją
達 は
▁있 지
▁خ لاق
▁לש לו
▁тран спо
▁énor me
▁wonder ful
▁v rei
▁v imos
▁so pr
▁proto ti
▁prop io
▁lo pen
▁gebäu de
▁bez ig
▁18 0
ולוג יה
рова н
ге н
в ме
ün cü
ít ják
w ind
oloj ik
iss ement
인 가
스 의
上 で
▁تحت اج
▁хо тели
▁з д
▁ver mek
▁ve ulent
▁str ong
▁sp ój
▁sc urt
▁pet ites
▁o de
▁lu ft
▁ex ec
▁egy ed
▁chc ą
▁austr alia
▁4 3
▁ 発
но вя
iti é
hat nak
fli kt
br as
at ic
ans ız
▁수 백
▁가 정
▁با ست
▁ש נות
▁אנ רגיה
▁за клю
▁д я
▁đ ảm
▁çalış ıyor
▁va jon
▁tw ar
▁ste den
▁simp ly
▁sal v
▁pro ve
▁pl ate
▁ol vas
▁o ber
▁létez ik
▁et meye
▁ent ro
▁ein fa
▁dem ander
▁al mak
ح رك
צי אות
ğ imiz
ó ry
n énk
コ ン
▁가 서
▁قد ر
▁سیا ست
▁ست اره
▁تح ص
▁со трудни
▁об щност
▁re ch
▁diagnost ic
▁biliyor um
▁b lau
▁ar d
▁a te
▁ 삼
ol lo
인 을
基 础
な んです
され て
▁통 해서
▁ج راح
▁אי נו
▁кра йна
▁дж он
▁woll ten
▁temper at
▁stat us
▁prac ę
▁op p
▁od ată
▁ni şte
▁men or
▁kre ativ
▁k ý
▁g ắn
▁düşün ür
▁cel len
▁ave au
▁ap ăr
▁ 긴
צו ע
נו ע
c ir
类 似
的 方法
と 考え
▁特 に
▁ترت یب
▁أ طفال
▁ר גע
▁ק לי
▁מו צא
▁сре ща
▁ли ния
▁бе спо
▁un ica
▁su cede
▁spir itu
▁show s
▁rép ond
▁ré ellement
▁rzeczywisto ści
▁mo ore
▁meille ure
▁lu bi
▁geni al
▁f es
▁ess entiel
▁compart il
ски те
п ка
ır lar
è nes
z io
y ens
im li
an ze
越 来
机 构
去 了
▁نفس ها
▁شک لی
▁נ קרא
▁нрави тся
▁наи бо
▁verw enden
▁trans fer
▁sz ül
▁su ç
▁mer veille
▁jon ge
▁ins pira
▁in nego
▁e ve
▁dol or
▁dific il
▁cuvin te
▁an st
ب ال
ющи м
äm p
w it
si ve
ona ć
ma ć
m og
an che
이 기
▁ن فت
▁س ود
▁ح فظ
▁اج را
▁רצ יתי
▁הע יר
▁הי יתם
▁реши ли
▁па ру
▁ç ö
▁uit dag
▁t us
▁szczeg ól
▁st ă
▁spr zeda
▁rela ção
▁realiz ed
▁o cup
▁long er
▁lesz nek
▁finan zi
▁continu ar
▁9 8
נ נו
äng er
va ción
s ystem
amo ur
ag i
交 流
▁ب ندی
▁افت اده
▁أ سا
▁п ять
▁é x
▁v ino
▁t egy
▁sor um
▁recon na
▁prot est
▁pap er
▁kle iner
▁e ight
▁atten zione
▁ 쓸
▁ 加
ıs ını
ío do
rij ke
man ız
acağ ını
에서 의
듭 니다
明 白
▁개 념
▁ا صل
▁בת ח
▁продъл жи
▁полови на
▁опреде ля
▁ér de
▁ve i
▁v eter
▁uży wa
▁syst èmes
▁port are
▁per íodo
▁g óc
▁cres ci
▁absolut amente
لا ست
wach sen
ce va
▁수 는
▁فه ي
▁د کتر
▁الص نا
▁уро вень
▁гала кти
▁во дата
▁znac zy
▁rec ogn
▁put erea
▁n äm
▁en cou
▁einz ige
▁co unt
▁cl ín
▁arri ba
ч ного
р но
ru ck
es ég
해 요
有 点
▁질문 을
▁خی ابان
▁שי מוש
▁ש וא
▁בת ור
▁си льно
▁w k
▁vo elen
▁per cor
▁pass ar
▁näm lich
▁log ic
▁em ple
▁deven u
▁acuer do
▁ 完全
▁ ナ
آ وری
es per
ch em
as tră
越来 越
種 の
▁조 각
▁מוז יקה
▁tr ắng
▁ter ület
▁tend r
▁só ng
▁pos ti
▁pens iamo
▁or tal
▁oce aan
▁nh ật
▁medic ine
▁ge heim
▁estudi antes
▁ers ta
▁control lo
▁contex to
▁clim ate
▁aş adar
▁ 망
ת ר
ה ים
ло ж
á ct
ter m
发 明
する のです
す ぎ
うま く
▁ر سم
▁آ ر
▁האח רון
▁ד קות
▁בנו גע
▁съ всем
▁ста нда
▁първи ят
▁вы бра
▁а на
▁sim t
▁pokaza ć
▁gle iche
▁f ield
▁f ed
▁ent ier
▁en gen
▁dam als
▁cor resp
áci ós
z d
pro gram
et z
dz ia
面白 い
▁수 학
▁об що
▁ка ли
▁во ди
▁în to
▁tu a
▁tak ip
▁sicure zza
▁qu ên
▁er halten
▁can not
▁bin lerce
ве но
zus tellen
un ik
▁因为 我
▁هم کاری
▁ج يدا
▁تح صل
▁çalış ma
▁yem ek
▁tö k
▁termin ar
▁sz om
▁spe zi
▁ongelo of
▁nú i
▁ne ander
▁min te
▁inc om
▁gör ür
▁for est
▁ev iden
▁emo cion
▁compart ir
▁be ach
▁arh ite
▁aproxim ativ
▁ 鼓掌
▁ ля
ط ب
ши ть
лно то
ò i
▁我 觉得
▁فرص ت
▁أرد ت
▁קט נים
▁сред ства
▁посмо треть
▁su f
▁sle cht
▁risult ato
▁produ ction
▁mù a
▁miel őtt
▁lang er
▁fall s
▁dr ze
▁di ap
▁dev rait
▁cre ative
▁chủ ng
▁arriv é
נ רגיה
че скую
ött ünk
ér ation
ys ég
hau pt
c ale
스 는
高 い
看 起来
事 件
▁동 시에
▁ど こ
▁الأ ل
▁נמצא ים
▁כ לי
▁הא מ
▁אל פי
▁дела ем
▁вз ять
▁z łoż
▁trans mit
▁sou ff
▁segur ança
▁sa ud
▁s ine
▁ola c
▁mit ad
▁leng ua
▁j ung
▁gând esc
▁fi u
▁av rei
▁ ベ
ص ور
رك ت
רח ב
קהי לה
те ги
ś l
tr um
al maz
形 式
多 的
▁ک یل
▁تر ک
▁устрой ство
▁по се
▁бо г
▁össz ek
▁x o
▁w ro
▁vre odată
▁val ores
▁them a
▁spra che
▁o il
▁mạ ch
▁lát ják
▁igaz ából
▁h ạ
▁cr ít
▁col on
▁bepa alde
ро вали
б ре
lo ck
il ere
i unea
c ând
려 면
伝 え
仅仅 是
▁고 통
▁نح وه
▁صح نه
▁הי י
▁גדול ים
▁ча сов
▁стра нах
▁с прави
▁произо шло
▁евро пе
▁đ ỏ
▁york er
▁precis am
▁po waż
▁ph ổ
▁mai ores
▁ludzi om
▁impl ant
▁il eri
▁gl amour
▁fat her
▁fa ță
▁f ay
▁d û
▁conc lu
▁ 캐
ّ َ
قط ة
ı ra
we it
c cia
bilir im
她 的
回 答
▁크 리스
▁이 론
▁الث اني
▁נ גד
▁לה צ
▁הת ק
▁пу ти
▁ме сте
▁зву чи
▁за ключа
▁в ключа
▁veg et
▁ty się
▁min us
▁mem oria
▁m ấy
▁m él
▁huma ine
▁doen ça
▁coin vol
▁cid di
▁attiv ità
▁ass um
▁ 귀
ل ال
וח ים
ít an
uy a
cho dzą
나 게
媒 体
化 的
▁확 실
▁유 럽
▁것이 고
▁لل ج
▁ل لك
▁ض ر
▁حس ن
▁المشا كل
▁الض وء
▁לפע מים
▁אפש רי
▁препо да
▁опи са
▁из ле
▁да ть
▁zw ar
▁pre d
▁pobre za
▁pi es
▁ol may
▁mo oi
▁değiş im
▁convers ation
▁chy ba
▁chang é
▁bada ń
▁3 8
▁ 묻
ד מנות
я ми
ice i
eler in
년 이
那 样
虽 然
力 的
を 探
もの が
▁و ز
▁ו מש
▁сло во
▁за ня
▁zap y
▁yük sel
▁ter cer
▁pag ina
▁má u
▁mañ ana
▁kuze y
▁h ill
▁gö tür
▁func ţ
▁dimin u
▁di vis
▁199 5
▁ プ
ما كن
دا ف
ז ק
ски я
не ните
ou dig
le b
森 林
ること です
▁그 때
▁س اب
▁при съ
▁здо ро
▁tan z
▁rozum ie
▁pom o
▁medi u
▁kí na
▁ir on
▁f ys
▁f ern
רא ש
тель ность
mek te
都 在
▁موسي قى
▁در جة
▁לש א
▁לה שיג
▁לה כ
▁мо ето
▁да льше
▁ver zam
▁ugan da
▁te ve
▁rob ô
▁neden i
▁line a
▁gren zen
▁e ști
▁du ur
▁dir it
▁dess us
▁da yan
▁condiv id
▁asp etto
▁ 残
ле тия
és sel
za am
fi gyel
게 도
▁ổ n
▁لكن ه
▁دا رای
▁بردا شت
▁ب ری
▁ו ס
▁све тов
▁по тря
▁не до
▁нав сякъде
▁любо й
▁liv res
▁k od
▁gü ney
▁akart am
▁ 保
و ظ
ess ero
ente d
病 人
世界 上
な のか
と なる
▁ك ون
▁ث ابت
▁הט כנולוגיה
▁בכ די
▁поне же
▁на ру
▁мину т
▁какво то
▁tal ent
▁poten zi
▁plan ta
▁ph ẫu
▁ph o
▁par li
▁li qu
▁komór ki
▁has zn
▁cli p
▁cap ito
▁będ ę
▁arriv are
▁ 安
از ی
ע תי
יי ק
ır ken
ni u
k ens
g eri
er in
也 许
を 生
です か
▁وسی له
▁قط عه
▁הש נה
▁и ми
▁друго м
▁впер вые
▁voor dat
▁veri fic
▁pomoc ą
▁moment ul
▁le y
▁l ego
▁k ór
▁fırs at
▁e fic
▁caz ul
▁ac co
▁ 首先
ور ک
ör ű
w ater
p pe
hn t
最 大
不 到
▁생각 했습니다
▁벌 어
▁ف ترة
▁ده نده
▁د ش
▁الت جار
▁ال را
▁آسی ب
▁בכל ל
▁съществу ва
▁зем ли
▁sz emp
▁supra fa
▁person aliz
▁muh teş
▁kon flikt
▁gel ijk
▁g ott
▁elec tro
▁dire ction
▁c iała
▁ ホ
ما یی
عت مد
را رة
чни к
х вър
сто ит
со н
ни ков
ło by
uyor uz
専 門
▁그녀 의
▁거 대한
▁ني ويورك
▁كل مة
▁تش کیل
▁البح ر
▁אמ רה
▁явля ются
▁tama ño
▁rela ción
▁kív ül
▁está vamos
▁ein igen
▁d ĩ
ل ح
מי ין
г ру
ä ten
l ó
l ás
c it
amer ic
달 러
え ない
▁چ پ
▁و یر
▁се рио
▁няма ше
▁други ми
▁tu o
▁sab ia
▁rec entemente
▁pobla ción
▁par fa
▁par ar
▁of ere
▁li p
▁köz ben
▁kur ul
▁hy pot
▁h ấp
▁görüyor uz
▁en ga
▁daar na
▁3 4
▁ よく
פרי קה
ט ב
гна т
火 星
▁보여 드리
▁기 능
▁곳 에서
▁الف ر
▁под ро
▁дума ть
▁д ра
▁ş ark
▁îm potriva
▁warto ści
▁the orie
▁su bie
▁k isz
▁john son
▁hen ry
▁6 4
وز ی
льно сти
l ilik
h ely
보 세요
电 话
▁제 품
▁산 업
▁وكن ت
▁مش ار
▁مان د
▁تحقی ق
▁برگ شت
▁الع لم
▁ща стли
▁счита ю
▁объ еди
▁đ ảo
▁sz í
▁str umenti
▁s koń
▁s ani
▁ph a
▁p int
▁otten ere
▁muhteş em
▁możli we
▁mouv ement
▁fuer za
▁fiz eram
▁entrepr ises
▁eng em
▁con go
▁bel ie
▁bal ık
▁ai bă
▁ 成
ק לים
по м
ț ionează
ua is
u per
ny ire
led ge
hl te
ab ı
이 었죠
理 论
▁질 병
▁종 교
▁곳 에
▁让 我
▁ف شار
▁عبار ة
▁ج ون
▁מ נ
▁לח יות
▁на о
▁две те
▁гра фи
▁stat ele
▁sole il
▁pr ive
▁po us
▁palab ra
▁pala vra
▁nu it
▁niezwy k
▁ma pp
▁kan ker
▁hiss ed
▁fog nak
▁dere ce
▁cres cut
▁appro ach
▁am ivel
▁ 클
▁ キ
ח ן
äs st
áv amos
le tt
fel é
d re
cią g
这个 问题
取り 組
の人 が
▁시 도
▁그 들을
▁ق ان
▁برا ى
▁العمل ية
▁стра теги
▁ръ ка
▁на шу
▁z ada
▁ver ir
▁un iver
▁sur ve
▁sol utions
▁og l
▁mir ar
▁ir á
▁funcion ar
▁de bo
▁d ns
▁app ara
▁ 곧
▁ 没
لی س
וק יינו
ıs ıyla
rom os
nic t
as tre
납 니다
わけ です
▁되 었
▁ي ف
▁و إن
▁مت ن
▁الج انب
▁ста р
▁поль зо
▁по кри
▁зна ят
▁zau wa
▁wy ją
▁veränder t
▁ult imo
▁sł owa
▁s ara
▁k ény
▁gez icht
▁esper ar
▁es quer
▁eml ék
▁différ ence
▁bunun la
▁azien de
▁au dio
א שר
ó ta
ită ţii
is co
▁이 동
▁시 민
▁何 が
▁פ ולי
▁חז רה
▁חבר ת
▁на ч
▁моми че
▁ver h
▁strat ég
▁settim ana
▁opportun ity
▁ol sa
▁mond ani
▁hộ p
▁em iss
▁căl ător
▁ara ba
s tere
ost ra
ley ici
ig d
duğ um
a gen
많 은
投 資
▁있었 던
▁부 터
▁فر ست
▁פע מים
▁מ וס
▁хо тят
▁одни м
▁наме ри
▁кри ти
▁е лектро
▁да де
▁а д
▁ş tim
▁đ e
▁par ta
▁p c
▁kur tar
▁h ans
▁f ight
▁e her
▁bus car
▁av ent
▁ ．
▁ 철
▁ 思い
ه یم
unk ra
schap p
icz ny
自分 の
もの で
▁어려 운
▁그 들
▁ジ ョ
▁ي ه
▁مع لم
▁أ غ
▁آزمایش گاه
▁מח קר
▁וא נו
▁от прави
▁конф ли
▁éch elle
▁wy mag
▁s ơ
▁r ê
▁r ica
▁poka żę
▁paz ar
▁mó c
▁mo ver
▁infras truc
▁gau che
▁et à
▁dol ay
▁die tro
▁cie lo
▁ch áu
▁budy n
▁b eri
▁austr al
▁ab r
ски е
ä ume
v lak
n om
f eld
as ının
戦 争
出 し
▁아무 도
▁소 비
▁관심 을
▁د مو
▁بتوان یم
▁ת מונות
▁меч та
▁биз не
▁zo eken
▁tysię cy
▁sp ek
▁pół no
▁nor den
▁naj waż
▁mun ca
▁dis s
▁be ho
▁aba jo
▁201 3
▁16 0
סי ק
p art
la h
iel s
위 를
方 は
ラ ス
▁한 다고
▁어 렵
▁وح شت
▁البشر ية
▁הה ש
▁й орк
▁вто рой
▁wyja ś
▁wy bor
▁unter st
▁r ời
▁pod ia
▁mus zą
▁meg b
▁kilom eter
▁ki hív
▁in nymi
▁go dzin
▁elb ette
▁cor so
▁conc l
▁be teken
▁anf ang
z im
tot deauna
c chi
を見 つけ
▁비 교
▁ع شق
▁شنا سی
▁מדו בר
▁ול ע
▁мо дель
▁доб ър
▁zo ek
▁ten ido
▁st ück
▁pomyś l
▁ma x
▁kész ül
▁kend isi
▁kam era
▁hab ían
▁ha use
▁get an
▁f als
▁ex cel
▁erő s
▁cs om
▁crec imiento
▁ak l
פי ע
ци они
ţ ilor
sze j
igh eden
com e
be w
難 しい
▁그녀 가
▁ن گران
▁למש ל
▁לא ורך
▁ока зыва
▁ко сми
▁z ost
▁u k
▁tr ust
▁s lu
▁kin dern
▁her vor
▁girl s
▁dev in
▁deuxi ème
▁biz nes
▁biliyor sunuz
▁bi bli
▁be per
▁ #
مت لك
ج ي
zeu gen
ri do
isten za
g ele
传 统
ラ ム
ま ま
▁يح صل
▁نقا شی
▁לה א
▁אמ יתי
▁ни то
▁америка н
▁suk ces
▁pos itive
▁obten ir
▁jó venes
▁ist it
▁gelo ven
▁f onte
▁ 又
قائ ق
дно то
ło ń
sp ro
int on
er ia
en os
ワ ーク
の中 に
▁젊 은
▁قوان ین
▁س واء
▁מס ביב
▁אומר ת
▁те бя
▁така я
▁ста ла
▁ко ла
▁каза л
▁каждо го
▁и то
▁wy p
▁tér min
▁ter ce
▁sco pri
▁mük emmel
▁munk a
▁mo da
▁met ro
▁kal dır
▁ge ho
▁g one
▁es crit
▁consum o
▁americ ano
▁ 理解
ط بي
к ло
s il
ow ana
en ze
结 束
就 像
ゲ ーム
▁америка нски
▁é j
▁zast ana
▁ur ządz
▁question e
▁przy w
▁prop ósito
▁prog ett
▁organis ation
▁mensch lichen
▁k ara
▁görün üyor
▁deci di
▁9 7
▁14 0
ون ة
ع ار
ح صل
ше го
р ни
ете сь
œ ur
ır ı
end et
de te
b eli
海 洋
必要 があります
ば かり
▁방법 은
▁لأن ني
▁د ف
▁ت ستخدم
▁раз ум
▁по про
▁ultim ii
▁suc esso
▁si cht
▁sebe bi
▁potrzebu jemy
▁do tt
גש תי
ру ют
рова ние
ó ban
un ek
歳 の
一个 人
の 世界
た くさん
▁희 망
▁수 가
▁강 력
▁ملا قات
▁أ قوم
▁waar de
▁verander ing
▁társad alom
▁szem ben
▁otr zy
▁magaz ine
▁l ăs
▁iz quier
▁hy per
▁gro ei
▁différ ent
▁dezvol t
▁ant ici
▁afgel open
▁a duce
ج ن
ס קים
ле нию
зе н
ti ka
lad es
hu is
gyar áz
ern t
c ement
명 한
立 て
名 前
ジ ャ
ぞ れ
▁방법 으로
▁میده د
▁علي هم
▁تح مل
▁ت که
▁ה לו
▁э ле
▁не ви
▁étudi ants
▁wil d
▁tr ied
▁t ải
▁t ín
▁społecz ności
▁resp onder
▁cro issance
▁bede ut
ши те
ла йн
re cht
on ym
b em
始 ま
人 も
▁때 는
▁הפ רו
▁w rite
▁v ater
▁tra vel
▁popula ção
▁num mer
▁kív án
▁fr ase
▁deix ar
▁b ază
▁aproxim adamente
▁ 왔습니다
▁ *
ست گی
נת ונים
וח ות
на м
z icht
sch nitt
enn t
cy c
an ha
犯 罪
▁گی اه
▁وحت ى
▁ع ادة
▁الو صول
▁ال فت
▁ש ית
▁למ די
▁כ לומר
▁со времен
▁по з
▁кило мет
▁é volution
▁zor g
▁zd ol
▁visu aliz
▁ta v
▁socie tate
▁quick ly
▁permit ir
▁oc cas
▁niesamow ite
▁nauczy cie
▁majd nem
▁m ons
▁kö l
▁kur um
▁inform áció
▁elektr ik
▁cu ore
▁biod ivers
▁bazı ları
▁an terior
▁adol escent
ç ı
ut amente
tem ents
sen ek
ig ar
ent lichen
bel ül
记 录
常 に
ニ ー
▁엄 마
▁بال ق
▁الحك ومة
▁фа нта
▁ти па
▁как ъв
▁до би
▁éx ito
▁yo ğun
▁tek in
▁seg re
▁rodzaj u
▁nghi êm
▁n ależy
▁mie liśmy
▁men udo
▁imp lement
▁if ade
▁gal ak
▁bar r
▁ab u
до то
által án
un id
的 小
なければ なりません
▁있었 고
▁در ی
▁י צא
▁ח שמ
▁הס ת
▁הא מת
▁прекра с
▁ér tem
▁z er
▁ry zy
▁roz w
▁przestr zeni
▁mik özben
▁m esso
▁her mos
▁ha ven
▁exp lain
▁d ici
▁coleg as
▁baş lam
▁b ac
ک تری
ف ات
ро да
п то
ár os
ta ch
本 当に
を 与え
▁방법 이
▁یک دیگر
▁الح م
▁со хра
▁не р
▁zap ro
▁tro tz
▁priv ate
▁lu x
▁instit utions
▁gid ip
▁ef ecto
▁ado pt
▁ 을
ار ية
מ ס
ч ния
s tel
itiv os
一 切
のです が
▁과 거
▁پیش ن
▁ك ند
▁причи ната
▁отноше ние
▁из лиза
▁живот ни
▁въ л
▁вопрос ы
▁а нти
▁yap abilir
▁torn ou
▁n ặng
▁kos z
▁j ose
▁iş i
▁grow th
▁econ ôm
▁dış ında
▁devi ent
▁d rive
▁cred em
▁aten ção
▁aim erais
▁ 웹
си ть
и нтере
в ки
만 큼
真 实
的人 们
を お
▁주 제
▁병 원
▁وا کن
▁ن وا
▁آ ی
▁פ ל
▁לב צע
▁пе ча
▁обикнове но
▁въпро са
▁sp el
▁se cu
▁rend kív
▁ju iste
▁inac zej
▁far ma
▁bura ya
▁abil ity
▁ 벗
▁ 男
ان وس
pi ć
h all
e bb
モ デル
▁처음 으로
▁ص بح
▁מנס ים
▁рабо тни
▁про я
▁приро дата
▁t sun
▁re is
▁po ję
▁og n
▁l is
▁gro za
▁ 쉬
▁ 様々な
و قت
س سات
با ح
ру р
ко н
ło ży
w ell
v onden
u as
tri bui
ru pa
ins el
ativ es
百 分
▁언 어
▁사 건
▁وك يف
▁فك رت
▁بال ك
▁بال ض
▁الت اريخ
▁потре би
▁а ктив
▁zosta ł
▁z il
▁t isz
▁ro ad
▁poder íamos
▁mor ning
▁kat eg
▁k ort
▁hagy omány
▁g he
▁folos ind
▁develop ment
▁daar van
▁ 멈
▁ щ
כ ור
жи ть
t ime
ir ii
er ci
end es
分 野
▁환 자
▁유 지
▁وق ال
▁طويل ة
▁ام تح
▁التص ميم
▁עצ מם
▁ча с
▁друго то
▁воз вра
▁đ ươ
▁tra k
▁păr in
▁plas tik
▁op ini
▁obsz ar
▁mod ele
▁koráb ban
▁gö stere
▁f and
▁egy általán
▁do wie
▁cabe za
ند گی
лы й
ı za
í totta
mel eri
g on
f ort
보 고
在 这
上 に
の お
▁이 들은
▁ه شت
▁نی وی
▁ن رم
▁ط وری
▁المن زل
▁хо тите
▁мо ра
▁к ле
▁д жи
▁голя мо
▁r icos
▁park inson
▁ni ą
▁m ło
▁le va
▁hang i
▁ge ce
▁estrut ura
▁c usto
▁b ero
▁ 時
ي ي
שי בה
פ תי
ז ע
ста ти
ét és
to u
te te
li ke
ien nent
▁물 건
▁好 吧
▁فض ای
▁נו סף
▁стра х
▁über haupt
▁yat ırım
▁sz im
▁in ven
▁heraus forder
▁enfermed ad
▁consegu imos
▁bur ası
▁blo ed
▁an atom
▁ 確
▁ 放
تر ون
ка н
ди о
r ichten
ol yan
n á
▁뭔 가
▁گیر ند
▁وأ عتقد
▁ت نت
▁الوح يد
▁المو اد
▁الان ت
▁לה ס
▁ב יום
▁це н
▁за м
▁ба ща
▁акти ви
▁ś ci
▁to ols
▁su te
▁restaur ant
▁otth on
▁m imo
▁hal ine
▁déc adas
▁divent a
▁cuv ânt
▁całkow icie
▁bel li
▁ağ aç
پ ر
ś wie
atos an
特 别
投 资
の 話
▁و زن
▁شد ت
▁ب سته
▁באות ה
▁при ня
▁има хме
▁да м
▁вы пол
▁ze hn
▁ver a
▁tö meg
▁r ö
▁pour tant
▁mówi ę
▁lin h
▁kr ót
▁hal k
▁fer m
▁ev itar
▁e én
▁e ither
▁comp re
▁bu ộc
▁be elden
▁ 小さな
ня я
жи т
ores c
icz nej
ス は
▁وا س
▁ص دي
▁המ ים
▁ока зва
▁ли нии
▁raggi ung
▁pre vis
▁potre bbero
▁parl é
▁ne em
▁m ri
▁l änder
▁know n
▁entwick lung
▁do ivent
▁cient os
▁amerika anse
▁ 除
لا ك
ضا فة
í du
zi p
ut as
ic ale
av am
라 면
障 害
以 来
▁있 던
▁일 종의
▁ن ص
▁خد مات
▁بدا ية
▁שק ורה
▁пло хо
▁нау ка
▁и нова
▁çık tı
▁ver fü
▁szko ły
▁speci ale
▁sp ent
▁ev ento
▁do w
▁di abet
▁d ori
▁confr ont
▁con ti
▁cas s
▁c ac
▁bem utat
▁amér ique
▁ad ım
ل ام
ساعد ة
رم ز
ب رت
рё х
è rent
ás nak
改 善
定 的
ッ チ
▁تعرف ون
▁البدا ية
▁מת חיל
▁разви ва
▁öğ rend
▁á o
▁tel éf
▁reto ur
▁re ti
▁pré cis
▁pr áct
▁növ ény
▁ma xim
▁er es
▁düş ük
▁decy z
▁de fa
▁brz mi
▁bağ ım
▁auf ge
▁as ıl
▁ 축
ها ى
מ כם
les zt
计算 机
平 等
▁위 에
▁당 연
▁ق وة
▁ق را
▁ب ات
▁тре бу
▁д ня
▁vol v
▁száz ad
▁sz eren
▁r ate
▁pol i
▁películ a
▁over heid
▁lát tam
▁les qu
▁jo vens
▁feed back
▁car ros
▁ 꼭
مي ز
ط ن
ج رة
сколь ку
k ins
il di
悪 い
助 け
▁예 측
▁각 각
▁我 也
▁دست ه
▁الإ ست
▁שא פשר
▁сту ден
▁сво ё
▁подоб но
▁to car
▁po lega
▁po et
▁ness un
▁jos h
▁inf atti
خ يل
ای ه
ק לא
ре на
scha ften
ink t
ick s
▁도 와
▁대 답
▁기 관
▁ول قد
▁الط عام
▁הת מונה
▁б ре
▁verb ess
▁tel ec
▁or tam
▁nel son
▁min er
▁ho p
▁fotograf ia
▁e ki
▁człowie ka
▁afl ă
во то
ult am
u var
ーショ ン
できる のです
▁سل ام
▁تأ تي
▁ال سب
▁ר שת
▁ח ופ
▁ו כש
▁במ ק
▁ц вет
▁ро да
▁про тя
▁yıl ında
▁vol ume
▁ve ţi
▁oso by
▁mu erte
▁mom ente
▁gerek tiğini
▁es ist
▁al ış
عرف ة
ъ х
ра на
ș e
és ére
le den
ist re
f y
cial mente
自 我
另 一
あり ました
▁단 어
▁می ر
▁ש ניתן
▁меся цев
▁инф ра
▁sou ven
▁sol che
▁quiz ás
▁poł ud
▁port ato
▁man che
▁keş f
▁k ij
▁giov ani
▁de ki
▁afgan istan
י די
ле нии
h op
cz ny
ba i
事 は
▁확 인
▁我々 が
▁ک د
▁م ركز
▁اسا سی
▁ş idd
▁úgy hogy
▁voya ge
▁utilis é
▁toc mai
▁sil icon
▁meest al
▁kop en
▁ki feje
▁h ány
▁ge o
▁frum o
▁ch ờ
▁b én
▁ 做
ائ نات
wną trz
le şti
jąc ą
j ście
ch tige
b ay
み たい
▁좋아 하는
▁수 많은
▁هم کار
▁توان ست
▁با یست
▁انت قال
▁الغ رب
▁الغ ذا
▁الص ح
▁со бы
▁özg ür
▁volt ar
▁v üc
▁sil ah
▁sa chen
▁particul ier
▁p ere
▁nou veaux
▁kra ft
▁ileti şim
▁h út
▁h us
▁contr ôle
▁colle ct
▁belangrijk ste
▁aș te
▁5 2
▁ ポ
▁ ảo
ẳ n
ید ند
ف ز
ت ك
ال با
мы х
ма х
n ed
li z
ha i
ad er
好 き
の 子
こ んな
▁一 些
▁مرح له
▁دید گاه
▁الكه رب
▁أ ط
▁וא מר
▁уве рен
▁так ъв
▁свои м
▁разви тия
▁поя вля
▁би хме
▁é co
▁tom a
▁or man
▁now ych
▁neuro log
▁mos qu
▁k ogo
▁je une
▁i̇ k
▁g wia
▁chang es
▁b ouw
▁anlam ına
ین گ
٠ ٠
ث لة
מוד ד
ובי ל
нт ра
zz ék
vil ág
ic ken
fl äche
br ica
清 楚
プログラ ム
▁인 식
▁彼ら の
▁گ زار
▁وال ح
▁ماد رم
▁במ ס
▁по скольку
▁не ль
▁започ нем
▁глу бо
▁şey e
▁ter mel
▁supra vie
▁sang u
▁ro ll
▁rec onstru
▁p antal
▁mon dan
▁mo c
▁m ảnh
▁külön ösen
▁körül belül
▁empec é
▁cell ul
тель ных
та м
си лия
жда не
ru pt
4 7
女 孩
以 外
▁在 我
▁كن ند
▁خود رو
▁ت هد
▁الم وا
▁לפ חות
▁ל חי
▁че т
▁пре до
▁на сили
▁ва ш
▁бли зо
▁és te
▁ter ia
▁talál koz
▁super fí
▁su ger
▁sic uro
▁realiz at
▁produc tiv
▁parl ando
▁not te
▁nie d
▁mater ie
▁matem ática
▁feme ile
▁fa ţă
▁entrepr ise
▁de bat
▁dat or
▁bey az
▁ber ü
ذ ة
ب ين
ски й
си л
ле мите
y ki
ili br
gl ia
▁音 乐
▁عج یب
▁الل حظة
▁أم ريكا
▁ע ולם
▁ужа сно
▁пре мина
▁ос вобо
▁sı ra
▁sa ve
▁neden le
▁i̇nsan lar
▁in now
▁dire ctor
▁centina ia
▁ 等
▁ 父
ens ional
c ke
alar a
▁느 낌
▁م بار
▁сво я
▁ор га
▁нача ло
▁кон кре
▁would n
▁voor sp
▁tr ùng
▁tan ti
▁ser i
▁produ its
▁nas za
▁ge ographic
▁ex ter
▁col lega
▁ ıs
ني ات
ля за
un ki
mê mes
iv ano
ar me
워 크
情報 を
听 到
办 法
▁ل ست
▁ال لي
▁ا قی
▁וע ל
▁стати сти
▁на рко
▁ка са
▁е ле
▁sz á
▁seg undos
▁rzą d
▁ris pos
▁olmal ı
▁o oh
▁mówi ć
▁mon ta
▁miesi ę
▁kon uda
▁il leg
▁exper t
▁des p
▁des em
▁ci ę
▁bulun an
▁besta an
▁199 6
ع ون
ו מה
ч ват
ö vet
선 을
图 片
▁ک ریس
▁وك ما
▁العالم ية
▁инду ст
▁ő r
▁week s
▁uy gun
▁u kład
▁sim ile
▁quant ità
▁pazi enti
▁p isa
▁näch ste
▁nem csak
▁lo ạn
▁içer isinde
▁important ă
▁habit at
▁fotograf ie
▁famili es
▁dé fin
▁chin ese
▁beszél get
▁4 7
ک لی
би ли
ż ą
ţ ei
zt unk
mem iş
let te
h ow
수 가
身 上
私たち は
哪 里
ジ ネ
▁투 자
▁ع بور
▁بی ایید
▁реб ён
▁първо то
▁поте ря
▁живе ят
▁ези к
▁в печат
▁întreb area
▁vo ice
▁un ico
▁test s
▁poder iam
▁ob icei
▁număr ul
▁meg ért
▁meg talál
▁m um
▁lig t
▁kend imi
▁internation ale
▁fr at
▁du ym
▁części ą
▁czy n
ري بة
را ز
כ בים
ו שר
ти вно
сле дова
до хме
zent r
ur ing
se in
est ro
an temente
要 求
不 断
▁집 단
▁복잡 한
▁وال إ
▁ن ب
▁פע ולה
▁מת ח
▁сре щ
▁đi ển
▁ve ți
▁uğ ra
▁sex o
▁sa ir
▁pu isse
▁polit ikai
▁neg ro
▁mü hend
▁mev cut
▁inter ested
▁im press
▁h ẳn
▁d ür
▁co per
▁aut ó
▁apro pi
▁aller lei
▁alle m
▁af ară
چ ار
נ א
לי ק
доб ри
sto f
ların ız
하 려고
込 み
第 一次
直 接
可能 会
ー ロ
▁집 중
▁쉽 게
▁그 대로
▁他们 的
▁پرس ش
▁تو ص
▁الأ ص
▁ال دم
▁כ מות
▁הר ג
▁דו מה
▁אות ך
▁א צל
▁д ы
▁é re
▁veren igde
▁tecnolog ie
▁söyle ye
▁st anza
▁pros te
▁fü hr
▁fr onti
▁dro it
▁desa fi
▁cris pr
▁cent enas
▁br uno
▁ber g
▁başar ılı
▁af ro
ون یم
r zu
at as
상 의
▁마 을
▁即 使
▁بص ورت
▁الك تاب
▁ا وم
▁ש בי
▁מ כן
▁здо ров
▁дизай не
▁t ường
▁sal va
▁rése au
▁rel ation
▁p ing
▁m area
▁kér dést
▁i̇ ş
▁imag ini
▁hy dro
▁hayat ta
▁férfi ak
▁fab ri
▁ersta un
▁drog as
ль те
ка м
ő z
tel es
h ass
gle ich
機 械
▁말 합니다
▁ک ال
▁دمو ک
▁دان م
▁تج عل
▁съ стояние
▁съ еди
▁говори ли
▁yapt ım
▁v ários
▁ter mes
▁sw ój
▁quy ển
▁potr iv
▁pers ön
▁mig r
▁köz vet
▁iç eri
▁dire ção
▁chr ist
▁ara da
▁apren di
▁15 00
я сь
кла д
ő ség
or te
j ön
▁말 하고
▁گ رم
▁يت علق
▁الت د
▁ابت دا
▁מא י
▁חבר ות
▁הג וף
▁ху ба
▁съ държа
▁специа ли
▁зве з
▁wy dar
▁vüc ud
▁si quiera
▁sal ir
▁re port
▁program as
▁not í
▁miejs c
▁met ade
▁e ye
▁des t
▁betra chten
▁bas so
▁ 급
▁ 걱
د اد
נו ן
о па
se bb
ren do
le ta
ise bb
het nek
名 字
制 度
▁나 아
▁بش ن
▁المش روع
▁اخت راع
▁أع لى
▁по чув
▁tök élet
▁teda vi
▁por us
▁mex ico
▁k ill
▁in im
▁im prim
▁ilg ilen
▁chỉ nh
▁ch ied
▁belang rijke
▁ 쪽
▁ 教育
خل ق
ч ную
ве та
ê ts
ten do
l är
b ę
이 란
達 が
物 の
比 较
ス タ
▁노 래
▁기 반
▁거 에요
▁و د
▁ش یمی
▁سال م
▁الأ قل
▁ا بر
▁إن هم
▁פ ית
▁אלי ו
▁א רג
▁ли бо
▁t ys
▁sta i
▁sta ge
▁sin cer
▁pi b
▁ostat nie
▁num ele
▁naqu ele
▁kil o
▁immag inare
▁f é
▁ener get
▁a il
▁ 年
ни ците
tur es
per vlak
mény ek
ier an
e el
cz one
ci de
있 습니다
期 待
セ ン
を 変え
▁없 다는
▁ک وه
▁ش غل
▁خ لا
▁بال ح
▁اش اره
▁ר צי
▁קור אים
▁ברי אות
▁בעי קר
▁под кре
▁наде жда
▁đá p
▁z öld
▁straord inar
▁spój r
▁rob imy
▁po zy
▁mar ia
▁la z
▁incredi ble
▁gł ęb
▁gy öny
▁edi yorum
▁confi ance
▁bor n
▁baz a
▁al meno
не ни
w iz
ują cy
og rá
ler di
l esz
im men
an ter
니 아
成 的
▁동 료
▁مجد دا
▁در جه
▁י צר
▁י מים
▁у ника
▁т ю
▁ön mag
▁î ţi
▁var ie
▁unter s
▁son ido
▁rit mo
▁r ang
▁pros p
▁pf lan
▁ok aza
▁meas ure
▁mas z
▁marav ilh
▁lu ăm
▁kenn is
▁gar ant
▁erinner n
▁co ord
▁char acter
▁bas ed
▁b actér
▁av rupa
▁and rew
▁am ac
▁ ４
▁ 三
ين ية
يد ية
اس وب
és eket
zion ale
ye de
m art
의 를
▁사회 적
▁第 一
▁笑 い
▁م ول
▁م وج
▁ارو پا
▁מ ופ
▁ו שוב
▁אפ ריקה
▁раз гледа
▁пред ложи
▁ü bers
▁tö bbi
▁sal le
▁ng ủ
▁ne igh
▁ense ign
▁comput adora
ند ن
را ل
фор ми
мен ь
ıyor sunuz
ist ica
あ なた
▁지금 은
▁들어 가
▁み んな
▁نام ه
▁دا خ
▁تمر کز
▁מס וי
▁z więk
▁tem iz
▁qu iser
▁mater iał
▁instit ute
▁hau pt
▁des ch
▁conf ér
▁c ok
▁başlad ık
▁an ii
ز مة
ycz nej
tro it
ka ć
a fr
反 応
▁تصاو یر
▁ממ נו
▁се р
▁ради о
▁кра со
▁ве днъж
▁înto ar
▁yıld ız
▁wz gl
▁v izi
▁v at
▁terren o
▁histori ę
▁f äl
▁cz erw
▁cre ș
▁comput adores
▁compor tement
▁cho is
▁bi an
▁am p
й с
ва ю
eg os
c ons
2 1
機 会
世 代
ー チ
り を
だ と思います
▁المو ضوع
▁מח שב
▁לב ד
▁wok ół
▁vers ucht
▁t ief
▁pil ot
▁minun at
▁hid ro
▁f isch
▁conflic t
▁ 틀
▁ 끌
يدي و
ري ك
حي انا
ול ת
zysta ć
y ken
m ens
ly n
l ılık
ist ă
ism ul
인 의
ブ ル
▁ص ع
▁د قيقة
▁تجرب ة
▁بال ای
▁الح ال
▁الت س
▁الآخر ين
▁сча стли
▁не бе
▁лег ко
▁име ют
▁живот ных
▁öğret men
▁é tions
▁wat son
▁uni wers
▁u ống
▁sz k
▁nuev os
▁medi os
▁kép et
▁kal k
▁imag iner
▁elv esz
▁dispo z
▁bel la
▁b ip
▁ 克
مل ة
ל פון
чи сле
í ti
í mos
ri re
k und
iz za
记 得
芸 術
第 二
燃 料
▁아 는
▁گی رد
▁م ها
▁ز ا
▁اسا سا
▁أ صد
▁פ רי
▁ע בד
▁א ב
▁ш у
▁сто я
▁świ ad
▁zak o
▁we inig
▁voud rais
▁t ang
▁s esi
▁rég i
▁pouva is
▁mik ros
▁lu y
▁kl imat
▁khu ẩn
▁h amb
▁fel elő
▁bus ca
▁alap ján
▁ 光
ائ رة
שו נה
че на
én d
pl os
lich es
ler en
f ra
er ie
at her
的 世界
わ れる
▁م ون
▁خاص ة
▁الأ فكار
▁است ث
▁по чи
▁нау ката
▁ó ceán
▁zaczą łem
▁vero or
▁surpr is
▁so ut
▁scient ists
▁pas sen
▁or den
▁fel té
▁eğ len
▁ev rim
▁egyé b
▁dé cis
▁do ct
▁cha os
▁bring t
val len
tif s
tell ing
k ör
惑 星
市 民
▁네 트
▁م يل
▁ש ט
▁נת ונים
▁пер со
▁мо ре
▁wed ług
▁vre o
▁t ảng
▁pic io
▁met t
▁matemat ica
▁l len
▁l ire
▁hal ad
▁grow ing
▁gerek li
▁ge ef
▁cio è
▁bom ba
▁aş te
▁aj uta
▁ 重
כו יות
öl ker
et es
ag d
만 이
週 間
知 识
愿 意
クノロ ジー
▁바 랍니다
▁ي نت
▁أن ي
▁מ ין
▁הי כולת
▁у е
▁технологи ята
▁про з
▁при ли
▁za hl
▁ut rzy
▁talál ko
▁t ela
▁sit es
▁mond ják
▁mens elijk
▁mas se
▁m ellett
▁m ala
▁láthat ják
▁cor al
▁chu ột
▁amo ur
ще е
ри ята
ut z
c ją
asz tó
명 을
离 开
物 质
操 作
原 子
▁有 些
▁خا ط
▁הבר ית
▁све то
▁с нима
▁ра ка
▁szemp ont
▁realiz e
▁pres ident
▁phys ical
▁person ale
▁möglich keiten
▁mang i
▁fonction ne
▁ef ek
▁che f
▁ ソ
м с
д же
re ds
m illi
d ruk
as ág
지 의
面 对
彼 女
ヶ 月
ら せ
▁여러분 에게
▁사용 할
▁비슷 한
▁ض ع
▁صد ها
▁المج موع
▁שמ ח
▁הש לי
▁се дем
▁yet iş
▁val ue
▁sur g
▁situ azione
▁s itting
▁kadın lar
▁jakie ś
▁j unge
▁j ogo
▁in ge
▁herkes in
▁cent aines
▁car t
▁ay ır
ذ ين
ار و
י ק
ığınız da
gr as
er ed
用 的
受 到
全 く
仍 然
▁もう 一
▁ند اره
▁حال يا
▁ج مله
▁ב חיים
▁по ку
▁кро ме
▁кон ферен
▁вы ше
▁đi ê
▁încer cat
▁vlie g
▁vac c
▁v ali
▁t ộc
▁mo de
▁gle ichen
▁fin ance
▁fik ri
▁exp ans
▁econom y
▁col p
ль ность
tiz ia
pl in
ij en
em ment
ein ander
ativ i
表 現
有 关
▁말씀 드리
▁두 번째
▁يأ تي
▁خ رج
▁خ دم
▁ugy ane
▁tud nak
▁ra dia
▁pacj ent
▁nici un
▁nas zą
▁malad ies
▁kh ái
▁in nym
▁giv ing
▁cz u
▁ch ứa
▁b m
ح ر
اد گی
ítet tem
z ijn
ut es
ult ate
b ouw
领 导
▁전 부
▁只 有
▁مرد می
▁ف س
▁ج وام
▁ان نا
▁الش ركات
▁בה ן
▁пре жде
▁ком по
▁đ ám
▁sust ent
▁pú blica
▁prote c
▁ol muş
▁immag inate
▁i ht
▁hay a
▁già u
▁fik r
▁estado unid
▁en di
▁del hi
▁baş k
▁b urn
ọ t
ج اب
vol le
tiv amente
ter ea
ję t
iniz e
ig a
er gie
것 은
物 質
▁ن گر
▁حما یت
▁تک امل
▁מ יו
▁с ке
▁има ло
▁г ър
▁ви ж
▁ве щ
▁über ras
▁în totdeauna
▁t ô
▁regen er
▁proz ess
▁o w
▁j et
▁fejlő dés
▁can al
▁art s
أك د
v r
興味 深い
を作 る
▁하 게
▁목 소
▁모 양
▁گ ست
▁ن قاط
▁الز من
▁כ יוון
▁ב רו
▁продъл жа
▁încep em
▁yapt ığım
▁sac co
▁ro ute
▁princip almente
▁no ve
▁midd el
▁l ạnh
▁hund reds
▁ho á
▁emberek nek
▁disser am
▁di alog
▁conseg ue
▁böl ge
▁ab rir
ال ث
די ו
p tion
owa ła
ato ire
ari am
ador as
的 工作
様 に
是 我
▁밖 에
▁我们 有
▁בע ל
▁בה ת
▁серь ё
▁отве ча
▁мисля т
▁любо в
▁împăr tă
▁zaman lar
▁strateg ie
▁say esinde
▁poz na
▁poja wi
▁manif est
▁letz te
▁las s
▁ged rag
▁di ák
▁desar roll
▁b ond
▁aliment os
▁ 米
وم ت
وق ات
ري كم
ר ס
спе кти
п ят
ä f
ow anych
nah me
is ent
能 源
られ ない
▁특별 한
▁گفت ن
▁پیشن هاد
▁م رات
▁فه و
▁خ ش
▁ث انیه
▁פ ור
▁оба че
▁не с
▁кали фор
▁забе ле
▁вселе ната
▁ü zen
▁wszech świ
▁ver halten
▁uważ am
▁tre in
▁ti ere
▁prat icamente
▁nü fus
▁mia ła
▁la issez
▁inf ant
▁hen üz
▁değiş tire
▁chcia łem
▁ağ ır
▁al ma
▁afric an
▁8 6
▁199 4
▁ ピ
ور ان
ري ف
tu ğ
to e
ise erde
al ny
abil mek
創 造
そう です
▁이 라고
▁기 다
▁가 난
▁ち ょっと
▁ر سان
▁حدا قل
▁الت أ
▁יוצ רים
▁няка къв
▁из и
▁zen gin
▁y iy
▁są dzę
▁sing ură
▁mus sten
▁mag ari
▁feel ing
▁f da
[...]
