<T> 0
<U> 0
<L> 0
▁. 0
▁, 0
en 0
▁d 0
▁a 0
er 0
▁t 0
▁c 0
▁s 0
▁p 0
▁m 0
es 0
in 0
▁n 0
an 0
▁l 0
on 0
ar 0
▁e 0
▁v 0
▁b 0
or 0
▁h 0
▁ا 0
▁i 0
▁de 0
un 0
at 0
▁w 0
ie 0
re 0
te 0
▁g 0
▁o 0
as 0
ch 0
▁" 0
os 0
▁k 0
▁f 0
al 0
qu 0
el 0
is 0
▁th 0
▁م 0
it 0
▁qu 0
le 0
am 0
▁ب 0
▁с 0
то 0
▁ال 0
▁н 0
et 0
▁in 0
ro 0
▁un 0
▁п 0
ent 0
ra 0
ng 0
om 0
▁es 0
▁в 0
us 0
▁z 0
em 0
ic 0
ol 0
il 0
▁ch 0
▁и 0
ir 0
▁ה 0
ur 0
▁j 0
▁و 0
▁đ 0
ad 0
▁y 0
im 0
▁д 0
ut 0
ра 0
▁к 0
▁r 0
▁an 0
ul 0
▁la 0
de 0
▁al 0
▁о 0
▁، 0
um 0
▁en 0
▁א 0
та 0
▁د 0
▁м 0
▁ک 0
▁que 0
▁to 0
ci 0
те 0
ak 0
ни 0
▁di 0
ва 0
но 0
ta 0
▁на 0
▁ت 0
▁ל 0
▁ه 0
▁? 0
ان 0
▁é 0
ים 0
to 0
▁ש 0
ed 0
▁מ 0
ia 0
ek 0
▁po 0
▁: 0
▁is 0
ti 0
eg 0
do 0
▁no 0
را 0
li 0
▁com 0
ли 0
ст 0
▁ma 0
▁the 0
▁по 0
▁se 0
la 0
▁tr 0
▁re 0
▁con 0
gy 0
▁) 0
▁( 0
ות 0
ре 0
ing 0
ро 0
ce 0
ست 0
на 0
ار 0
▁ב 0
▁أ 0
▁ن 0
▁ل 0
▁— 0
▁le 0
▁' 0
ig 0
▁nh 0
▁do 0
за 0
▁， 0
▁ف 0
ال 0
▁pro 0
▁ha 0
id 0
▁par 0
ter 0
ion 0
tr 0
▁el 0
ve 0
ers 0
ین 0
▁pr 0
▁б 0
ри 0
▁ч 0
are 0
го 0
iz 0
▁vo 0
ik 0
▁1 0
▁е 0
니다 0
▁na 0
ij 0
ле 0
ند 0
▁and 0
▁da 0
▁ко 0
ка 0
▁si 0
▁on 0
ere 0
ме 0
▁î 0
ко 0
▁so 0
▁est 0
▁ho 0
▁ش 0
▁не 0
▁ع 0
ente 0
ens 0
ap 0
▁за 0
نا 0
▁да 0
ها 0
▁。 0
▁we 0
▁am 0
▁می 0
ten 0
▁mo 0
▁des 0
ın 0
lar 0
00 0
sz 0
▁il 0
▁من 0
▁س 0
ون 0
▁er 0
▁în 0
▁ve 0
iv 0
ما 0
▁die 0
▁be 0
▁ו 0
▁as 0
▁me 0
▁ne 0
▁در 0
▁kh 0
ão 0
▁et 0
da 0
во 0
▁sa 0
▁az 0
den 0
▁то 0
▁که 0
▁te 0
az 0
▁of 0
▁per 0
ти 0
▁st 0
ou 0
ine 0
ла 0
ло 0
ac 0
di 0
▁ver 0
▁ng 0
▁su 0
▁um 0
ze 0
▁כ 0
ве 0
▁خ 0
ok 0
ess 0
ier 0
де 0
▁به 0
да 0
▁và 0
▁là 0
ant 0
ich 0
▁bir 0
ma 0
▁그 0
▁ي 0
est 0
▁ac 0
▁ка 0
не 0
נו 0
▁آ 0
▁ك 0
ди 0
▁ע 0
og 0
▁je 0
ab 0
▁ح 0
▁ş 0
ма 0
st 0
▁bu 0
der 0
▁این 0
▁‌ 0
▁от 0
zy 0
ôi 0
ید 0
ть 0
▁2 0
▁sp 0
nh 0
▁ar 0
▁und 0
▁gi 0
▁ap 0
▁се 0
ien 0
ود 0
ви 0
▁che 0
▁u 0
▁이 0
▁van 0
же 0
ow 0
▁het 0
▁э 0
ני 0
ny 0
▁а 0
▁ex 0
ne 0
اد 0
ور 0
▁tôi 0
▁ge 0
▁nie 0
▁في 0
▁ج 0
▁י 0
▁das 0
یم 0
▁ph 0
▁мо 0
▁ر 0
and 0
ver 0
▁ab 0
▁ce 0
▁у 0
▁em 0
ки 0
▁au 0
ge 0
me 0
▁cu 0
se 0
▁را 0
▁lo 0
▁ی 0
du 0
ni 0
▁ра 0
ль 0
ات 0
▁co 0
▁een 0
▁pe 0
▁של 0
ben 0
io 0
▁im 0
▁ç 0
▁sz 0
ás 0
▁or 0
ler 0
че 0
▁ra 0
lo 0
▁про 0
▁ein 0
ate 0
ay 0
▁por 0
va 0
▁الم 0
▁ol 0
▁با 0
▁son 0
▁that 0
gen 0
▁có 0
ול 0
▁del 0
▁for 0
▁he 0
ru 0
ông 0
ية 0
▁ق 0
ام 0
▁از 0
▁mu 0
ál 0
▁있 0
bi 0
▁és 0
▁les 0
▁ما 0
ans 0
▁dat 0
습니다 0
ור 0
ün 0
ны 0
▁una 0
▁it 0
ول 0
ando 0
رد 0
ми 0
▁nu 0
ên 0
▁să 0
yor 0
dz 0
▁op 0
▁את 0
ist 0
وا 0
זה 0
です 0
▁para 0
▁fa 0
ột 0
▁egy 0
ot 0
▁lu 0
ér 0
▁wh 0
ang 0
▁ro 0
▁из 0
▁à 0
▁chú 0
be 0
és 0
▁sie 0
▁một 0
tre 0
▁до 0
ци 0
▁что 0
▁ta 0
▁پ 0
tu 0
▁der 0
▁т 0
▁че 0
▁ent 0
▁та 0
ber 0
▁was 0
end 0
▁min 0
au 0
▁我 0
га 0
ای 0
▁- 0
▁comp 0
ica 0
▁wir 0
▁cá 0
▁چ 0
que 0
▁ik 0
▁chúng 0
▁♫ 0
▁است 0
ii 0
ين 0
▁pu 0
tem 0
мо 0
ec 0
so 0
▁это 0
ân 0
▁pas 0
▁أن 0
▁pl 0
ру 0
át 0
ся 0
ذا 0
ons 0
ca 0
▁hogy 0
▁è 0
ời 0
ort 0
▁ich 0
ost 0
▁nó 0
▁at 0
ale 0
ля 0
▁mi 0
ly 0
no 0
ele 0
▁you 0
▁я 0
ri 0
ית 0
che 0
▁те 0
ff 0
po 0
ön 0
▁du 0
▁man 0
ag 0
▁إ 0
len 0
した 0
▁vi 0
▁.. 0
ong 0
án 0
зи 0
▁کن 0
لا 0
لى 0
za 0
ше 0
per 0
хо 0
amos 0
ation 0
▁ist 0
ます 0
ững 0
▁го 0
чи 0
▁но 0
ще 0
▁вс 0
▁ter 0
▁ze 0
▁những 0
he 0
▁пре 0
▁ez 0
na 0
▁inter 0
▁ș 0
▁것 0
ới 0
▁това 0
רו 0
▁ח 0
ble 0
amo 0
pr 0
по 0
▁tra 0
hr 0
▁ques 0
ha 0
ud 0
لك 0
ung 0
ire 0
ör 0
ég 0
▁ca 0
▁г 0
▁gr 0
▁گ 0
▁av 0
ür 0
▁sch 0
ón 0
бо 0
ici 0
▁آن 0
▁הי 0
▁củ 0
ind 0
▁của 0
▁mon 0
ijn 0
▁eu 0
▁zu 0
iế 0
▁się 0
▁meg 0
▁ز 0
co 0
▁ان 0
for 0
▁3 0
ất 0
ato 0
▁că 0
ние 0
▁pre 0
ния 0
mi 0
▁при 0
ча 0
▁са 0
▁go 0
▁الت 0
▁den 0
ado 0
هم 0
ven 0
▁사 0
nie 0
nen 0
▁une 0
וד 0
▁nous 0
▁mil 0
▁هم 0
pl 0
▁об 0
▁לה 0
▁ad 0
ke 0
ير 0
▁met 0
▁không 0
▁x 0
▁fo 0
▁şi 0
si 0
▁یک 0
▁з 0
▁как 0
▁الأ 0
ár 0
ım 0
ạn 0
てい 0
ül 0
▁ż 0
▁este 0
▁los 0
▁non 0
ba 0
▁și 0
ell 0
uk 0
▁cre 0
▁care 0
сти 0
je 0
ada 0
жи 0
▁dis 0
▁לא 0
▁... 0
▁us 0
▁раз 0
تر 0
▁де 0
▁си 0
▁ви 0
▁ме 0
ười 0
▁nos 0
ken 0
▁ser 0
ów 0
con 0
cz 0
od 0
до 0
▁din 0
בר 0
▁qui 0
▁nà 0
chen 0
▁gen 0
▁ми 0
én 0
ük 0
▁wie 0
▁זה 0
icht 0
▁pers 0
▁во 0
▁vol 0
vo 0
▁đi 0
▁đó 0
ượ 0
сто 0
tt 0
▁수 0
ui 0
emos 0
ều 0
▁như 0
▁ob 0
فت 0
ego 0
ki 0
ban 0
mo 0
ast 0
op 0
▁رو 0
▁המ 0
▁cos 0
اب 0
go 0
ese 0
ante 0
unk 0
amente 0
▁this 0
ano 0
תי 0
▁우 0
cia 0
▁va 0
wa 0
ento 0
▁all 0
ade 0
ър 0
▁bạn 0
▁als 0
tel 0
▁아 0
▁pour 0
▁vous 0
olog 0
▁como 0
يد 0
ard 0
▁ba 0
▁mais 0
▁со 0
ста 0
▁uma 0
לי 0
▁мы 0
iss 0
▁imp 0
רי 0
די 0
ją 0
ía 0
mente 0
ık 0
ho 0
ult 0
▁não 0
ite 0
كن 0
▁하 0
cie 0
▁נ 0
ız 0
ет 0
zi 0
يا 0
▁pos 0
▁người 0
▁бы 0
bil 0
▁wy 0
▁こ 0
▁nem 0
▁don 0
ги 0
▁mai 0
ile 0
▁ни 0
▁real 0
▁ci 0
입니다 0
ito 0
▁sol 0
▁by 0
men 0
▁съ 0
ment 0
ja 0
لی 0
▁las 0
ione 0
▁הא 0
וא 0
▁af 0
▁pi 0
▁trong 0
یر 0
▁ele 0
▁ben 0
cht 0
▁dan 0
ại 0
ır 0
лу 0
לו 0
▁そ 0
▁gel 0
▁om 0
▁ת 0
ini 0
tó 0
▁tem 0
▁вы 0
uy 0
▁برا 0
ıl 0
▁우리 0
▁li 0
▁wer 0
▁mar 0
▁على 0
ka 0
▁res 0
▁ק 0
▁cons 0
▁! 0
ug 0
▁dar 0
000 0
лю 0
▁5 0
וב 0
ora 0
▁cho 0
▁ص 0
си 0
▁کرد 0
ore 0
▁ins 0
ят 0
we 0
لي 0
ши 0
ép 0
▁dans 0
ました 0
ces 0
▁app 0
▁ü 0
▁ö 0
ip 0
▁؟ 0
こと 0
▁بود 0
th 0
נה 0
▁họ 0
شت 0
وم 0
fer 0
▁że 0
ati 0
▁ма 0
▁thể 0
ного 0
ış 0
▁can 0
وان 0
bl 0
ali 0
ym 0
tro 0
ược 0
▁פ 0
unt 0
cu 0
▁wor 0
▁这 0
ond 0
▁mas 0
ág 0
▁가 0
▁ki 0
ft 0
res 0
▁ten 0
це 0
رو 0
▁voc 0
ina 0
▁era 0
▁مع 0
▁може 0
▁này 0
▁4 0
▁ط 0
ico 0
▁מה 0
bre 0
ры 0
▁her 0
und 0
▁ai 0
▁mit 0
▁ngh 0
aar 0
▁các 0
ăm 0
▁20 0
▁você 0
▁được 0
▁person 0
cer 0
▁ре 0
ys 0
▁ris 0
에서 0
ري 0
▁đã 0
▁zijn 0
lich 0
ünk 0
▁aut 0
ây 0
▁ave 0
قد 0
▁fel 0
ду 0
▁pens 0
▁الع 0
ct 0
ذه 0
zt 0
▁von 0
що 0
▁voor 0
▁19 0
ده 0
▁car 0
▁os 0
ey 0
▁על 0
му 0
wo 0
▁war 0
urs 0
▁ф 0
מו 0
▁tak 0
ря 0
uz 0
▁pent 0
▁بال 0
▁are 0
▁iç 0
▁más 0
▁som 0
pe 0
nak 0
▁ר 0
ți 0
▁jest 0
▁برای 0
ня 0
▁pentru 0
ill 0
שה 0
ht 0
▁pod 0
▁ג 0
este 0
ice 0
bb 0
▁دار 0
▁come 0
▁cam 0
▁хо 0
па 0
▁ess 0
יו 0
▁niet 0
حد 0
▁esta 0
▁; 0
▁proble 0
▁quel 0
ko 0
▁ger 0
vel 0
él 0
ção 0
ach 0
▁ak 0
▁bo 0
▁ها 0
▁kö 0
בי 0
ít 0
▁ag 0
▁dit 0
▁저 0
▁10 0
▁với 0
со 0
▁kon 0
ност 0
ción 0
عد 0
iệ 0
▁% 0
ấy 0
▁nicht 0
▁ide 0
ری 0
▁sur 0
ck 0
ình 0
▁jak 0
으로 0
▁cer 0
▁های 0
▁제 0
יה 0
ata 0
▁бе 0
מה 0
br 0
▁？ 0
ем 0
ło 0
יות 0
my 0
▁they 0
▁שה 0
art 0
pre 0
▁prim 0
щи 0
ák 0
ща 0
عل 0
▁여 0
ét 0
esso 0
▁bun 0
سی 0
▁бо 0
tion 0
ól 0
all 0
ych 0
▁وال 0
▁、 0
یز 0
▁tu 0
▁ин 0
сь 0
▁eine 0
לה 0
▁od 0
▁هذا 0
tra 0
我们 0
▁yap 0
قت 0
▁hay 0
▁ou 0
خت 0
▁sem 0
iel 0
▁aus 0
▁我们 0
wi 0
▁ti 0
して 0
سا 0
ani 0
▁auf 0
▁sự 0
▁tre 0
мен 0
жа 0
נים 0
ţi 0
▁ве 0
▁dass 0
▁fr 0
▁שא 0
▁sc 0
ần 0
би 0
▁все 0
zen 0
vol 0
ذلك 0
▁mens 0
▁pol 0
пе 0
nek 0
▁보 0
רא 0
ori 0
▁وا 0
▁için 0
▁ва 0
یش 0
▁vor 0
▁има 0
▁لل 0
ami 0
use 0
اه 0
пи 0
▁dem 0
▁대 0
gi 0
▁بر 0
ith 0
ust 0
gr 0
▁sono 0
▁br 0
▁col 0
▁sim 0
▁fi 0
▁wat 0
ła 0
▁ס 0
▁ד 0
ải 0
▁” 0
一个 0
▁któ 0
vi 0
ác 0
שים 0
▁nas 0
că 0
های 0
▁cor 0
ue 0
▁làm 0
دا 0
ement 0
▁pa 0
▁ind 0
▁ke 0
▁hat 0
ха 0
בל 0
▁vers 0
▁ú 0
▁but 0
▁bi 0
する 0
ска 0
▁tut 0
▁ở 0
▁val 0
form 0
tru 0
let 0
▁mat 0
▁gro 0
▁צ 0
מי 0
▁دا 0
▁mà 0
▁« 0
era 0
ון 0
pp 0
▁كان 0
▁my 0
▁med 0
ство 0
esz 0
▁bil 0
▁кото 0
▁» 0
▁ст 0
ya 0
▁dol 0
ку 0
▁cs 0
▁vis 0
▁fin 0
ord 0
sen 0
▁ok 0
▁over 0
eren 0
▁الح 0
▁fe 0
▁لا 0
▁dies 0
ски 0
▁nel 0
כל 0
▁다 0
▁어 0
ют 0
ye 0
ında 0
▁ś 0
ığ 0
▁uns 0
▁mer 0
▁אח 0
פי 0
▁để 0
▁או 0
گر 0
▁tam 0
▁have 0
dzie 0
▁plus 0
dy 0
enti 0
▁gra 0
int 0
ana 0
חי 0
▁هست 0
▁leg 0
enn 0
▁tro 0
から 0
▁וה 0
▁điều 0
مل 0
gan 0
▁part 0
ux 0
ék 0
▁alg 0
ijk 0
▁много 0
▁cả 0
▁kan 0
▁ли 0
합니다 0
▁maar 0
▁ale 0
ont 0
들이 0
fic 0
▁what 0
▁dü 0
▁out 0
▁ז 0
ita 0
▁6 0
ely 0
▁וא 0
▁би 0
▁cel 0
cr 0
рави 0
のです 0
cion 0
eri 0
▁with 0
▁kom 0
وب 0
▁khi 0
ett 0
▁지 0
▁zo 0
ằng 0
▁nhi 0
▁کار 0
ész 0
▁зна 0
▁cap 0
▁dé 0
eden 0
▁sẽ 0
▁faz 0
▁jo 0
▁모 0
قع 0
ose 0
rom 0
▁жи 0
ların 0
▁alle 0
▁الب 0
می 0
ну 0
sa 0
ând 0
▁not 0
zel 0
▁tan 0
▁sta 0
▁пе 0
ực 0
jo 0
▁私 0
▁） 0
▁về 0
וק 0
lam 0
ści 0
った 0
רים 0
ту 0
▁일 0
▁heb 0
bo 0
▁questo 0
▁（ 0
▁wo 0
hen 0
مان 0
ink 0
▁אי 0
▁ya 0
▁ni 0
▁אנ 0
▁mus 0
ơn 0
са 0
mer 0
▁말 0
שי 0
dan 0
ống 0
ните 0
נות 0
▁fac 0
lu 0
▁nat 0
▁mes 0
از 0
бе 0
sch 0
ật 0
uld 0
نت 0
▁thế 0
nolog 0
▁عن 0
▁생 0
жно 0
▁cas 0
리고 0
▁dur 0
ida 0
ea 0
하는 0
ure 0
czy 0
▁fil 0
▁aan 0
сле 0
mag 0
כול 0
▁ont 0
▁sin 0
▁cz 0
▁هذه 0
idad 0
▁מא 0
رب 0
ıyor 0
wie 0
pa 0
▁inc 0
▁está 0
ette 0
▁אני 0
ili 0
▁bar 0
zie 0
▁bel 0
ám 0
▁مت 0
▁дру 0
нь 0
▁“ 0
зо 0
▁въ 0
alar 0
▁شما 0
ầu 0
ute 0
▁시 0
amen 0
▁בא 0
her 0
vers 0
وع 0
▁var 0
رت 0
▁있습니다 0
▁ста 0
▁بد 0
▁사람 0
عت 0
mes 0
▁tim 0
one 0
▁sich 0
▁pra 0
▁cr 0
▁기 0
▁quando 0
ły 0
▁wi 0
▁çok 0
kt 0
lan 0
uri 0
▁200 0
ето 0
رف 0
▁za 0
▁reg 0
▁هو 0
יי 0
жда 0
▁tal 0
▁hier 0
ướ 0
▁isso 0
▁str 0
▁ще 0
▁הוא 0
▁ih 0
▁men 0
▁sau 0
▁па 0
قا 0
▁ges 0
▁ja 0
ско 0
あり 0
ăr 0
▁전 0
وج 0
ins 0
▁mag 0
قة 0
ane 0
cy 0
▁למ 0
▁oldu 0
سب 0
って 0
▁자 0
▁ня 0
att 0
▁aqu 0
▁has 0
ết 0
pt 0
▁ut 0
ない 0
cul 0
ono 0
▁تا 0
他们 0
▁più 0
ları 0
▁그리고 0
bu 0
▁mod 0
▁или 0
yle 0
▁غ 0
اده 0
tiv 0
out 0
وی 0
▁przy 0
▁pero 0
ша 0
▁từ 0
بر 0
مكن 0
kel 0
ến 0
ành 0
ados 0
се 0
ях 0
חנו 0
pi 0
▁şey 0
مي 0
ren 0
ku 0
ect 0
▁qual 0
▁bas 0
▁far 0
▁tod 0
▁정 0
▁만 0
olo 0
▁chi 0
ната 0
▁nhưng 0
▁import 0
▁пред 0
▁dire 0
▁sind 0
▁sunt 0
ني 0
▁had 0
▁uit 0
ém 0
▁9 0
▁biz 0
iste 0
▁đây 0
▁כל 0
iment 0
دي 0
▁있는 0
▁yo 0
▁ko 0
▁ای 0
בה 0
▁dec 0
les 0
▁gran 0
▁waar 0
ingen 0
▁tech 0
رة 0
▁ле 0
▁چیز 0
▁7 0
tek 0
▁about 0
كل 0
ity 0
сте 0
ée 0
łem 0
дно 0
よう 0
▁there 0
ито 0
▁quan 0
cho 0
▁ace 0
ום 0
▁değ 0
▁aber 0
ată 0
iem 0
들은 0
▁нап 0
▁id 0
▁mol 0
ség 0
лко 0
ват 0
▁mom 0
▁mun 0
ry 0
▁же 0
by 0
▁azt 0
قي 0
▁8 0
قط 0
▁так 0
▁אות 0
▁הת 0
mas 0
▁produ 0
ől 0
▁volt 0
iết 0
▁лю 0
▁¿ 0
▁ön 0
üm 0
▁които 0
▁إلى 0
гда 0
▁cl 0
▁appla 0
▁tot 0
fe 0
▁شد 0
فا 0
ple 0
abil 0
▁ils 0
сли 0
cs 0
ты 0
чно 0
▁sobre 0
tri 0
▁בע 0
שר 0
▁التي 0
ores 0
▁asta 0
▁mak 0
▁esto 0
▁ah 0
▁moż 0
▁אבל 0
کن 0
ény 0
▁مث 0
▁sor 0
▁במ 0
dzi 0
ise 0
arte 0
حت 0
▁für 0
גי 0
▁éta 0
vet 0
▁때 0
ức 0
ero 0
با 0
▁trans 0
ính 0
▁ty 0
elle 0
▁prze 0
▁sig 0
▁אז 0
oc 0
▁đến 0
▁hum 0
ている 0
iti 0
▁bes 0
▁daha 0
▁рабо 0
ные 0
▁ذلك 0
▁baş 0
یست 0
cial 0
טי 0
▁nói 0
▁като 0
▁haben 0
▁num 0
mek 0
▁هنا 0
▁الذ 0
▁לע 0
▁الس 0
▁「 0
▁كل 0
▁」 0
eld 0
▁– 0
▁also 0
كم 0
▁phải 0
ari 0
iyor 0
▁então 0
یا 0
▁parte 0
▁việ 0
tig 0
ner 0
▁така 0
ופ 0
▁cont 0
▁они 0
śmy 0
▁porque 0
▁câ 0
ara 0
▁الج 0
mak 0
ama 0
ors 0
ány 0
▁gö 0
▁seg 0
het 0
▁one 0
ji 0
ước 0
▁باش 0
oro 0
inde 0
ция 0
ità 0
ませ 0
▁което 0
סי 0
ומ 0
leg 0
сть 0
خر 0
▁art 0
지만 0
tet 0
endo 0
şt 0
рав 0
ala 0
▁cent 0
▁под 0
vent 0
▁ed 0
ません 0
▁tud 0
▁wenn 0
igen 0
▁הע 0
ika 0
▁dos 0
▁vào 0
vez 0
▁gu 0
▁độ 0
▁diff 0
▁deze 0
lt 0
רה 0
▁مو 0
льно 0
ps 0
▁او 0
▁vie 0
▁تر 0
أن 0
▁kön 0
▁nagy 0
▁đang 0
ối 0
▁الن 0
▁나 0
▁hi 0
ike 0
ść 0
ных 0
гра 0
ère 0
كون 0
▁저는 0
▁mul 0
▁vagy 0
▁15 0
anie 0
▁יכול 0
گی 0
▁сме 0
▁你 0
ườ 0
дин 0
lik 0
ient 0
▁wel 0
▁pla 0
net 0
àn 0
▁della 0
▁않 0
▁sh 0
ès 0
ства 0
▁ted 0
▁הש 0
▁vì 0
▁تص 0
▁now 0
ight 0
man 0
▁この 0
▁ir 0
üz 0
▁tin 0
ativ 0
cent 0
▁kar 0
یت 0
▁ka 0
iniz 0
ally 0
يل 0
では 0
yn 0
ươ 0
▁việc 0
▁nós 0
val 0
▁jed 0
▁han 0
ています 0
▁30 0
yan 0
כם 0
▁ga 0
▁dr 0
ву 0
▁mis 0
▁sont 0
ões 0
ường 0
▁lat 0
bie 0
▁ча 0
▁prz 0
ige 0
▁́ 0
up 0
вы 0
▁ass 0
▁organ 0
▁’ 0
▁plan 0
▁avec 0
▁которы 0
ivers 0
ба 0
▁خوا 0
▁آنها 0
fi 0
hat 0
▁thấy 0
مر 0
▁但 0
جا 0
▁مش 0
pos 0
mal 0
▁100 0
▁יש 0
▁gì 0
בו 0
ותר 0
▁اما 0
une 0
▁dev 0
oi 0
тел 0
wer 0
▁خود 0
ận 0
▁ט 0
▁ener 0
ını 0
ор 0
ça 0
▁ré 0
كث 0
▁rằng 0
imiz 0
ua 0
сно 0
▁gör 0
про 0
ioni 0
▁х 0
▁inf 0
нно 0
ass 0
▁50 0
▁حال 0
▁הם 0
бы 0
▁if 0
pen 0
▁rất 0
▁これ 0
اری 0
▁mal 0
اره 0
▁لم 0
▁über 0
عة 0
▁hơn 0
▁lại 0
bal 0
стве 0
▁bra 0
▁beg 0
ję 0
שו 0
▁diese 0
ין 0
▁ces 0
▁get 0
▁pou 0
entes 0
▁nhiều 0
▁kun 0
▁new 0
▁bien 0
▁fait 0
▁само 0
ople 0
ản 0
▁amer 0
now 0
▁لي 0
하고 0
▁prin 0
▁для 0
▁pass 0
▁在 0
ului 0
▁ça 0
ът 0
ste 0
lij 0
▁people 0
▁imag 0
▁nghĩ 0
رات 0
té 0
зна 0
▁tout 0
зва 0
ité 0
lie 0
tes 0
col 0
▁שי 0
дна 0
قی 0
ある 0
ùng 0
▁cách 0
▁tiế 0
▁위 0
▁여러 0
انی 0
▁ér 0
▁الش 0
▁يمكن 0
▁ده 0
었습니다 0
▁ام 0
▁har 0
▁вре 0
▁bü 0
gel 0
ъл 0
▁бу 0
▁hebben 0
▁ven 0
▁fun 0
ld 0
itt 0
▁한 0
▁הח 0
▁стра 0
▁naar 0
yen 0
biamo 0
▁יותר 0
lı 0
که 0
zer 0
ór 0
▁wię 0
▁like 0
▁دی 0
▁מת 0
▁עם 0
▁hij 0
ania 0
sp 0
▁הר 0
ché 0
ょう 0
▁сво 0
ца 0
leri 0
bor 0
▁داشت 0
▁đầu 0
▁وه 0
خص 0
▁قد 0
▁توان 0
سم 0
▁ur 0
gli 0
▁[ 0
▁progr 0
▁vez 0
вать 0
▁olduğ 0
▁sal 0
▁entre 0
▁] 0
نده 0
▁없 0
ket 0
▁کنیم 0
▁רו 0
▁： 0
tor 0
وس 0
▁mundo 0
ura 0
▁바 0
とい 0
▁الإ 0
▁он 0
▁یا 0
▁prof 0
وت 0
▁inform 0
▁우리는 0
▁سال 0
▁생각 0
▁الا 0
▁fol 0
しょう 0
מש 0
▁eles 0
ei 0
ài 0
owa 0
▁מס 0
▁pesso 0
zn 0
▁công 0
וג 0
▁بعد 0
▁vă 0
▁just 0
ty 0
▁מש 0
▁מע 0
▁인 0
▁mijn 0
▁chỉ 0
▁cum 0
▁proj 0
可以 0
▁from 0
▁kr 0
imi 0
▁czy 0
لة 0
ậy 0
צי 0
juk 0
▁og 0
▁zam 0
▁ض 0
ros 0
▁מי 0
▁לי 0
في 0
ves 0
▁thực 0
たち 0
mos 0
ische 0
▁pres 0
▁хора 0
▁ис 0
▁مح 0
▁insan 0
▁mor 0
gar 0
ance 0
szy 0
וח 0
ph 0
▁trên 0
▁dei 0
▁وج 0
âm 0
▁muito 0
ич 0
▁ember 0
ện 0
ula 0
ương 0
▁bet 0
▁היא 0
min 0
ضا 0
ورد 0
▁ث 0
▁rec 0
ques 0
▁mint 0
וש 0
▁comme 0
▁cette 0
▁cosa 0
לא 0
کر 0
했습니다 0
▁fam 0
zz 0
でき 0
szer 0
▁our 0
▁face 0
cha 0
able 0
▁ste 0
▁اون 0
▁ama 0
▁univers 0
sze 0
esc 0
▁todos 0
мы 0
wn 0
нт 0
▁الص 0
▁roz 0
ela 0
▁most 0
imos 0
ras 0
▁hal 0
▁cal 0
▁세 0
pu 0
ugh 0
▁сле 0
▁né 0
eten 0
▁여러분 0
▁더 0
ổi 0
cis 0
▁هر 0
▁بع 0
ino 0
ята 0
صل 0
ima 0
▁hist 0
fa 0
гу 0
об 0
▁vậy 0
yi 0
들을 0
aki 0
▁중 0
▁exper 0
ốn 0
▁واقع 0
▁fost 0
▁всич 0
▁тези 0
▁difer 0
ọi 0
▁الق 0
ظر 0
ъде 0
par 0
▁khác 0
ser 0
nych 0
▁há 0
다는 0
ạo 0
▁̀ 0
פר 0
ért 0
يف 0
▁así 0
▁học 0
idade 0
에게 0
▁í 0
ger 0
▁nor 0
ръ 0
▁제가 0
eket 0
انه 0
cep 0
には 0
▁noi 0
מת 0
ền 0
▁wil 0
ный 0
という 0
azione 0
▁وقت 0
ions 0
▁mensen 0
▁слу 0
▁це 0
ке 0
▁것이 0
▁uno 0
▁الط 0
▁são 0
▁dacă 0
▁mie 0
ign 0
ếu 0
ings 0
بت 0
cid 0
▁questa 0
▁kin 0
▁solo 0
almente 0
▁kad 0
каза 0
mel 0
▁دو 0
▁fra 0
▁أو 0
▁milli 0
世界 0
bra 0
▁それ 0
▁these 0
בים 0
▁hom 0
кти 0
ées 0
cut 0
▁إن 0
▁되 0
▁해 0
▁algo 0
▁them 0
▁mé 0
▁up 0
▁năm 0
▁when 0
▁شده 0
▁فقط 0
ется 0
فس 0
iş 0
▁خی 0
▁door 0
▁кой 0
ilor 0
▁gy 0
▁chuy 0
ży 0
lat 0
être 0
▁todo 0
▁abbiamo 0
ame 0
▁ако 0
хме 0
▁אנחנו 0
▁oc 0
▁i̇ 0
itate 0
uw 0
▁거 0
ase 0
egen 0
oria 0
ars 0
يم 0
▁his 0
▁един 0
▁ál 0
▁biết 0
bt 0
▁היה 0
▁vra 0
▁если 0
▁cái 0
ted 0
بل 0
▁му 0
area 0
▁боль 0
▁know 0
ции 0
diğ 0
▁są 0
▁الخ 0
iler 0
▁ye 0
▁مج 0
▁الف 0
isch 0
▁était 0
unu 0
لم 0
▁ро 0
uş 0
▁kor 0
▁هي 0
▁werden 0
▁tien 0
▁tek 0
▁düş 0
lig 0
▁مد 0
▁pat 0
ăng 0
▁bij 0
▁笑 0
▁эти 0
▁avons 0
▁thứ 0
▁・ 0
лько 0
▁nào 0
▁problem 0
àng 0
تم 0
ơi 0
▁hoe 0
▁когда 0
▁int 0
▁faire 0
▁ami 0
▁نمی 0
▁viv 0
als 0
ales 0
sel 0
ony 0
▁אם 0
رس 0
▁همه 0
▁gibi 0
▁who 0
conom 0
▁الآ 0
ایی 0
fr 0
▁spe 0
ular 0
ños 0
ule 0
▁let 0
▁hiệ 0
зда 0
כו 0
▁مثل 0
hal 0
にな 0
ille 0
تی 0
▁fu 0
▁cũ 0
anh 0
▁kap 0
▁sus 0
گاه 0
ires 0
▁нас 0
bilir 0
▁pessoas 0
get 0
צא 0
▁لكن 0
▁perché 0
לים 0
▁kunnen 0
las 0
iten 0
بي 0
▁защо 0
▁ig 0
され 0
▁thu 0
▁알 0
ולם 0
▁ду 0
▁سا 0
▁exp 0
▁einen 0
larak 0
▁gru 0
שות 0
▁تع 0
ване 0
▁beca 0
wor 0
▁oamen 0
▁afr 0
▁ang 0
▁vide 0
▁szer 0
▁think 0
▁because 0
דים 0
▁dom 0
pres 0
eni 0
▁کنم 0
dig 0
רות 0
▁우리가 0
▁주 0
ede 0
▁olarak 0
▁pot 0
▁cois 0
▁sk 0
esta 0
▁ev 0
ód 0
قل 0
▁هناك 0
▁când 0
קה 0
чески 0
▁sul 0
ence 0
ды 0
▁thành 0
▁прави 0
öyle 0
▁köz 0
▁ولك 0
inden 0
ick 0
▁것입니다 0
▁dal 0
▁much 0
▁چه 0
적인 0
▁tö 0
▁rob 0
▁الذي 0
ển 0
▁form 0
من 0
bile 0
los 0
ament 0
▁nếu 0
tura 0
▁verd 0
▁̣ 0
atie 0
ieren 0
бва 0
▁sens 0
öz 0
▁이것 0
▁können 0
▁علي 0
▁dav 0
▁acc 0
▁тря 0
▁apla 0
もの 0
▁който 0
логи 0
ják 0
▁کنند 0
▁ri 0
hn 0
▁после 0
▁cũng 0
ắt 0
▁اند 0
▁ever 0
▁donc 0
▁♪ 0
än 0
كان 0
▁부 0
▁ди 0
יתי 0
▁internet 0
▁кога 0
דר 0
دم 0
raf 0
▁hab 0
ică 0
▁гово 0
▁zaman 0
▁pet 0
ться 0
isi 0
▁gli 0
بد 0
▁á 0
esse 0
вер 0
בע 0
▁how 0
▁possi 0
▁무 0
▁بش 0
▁ну 0
зы 0
▁трябва 0
ied 0
▁чтобы 0
▁خیلی 0
▁dus 0
▁bem 0
zą 0
▁grande 0
ga 0
מר 0
▁mult 0
▁הז 0
ts 0
ista 0
amy 0
▁foto 0
▁acest 0
▁тази 0
جام 0
דה 0
▁ay 0
▁some 0
▁sent 0
▁ara 0
iến 0
▁very 0
▁comput 0
ază 0
iter 0
itu 0
aliz 0
ברים 0
▁muy 0
▁많 0
▁aş 0
▁nhà 0
▁تما 0
adas 0
▁마 0
▁nach 0
وز 0
▁iş 0
▁40 0
▁когато 0
▁oder 0
ائ 0
▁arr 0
لف 0
ank 0
ımız 0
▁dụ 0
▁comun 0
ider 0
یه 0
어요 0
ations 0
▁ons 0
pra 0
▁ولكن 0
▁lum 0
▁تن 0
▁değil 0
▁olan 0
でしょう 0
una 0
inin 0
its 0
▁просто 0
▁które 0
ób 0
▁bak 0
라고 0
osa 0
▁moment 0
elen 0
▁مرد 0
ộc 0
▁اگر 0
▁vocês 0
zu 0
▁أي 0
ناس 0
رك 0
▁eso 0
ıs 0
нима 0
▁energ 0
heid 0
cre 0
▁tym 0
▁esp 0
emy 0
でも 0
▁vál 0
▁applaus 0
شان 0
▁gente 0
▁בה 0
▁12 0
▁util 0
áng 0
▁而 0
▁כא 0
▁aj 0
▁want 0
▁gre 0
ğer 0
ott 0
▁ru 0
land 0
kor 0
כי 0
зу 0
▁bị 0
istem 0
طور 0
▁vil 0
▁най 0
الم 0
这个 0
▁кон 0
▁의 0
▁aceste 0
çek 0
стви 0
кт 0
سي 0
ets 0
▁оче 0
نگ 0
▁số 0
▁molto 0
▁спо 0
▁super 0
ís 0
▁forma 0
מים 0
су 0
▁gü 0
就是 0
▁má 0
ходи 0
▁anh 0
▁sein 0
esi 0
▁mich 0
ában 0
▁glo 0
▁dla 0
▁eff 0
עים 0
▁لدي 0
▁pon 0
▁minden 0
▁technolog 0
▁няко 0
▁lát 0
pro 0
ونه 0
▁more 0
ört 0
▁alla 0
elf 0
edi 0
▁csak 0
▁су 0
▁18 0
▁sua 0
▁عند 0
вър 0
▁تش 0
▁ком 0
▁hacer 0
▁zou 0
▁هستند 0
▁לח 0
▁הק 0
▁kle 0
hren 0
▁ő 0
▁ola 0
uto 0
▁چیزی 0
▁inst 0
vor 0
فر 0
jąc 0
▁ту 0
▁کنید 0
نی 0
▁방 0
▁その 0
▁سر 0
ats 0
▁فر 0
▁resp 0
▁לש 0
▁program 0
▁contin 0
تي 0
▁nên 0
▁mir 0
змо 0
▁иска 0
▁نح 0
▁see 0
мер 0
úc 0
▁actu 0
وق 0
▁going 0
▁فکر 0
▁él 0
▁çal 0
▁via 0
▁chính 0
ấn 0
▁ezt 0
cou 0
▁foarte 0
kal 0
▁сто 0
什么 0
▁انجام 0
▁gia 0
▁nun 0
▁realmente 0
▁този 0
▁годи 0
вя 0
rei 0
▁pom 0
▁loc 0
▁cuando 0
▁그래 0
▁خواه 0
tam 0
▁상 0
▁inv 0
▁fog 0
▁zw 0
▁الك 0
bar 0
▁fat 0
ập 0
▁alt 0
▁같 0
ồi 0
ât 0
ına 0
▁film 0
את 0
▁הזה 0
var 0
▁тех 0
kie 0
▁بیش 0
▁stu 0
ez 0
chte 0
▁инте 0
amento 0
▁amik 0
jd 0
▁büy 0
ungen 0
нии 0
▁suc 0
ită 0
▁их 0
▁它 0
▁那 0
▁bl 0
▁sub 0
▁ju 0
▁san 0
▁sen 0
kez 0
כים 0
▁تح 0
▁elle 0
▁econom 0
ną 0
▁tel 0
▁пла 0
▁say 0
▁‎ 0
נית 0
ines 0
▁acum 0
▁ку 0
por 0
▁fir 0
▁پس 0
▁다른 0
ởi 0
▁دست 0
▁kul 0
▁delle 0
rij 0
▁muốn 0
пре 0
דע 0
ете 0
met 0
▁wa 0
▁nhất 0
▁ao 0
uro 0
▁vir 0
dern 0
▁обра 0
▁آم 0
▁полу 0
▁беше 0
▁world 0
▁所 0
اص 0
▁siz 0
▁비 0
▁שמ 0
▁gerçek 0
▁داد 0
▁will 0
imo 0
▁tele 0
▁오 0
▁foi 0
▁שלי 0
▁model 0
▁voi 0
iden 0
icos 0
▁하지만 0
cess 0
▁他们 0
ert 0
▁qué 0
▁vida 0
וי 0
▁dzie 0
▁אתם 0
▁ook 0
▁一 0
طي 0
▁would 0
▁сре 0
▁mos 0
▁할 0
▁因 0
▁só 0
▁kann 0
▁공 0
▁tec 0
كثر 0
ív 0
▁실 0
▁még 0
▁他 0
▁fazer 0
▁despre 0
▁اف 0
▁doen 0
▁gem 0
бле 0
тому 0
▁andere 0
▁سو 0
▁tor 0
▁auch 0
زر 0
▁пере 0
▁време 0
▁ба 0
niej 0
▁động 0
ữa 0
ято 0
▁הג 0
▁کند 0
imento 0
▁lui 0
lus 0
▁très 0
▁pun 0
▁polit 0
iert 0
öl 0
▁כמו 0
▁도 0
یده 0
▁così 0
zo 0
antes 0
▁çalış 0
▁чу 0
▁sok 0
▁ken 0
▁све 0
▁teh 0
▁peut 0
50 0
oso 0
▁nou 0
äch 0
ack 0
▁kal 0
לק 0
фи 0
▁לפ 0
▁your 0
tros 0
iał 0
▁彼 0
dat 0
тся 0
▁הה 0
▁their 0
▁deci 0
ран 0
van 0
▁מח 0
▁ông 0
urn 0
▁cui 0
▁loro 0
▁meer 0
śli 0
▁нещо 0
тель 0
▁tại 0
▁pop 0
ture 0
ument 0
ges 0
▁מק 0
مت 0
▁düşün 0
▁tipo 0
▁gener 0
وش 0
▁giờ 0
act 0
▁giới 0
▁관 0
▁yıl 0
▁were 0
וכ 0
ность 0
▁tạo 0
ime 0
▁الر 0
ặt 0
يات 0
▁yaş 0
▁ek 0
▁рас 0
▁と 0
▁podemos 0
▁pode 0
▁която 0
▁einer 0
▁look 0
ital 0
ós 0
▁vre 0
▁문 0
▁بگ 0
▁cela 0
▁contro 0
ystem 0
▁есть 0
▁bin 0
▁جد 0
▁év 0
אות 0
اف 0
ái 0
зе 0
해서 0
▁ży 0
cio 0
▁ile 0
▁être 0
▁modo 0
▁yer 0
▁sto 0
ceğ 0
▁mein 0
▁kép 0
▁נו 0
▁הפ 0
▁constru 0
фе 0
▁تو 0
sta 0
▁تق 0
یل 0
ona 0
lad 0
でした 0
ants 0
▁미 0
▁bul 0
▁tempo 0
のは 0
▁연 0
ern 0
▁ava 0
מן 0
ưở 0
▁kadar 0
▁tom 0
אים 0
ưởng 0
▁work 0
▁hun 0
られ 0
nik 0
▁人 0
▁anim 0
▁meu 0
▁kil 0
▁mê 0
▁ny 0
üs 0
▁ora 0
▁прои 0
any 0
▁fie 0
▁زند 0
▁mă 0
ích 0
しい 0
▁nur 0
▁בש 0
▁بسی 0
гле 0
chi 0
▁geb 0
یک 0
▁какво 0
▁نیست 0
▁пове 0
▁mic 0
▁만들 0
▁liv 0
▁باید 0
▁وأ 0
▁kho 0
lijk 0
رفت 0
ones 0
▁mond 0
▁وجود 0
▁ات 0
emp 0
ekt 0
▁essere 0
▁lớ 0
▁تج 0
áz 0
ator 0
▁here 0
oni 0
▁כך 0
▁daar 0
ical 0
▁други 0
tik 0
▁שלנו 0
▁ans 0
òn 0
▁mọi 0
▁„ 0
ốc 0
ai 0
▁fut 0
okat 0
tal 0
▁which 0
رض 0
▁publ 0
fel 0
▁הד 0
▁кра 0
▁см 0
▁anche 0
▁rend 0
dı 0
▁بین 0
hing 0
▁شي 0
▁ani 0
ther 0
▁фи 0
▁olyan 0
▁dann 0
▁fre 0
▁zie 0
▁qua 0
akt 0
▁동 0
apt 0
いて 0
נס 0
▁לנו 0
مة 0
▁ei 0
▁mình 0
▁düny 0
▁amit 0
rada 0
ров 0
▁tego 0
▁fare 0
omen 0
ным 0
ôn 0
▁이런 0
▁einem 0
هر 0
צה 0
hi 0
▁idea 0
▁不 0
ăt 0
▁anni 0
▁grand 0
âu 0
jes 0
▁گفت 0
ções 0
▁ست 0
▁خوب 0
▁بل 0
пу 0
▁sci 0
ưa 0
שהו 0
▁signi 0
▁유 0
▁живо 0
▁sehr 0
▁было 0
▁그래서 0
▁当 0
▁ren 0
▁hiện 0
▁мне 0
▁всички 0
ondol 0
ction 0
▁دان 0
다고 0
▁bởi 0
▁lie 0
▁소 0
▁time 0
▁any 0
▁모든 0
▁سن 0
▁nog 0
бира 0
▁kur 0
▁trebu 0
▁ved 0
▁problema 0
êm 0
▁wird 0
▁onze 0
▁hel 0
asz 0
▁пи 0
▁cri 0
▁работа 0
fen 0
נט 0
▁иде 0
▁ela 0
כת 0
▁것을 0
▁lehet 0
▁really 0
▁bunu 0
▁natur 0
▁60 0
дите 0
▁pute 0
▁sel 0
▁경 0
▁prob 0
ốt 0
▁nad 0
▁every 0
▁hanno 0
נת 0
oss 0
▁viel 0
unda 0
▁زی 0
▁защото 0
вно 0
▁toda 0
ök 0
ents 0
erd 0
ander 0
ții 0
ắc 0
zione 0
eft 0
▁تغ 0
▁kie 0
ката 0
car 0
▁باز 0
▁persone 0
▁kell 0
вля 0
▁úgy 0
▁wszy 0
▁quand 0
дела 0
▁video 0
▁הב 0
이죠 0
▁אחד 0
▁neg 0
▁wszyst 0
如果 0
ارد 0
▁quin 0
▁그것 0
▁بعض 0
▁след 0
пло 0
▁меня 0
▁hình 0
▁prima 0
dio 0
▁thật 0
▁וב 0
رار 0
שת 0
пол 0
▁можем 0
trar 0
▁comm 0
▁そして 0
▁исто 0
يرة 0
▁nagyon 0
hl 0
ượng 0
▁iar 0
wy 0
▁им 0
▁очень 0
nes 0
▁дол 0
▁lucr 0
这些 0
چه 0
▁eg 0
▁design 0
▁내 0
▁între 0
fica 0
▁way 0
▁elő 0
▁הס 0
可能 0
▁조 0
fici 0
▁רק 0
ъм 0
ểu 0
▁пробле 0
▁naj 0
▁világ 0
خل 0
▁той 0
▁stat 0
▁yor 0
ày 0
ỏi 0
was 0
şi 0
▁anos 0
ته 0
▁quy 0
▁poder 0
▁estamos 0
▁لأن 0
▁fal 0
ная 0
▁ול 0
▁물 0
▁then 0
bro 0
בור 0
üyor 0
▁cần 0
مع 0
▁questi 0
▁начи 0
▁human 0
aj 0
طر 0
▁cada 0
mie 0
▁его 0
êu 0
iva 0
nym 0
▁الآن 0
▁вот 0
ughter 0
▁cảm 0
▁ers 0
▁szám 0
▁sistem 0
▁כדי 0
ild 0
onte 0
▁unter 0
▁בת 0
▁pic 0
▁într 0
▁الو 0
▁fl 0
▁waren 0
▁tất 0
ók 0
ること 0
كر 0
ادی 0
▁sống 0
▁לק 0
vé 0
ból 0
ặc 0
까요 0
▁put 0
▁بیشتر 0
ój 0
▁monde 0
▁بی 0
▁الد 0
ris 0
com 0
▁comple 0
▁كانت 0
现在 0
▁сло 0
▁fem 0
стро 0
▁عندما 0
▁cir 0
▁mut 0
▁وقتی 0
▁ги 0
▁nhận 0
▁interess 0
مال 0
ìn 0
▁importante 0
جه 0
▁sonra 0
▁còn 0
וס 0
▁בי 0
▁شود 0
没有 0
▁aqui 0
▁отк 0
▁יכולים 0
▁menschen 0
▁agora 0
▁11 0
▁sab 0
▁geen 0
רת 0
▁tecnolog 0
▁ш 0
▁לב 0
▁합니다 0
▁ann 0
سان 0
eres 0
ứng 0
ño 0
لب 0
▁حس 0
▁mert 0
▁аз 0
▁któr 0
▁quer 0
כש 0
▁años 0
▁lan 0
▁przez 0
▁tri 0
▁kind 0
cias 0
なく 0
ası 0
▁hu 0
ds 0
ást 0
▁она 0
▁gens 0
ciones 0
▁bek 0
▁которые 0
مات 0
▁organiz 0
▁这是 0
enta 0
▁през 0
ín 0
ual 0
лы 0
▁tự 0
фор 0
óg 0
ischen 0
לות 0
非常 0
▁جه 0
▁oh 0
▁ban 0
tellen 0
▁بخ 0
▁gondol 0
하게 0
يث 0
▁quindi 0
▁זו 0
pie 0
▁매 0
▁cul 0
zem 0
▁روی 0
▁rá 0
▁dzi 0
▁بت 0
ition 0
▁하는 0
▁작 0
▁201 0
дей 0
nej 0
icz 0
рия 0
▁כי 0
▁پیش 0
▁کش 0
ודה 0
▁دارد 0
▁gan 0
yon 0
▁aș 0
ape 0
▁所以 0
▁esper 0
▁laughter 0
▁להיות 0
▁pow 0
forma 0
cze 0
▁cô 0
▁rem 0
ót 0
ät 0
▁nam 0
▁bis 0
▁ý 0
▁ment 0
isten 0
حدث 0
duc 0
▁fiz 0
▁algun 0
elo 0
▁كه 0
▁يت 0
ena 0
vir 0
▁سي 0
hoz 0
▁gesch 0
▁направи 0
▁wur 0
▁jaar 0
▁때문 0
▁وب 0
tere 0
▁quello 0
рите 0
ünkü 0
ência 0
▁کم 0
▁یه 0
▁ние 0
▁bal 0
▁ihnen 0
▁是 0
▁dro 0
▁들 0
▁gibt 0
▁предста 0
▁long 0
▁dell 0
▁theo 0
▁cuộc 0
ющи 0
▁تلك 0
ורה 0
적으로 0
▁expl 0
▁büyük 0
▁大 0
▁bei 0
▁إذا 0
enas 0
щност 0
▁една 0
▁thì 0
кой 0
▁25 0
кра 0
ain 0
겁니다 0
عا 0
▁đồ 0
▁yar 0
▁아니 0
▁جدا 0
▁doğ 0
▁więc 0
▁onder 0
▁auto 0
▁كنت 0
יים 0
▁lớn 0
▁분 0
▁zien 0
спе 0
▁đị 0
▁itt 0
▁ấy 0
▁peu 0
חוק 0
▁york 0
▁lugar 0
▁مس 0
▁אנשים 0
▁пу 0
▁nhìn 0
▁bắt 0
▁test 0
▁vede 0
har 0
▁essa 0
▁يع 0
▁amikor 0
עות 0
▁영 0
ory 0
chten 0
▁mia 0
elijk 0
▁ec 0
▁tutti 0
صد 0
ème 0
стоя 0
います 0
▁запо 0
▁jul 0
▁발 0
▁cùng 0
▁kiedy 0
▁çünkü 0
▁đề 0
あります 0
▁lang 0
▁80 0
כן 0
ére 0
ваме 0
доб 0
▁ahora 0
▁нам 0
▁hand 0
gl 0
ội 0
icas 0
▁最 0
حك 0
▁sao 0
▁could 0
▁chose 0
מות 0
▁anc 0
▁안 0
ęd 0
▁pier 0
tan 0
▁even 0
тре 0
▁ös 0
יתה 0
▁stud 0
▁няма 0
▁conf 0
tern 0
łam 0
ann 0
▁nom 0
▁بسیار 0
▁оста 0
▁exist 0
▁fer 0
בות 0
ểm 0
lau 0
ţii 0
▁même 0
▁into 0
▁mondo 0
▁robot 0
▁siste 0
bbe 0
▁notre 0
ola 0
▁mö 0
▁cin 0
ọng 0
care 0
▁noch 0
tar 0
▁system 0
old 0
лове 0
▁بزر 0
▁неща 0
▁inte 0
unuz 0
דול 0
▁اج 0
cher 0
nia 0
שוב 0
▁всё 0
ppen 0
▁idee 0
▁isto 0
imy 0
▁wereld 0
üş 0
▁좋 0
▁زمان 0
▁esc 0
רג 0
עי 0
ياء 0
▁where 0
aten 0
▁צרי 0
امل 0
وي 0
▁sehen 0
▁nhân 0
▁حد 0
asi 0
ınız 0
▁main 0
▁şek 0
ıy 0
▁صح 0
onder 0
тов 0
dzo 0
▁тя 0
▁гра 0
▁000 0
ście 0
▁것은 0
лен 0
▁tutto 0
▁自 0
다면 0
ody 0
▁bardzo 0
▁고 0
мя 0
▁pal 0
он 0
lara 0
▁lim 0
▁parce 0
します 0
▁두 0
▁помо 0
òng 0
▁precis 0
דו 0
ей 0
▁많은 0
port 0
▁مر 0
▁또 0
▁因为 0
ador 0
▁dollar 0
зво 0
astă 0
▁aplaus 0
یچ 0
知道 0
▁poate 0
▁tới 0
▁aç 0
▁jus 0
ẫn 0
▁zro 0
▁câu 0
▁świ 0
cun 0
ром 0
▁개 0
▁fark 0
▁доб 0
▁prop 0
cin 0
ład 0
дя 0
rar 0
▁net 0
▁kör 0
▁új 0
라는 0
▁geç 0
▁did 0
нта 0
▁بنا 0
waż 0
▁où 0
▁tế 0
▁doar 0
عه 0
uyor 0
▁lên 0
וך 0
tto 0
▁اینکه 0
וז 0
ára 0
fin 0
▁prote 0
▁/ 0
▁کردم 0
ró 0
zę 0
▁trebuie 0
▁아이 0
▁قبل 0
▁наши 0
ță 0
▁çık 0
lık 0
eler 0
▁bed 0
▁dieser 0
▁actually 0
▁дума 0
▁kül 0
しました 0
▁сдела 0
▁ど 0
しか 0
▁jeśli 0
حا 0
iera 0
▁bằng 0
گه 0
▁bản 0
ал 0
▁worden 0
ний 0
gt 0
▁但是 0
▁wol 0
▁tay 0
vis 0
▁ngày 0
чни 0
ăn 0
▁versch 0
▁thời 0
▁divers 0
▁가지 0
▁mem 0
▁如果 0
▁有 0
▁secon 0
▁etwas 0
صب 0
▁baz 0
▁sade 0
▁beau 0
вали 0
▁الناس 0
▁gew 0
کل 0
들의 0
▁там 0
▁nước 0
▁결 0
▁cambi 0
▁199 0
▁אנו 0
▁пока 0
▁شخص 0
она 0
urile 0
حة 0
ück 0
▁sinh 0
考え 0
ığı 0
▁cơ 0
ству 0
▁cred 0
ivel 0
问题 0
▁sadece 0
روع 0
▁această 0
▁kat 0
клю 0
▁дей 0
▁مورد 0
▁גם 0
▁bre 0
רח 0
ijd 0
▁zn 0
тельно 0
ution 0
▁obj 0
▁welt 0
▁term 0
▁yüz 0
▁én 0
▁aplausos 0
지요 0
▁trat 0
▁استف 0
▁înt 0
▁timp 0
▁zor 0
vano 0
에는 0
▁somet 0
▁زندگی 0
▁trước 0
ött 0
▁예 0
led 0
▁sistema 0
▁sm 0
▁aux 0
▁לת 0
▁も 0
дис 0
▁már 0
▁вас 0
anno 0
▁وت 0
▁дела 0
▁cứ 0
▁other 0
▁leur 0
ep 0
▁kullan 0
ll 0
eken 0
▁여기 0
▁veel 0
▁bus 0
علم 0
ستان 0
тно 0
▁twe 0
عات 0
itar 0
▁probl 0
▁ví 0
れば 0
يت 0
▁priv 0
▁نش 0
▁mik 0
פה 0
▁thay 0
ént 0
▁years 0
▁dir 0
▁dist 0
▁evol 0
له 0
▁alors 0
▁단 0
▁ber 0
▁land 0
▁gez 0
▁princi 0
▁things 0
mad 0
▁nơi 0
▁encon 0
lko 0
▁fak 0
▁ア 0
dez 0
▁hor 0
▁mehr 0
▁mel 0
▁important 0
هایی 0
izi 0
▁그러 0
asta 0
ולי 0
▁nost 0
▁أكثر 0
▁أنه 0
▁durch 0
▁これは 0
▁aff 0
icamente 0
▁웃 0
ından 0
▁estão 0
▁több 0
▁ric 0
▁she 0
lek 0
▁ге 0
▁comb 0
ảng 0
aba 0
▁감 0
▁şim 0
دام 0
▁poss 0
▁私は 0
▁استفاده 0
ować 0
נשים 0
▁pare 0
▁ihr 0
▁bez 0
▁повече 0
אי 0
▁اول 0
▁години 0
▁lar 0
▁сега 0
▁пра 0
▁bon 0
▁sun 0
▁been 0
▁жиз 0
ỗi 0
▁pay 0
ると 0
▁hai 0
▁당 0
▁euro 0
▁ihre 0
▁kam 0
gu 0
eti 0
ție 0
ían 0
şte 0
▁chiar 0
плодис 0
▁habe 0
הם 0
плодисмен 0
▁хората 0
وری 0
dic 0
▁edi 0
▁simple 0
▁ped 0
▁partic 0
▁toàn 0
▁сте 0
ności 0
עה 0
▁انت 0
▁így 0
עשה 0
dt 0
▁sam 0
ycz 0
▁всъ 0
ală 0
▁trở 0
▁گرفت 0
вле 0
▁私たち 0
▁tip 0
▁всъщност 0
▁estas 0
▁fă 0
▁ezek 0
▁well 0
مه 0
▁bộ 0
▁hem 0
▁наи 0
ded 0
ורים 0
▁dz 0
▁أع 0
▁ти 0
▁nasıl 0
▁טוב 0
▁đổi 0
owie 0
▁потому 0
▁enc 0
eta 0
▁الي 0
▁今 0
íamos 0
▁לכם 0
ton 0
ştir 0
nego 0
▁alles 0
▁без 0
▁ذ 0
▁tous 0
▁chuyện 0
▁esse 0
▁abs 0
▁аплодисмен 0
راد 0
▁amely 0
▁درب 0
▁към 0
חת 0
▁нау 0
كت 0
▁bine 0
▁rze 0
ục 0
▁sah 0
▁боле 0
▁dụng 0
▁zur 0
的な 0
▁năng 0
▁nghiệ 0
רך 0
▁global 0
▁śmie 0
lic 0
imin 0
▁לעשות 0
▁extra 0
▁کردن 0
▁obser 0
▁خل 0
▁تت 0
▁شو 0
aux 0
▁át 0
tat 0
▁cur 0
▁two 0
▁suis 0
▁cha 0
▁czas 0
כשיו 0
▁sat 0
▁cười 0
▁olduğunu 0
▁pró 0
▁right 0
▁започ 0
イン 0
▁aquí 0
▁بب 0
▁été 0
ster 0
▁wiss 0
▁cosas 0
▁giá 0
▁лет 0
▁разли 0
▁incre 0
▁heeft 0
▁челове 0
▁только 0
▁deux 0
▁uz 0
פת 0
жду 0
gh 0
▁יוד 0
▁fue 0
▁traba 0
ők 0
ような 0
▁̉ 0
▁العالم 0
▁dig 0
ове 0
вания 0
▁систе 0
ように 0
的人 0
рь 0
anti 0
▁проце 0
▁око 0
ạt 0
▁يج 0
▁vấn 0
quer 0
▁gar 0
▁לג 0
▁съм 0
▁vu 0
▁seu 0
▁sing 0
کت 0
miş 0
▁کرده 0
ساس 0
ệu 0
coup 0
▁ומ 0
▁phần 0
kö 0
ìm 0
▁nuest 0
▁make 0
▁الى 0
▁fapt 0
ies 0
▁ضحك 0
▁نوع 0
▁momento 0
▁tylko 0
▁bro 0
فعل 0
▁puede 0
شر 0
▁겁니다 0
▁bew 0
cen 0
rad 0
▁вър 0
▁coisas 0
קר 0
ics 0
▁어떤 0
▁עצ 0
▁مردم 0
▁دیگر 0
נחנו 0
▁90 0
maz 0
研究 0
anza 0
▁beaucoup 0
وه 0
▁aici 0
ります 0
▁웃음 0
رم 0
tur 0
ため 0
ţă 0
стра 0
عب 0
нието 0
abilir 0
▁lin 0
▁צחוק 0
زار 0
▁iyi 0
owe 0
▁sou 0
▁sy 0
ół 0
▁ged 0
itor 0
▁hely 0
▁nhau 0
cek 0
▁apro 0
▁tap 0
▁dön 0
ef 0
ראה 0
▁бъде 0
▁ult 0
ге 0
▁queste 0
▁mam 0
▁assim 0
▁المت 0
▁trou 0
▁خنده 0
ği 0
んな 0
▁نظر 0
mış 0
וו 0
하기 0
▁واحد 0
▁rich 0
ix 0
și 0
▁şimdi 0
▁eigen 0
ảo 0
▁говори 0
ảnh 0
▁telef 0
▁tas 0
קים 0
▁nella 0
تما 0
▁fatto 0
js 0
▁смех 0
▁таки 0
▁śmiech 0
▁red 0
▁הרבה 0
▁kol 0
▁hệ 0
▁cell 0
▁име 0
▁tiếng 0
▁phát 0
red 0
▁trabal 0
▁spra 0
렇게 0
▁cose 0
jük 0
▁смях 0
▁사실 0
nos 0
▁كيف 0
lay 0
▁log 0
▁روز 0
▁과 0
▁dove 0
▁kend 0
▁문제 0
▁رس 0
bir 0
▁tính 0
عتقد 0
лаго 0
כה 0
▁시작 0
▁نا 0
▁hak 0
▁لقد 0
▁созда 0
itatea 0
▁kw 0
itos 0
▁преди 0
▁16 0
anda 0
▁pap 0
▁cómo 0
jor 0
▁הצ 0
▁tar 0
▁indiv 0
▁tuy 0
▁تم 0
▁ceva 0
▁aussi 0
▁poz 0
▁risas 0
▁راه 0
▁yapt 0
▁ليس 0
▁groß 0
ضع 0
dow 0
ene 0
▁하나 0
▁tamb 0
▁dự 0
▁râ 0
▁może 0
▁الان 0
ının 0
ias 0
▁ساخت 0
▁kl 0
نب 0
aca 0
▁socie 0
amb 0
▁risate 0
▁بزرگ 0
mit 0
▁mới 0
лось 0
▁bol 0
▁nevet 0
▁aşa 0
▁thông 0
▁lá 0
▁70 0
▁tìm 0
▁powie 0
raz 0
ruik 0
▁ند 0
▁cop 0
ראות 0
ange 0
ique 0
▁enf 0
だけ 0
inar 0
قوم 0
▁casa 0
ret 0
▁vraiment 0
▁emp 0
dü 0
▁wsp 0
חד 0
▁пер 0
hogy 0
▁miss 0
▁gdy 0
ogle 0
חות 0
▁был 0
▁yani 0
▁sağ 0
ism 0
ются 0
ách 0
tive 0
erst 0
нологи 0
▁rag 0
uss 0
▁mov 0
▁minut 0
▁bom 0
▁ilg 0
▁ки 0
▁göre 0
pă 0
▁نه 0
siniz 0
▁스 0
▁میکن 0
▁sử 0
press 0
ements 0
▁ま 0
ev 0
▁нача 0
рии 0
eli 0
▁zum 0
ös 0
▁불 0
▁رفت 0
cı 0
▁char 0
▁чове 0
стина 0
بی 0
▁עו 0
▁어떻 0
dik 0
▁구 0
는데 0
▁מאוד 0
▁asp 0
öv 0
▁personas 0
▁também 0
▁interes 0
اس 0
▁опи 0
▁mạ 0
▁rep 0
20 0
▁חוש 0
▁gaan 0
لو 0
▁techn 0
▁certa 0
зможно 0
чу 0
бу 0
自己 0
▁zwe 0
▁vật 0
▁진 0
يدة 0
▁minha 0
▁litt 0
▁xu 0
▁exem 0
شی 0
▁wid 0
▁том 0
▁cres 0
▁öğ 0
▁kết 0
▁لت 0
ço 0
▁اين 0
▁labor 0
תם 0
▁trường 0
▁propr 0
lec 0
▁kez 0
▁ain 0
שא 0
кто 0
▁kinder 0
▁maken 0
하면 0
▁rires 0
▁len 0
▁왜 0
ait 0
▁درباره 0
▁simpl 0
ной 0
ţie 0
▁gelach 0
ről 0
▁الث 0
▁hã 0
pid 0
▁שע 0
▁zd 0
▁ră 0
рика 0
ありません 0
рти 0
▁igaz 0
tà 0
▁ولی 0
▁ц 0
شا 0
▁어떻게 0
▁۱ 0
rend 0
▁וזה 0
▁social 0
igli 0
▁مخت 0
вам 0
וף 0
▁end 0
áci 0
▁those 0
▁然 0
▁iets 0
tele 0
▁famil 0
inge 0
している 0
гово 0
▁тук 0
▁nhiên 0
دة 0
▁jullie 0
поль 0
▁şekil 0
▁emberek 0
tras 0
дни 0
▁доста 0
tak 0
ную 0
▁îm 0
сту 0
▁نحن 0
▁каза 0
▁bit 0
▁― 0
▁mów 0
▁nevetés 0
▁jel 0
▁بين 0
قه 0
▁כמה 0
▁bat 0
▁first 0
جة 0
ilen 0
▁google 0
▁tört 0
▁liber 0
عی 0
ieni 0
▁leven 0
▁định 0
▁bunun 0
▁best 0
▁باشد 0
▁rész 0
▁대한 0
▁ese 0
▁عمل 0
▁tốt 0
▁vég 0
▁14 0
▁comment 0
ende 0
▁wirk 0
طيع 0
oses 0
▁изпол 0
зыва 0
▁עלי 0
▁благо 0
▁cro 0
▁ceea 0
▁algum 0
סט 0
tett 0
▁rồi 0
بط 0
خرى 0
idades 0
▁داریم 0
▁통 0
av 0
▁نفس 0
▁لن 0
▁شيء 0
▁זאת 0
▁zac 0
▁informa 0
▁شب 0
▁mind 0
▁than 0
ازه 0
▁בח 0
▁살 0
▁هن 0
▁hàng 0
▁mio 0
ális 0
▁עכשיו 0
▁چون 0
▁yak 0
▁continu 0
▁something 0
etzt 0
eno 0
ấp 0
하지 0
▁یکی 0
重要 0
▁chang 0
nel 0
▁mog 0
▁país 0
▁можете 0
▁grup 0
▁neces 0
▁같은 0
▁мога 0
▁got 0
keit 0
▁soci 0
▁걸 0
bién 0
▁todas 0
▁tun 0
야기 0
需要 0
▁tudo 0
cur 0
▁fant 0
has 0
▁фа 0
▁dna 0
▁eğer 0
كثير 0
بار 0
osta 0
ورة 0
▁гла 0
▁vro 0
▁toen 0
alt 0
▁autre 0
▁también 0
▁pes 0
▁mare 0
▁نظ 0
▁sempre 0
تى 0
开始 0
▁건 0
▁rela 0
шо 0
الي 0
▁технологи 0
▁trava 0
▁said 0
▁yok 0
▁temos 0
کی 0
▁신 0
▁отно 0
ús 0
קי 0
maya 0
▁leben 0
роят 0
▁indus 0
▁están 0
▁equ 0
▁aconte 0
▁пър 0
▁مق 0
より 0
▁ор 0
cle 0
▁сказа 0
znál 0
▁между 0
▁kra 0
▁computer 0
▁계 0
▁שנ 0
גל 0
דם 0
▁eng 0
▁осно 0
▁kü 0
▁back 0
▁materi 0
▁ри 0
▁tiene 0
onom 0
▁iz 0
▁مست 0
▁исполь 0
▁mű 0
▁zm 0
▁tw 0
▁şu 0
▁вам 0
っている 0
way 0
▁чем 0
itiv 0
▁zap 0
ảy 0
▁nap 0
شياء 0
ונים 0
▁hành 0
▁להת 0
▁verb 0
▁ludzi 0
▁داشته 0
▁היו 0
▁avem 0
▁mặt 0
ット 0
▁dam 0
▁oameni 0
▁tưởng 0
بع 0
рат 0
ked 0
لت 0
▁이야기 0
łu 0
ismo 0
▁그런 0
▁ach 0
dır 0
▁dru 0
iger 0
cji 0
▁biolog 0
ấu 0
▁wä 0
sete 0
مو 0
につ 0
▁mnie 0
inen 0
вата 0
▁مان 0
▁אמ 0
▁가장 0
▁наистина 0
▁question 0
▁technologie 0
▁asl 0
▁benim 0
▁също 0
▁sü 0
wia 0
▁duy 0
▁ха 0
▁realiz 0
▁due 0
▁may 0
▁pie 0
▁dingen 0
lerin 0
مین 0
чение 0
łą 0
▁הנ 0
看到 0
不是 0
▁choses 0
liśmy 0
▁может 0
tions 0
ادة 0
▁الغ 0
▁need 0
ír 0
▁spre 0
ful 0
▁máy 0
ък 0
قول 0
▁مهم 0
▁mad 0
tim 0
▁verdade 0
▁normal 0
كي 0
▁больше 0
ças 0
▁było 0
▁akkor 0
▁zeg 0
▁tiếp 0
▁omdat 0
of 0
▁nar 0
elt 0
aya 0
的时 0
▁필 0
сля 0
▁וכ 0
▁który 0
▁web 0
ём 0
▁اینجا 0
▁moeten 0
liche 0
лся 0
▁장 0
▁كما 0
zent 0
这样 0
▁واقعا 0
▁lý 0
нти 0
▁gün 0
▁life 0
▁râsete 0
▁ayn 0
▁oce 0
▁די 0
سر 0
veau 0
▁meine 0
▁fran 0
▁בס 0
▁lé 0
ures 0
いました 0
▁liệu 0
▁apenas 0
▁kre 0
ستطيع 0
age 0
▁enor 0
▁menos 0
▁אותו 0
▁star 0
ợp 0
▁סי 0
▁zal 0
▁blo 0
▁wür 0
йте 0
ffen 0
▁mesmo 0
▁każ 0
laş 0
▁arriv 0
必要 0
▁stato 0
ствен 0
▁zelf 0
uje 0
king 0
isti 0
▁gebruik 0
▁fü 0
▁виде 0
▁scho 0
▁public 0
▁ens 0
igh 0
▁أف 0
▁вижда 0
▁هیچ 0
▁того 0
▁быть 0
▁שזה 0
лет 0
▁людей 0
▁beh 0
▁אפ 0
▁đo 0
▁onde 0
▁tijd 0
▁mainten 0
▁정말 0
onces 0
▁hợp 0
さん 0
▁نی 0
▁tenemos 0
▁اط 0
hez 0
▁io 0
▁tehát 0
▁toate 0
▁little 0
▁spo 0
ことです 0
▁박 0
יותר 0
ior 0
ệt 0
ker 0
▁dintre 0
▁しか 0
wać 0
▁lev 0
▁individ 0
onen 0
ated 0
лись 0
を見 0
▁raz 0
בת 0
▁обще 0
тели 0
برا 0
▁trình 0
شته 0
vern 0
りました 0
▁буде 0
isz 0
▁13 0
▁изме 0
▁میش 0
▁وي 0
▁zeit 0
▁kay 0
▁entonces 0
▁何 0
عي 0
uze 0
▁בכל 0
▁putem 0
mt 0
▁cré 0
▁cham 0
ură 0
▁사람들이 0
▁sia 0
▁phá 0
جل 0
dek 0
iên 0
▁disse 0
▁pueden 0
טים 0
עת 0
xt 0
▁yol 0
▁گذ 0
▁hỏi 0
ijke 0
▁أنا 0
▁preg 0
▁حول 0
▁weil 0
чен 0
▁wurde 0
ком 0
aram 0
▁cou 0
▁aslında 0
▁pros 0
ish 0
zet 0
▁luc 0
ئة 0
▁commen 0
طة 0
tott 0
▁했 0
▁наше 0
▁تغی 0
▁așa 0
וצ 0
▁dra 0
ью 0
▁wirklich 0
ريقة 0
▁ps 0
▁около 0
יא 0
лия 0
▁sag 0
▁あ 0
▁gian 0
▁едно 0
وات 0
▁شروع 0
▁elek 0
▁nin 0
▁대해 0
óa 0
▁cat 0
▁folos 0
سته 0
▁zoals 0
нем 0
▁vita 0
▁vamos 0
▁تنها 0
▁lot 0
إن 0
▁quanto 0
▁새 0
▁چند 0
▁arbe 0
▁사용 0
▁прав 0
▁قرار 0
heit 0
egy 0
▁gerek 0
▁nek 0
ън 0
▁אל 0
سل 0
▁이것은 0
▁17 0
scha 0
▁بح 0
▁espa 0
гани 0
▁دارند 0
▁egész 0
ồn 0
ibil 0
▁смо 0
▁כפי 0
▁estar 0
plic 0
meye 0
▁zich 0
▁putea 0
▁schim 0
▁dieses 0
▁besz 0
ạc 0
форма 0
▁cele 0
▁point 0
nyi 0
erek 0
تون 0
erde 0
zelf 0
ară 0
vin 0
ión 0
しています 0
adores 0
▁poi 0
mam 0
▁fund 0
els 0
▁원 0
▁einf 0
ują 0
▁hội 0
▁voir 0
ível 0
▁حتى 0
ság 0
нето 0
oir 0
▁rel 0
şti 0
▁finan 0
▁ici 0
▁sar 0
▁ogni 0
bol 0
▁show 0
▁estos 0
ريد 0
▁можно 0
ıp 0
▁weg 0
▁serv 0
▁alk 0
ks 0
жение 0
▁încep 0
▁szó 0
▁ciò 0
▁şekilde 0
פור 0
▁спа 0
▁три 0
▁đồng 0
ادر 0
larını 0
лно 0
ról 0
ran 0
omo 0
▁ảnh 0
▁שאני 0
▁sco 0
acji 0
▁denken 0
ced 0
▁kinh 0
▁этого 0
▁estava 0
▁echt 0
▁begin 0
اج 0
ham 0
sza 0
▁mang 0
бли 0
gra 0
▁hãy 0
aus 0
▁ני 0
жу 0
▁maintenant 0
▁198 0
kład 0
ことが 0
▁شا 0
▁хи 0
חה 0
▁הט 0
▁aynı 0
три 0
lichen 0
idos 0
esen 0
нер 0
▁mij 0
▁inno 0
vă 0
▁multe 0
urd 0
▁intel 0
▁arch 0
▁bene 0
▁elas 0
ター 0
▁있었 0
▁vài 0
▁clar 0
▁esa 0
▁nuo 0
▁goed 0
рез 0
urt 0
▁мог 0
iche 0
▁utilis 0
ريق 0
▁coisa 0
ابل 0
▁يكون 0
że 0
emat 0
▁حيث 0
▁kim 0
▁איך 0
ệnh 0
iệt 0
▁potr 0
ést 0
kol 0
▁wal 0
rie 0
abb 0
▁받 0
прос 0
щё 0
▁ngo 0
tos 0
isse 0
ját 0
▁ott 0
▁böyle 0
▁cél 0
ouw 0
▁nữa 0
ắn 0
ecie 0
▁הכ 0
的是 0
▁dre 0
▁него 0
▁الوا 0
▁gaz 0
daki 0
▁مي 0
▁моз 0
▁xem 0
▁myś 0
ческо 0
▁га 0
хи 0
▁люди 0
ommen 0
▁tab 0
mă 0
▁gerçekten 0
一些 0
▁tes 0
cé 0
▁funcion 0
ても 0
▁caus 0
▁sé 0
▁unser 0
▁heel 0
▁guer 0
▁действи 0
▁чи 0
▁machen 0
gio 0
▁друго 0
▁quelque 0
▁proces 0
▁akik 0
▁пос 0
▁siamo 0
ação 0
▁并 0
jemy 0
▁جمي 0
▁ואני 0
▁risos 0
ستخ 0
дь 0
▁jó 0
öt 0
▁этот 0
▁tüm 0
▁thing 0
▁gir 0
oz 0
▁پر 0
▁دور 0
بة 0
hmen 0
▁момен 0
▁افراد 0
▁parl 0
▁הרא 0
▁tiem 0
▁就 0
حي 0
▁neur 0
▁ла 0
▁sit 0
▁avait 0
▁autres 0
▁immer 0
طف 0
lag 0
▁也 0
問題 0
▁هل 0
▁اش 0
▁big 0
fí 0
ative 0
▁stra 0
▁интере 0
emen 0
▁толко 0
▁burada 0
▁현 0
▁남 0
ța 0
▁ses 0
▁дан 0
vés 0
ولا 0
▁dor 0
ными 0
▁مختلف 0
mény 0
۰۰ 0
と思 0
▁thức 0
▁못 0
▁منا 0
▁случа 0
▁durante 0
צו 0
ството 0
▁然后 0
▁しかし 0
▁india 0
ontos 0
حظ 0
ült 0
fü 0
dar 0
wij 0
יון 0
▁배 0
▁antes 0
▁noas 0
▁princip 0
ación 0
▁đối 0
▁필요 0
▁conseg 0
وجه 0
▁thiết 0
▁있을 0
▁لذا 0
рен 0
erste 0
▁lượng 0
▁vom 0
▁hiç 0
bles 0
▁толкова 0
▁성 0
ков 0
рт 0
▁kér 0
▁ос 0
ędzie 0
▁rez 0
▁създа 0
koz 0
iro 0
にも 0
▁داده 0
שב 0
▁szem 0
▁선 0
ער 0
ső 0
▁ró 0
jar 0
bel 0
▁서 0
atos 0
▁fakat 0
できる 0
▁dou 0
قات 0
▁zi 0
شون 0
▁האלה 0
▁volta 0
▁făcut 0
▁지금 0
▁gl 0
нес 0
▁этом 0
▁indi 0
rait 0
▁حا 0
▁anders 0
ais 0
▁trọng 0
▁spa 0
▁tras 0
łe 0
▁differ 0
▁וי 0
cil 0
▁عم 0
▁cond 0
▁ون 0
▁نت 0
我的 0
orie 0
kép 0
▁sobie 0
▁משהו 0
yorum 0
прав 0
▁vị 0
قيقة 0
の人 0
▁contra 0
▁مص 0
▁ant 0
▁مغ 0
▁спосо 0
dés 0
▁싶 0
ids 0
▁笑声 0
▁живот 0
▁pré 0
▁apoi 0
dir 0
bat 0
社会 0
▁حالا 0
الی 0
▁въз 0
▁only 0
▁24 0
▁له 0
▁лу 0
▁воз 0
לת 0
sten 0
ensch 0
▁oamenii 0
▁unsere 0
▁где 0
▁przed 0
یری 0
▁sti 0
▁pierw 0
▁ör 0
san 0
اء 0
▁arg 0
ún 0
acak 0
▁söyle 0
▁moi 0
truc 0
▁swo 0
▁many 0
▁な 0
▁ло 0
бра 0
ric 0
ってい 0
round 0
▁dov 0
سة 0
▁üzer 0
▁дви 0
eter 0
▁hace 0
обра 0
▁לד 0
▁két 0
▁آخر 0
▁bà 0
▁използва 0
▁mówi 0
▁disp 0
▁neden 0
▁dent 0
encia 0
▁몇 0
tement 0
▁لأ 0
▁spun 0
▁place 0
▁къде 0
▁chiế 0
▁کردیم 0
▁dzię 0
▁были 0
▁тре 0
▁וע 0
▁estu 0
▁زن 0
▁può 0
▁giải 0
▁dep 0
▁بأن 0
can 0
▁ros 0
▁적 0
ből 0
▁ول 0
▁bất 0
▁tiempo 0
אה 0
ден 0
etti 0
▁vai 0
▁off 0
について 0
▁نام 0
ёт 0
▁тях 0
▁gior 0
рова 0
▁geh 0
▁прое 0
▁gal 0
▁tiên 0
▁lần 0
כות 0
▁ממש 0
▁być 0
▁avoir 0
▁llam 0
生活 0
▁위해 0
▁который 0
acağ 0
ması 0
として 0
▁아주 0
нали 0
▁göster 0
iendo 0
emplo 0
velop 0
rit 0
▁twee 0
▁külön 0
том 0
▁lav 0
▁coś 0
っています 0
▁част 0
▁talál 0
▁lí 0
lia 0
세요 0
▁ثم 0
▁chu 0
▁jetzt 0
▁نگاه 0
▁שהם 0
▁hakk 0
로운 0
▁giống 0
▁există 0
unci 0
▁rzeczy 0
вят 0
▁ус 0
▁uy 0
ière 0
▁הל 0
▁paar 0
пы 0
enie 0
▁vogli 0
▁변 0
▁bệnh 0
▁acesta 0
▁מפ 0
ността 0
들에게 0
▁take 0
▁い 0
▁można 0
▁vedere 0
▁bab 0
né 0
ving 0
▁خب 0
▁gaat 0
まで 0
▁ско 0
ضر 0
اري 0
▁wij 0
des 0
▁ты 0
нова 0
▁votre 0
zyć 0
▁ещё 0
▁thro 0
▁müs 0
âng 0
▁lesz 0
▁trẻ 0
▁sex 0
▁hiv 0
дер 0
teni 0
▁medic 0
ley 0
▁önce 0
▁werk 0
ộng 0
uen 0
ienia 0
▁unde 0
▁americ 0
▁podem 0
▁بن 0
▁هایی 0
▁nay 0
▁desco 0
бя 0
▁centr 0
▁öl 0
▁elles 0
▁lor 0
▁мисля 0
▁good 0
▁разви 0
ști 0
▁diğer 0
преде 0
▁nunca 0
▁hy 0
יר 0
tuk 0
▁سل 0
▁tú 0
됩니다 0
▁зем 0
▁hol 0
ánh 0
▁غير 0
idd 0
▁pub 0
▁same 0
なら 0
▁temps 0
▁hóa 0
▁잘 0
ocuk 0
eder 0
سبة 0
▁fazla 0
▁이제 0
▁בר 0
▁çocuk 0
▁thích 0
▁세계 0
▁qualc 0
▁همین 0
▁loại 0
ضل 0
war 0
▁karş 0
▁significa 0
hor 0
▁מב 0
▁yeni 0
▁thường 0
▁hecho 0
ęk 0
▁нет 0
▁这个 0
▁благода 0
▁모두 0
▁две 0
▁gut 0
▁fab 0
صول 0
▁반 0
▁cost 0
voir 0
▁получи 0
▁그들은 0
▁ref 0
ễn 0
▁nada 0
▁wordt 0
▁size 0
▁desde 0
uno 0
▁учи 0
▁매우 0
istan 0
▁commun 0
may 0
▁vé 0
▁позво 0
のか 0
▁đều 0
かった 0
▁teraz 0
▁바로 0
▁önem 0
▁pek 0
▁방법 0
âr 0
шь 0
▁hin 0
▁могу 0
ắng 0
istas 0
▁послед 0
رای 0
yw 0
▁разбира 0
ţa 0
▁base 0
áll 0
iero 0
▁áll 0
▁final 0
mem 0
▁행 0
▁现在 0
▁bağ 0
▁ast 0
خذ 0
вет 0
lerini 0
▁mucho 0
▁sil 0
▁elec 0
uta 0
▁até 0
ational 0
▁کو 0
▁более 0
▁perm 0
▁حسنا 0
▁trung 0
нски 0
▁这些 0
▁над 0
▁wissen 0
▁ing 0
▁wła 0
▁tent 0
anın 0
▁которо 0
▁чув 0
▁каж 0
טה 0
ree 0
っと 0
▁czę 0
▁время 0
▁nim 0
tell 0
cej 0
vons 0
meler 0
▁была 0
▁sos 0
tı 0
▁jako 0
ume 0
▁últ 0
uit 0
ológ 0
ئي 0
▁ساز 0
▁خلال 0
▁اس 0
▁usa 0
▁اح 0
▁لو 0
azioni 0
فة 0
▁информа 0
צים 0
atori 0
thing 0
óm 0
▁noss 0
tin 0
▁종 0
▁実 0
ște 0
スト 0
▁בו 0
▁ó 0
▁thống 0
رق 0
▁мате 0
▁lucru 0
utat 0
▁quá 0
▁primei 0
▁podr 0
idas 0
▁בק 0
▁نم 0
▁water 0
▁studi 0
▁használ 0
▁pag 0
йки 0
eles 0
▁absol 0
▁21 0
▁сей 0
▁viol 0
▁כאן 0
▁нужно 0
▁hiểu 0
▁einfach 0
inci 0
▁جز 0
▁всичко 0
▁pad 0
zg 0
▁konuş 0
▁történ 0
▁speci 0
aliśmy 0
도록 0
viron 0
abile 0
▁complet 0
ább 0
▁اليوم 0
▁anlam 0
nte 0
까지 0
▁bao 0
▁500 0
▁transform 0
▁אתה 0
ху 0
▁دید 0
▁demo 0
ịch 0
▁ahogy 0
itas 0
▁praw 0
вен 0
▁perso 0
▁جهان 0
▁iki 0
▁وهذا 0
▁stand 0
▁ef 0
▁différ 0
vert 0
▁down 0
cept 0
▁hayat 0
▁fon 0
▁چرا 0
▁sap 0
▁pued 0
▁вид 0
به 0
▁uży 0
える 0
▁ממ 0
bst 0
▁tanto 0
▁anderen 0
تاب 0
▁שב 0
▁нико 0
▁ster 0
ック 0
راء 0
▁חי 0
方法 0
ęp 0
лата 0
▁الما 0
▁qualcosa 0
äh 0
szerű 0
▁вз 0
عم 0
▁מחי 0
نج 0
رز 0
▁שם 0
вто 0
▁중요 0
已经 0
ades 0
▁ker 0
ارة 0
科学 0
▁הזו 0
▁образо 0
▁điểm 0
▁pan 0
коно 0
▁начин 0
▁environ 0
▁بي 0
▁hang 0
нию 0
▁الكثير 0
▁찾 0
▁będzie 0
▁поли 0
час 0
▁nic 0
▁mach 0
▁vier 0
▁topl 0
ved 0
лага 0
▁fois 0
▁denk 0
很多 0
▁đại 0
▁perf 0
wią 0
▁deven 0
üle 0
▁começ 0
この 0
▁שאנחנו 0
▁keine 0
▁civ 0
▁מכ 0
▁dim 0
رکت 0
▁гру 0
ność 0
▁همان 0
کار 0
חים 0
inál 0
▁hatte 0
▁tâm 0
▁nú 0
▁сейчас 0
▁فع 0
ën 0
▁pensar 0
ール 0
▁както 0
лли 0
▁nue 0
gie 0
▁фор 0
▁ugy 0
▁אותם 0
کس 0
いた 0
▁でも 0
▁orig 0
▁اتفا 0
▁pouvez 0
▁зде 0
▁insanlar 0
▁프 0
cel 0
▁după 0
دن 0
▁здесь 0
▁всеки 0
▁два 0
▁does 0
▁sho 0
czą 0
▁applause 0
kow 0
▁מו 0
▁света 0
▁laten 0
▁재 0
▁פע 0
▁result 0
▁fos 0
ină 0
▁torn 0
▁terr 0
▁john 0
▁prend 0
▁zus 0
▁experiment 0
sto 0
▁viele 0
sunuz 0
▁possiamo 0
▁school 0
▁gł 0
▁moet 0
▁miejs 0
praw 0
▁ül 0
▁още 0
▁sei 0
▁bur 0
▁nghệ 0
してい 0
нах 0
צור 0
נג 0
وجود 0
처럼 0
▁имаме 0
▁שיש 0
▁spus 0
▁کام 0
▁dentro 0
ély 0
▁anal 0
▁aceasta 0
▁مم 0
▁مط 0
هد 0
▁kos 0
▁punto 0
▁hoặc 0
▁dic 0
ление 0
▁对 0
▁органи 0
▁буду 0
▁或 0
▁élet 0
zion 0
▁organis 0
ână 0
▁חד 0
▁یاد 0
▁ord 0
▁amerika 0
▁بهتر 0
жде 0
▁arra 0
zar 0
ías 0
▁değiş 0
schaft 0
▁dice 0
▁곳 0
▁שלהם 0
▁futuro 0
mar 0
れる 0
enschap 0
ayı 0
▁вме 0
ход 0
rig 0
▁estaba 0
line 0
▁idő 0
▁akar 0
ăs 0
ره 0
▁교 0
вой 0
▁бях 0
▁ואז 0
קום 0
tez 0
▁experien 0
▁بار 0
▁вер 0
▁לראות 0
▁لذلك 0
▁different 0
▁поня 0
▁حتی 0
ția 0
wad 0
ュー 0
ében 0
▁pote 0
▁energia 0
ним 0
▁giả 0
úng 0
▁زمین 0
▁denn 0
▁질 0
▁open 0
▁بم 0
▁мно 0
▁노 0
arak 0
▁viên 0
▁nature 0
son 0
dim 0
▁gọi 0
ığımız 0
▁alleen 0
▁tương 0
med 0
elő 0
▁свои 0
▁świe 0
▁activ 0
כנו 0
iek 0
ことを 0
▁לפני 0
ultur 0
▁وع 0
ungs 0
▁való 0
פים 0
▁emo 0
▁بودم 0
しま 0
▁dolg 0
▁nues 0
▁nhỏ 0
▁faç 0
isa 0
工作 0
▁тем 0
▁её 0
pad 0
▁why 0
▁300 0
▁ביותר 0
▁tell 0
▁למעשה 0
았습니다 0
▁будет 0
▁ارت 0
▁sáng 0
▁ép 0
▁altro 0
▁creo 0
ches 0
リカ 0
yez 0
▁china 0
hos 0
csol 0
▁conc 0
▁하고 0
▁algu 0
ویق 0
▁mỗi 0
▁isti 0
öm 0
▁최 0
bă 0
▁mill 0
▁één 0
▁nghĩa 0
üt 0
你们 0
▁cứu 0
iała 0
▁selbst 0
▁around 0
▁даже 0
▁تمام 0
▁enten 0
ido 0
▁quốc 0
tok 0
▁chris 0
fo 0
▁דבר 0
▁micro 0
cak 0
▁تغییر 0
▁tou 0
▁יודעים 0
▁تشویق 0
▁boy 0
▁bere 0
▁immag 0
▁complex 0
▁zwei 0
▁donde 0
شم 0
hre 0
▁ludzie 0
▁באמת 0
▁quat 0
▁apr 0
▁întâm 0
ának 0
▁werd 0
▁terra 0
▁extre 0
▁bor 0
rzy 0
тия 0
ника 0
lü 0
▁lúc 0
ater 0
▁sahip 0
▁cour 0
▁dise 0
▁نو 0
▁sí 0
lem 0
فق 0
▁poco 0
▁old 0
▁שהוא 0
▁port 0
▁haar 0
▁לו 0
▁кто 0
▁imagine 0
אר 0
нов 0
ief 0
тя 0
ctor 0
▁причи 0
emand 0
▁voici 0
▁fas 0
▁control 0
▁był 0
דות 0
▁آز 0
▁utiliz 0
▁day 0
▁tho 0
▁oper 0
▁قط 0
dę 0
まり 0
▁hogyan 0
▁със 0
▁tienen 0
▁appr 0
یدا 0
▁pati 0
قتص 0
▁них 0
▁đưa 0
▁комп 0
▁gdzie 0
▁rodz 0
کان 0
▁малко 0
▁sek 0
기를 0
生物 0
东西 0
▁פשו 0
▁certo 0
uur 0
▁تكون 0
▁dank 0
düğ 0
elor 0
▁innov 0
▁afrika 0
▁gül 0
▁diesem 0
▁dân 0
▁đất 0
▁fiecare 0
▁بنابرا 0
▁đường 0
▁tecnologia 0
enza 0
är 0
wet 0
▁quả 0
▁gebe 0
▁الل 0
کرد 0
▁افت 0
▁start 0
▁سه 0
▁получа 0
▁też 0
▁egyik 0
rop 0
כון 0
iar 0
▁تون 0
▁집 0
30 0
▁ог 0
цията 0
ram 0
▁tara 0
▁müssen 0
▁cab 0
▁同 0
indo 0
的事 0
▁pense 0
▁درست 0
▁vẫn 0
▁decir 0
enia 0
▁۲ 0
▁لدينا 0
▁ot 0
śnie 0
▁당신 0
▁świat 0
▁vard 0
vil 0
▁мили 0
▁във 0
oit 0
▁küç 0
▁знаете 0
ците 0
graf 0
▁аф 0
▁post 0
▁실제 0
▁mô 0
▁أيضا 0
▁גדול 0
▁usar 0
aszt 0
erea 0
▁sort 0
▁以 0
▁ру 0
▁вся 0
лови 0
▁お 0
ues 0
▁ببین 0
▁arm 0
▁bé 0
▁돌 0
менно 0
▁저희 0
▁mely 0
راح 0
nic 0
▁leute 0
ister 0
iß 0
глежда 0
▁들어 0
ياة 0
זו 0
нг 0
▁fond 0
▁احت 0
ąd 0
rak 0
▁probabil 0
ضي 0
uns 0
kę 0
lio 0
▁tej 0
זי 0
▁nguy 0
циа 0
bare 0
unde 0
▁المش 0
▁yaz 0
▁paci 0
▁beszél 0
▁alap 0
▁tác 0
лото 0
▁kész 0
▁hoàn 0
▁caso 0
وسط 0
▁őket 0
▁拍 0
▁كب 0
▁хоро 0
ква 0
▁tá 0
▁espe 0
▁eines 0
▁eerste 0
▁dizer 0
tră 0
▁학 0
▁ade 0
▁برد 0
▁jahr 0
▁ancora 0
▁دول 0
unta 0
iner 0
רט 0
▁dùng 0
▁seus 0
▁점 0
owi 0
فيق 0
maal 0
▁특 0
بات 0
ying 0
ning 0
▁içinde 0
▁שלו 0
▁тру 0
的时候 0
▁grandes 0
▁ness 0
があります 0
uer 0
▁197 0
▁پی 0
▁기술 0
صة 0
лась 0
▁מצ 0
▁כש 0
▁bamb 0
▁verander 0
▁segu 0
▁lucruri 0
▁ço 0
▁już 0
גיע 0
▁世界 0
vero 0
▁להם 0
ورت 0
▁جا 0
▁לס 0
ניים 0
eto 0
тата 0
▁diesen 0
▁بودند 0
▁soll 0
▁essas 0
▁imm 0
▁consider 0
▁خط 0
▁себе 0
▁decis 0
▁和 0
부터 0
认为 0
نین 0
اني 0
▁medi 0
روز 0
▁premi 0
▁nut 0
▁farklı 0
мата 0
▁mamy 0
cos 0
10 0
▁يجب 0
▁강 0
▁сти 0
▁우리의 0
▁̃ 0
وار 0
vas 0
▁spos 0
ستم 0
ضوع 0
cri 0
▁zei 0
▁כפיים 0
▁hakkında 0
▁anti 0
das 0
▁자신 0
ופן 0
yt 0
ison 0
fl 0
ege 0
▁بشكل 0
▁vien 0
▁가지고 0
موع 0
の中 0
▁박수 0
▁בכ 0
▁archite 0
▁الذين 0
▁fic 0
▁avez 0
לתי 0
ването 0
äng 0
ânt 0
cza 0
▁sommes 0
uni 0
んで 0
▁음 0
▁vỗ 0
▁کوچ 0
חר 0
▁mea 0
unque 0
部分 0
一种 0
ژی 0
▁xảy 0
▁bile 0
وية 0
▁quella 0
via 0
▁tổ 0
toz 0
ible 0
reg 0
▁produc 0
▁mater 0
国家 0
出来 0
▁откри 0
чита 0
кту 0
ieden 0
▁gol 0
нее 0
malar 0
▁từng 0
ijken 0
▁africa 0
سبب 0
によ 0
▁تصفيق 0
▁tych 0
▁누 0
▁odp 0
▁보여 0
▁róż 0
▁applaud 0
جاد 0
▁find 0
дат 0
sal 0
▁عام 0
▁data 0
gal 0
我们的 0
▁żeby 0
▁bây 0
▁무엇 0
▁besch 0
teg 0
▁بدون 0
▁bueno 0
▁cao 0
▁amb 0
▁telefon 0
ניות 0
▁şti 0
さい 0
issements 0
خی 0
ğu 0
▁拍手 0
▁2000 0
▁dois 0
ọn 0
ári 0
uma 0
▁الواقع 0
▁ej 0
ımı 0
▁خواهد 0
חו 0
hány 0
ekk 0
▁erg 0
duk 0
dia 0
عر 0
жны 0
▁spune 0
▁diag 0
كرة 0
▁спе 0
▁coun 0
▁elektr 0
דרך 0
роятно 0
пра 0
▁نیاز 0
▁ear 0
▁bên 0
צר 0
▁نشان 0
dziej 0
▁מחיאות 0
▁stan 0
спо 0
▁eb 0
dem 0
▁krij 0
多く 0
ינו 0
▁одно 0
▁gén 0
▁tár 0
▁pok 0
▁seule 0
▁的 0
פות 0
▁encore 0
ês 0
mier 0
zés 0
▁някои 0
▁צריכים 0
▁обе 0
▁taps 0
▁respons 0
▁information 0
▁gh 0
▁달 0
▁intér 0
▁اله 0
▁реа 0
▁약 0
▁ști 0
▁dinge 0
жен 0
▁belang 0
▁viz 0
etto 0
▁ambi 0
▁ging 0
aria 0
вые 0
リー 0
▁фо 0
ása 0
▁dopo 0
tige 0
tag 0
▁ماه 0
aza 0
▁degli 0
▁аплодисменты 0
▁زیادی 0
acter 0
▁rest 0
▁through 0
▁될 0
▁jahren 0
▁csinál 0
rol 0
▁опреде 0
نات 0
▁мен 0
▁صد 0
▁دهد 0
▁alkış 0
▁благодаря 0
▁רוצה 0
▁zrobi 0
▁bazı 0
▁ainda 0
▁histo 0
الت 0
▁fik 0
▁پای 0
▁теле 0
▁mó 0
פילו 0
▁media 0
ória 0
▁دارم 0
▁볼 0
▁ето 0
▁szeret 0
▁diferentes 0
при 0
ils 0
▁عنوان 0
▁tuyệt 0
▁nghiệm 0
היה 0
▁أحد 0
▁وس 0
▁kis 0
▁سوف 0
▁biệt 0
телно 0
▁کردند 0
▁осо 0
▁rép 0
▁bio 0
mat 0
bia 0
дим 0
▁этой 0
▁început 0
▁erre 0
▁196 0
ères 0
▁nghe 0
▁صحبت 0
▁aller 0
дели 0
▁chuyển 0
▁דברים 0
▁sagen 0
ecek 0
▁خا 0
cesso 0
▁cầu 0
▁wieder 0
▁stre 0
▁sulla 0
anak 0
▁에 0
▁lung 0
▁לכ 0
▁inves 0
ivo 0
ней 0
tiğ 0
▁potre 0
▁bizim 0
▁차 0
▁össze 0
▁أم 0
út 0
▁بها 0
وف 0
▁hep 0
sche 0
こで 0
▁teljes 0
▁sym 0
▁연구 0
טר 0
▁fej 0
れた 0
▁persona 0
▁kel 0
מוד 0
▁kop 0
▁bana 0
▁sólo 0
▁ilk 0
▁atra 0
▁بنابراین 0
خوا 0
▁wiele 0
тите 0
▁const 0
ник 0
ńst 0
uren 0
▁پیدا 0
▁اص 0
▁одна 0
▁уже 0
▁했습니다 0
úp 0
▁데 0
▁جمع 0
▁zak 0
▁彼ら 0
▁küçük 0
ẩn 0
▁казва 0
▁glau 0
▁personnes 0
uti 0
ario 0
▁קט 0
szág 0
▁她 0
ừng 0
▁thou 0
▁pia 0
вите 0
סת 0
zut 0
inte 0
▁trop 0
кономи 0
▁dez 0
지는 0
▁khoảng 0
▁escu 0
nal 0
▁percent 0
▁עד 0
▁vannak 0
▁munk 0
صف 0
▁nossa 0
rem 0
▁teş 0
▁truy 0
▁kleine 0
юще 0
▁شوند 0
▁khu 0
▁applaudissements 0
▁aplauze 0
▁foly 0
glich 0
▁tit 0
▁dia 0
▁set 0
▁defin 0
فع 0
بود 0
imiento 0
▁آیا 0
▁значи 0
▁이렇게 0
▁pew 0
▁insp 0
▁일어 0
▁напри 0
▁desen 0
▁כמ 0
▁energie 0
ığını 0
▁cerc 0
▁например 0
▁iste 0
▁peque 0
ites 0
ティ 0
sk 0
发现 0
▁phụ 0
рата 0
▁способ 0
▁samen 0
▁erk 0
▁האם 0
▁оби 0
ارج 0
ките 0
▁انسان 0
▁vac 0
▁vel 0
▁ایم 0
стру 0
▁видите 0
▁historia 0
▁him 0
▁فهم 0
▁depo 0
han 0
▁зада 0
存在 0
▁durum 0
▁심 0
دی 0
در 0
▁시간 0
▁реше 0
▁use 0
oud 0
elles 0
tü 0
きました 0
▁hasta 0
▁trị 0
▁tegen 0
▁années 0
▁سب 0
▁kendi 0
▁happen 0
▁מר 0
▁niż 0
がある 0
▁había 0
гла 0
cte 0
▁voy 0
▁atunci 0
змож 0
▁bla 0
▁مغز 0
▁majd 0
ẳng 0
vie 0
▁تحت 0
ary 0
gend 0
▁travail 0
if 0
▁الأمر 0
ense 0
▁eram 0
▁만들어 0
▁могат 0
ולה 0
▁wz 0
▁mejor 0
▁הסי 0
▁дори 0
▁olduğu 0
▁кри 0
▁hen 0
▁tart 0
гля 0
cas 0
▁első 0
▁leurs 0
öld 0
▁yan 0
▁کاری 0
▁mã 0
▁还 0
ılar 0
▁jama 0
ریک 0
▁cere 0
▁함 0
▁zosta 0
▁luego 0
▁تبد 0
▁היתה 0
oto 0
▁المج 0
▁capac 0
ществу 0
esto 0
▁точно 0
▁колко 0
ző 0
▁bad 0
▁sagte 0
▁air 0
んです 0
enen 0
▁spr 0
▁grazie 0
▁chiếc 0
▁being 0
▁thuật 0
▁laat 0
▁mí 0
▁child 0
▁말이죠 0
▁nevo 0
▁אחת 0
▁！ 0
ثر 0
▁követ 0
▁bunlar 0
▁설 0
▁аме 0
▁أخرى 0
▁국 0
ţia 0
üc 0
lő 0
▁mayor 0
tiva 0
▁mine 0
▁sans 0
▁rés 0
▁đúng 0
▁termin 0
▁возможно 0
▁ilyen 0
▁applausi 0
▁여러분이 0
זור 0
enten 0
▁liên 0
▁change 0
▁zit 0
▁triển 0
ingu 0
▁сделать 0
▁один 0
▁lig 0
▁얼 0
▁job 0
▁환 0
iamo 0
cup 0
所有 0
нете 0
ğı 0
iteit 0
▁مشکل 0
▁سی 0
▁sle 0
들과 0
发生 0
▁tür 0
▁lumea 0
▁gülüş 0
▁össz 0
▁hast 0
▁فعل 0
▁بیم 0
▁chủ 0
נק 0
んだ 0
▁دن 0
▁реши 0
▁büt 0
▁поч 0
▁pedig 0
▁ellos 0
ното 0
مایش 0
eron 0
bres 0
▁미국 0
uchen 0
▁veya 0
▁acolo 0
▁existe 0
▁따 0
からです 0
▁ton 0
▁مه 0
▁incredi 0
нить 0
erv 0
سه 0
▁comport 0
ities 0
▁חיי 0
▁ilgili 0
▁git 0
▁exam 0
▁yön 0
▁mús 0
▁néhány 0
рая 0
▁ظ 0
▁بإ 0
▁quyết 0
▁dzieci 0
dział 0
▁ár 0
▁mess 0
▁chc 0
unden 0
▁کشور 0
▁cual 0
▁carb 0
فته 0
жения 0
tot 0
▁groot 0
▁fais 0
▁انگ 0
▁conta 0
▁vic 0
▁decât 0
▁robi 0
▁başka 0
▁שלא 0
тен 0
▁интер 0
女性 0
חיים 0
▁حل 0
▁att 0
▁lực 0
кото 0
ira 0
▁entw 0
▁convers 0
▁doğru 0
ával 0
ema 0
▁vár 0
▁kontro 0
sią 0
▁tinha 0
▁process 0
дня 0
cat 0
▁آب 0
▁בפ 0
▁urmă 0
▁taraf 0
▁chưa 0
▁three 0
▁görün 0
▁dont 0
▁соб 0
▁където 0
▁nữ 0
▁great 0
ности 0
văr 0
book 0
anto 0
▁öğren 0
▁hos 0
ters 0
▁эта 0
▁revol 0
▁cerca 0
ional 0
af 0
▁şeyler 0
었죠 0
▁bay 0
▁شاید 0
ён 0
▁الوقت 0
▁genet 0
▁روش 0
▁פשוט 0
▁invent 0
▁façon 0
▁bảo 0
cional 0
▁امروز 0
jon 0
فل 0
▁pel 0
▁کسی 0
▁جن 0
▁الأم 0
▁persp 0
ammen 0
▁hát 0
▁estr 0
زن 0
▁уве 0
▁فإن 0
▁عد 0
▁جدید 0
▁jap 0
▁그는 0
▁davvero 0
lin 0
▁komp 0
לוג 0
▁بدأ 0
▁全 0
▁pelo 0
▁divent 0
▁ahol 0
▁العمل 0
▁üç 0
בד 0
▁sposób 0
▁pél 0
▁chất 0
▁możemy 0
▁nostro 0
ред 0
ieve 0
ating 0
לט 0
gelijk 0
▁dess 0
▁oggi 0
chien 0
▁المن 0
▁ця 0
▁mostrar 0
lev 0
ichte 0
▁napraw 0
▁visto 0
endant 0
▁tör 0
▁consum 0
▁طول 0
iones 0
יום 0
▁olduk 0
▁파 0
нной 0
▁planet 0
▁def 0
ıyoruz 0
ások 0
▁گو 0
▁manera 0
▁큰 0
▁thank 0
▁biliyor 0
дова 0
▁wen 0
▁העולם 0
▁instit 0
ánk 0
▁damit 0
owy 0
▁würde 0
ének 0
▁компа 0
aire 0
▁также 0
▁süre 0
▁situ 0
мите 0
گری 0
leicht 0
▁favor 0
▁הן 0
▁guard 0
▁мал 0
йн 0
дъл 0
rea 0
▁البي 0
▁ơn 0
▁חלק 0
▁ponie 0
▁nosso 0
▁kösz 0
خاص 0
או 0
сколько 0
▁hall 0
▁parti 0
▁km 0
▁aki 0
▁게 0
ron 0
이나 0
▁trad 0
▁میلی 0
▁więcej 0
▁prod 0
ortun 0
ầm 0
lere 0
aan 0
▁새로운 0
▁פי 0
▁vrouw 0
▁sang 0
▁さ 0
▁sür 0
▁adam 0
▁önemli 0
▁erano 0
▁clim 0
ôm 0
▁toutes 0
вете 0
▁מג 0
▁dok 0
▁милли 0
tivo 0
aron 0
▁times 0
▁ple 0
▁exact 0
▁build 0
äl 0
▁tão 0
▁doing 0
▁bár 0
ecto 0
▁всего 0
ology 0
ativa 0
▁facem 0
▁aliment 0
▁gema 0
bio 0
理解 0
▁жизни 0
▁geme 0
▁câte 0
▁apren 0
如何 0
קט 0
▁weet 0
▁mim 0
icie 0
▁gracias 0
▁again 0
▁aby 0
▁резу 0
▁două 0
▁bot 0
▁علا 0
▁역 0
▁tend 0
▁estado 0
▁jeste 0
▁왜냐 0
▁وقد 0
▁mismo 0
▁industr 0
▁ima 0
▁lub 0
▁ръ 0
רון 0
▁있었습니다 0
▁cy 0
▁точ 0
чат 0
到了 0
▁حض 0
▁игра 0
מצא 0
лни 0
▁manier 0
▁diễn 0
▁avea 0
لاث 0
▁تد 0
▁naprawdę 0
させ 0
▁بأ 0
▁stel 0
uc 0
▁potrze 0
▁lavoro 0
צת 0
大的 0
▁ponieważ 0
▁היום 0
ート 0
▁gle 0
▁alguns 0
وجد 0
غير 0
ize 0
▁depois 0
▁nawet 0
▁mort 0
▁gülüşmeler 0
éz 0
▁ún 0
▁mód 0
ラン 0
▁אומר 0
▁relig 0
▁كم 0
▁xe 0
▁simples 0
▁peg 0
▁הול 0
▁númer 0
tijd 0
▁vielleicht 0
▁beso 0
▁пол 0
▁kit 0
раз 0
rat 0
ght 0
über 0
ole 0
▁искам 0
▁hui 0
קו 0
▁בין 0
▁wiel 0
▁conte 0
▁вече 0
▁jamais 0
inas 0
▁ox 0
ợi 0
ikus 0
▁bütün 0
▁· 0
▁للت 0
▁dolog 0
شد 0
它们 0
▁rid 0
▁fact 0
unto 0
에요 0
▁وفي 0
那些 0
▁деца 0
нерги 0
▁pays 0
jt 0
colo 0
▁stad 0
▁misschien 0
▁crian 0
▁た 0
▁自分 0
▁wszystko 0
щу 0
▁שנים 0
▁hele 0
umuz 0
▁rac 0
▁já 0
▁fotograf 0
▁dalla 0
ware 0
esti 0
ască 0
▁dạ 0
▁after 0
▁impor 0
▁ul 0
지를 0
▁다시 0
▁ممکن 0
▁atât 0
къ 0
lal 0
▁juste 0
▁giúp 0
▁그녀 0
▁khó 0
▁400 0
▁matemat 0
▁terug 0
▁pequ 0
zioni 0
▁tiến 0
▁cli 0
▁있고 0
ive 0
▁après 0
jen 0
▁noso 0
▁material 0
▁从 0
quoi 0
▁0 0
きな 0
▁başlad 0
лект 0
gg 0
gul 0
▁biri 0
uzione 0
▁הייתי 0
▁ذه 0
▁sw 0
▁roku 0
▁kế 0
▁heraus 0
ậu 0
使用 0
▁zas 0
▁difí 0
孩子 0
▁tur 0
▁hemos 0
гна 0
tric 0
omat 0
▁chem 0
▁másik 0
رائ 0
つの 0
▁gab 0
▁показа 0
▁nuestra 0
пла 0
elijke 0
▁jeden 0
ßen 0
▁وق 0
änder 0
▁أس 0
▁azon 0
ható 0
▁która 0
▁让 0
dos 0
▁それは 0
▁سپ 0
▁sido 0
▁という 0
ления 0
ése 0
▁până 0
▁melhor 0
▁lado 0
▁использо 0
▁rol 0
мати 0
的に 0
▁giáo 0
▁느 0
нови 0
▁הכל 0
яс 0
해야 0
▁друг 0
kelijk 0
▁луч 0
▁ар 0
▁ăn 0
нк 0
alis 0
وط 0
סים 0
▁رب 0
▁karşı 0
▁sł 0
▁поэ 0
▁corre 0
فك 0
▁בט 0
▁دوست 0
یند 0
▁ero 0
▁disc 0
الب 0
зад 0
ứa 0
的一 0
▁liter 0
▁allemaal 0
▁eğ 0
▁nosotros 0
地球 0
できます 0
▁grote 0
▁اخت 0
▁עבור 0
▁ost 0
asında 0
▁kapcsol 0
▁cố 0
veis 0
▁نق 0
▁inde 0
▁داخل 0
▁lachen 0
▁hoje 0
▁가능 0
גע 0
▁tener 0
مون 0
ıyorum 0
ので 0
▁alan 0
рабо 0
ради 0
19 0
▁داره 0
▁today 0
번째 0
▁made 0
▁lleg 0
лей 0
wol 0
▁مخ 0
▁escol 0
▁спаси 0
▁takie 0
▁esses 0
ogo 0
فه 0
iştir 0
▁gần 0
▁我々 0
jourd 0
gat 0
▁چطور 0
▁otra 0
▁día 0
ровать 0
보다 0
▁бя 0
▁waarom 0
▁pourquoi 0
usz 0
▁tant 0
▁aujourd 0
вре 0
▁funk 0
▁تأ 0
▁بالا 0
▁объ 0
▁tư 0
▁함께 0
▁diz 0
ąc 0
icile 0
gs 0
▁jahre 0
kod 0
▁penso 0
▁cine 0
▁samo 0
▁속 0
گونه 0
▁nuestro 0
ものです 0
▁întâmpl 0
▁있다는 0
▁مرا 0
auen 0
▁încer 0
▁nostra 0
zenia 0
▁בב 0
▁regar 0
тив 0
bes 0
▁мои 0
▁inan 0
▁high 0
▁göz 0
فاوت 0
▁natural 0
сы 0
leş 0
▁후 0
▁ци 0
ける 0
ניין 0
▁أش 0
▁geht 0
שמ 0
▁اب 0
▁exempl 0
▁дока 0
▁ngay 0
▁dob 0
▁yarat 0
▁altri 0
▁ومن 0
rijk 0
وص 0
▁quelques 0
وة 0
▁вто 0
בין 0
▁мя 0
▁tudom 0
▁mars 0
▁요 0
▁来 0
صبح 0
▁talk 0
▁strat 0
לדים 0
▁דרך 0
▁vorb 0
▁sper 0
▁שת 0
▁poten 0
ards 0
▁тако 0
▁голя 0
▁няколко 0
▁האח 0
▁инди 0
▁pela 0
mu 0
▁quelle 0
tea 0
▁сего 0
cono 0
▁150 0
▁puis 0
▁חבר 0
sek 0
▁אולי 0
ارت 0
▁cie 0
地方 0
ことは 0
▁себя 0
▁жен 0
▁lear 0
▁cient 0
▁됩니다 0
▁どう 0
▁syst 0
▁macht 0
عية 0
▁merc 0
▁تخ 0
▁اطلا 0
▁biraz 0
不同 0
yal 0
anos 0
ходит 0
人の 0
▁کمک 0
▁więk 0
▁… 0
вал 0
uter 0
ität 0
▁وم 0
▁дете 0
itter 0
łec 0
bili 0
▁сегодня 0
▁cresc 0
取り 0
▁biến 0
ắp 0
▁enfants 0
vam 0
▁ağ 0
니까 0
を持 0
▁사람들은 0
▁nich 0
aren 0
▁hết 0
▁אלה 0
▁tình 0
▁кли 0
▁îl 0
▁nell 0
▁그렇 0
▁ماذا 0
▁بالن 0
▁добре 0
▁beste 0
▁win 0
▁soort 0
نع 0
▁האי 0
▁vou 0
▁inclus 0
fol 0
▁nieu 0
ków 0
▁מד 0
▁zusammen 0
▁zul 0
▁böl 0
▁처 0
▁بالت 0
▁一个 0
▁تول 0
▁keres 0
other 0
▁בצ 0
▁đơn 0
▁phòng 0
чва 0
fico 0
▁بچه 0
▁ידי 0
▁pháp 0
▁oto 0
▁geld 0
▁fig 0
رن 0
▁موضوع 0
▁شه 0
▁מדי 0
nolo 0
ără 0
ady 0
▁라고 0
body 0
▁оти 0
▁gând 0
ưới 0
▁zeggen 0
▁realidad 0
▁famili 0
▁тепе 0
▁nombre 0
▁heute 0
▁بص 0
▁אין 0
▁ecco 0
▁têm 0
osi 0
其他 0
▁정도 0
▁hozz 0
ържа 0
▁теперь 0
▁проме 0
▁quest 0
▁tập 0
▁tượng 0
▁cât 0
▁간 0
زي 0
▁mac 0
一样 0
▁私の 0
▁phân 0
▁nghiên 0
▁사진 0
▁rów 0
を作 0
▁motiv 0
▁kinderen 0
▁cuối 0
▁놀 0
▁cei 0
▁điện 0
▁encontrar 0
bac 0
تان 0
deki 0
▁onu 0
▁회 0
וצא 0
▁estou 0
bier 0
dr 0
▁verschil 0
▁подоб 0
▁inizi 0
▁exc 0
▁bisog 0
▁wich 0
▁ede 0
▁직 0
świ 0
ates 0
이고 0
▁طور 0
▁поче 0
észet 0
▁لما 0
▁anno 0
ként 0
▁jes 0
قدر 0
גלל 0
▁кни 0
otos 0
ome 0
вых 0
uda 0
▁каже 0
ولة 0
▁turn 0
bui 0
닙니다 0
▁sf 0
▁hoy 0
▁път 0
なる 0
▁rapid 0
▁enorme 0
בודה 0
▁כן 0
▁lời 0
ták 0
▁프로 0
кар 0
▁이건 0
▁suas 0
▁edu 0
lim 0
▁consegu 0
gyel 0
とは 0
нения 0
зват 0
▁этих 0
oma 0
fore 0
▁ark 0
نة 0
ächter 0
oare 0
▁المد 0
▁giữa 0
ар 0
▁دانش 0
entemente 0
▁сред 0
▁açık 0
gende 0
kich 0
▁взе 0
▁donne 0
בוד 0
лиза 0
가지 0
▁profess 0
▁invest 0
мет 0
▁myśl 0
▁الأشياء 0
▁коли 0
▁truyền 0
▁cet 0
gem 0
arı 0
▁תודה 0
▁called 0
▁tuổi 0
▁geri 0
▁bilg 0
▁そう 0
▁نفر 0
▁bình 0
▁astfel 0
ướng 0
▁społec 0
чество 0
illes 0
baar 0
▁kezd 0
▁کنه 0
▁день 0
▁vos 0
▁nevoie 0
▁merci 0
▁ше 0
▁فرا 0
▁interessante 0
▁pen 0
كا 0
▁chim 0
راف 0
▁목 0
▁top 0
▁stwor 0
ئل 0
プロ 0
▁пъ 0
▁tranh 0
▁claro 0
▁xuất 0
▁despu 0
ussen 0
▁کل 0
▁fall 0
▁وهو 0
▁وك 0
▁gelächter 0
▁camp 0
נד 0
▁stim 0
ály 0
шу 0
▁그것은 0
▁sı 0
▁друга 0
ذي 0
anden 0
▁пример 0
win 0
▁paz 0
▁ise 0
▁обла 0
▁назад 0
zza 0
▁contr 0
▁tinh 0
طفال 0
omet 0
▁quiero 0
▁guerra 0
▁amig 0
iile 0
▁아닙니다 0
▁لكم 0
▁استخ 0
▁dobr 0
ęż 0
ędzy 0
ilo 0
▁zurück 0
▁riv 0
enscha 0
▁ea 0
美国 0
▁일이 0
▁storia 0
▁私たちは 0
нда 0
нд 0
▁obrig 0
▁اي 0
▁polít 0
▁intern 0
aniu 0
▁знаем 0
▁besoin 0
▁dolgo 0
▁поя 0
țin 0
▁chiến 0
▁bug 0
ặp 0
▁nici 0
▁difícil 0
▁diferente 0
▁acqu 0
▁perg 0
▁facebook 0
زد 0
▁vais 0
קות 0
▁רואים 0
▁proie 0
▁last 0
▁faci 0
▁erő 0
▁elm 0
▁zelfs 0
▁حق 0
▁valami 0
מד 0
ئية 0
iliz 0
▁pouvons 0
▁después 0
▁важно 0
▁غیر 0
▁solu 0
▁particular 0
▁سأ 0
нием 0
▁авто 0
bas 0
掌声 0
▁khoa 0
ítás 0
▁unul 0
▁sabe 0
▁nieuwe 0
beeld 0
▁אך 0
▁szóval 0
ath 0
▁гле 0
ney 0
▁jego 0
▁확 0
mez 0
▁شدن 0
▁човек 0
egn 0
▁دنیا 0
ju 0
ştır 0
▁cancer 0
▁为 0
▁つ 0
ửa 0
▁weten 0
▁acho 0
גר 0
▁yük 0
▁necess 0
знача 0
ütt 0
その 0
▁perio 0
صر 0
起来 0
▁procent 0
▁power 0
▁projekt 0
▁teknolo 0
▁chaque 0
فهم 0
הי 0
▁cał 0
▁شهر 0
cido 0
年前 0
▁çek 0
▁pus 0
ينة 0
стре 0
▁поэтому 0
ığım 0
▁تجرب 0
▁supp 0
▁natuur 0
▁존 0
hões 0
▁свър 0
نامه 0
منا 0
▁дава 0
дов 0
vare 0
▁полити 0
▁parece 0
▁دیگری 0
▁lead 0
▁özel 0
▁signific 0
▁onlar 0
▁khả 0
ąda 0
▁senza 0
▁teil 0
▁szcz 0
▁suy 0
▁изве 0
цию 0
писа 0
▁بط 0
tól 0
asse 0
▁زمانی 0
▁אותה 0
▁verw 0
▁jej 0
kan 0
▁sản 0
▁디 0
auf 0
▁ident 0
راه 0
кла 0
리를 0
▁già 0
قتصاد 0
nis 0
▁בני 0
▁vin 0
▁trze 0
غي 0
▁fen 0
▁огром 0
ẩm 0
ומר 0
arch 0
▁세상 0
▁которая 0
▁خان 0
chts 0
▁прост 0
▁đặt 0
▁avan 0
ורי 0
пер 0
nor 0
だと 0
▁mig 0
▁köszön 0
şit 0
szak 0
たい 0
الة 0
▁انه 0
▁histoire 0
▁ша 0
▁gek 0
بح 0
ah 0
▁имат 0
▁wet 0
▁sud 0
▁mỹ 0
kes 0
▁وكان 0
atok 0
anne 0
始め 0
▁أت 0
▁lond 0
▁חושב 0
زم 0
▁widz 0
رى 0
trás 0
▁popul 0
▁dép 0
▁atmos 0
باط 0
▁molti 0
▁ciud 0
▁ス 0
ious 0
▁때문입니다 0
▁muss 0
гава 0
alen 0
ícul 0
▁почему 0
▁好 0
▁مرة 0
ikkel 0
でしょうか 0
ekkür 0
▁weiter 0
لیل 0
▁europa 0
▁dag 0
▁leb 0
▁而且 0
▁רא 0
▁quero 0
тер 0
▁tehnolog 0
▁dó 0
عداد 0
diğim 0
▁wsz 0
▁conne 0
▁화 0
▁расска 0
מצ 0
▁kỳ 0
ترنت 0
ness 0
▁يمكننا 0
▁teşekkür 0
▁partici 0
▁دون 0
▁deix 0
▁начина 0
▁profes 0
يش 0
vamo 0
▁stati 0
▁project 0
意味 0
▁ít 0
ov 0
▁szük 0
рта 0
▁glob 0
риа 0
zum 0
bero 0
▁دل 0
▁science 0
▁parler 0
▁掌声 0
▁nen 0
▁fantast 0
▁проис 0
▁некото 0
▁migli 0
▁실제로 0
▁پا 0
▁pul 0
وى 0
вате 0
vál 0
edere 0
▁любо 0
▁loài 0
▁הכי 0
iet 0
ford 0
▁doc 0
▁otro 0
▁lấy 0
الات 0
ligen 0
▁zag 0
нет 0
▁있죠 0
▁wahr 0
▁아니라 0
дата 0
皆さん 0
▁אפילו 0
▁amaz 0
زه 0
▁posso 0
▁nei 0
لق 0
ذار 0
вая 0
▁thị 0
▁gyerek 0
▁언 0
▁zach 0
▁own 0
طح 0
▁감사 0
istr 0
▁jour 0
▁copii 0
▁המי 0
род 0
▁fundament 0
ító 0
zenie 0
▁שח 0
▁online 0
▁especial 0
▁azok 0
یشه 0
uite 0
ichten 0
▁направ 0
▁trabajo 0
▁都 0
ستخدم 0
면서 0
▁étu 0
▁voglio 0
نية 0
naj 0
리는 0
▁ربما 0
▁완 0
▁سیست 0
▁ایده 0
ولو 0
asă 0
▁фу 0
дума 0
ically 0
▁وح 0
ichen 0
▁неве 0
▁bey 0
פו 0
▁שק 0
▁בגלל 0
▁bang 0
▁muchas 0
rer 0
eszcze 0
政府 0
▁заме 0
عرف 0
סף 0
ähr 0
yl 0
▁био 0
▁cru 0
▁私が 0
▁ov 0
▁hon 0
▁дали 0
вый 0
▁програ 0
▁همچ 0
▁ある 0
ulas 0
rok 0
▁sea 0
▁ado 0
なのです 0
▁المست 0
▁אמר 0
▁маши 0
▁concent 0
▁35 0
сите 0
▁مجموع 0
▁ganz 0
▁bast 0
▁уви 0
▁могут 0
▁cea 0
وام 0
거나 0
▁사회 0
▁psych 0
▁コ 0
▁истори 0
▁acontece 0
▁כשה 0
▁terror 0
▁should 0
▁네 0
▁خاص 0
▁اولین 0
dum 0
てく 0
▁hik 0
кта 0
tif 0
▁شک 0
▁аплодисменти 0
▁tiền 0
כנולוג 0
時間 0
▁спасибо 0
▁свя 0
yse 0
▁pendant 0
чна 0
▁שני 0
▁cali 0
▁ancak 0
▁вос 0
▁wyk 0
óbál 0
▁właśnie 0
atura 0
▁إنها 0
▁آنچه 0
▁שנה 0
▁зву 0
▁женщи 0
▁millones 0
▁lehető 0
lak 0
▁kah 0
ächlich 0
▁problemas 0
▁هستیم 0
ıyorlar 0
ために 0
▁încă 0
▁individu 0
▁върху 0
▁suo 0
▁péld 0
▁nasze 0
ليل 0
▁dünya 0
▁줄 0
ub 0
eln 0
通过 0
▁القي 0
▁arte 0
▁dollars 0
שית 0
voor 0
ですが 0
ıyla 0
▁empres 0
ısı 0
isme 0
▁بده 0
▁year 0
▁sare 0
wiąz 0
▁만약 0
▁جای 0
▁öt 0
▁ler 0
▁самы 0
▁train 0
▁mü 0
▁komen 0
פשר 0
なり 0
▁fort 0
▁essay 0
őt 0
▁이것이 0
▁detto 0
改变 0
▁זהו 0
▁schw 0
▁warum 0
▁eder 0
ames 0
▁означа 0
▁willen 0
▁lek 0
▁너 0
▁ю 0
▁attra 0
erstand 0
▁شك 0
ният 0
▁我想 0
סה 0
▁vagyok 0
اق 0
tres 0
▁идея 0
▁ngoài 0
блю 0
áj 0
▁변화 0
▁جميع 0
▁éle 0
▁qualquer 0
▁第 0
▁المح 0
▁kab 0
umesc 0
amer 0
▁أح 0
▁dort 0
▁stess 0
▁schon 0
▁îi 0
cra 0
いる 0
▁tutte 0
▁idée 0
خاب 0
row 0
▁somos 0
▁hiệu 0
▁exemple 0
kom 0
▁наша 0
▁geg 0
tow 0
tul 0
▁왜냐하면 0
▁zar 0
▁cso 0
gál 0
▁שו 0
▁coloc 0
нтро 0
zelfde 0
dad 0
ード 0
▁קי 0
▁vô 0
▁trabalho 0
▁fosse 0
ктив 0
▁virus 0
▁اطلاعات 0
pla 0
▁دهند 0
▁اونها 0
▁pă 0
▁hard 0
ából 0
がと 0
▁משת 0
▁spie 0
▁gele 0
▁didn 0
▁크 0
وض 0
에서는 0
▁должны 0
▁yêu 0
ấm 0
чь 0
сло 0
▁самом 0
▁îmi 0
もし 0
▁ország 0
▁jednak 0
▁instr 0
esség 0
告诉 0
▁xã 0
عمل 0
uten 0
▁אלי 0
▁пло 0
▁mondi 0
▁수도 0
ен 0
そう 0
▁pouco 0
▁bức 0
▁توانیم 0
▁ита 0
▁всех 0
▁agy 0
ное 0
ules 0
iệu 0
▁starte 0
▁rit 0
▁call 0
▁genau 0
▁dólar 0
▁думаю 0
▁يك 0
▁גי 0
ograf 0
▁أعتقد 0
▁phương 0
وك 0
なた 0
▁nivel 0
iam 0
ころ 0
▁ска 0
رج 0
▁túl 0
▁درصد 0
▁جام 0
ande 0
▁کوچک 0
مد 0
能够 0
▁באופן 0
▁клет 0
▁influ 0
▁dimens 0
▁mente 0
پی 0
▁докато 0
▁algumas 0
▁dere 0
▁cộng 0
áció 0
▁مثال 0
▁явля 0
▁plat 0
▁avere 0
ạnh 0
kiem 0
ほど 0
▁phi 0
▁element 0
▁zouden 0
צות 0
nt 0
▁música 0
▁좋은 0
▁случи 0
▁aztán 0
▁âm 0
▁نج 0
пита 0
である 0
▁sabemos 0
▁иссле 0
▁америка 0
uch 0
▁virtu 0
▁donn 0
▁ایجاد 0
▁hoạt 0
▁לל 0
▁möchte 0
▁生 0
▁이해 0
▁nast 0
uf 0
▁עוד 0
نه 0
mány 0
▁момент 0
▁étaient 0
▁sape 0
▁extraord 0
ellement 0
▁منت 0
▁عليه 0
ña 0
gin 0
يرا 0
▁многи 0
▁história 0
▁gene 0
▁conos 0
لاف 0
▁它们 0
▁ид 0
ركة 0
▁이유 0
▁שאתם 0
였습니다 0
▁ugyan 0
▁nodig 0
▁qualche 0
imizi 0
▁عل 0
▁اعت 0
▁מילי 0
xim 0
▁حرف 0
▁giorno 0
▁alte 0
▁جایی 0
▁تصو 0
▁proto 0
cią 0
는지 0
▁حاضر 0
▁إنه 0
▁aten 0
▁коне 0
زی 0
това 0
▁veux 0
▁credo 0
▁система 0
▁tats 0
ogra 0
▁chcia 0
öß 0
nă 0
▁پرو 0
▁yet 0
▁זמן 0
▁tasar 0
▁proprio 0
▁tv 0
▁حدود 0
▁found 0
раме 0
▁меди 0
▁suntem 0
▁scha 0
viv 0
どう 0
▁أخ 0
▁части 0
▁mất 0
كة 0
сна 0
▁cheg 0
лите 0
iez 0
דת 0
▁тогава 0
▁bỏ 0
べき 0
enden 0
▁إلي 0
▁dolar 0
▁dijo 0
▁ayr 0
▁بخش 0
nten 0
▁بازی 0
▁ét 0
▁znac 0
▁zaw 0
▁tên 0
▁problème 0
方式 0
▁autor 0
ındaki 0
ativo 0
ложи 0
tribu 0
▁identi 0
óng 0
▁오늘 0
▁ori 0
▁completamente 0
نى 0
חיל 0
▁열 0
jam 0
▁state 0
▁neuro 0
blico 0
▁свет 0
▁деле 0
▁blij 0
ولوج 0
▁jeszcze 0
▁אחרי 0
▁rég 0
▁mają 0
ydi 0
▁свят 0
▁trei 0
циона 0
▁למה 0
▁kto 0
▁bah 0
▁인간 0
▁never 0
iles 0
▁دقی 0
▁reci 0
▁possono 0
ított 0
jos 0
▁wszystkie 0
▁trả 0
сов 0
еди 0
▁중요한 0
onie 0
▁없습니다 0
ogen 0
тие 0
▁outro 0
▁ella 0
uras 0
らの 0
▁проблем 0
▁moins 0
▁lume 0
ţin 0
▁قب 0
▁кажды 0
על 0
▁اتفاق 0
▁stop 0
▁különb 0
▁einige 0
▁wam 0
▁modi 0
▁bài 0
▁orta 0
ário 0
alth 0
▁senti 0
▁circa 0
▁خوش 0
▁диза 0
cem 0
alı 0
겠습니다 0
▁다음 0
希望 0
▁необ 0
▁getir 0
eds 0
▁thought 0
▁マ 0
מונה 0
isp 0
ide 0
▁бяха 0
▁arti 0
▁đáng 0
▁thân 0
▁colle 0
وني 0
لاق 0
▁يمكنك 0
ável 0
▁înc 0
▁احساس 0
▁опит 0
▁line 0
▁ellen 0
▁demok 0
▁dış 0
▁adevăr 0
iness 0
▁another 0
ienie 0
▁알고 0
▁rat 0
йна 0
▁אחר 0
▁üzerinde 0
▁toujo 0
▁oso 0
▁esemp 0
▁toujours 0
▁prés 0
▁مسا 0
▁thú 0
veel 0
emble 0
▁уни 0
erca 0
を使 0
▁vreau 0
▁ihti 0
▁before 0
óp 0
▁изглежда 0
▁sức 0
▁its 0
▁比 0
▁приме 0
▁spec 0
事实 0
された 0
▁больши 0
▁pú 0
▁animal 0
mesi 0
▁temu 0
▁quant 0
▁onge 0
设计 0
▁gef 0
▁tat 0
▁países 0
▁later 0
▁دهیم 0
▁видео 0
▁sociale 0
▁jou 0
▁hadden 0
▁вели 0
▁בדי 0
▁tény 0
eda 0
▁twor 0
▁שכ 0
▁дъл 0
يء 0
▁zobac 0
▁wit 0
▁viene 0
▁ден 0
▁story 0
▁park 0
▁inspir 0
цы 0
ex 0
▁않습니다 0
▁talvez 0
rag 0
▁داستان 0
▁хра 0
▁lavor 0
▁شکل 0
графи 0
ではありません 0
起こ 0
▁kể 0
ващи 0
▁хочу 0
▁unui 0
▁مید 0
▁عا 0
▁educ 0
ژه 0
▁일을 0
▁אותי 0
▁muj 0
▁fără 0
▁együtt 0
▁مكان 0
▁בעולם 0
▁вопрос 0
▁dzięku 0
жна 0
ztat 0
▁أنها 0
ıcı 0
يدا 0
▁imagin 0
▁й 0
▁vagyunk 0
▁운 0
וני 0
▁đời 0
▁mean 0
▁belangrijk 0
▁appro 0
rel 0
▁пар 0
▁حقا 0
▁team 0
▁chí 0
▁altern 0
▁قابل 0
▁multi 0
▁کمی 0
▁luz 0
▁eh 0
áo 0
▁still 0
مج 0
undo 0
▁الز 0
gle 0
▁история 0
▁drie 0
▁والتي 0
▁올 0
▁خواهم 0
▁feel 0
▁compr 0
▁estoy 0
alom 0
zni 0
یی 0
▁educa 0
▁mostr 0
▁표 0
кре 0
▁именно 0
انات 0
rado 0
▁ress 0
تری 0
▁фе 0
▁почти 0
▁sava 0
▁i̇n 0
▁alre 0
halten 0
▁luôn 0
dob 0
这种 0
מרי 0
кс 0
▁процес 0
▁мисли 0
▁prac 0
▁eens 0
▁سیستم 0
▁място 0
ینه 0
▁zij 0
▁started 0
▁patr 0
▁изу 0
ási 0
hlen 0
なかった 0
▁منظ 0
▁אלו 0
▁через 0
▁понима 0
▁köszönöm 0
اهد 0
▁sufici 0
▁esempio 0
▁difficile 0
▁dall 0
▁уча 0
▁ano 0
▁днес 0
▁miért 0
▁اخ 0
▁tanul 0
▁doch 0
▁الأول 0
▁vezes 0
▁vit 0
▁talán 0
▁volna 0
▁mẹ 0
▁بوده 0
▁ולה 0
▁живота 0
▁kadın 0
▁better 0
дра 0
ikan 0
中的 0
▁temper 0
▁seulement 0
▁ocean 0
بان 0
▁insanların 0
▁стру 0
▁será 0
▁következ 0
▁로 0
▁happ 0
▁give 0
▁szükség 0
▁niez 0
▁desig 0
▁staat 0
▁jestem 0
▁calcul 0
▁tatsächlich 0
▁personne 0
▁حقی 0
▁بگیر 0
▁peuvent 0
▁yaşam 0
▁muchos 0
прави 0
▁przykład 0
▁مى 0
▁והוא 0
▁déc 0
▁45 0
▁iedere 0
לח 0
ége 0
igt 0
▁なぜ 0
▁stellen 0
кру 0
▁szab 0
▁fato 0
ترین 0
kin 0
▁좋아 0
▁peste 0
▁objet 0
▁műkö 0
▁حضار 0
▁hers 0
lei 0
▁nelle 0
▁deter 0
人的 0
▁피 0
ident 0
▁olmad 0
▁こう 0
是一个 0
▁quyền 0
diği 0
ană 0
▁כאשר 0
▁świecie 0
▁potete 0
▁친 0
▁four 0
رح 0
▁saben 0
▁răsp 0
▁mulher 0
amiento 0
▁méd 0
▁新 0
▁초 0
posta 0
▁מט 0
▁حين 0
▁שלכם 0
▁três 0
▁była 0
▁포 0
▁vr 0
▁möglich 0
▁손 0
▁zat 0
ونی 0
üne 0
▁understand 0
▁junt 0
▁elég 0
▁noastre 0
▁nghiệp 0
волю 0
ありがと 0
▁nauk 0
▁hou 0
צב 0
▁작은 0
▁mole 0
vat 0
ありがとう 0
▁planeta 0
▁minh 0
▁چگونه 0
▁bede 0
кспе 0
omp 0
lep 0
▁места 0
▁city 0
▁nincs 0
▁kobie 0
▁힘 0
えば 0
גים 0
чения 0
▁mindig 0
▁آموز 0
▁эту 0
▁本 0
ką 0
▁might 0
▁comprend 0
▁ona 0
עיון 0
▁arri 0
щата 0
ím 0
▁نبود 0
▁miliar 0
▁fine 0
▁citt 0
érie 0
woon 0
▁باشه 0
▁piens 0
▁aver 0
ậm 0
ניה 0
대로 0
▁נת 0
▁té 0
▁meio 0
ناء 0
لاء 0
人们 0
▁قدرت 0
onden 0
▁드 0
قب 0
тни 0
hir 0
▁때문에 0
▁stata 0
▁special 0
▁fur 0
گران 0
циал 0
нение 0
dur 0
▁kes 0
enz 0
▁мар 0
▁szeretn 0
▁sup 0
▁sonu 0
روه 0
▁eig 0
▁هد 0
▁دع 0
▁thử 0
▁bild 0
مس 0
דיין 0
▁يح 0
▁vedea 0
▁vanda 0
▁outra 0
▁ham 0
bs 0
▁went 0
▁tiêu 0
▁sách 0
▁mạnh 0
▁geno 0
▁жизнь 0
▁onun 0
fé 0
▁tér 0
▁uni 0
▁그렇게 0
▁száz 0
▁soft 0
任何 0
だった 0
▁próx 0
▁haber 0
▁моя 0
▁diye 0
org 0
bur 0
▁أننا 0
▁îns 0
▁moder 0
обще 0
ключи 0
▁trái 0
vous 0
你的 0
▁ней 0
ディ 0
▁그들이 0
▁tenho 0
▁ragaz 0
▁verdad 0
完全 0
▁منط 0
▁الإن 0
▁realtà 0
▁맞 0
рой 0
▁сту 0
▁valam 0
ọc 0
тат 0
ald 0
▁живе 0
▁stesso 0
▁lập 0
▁명 0
▁alcun 0
关于 0
▁کاملا 0
▁كن 0
كبر 0
ديد 0
вро 0
kry 0
▁gover 0
▁bizony 0
▁שאנו 0
▁entender 0
ped 0
▁ediyor 0
▁davon 0
▁bill 0
▁jog 0
ابة 0
▁поста 0
▁치 0
▁과학 0
ád 0
likle 0
cies 0
▁اینه 0
▁עוב 0
▁необходи 0
▁yard 0
▁empe 0
▁dólares 0
▁99 0
▁вя 0
▁letz 0
▁jár 0
рма 0
duce 0
chan 0
ares 0
▁цент 0
▁major 0
▁میت 0
▁شيئ 0
▁تعلم 0
▁형 0
mite 0
estr 0
故事 0
larda 0
hes 0
▁obe 0
▁부분 0
▁tutaj 0
▁outros 0
▁komt 0
ینده 0
ător 0
ember 0
▁projek 0
ừa 0
hol 0
▁צריך 0
▁begon 0
▁ژ 0
▁sû 0
▁dziękuję 0
▁america 0
ント 0
▁이상 0
allen 0
▁ново 0
cident 0
▁frag 0
ובן 0
gether 0
ellen 0
▁wichtig 0
▁wł 0
ניתן 0
▁ולא 0
tend 0
▁خارج 0
▁khí 0
▁corpo 0
▁año 0
חק 0
▁savez 0
▁nostri 0
dzieć 0
▁מאד 0
▁mensch 0
áb 0
子供 0
▁موجود 0
▁tenía 0
erte 0
になる 0
▁allora 0
yste 0
▁احتمال 0
▁мъ 0
▁phố 0
▁partie 0
▁lors 0
▁atrás 0
▁yapıl 0
ולים 0
şey 0
idir 0
▁ليست 0
▁бъ 0
▁bele 0
мина 0
cune 0
▁montr 0
▁تک 0
▁tài 0
▁ekonom 0
quier 0
pes 0
enschaft 0
▁trí 0
▁func 0
▁tag 0
▁이러 0
▁откры 0
▁внима 0
▁gebruiken 0
▁duż 0
▁brit 0
▁able 0
▁помощ 0
▁vraag 0
▁vụ 0
▁tăng 0
▁2008 0
▁ret 0
▁première 0
▁ner 0
▁입니다 0
wikkel 0
▁ここ 0
▁мир 0
▁repres 0
كلة 0
▁запа 0
▁٬ 0
▁épo 0
اند 0
▁avant 0
▁ê 0
وند 0
izz 0
▁الحقيقة 0
▁некоторы 0
▁câteva 0
▁pak 0
▁esas 0
▁엄 0
ités 0
▁zullen 0
▁course 0
нове 0
ければ 0
▁trois 0
▁seç 0
▁avut 0
рят 0
ştur 0
mayı 0
メリカ 0
▁והם 0
▁следу 0
▁nord 0
▁עושים 0
كس 0
וט 0
вить 0
▁있어 0
▁david 0
▁действительно 0
cede 0
にお 0
ющих 0
▁oy 0
امی 0
cole 0
▁감사합니다 0
▁سنة 0
▁şe 0
▁xây 0
▁ung 0
▁erau 0
▁będ 0
inate 0
▁together 0
▁compar 0
▁첫 0
▁믿 0
▁drei 0
▁forme 0
بدأ 0
illi 0
▁지역 0
▁我的 0
▁soit 0
▁apar 0
▁如果你 0
▁продъл 0
▁evolu 0
frica 0
essen 0
yet 0
▁جنگ 0
▁étais 0
▁women 0
▁altra 0
owej 0
iros 0
▁هنوز 0
▁photo 0
الية 0
czu 0
ступ 0
bli 0
▁كث 0
▁kontrol 0
ğin 0
分か 0
▁đặc 0
תה 0
duğ 0
▁ziet 0
▁recu 0
▁olmak 0
▁ngu 0
زل 0
系统 0
▁итак 0
▁انتخاب 0
▁unei 0
дел 0
ろう 0
▁그러나 0
▁funzion 0
عض 0
מנו 0
usto 0
▁могли 0
▁yen 0
▁geschichte 0
bbero 0
▁آمریک 0
すると 0
▁دوب 0
▁кла 0
▁olabilir 0
▁hướng 0
▁quoi 0
czyć 0
▁صورت 0
▁mur 0
woord 0
▁kans 0
技術 0
▁intr 0
انية 0
פש 0
owych 0
부분 0
▁위한 0
▁vid 0
ном 0
▁causa 0
יוון 0
rod 0
▁עי 0
▁фото 0
▁toute 0
▁modern 0
▁kiến 0
owania 0
▁elk 0
▁compl 0
▁دلیل 0
▁pur 0
▁disso 0
▁böylece 0
тра 0
èmes 0
hm 0
entlich 0
ciendo 0
▁ارتباط 0
▁font 0
▁azért 0
教育 0
これ 0
▁تواند 0
▁total 0
▁rece 0
گان 0
ску 0
▁phẩm 0
▁وهي 0
▁văn 0
țe 0
atamente 0
▁projet 0
▁probable 0
▁negli 0
▁falar 0
▁또한 0
▁saját 0
▁número 0
▁ee 0
тем 0
▁بالنسبة 0
▁す 0
▁счита 0
▁несколько 0
▁평 0
pression 0
ices 0
▁或者 0
▁75 0
▁година 0
ẫu 0
phone 0
▁گروه 0
▁next 0
▁algunos 0
▁đâu 0
del 0
▁동안 0
ări 0
▁וח 0
▁식 0
▁복 0
▁يد 0
▁اندازه 0
▁passe 0
więk 0
ださい 0
▁ولا 0
▁أفضل 0
▁trebui 0
▁fél 0
▁local 0
ieron 0
▁yüzden 0
▁nov 0
ogn 0
▁zeer 0
▁wygl 0
▁usando 0
ווה 0
нен 0
ables 0
▁okay 0
iend 0
atr 0
▁השי 0
▁증 0
ạm 0
кси 0
ába 0
chio 0
▁질문 0
▁nhạc 0
یدن 0
ることが 0
▁плане 0
aga 0
▁아마 0
▁gros 0
▁dobbiamo 0
شه 0
cja 0
▁national 0
▁forse 0
▁cad 0
▁쓰 0
▁正 0
teri 0
▁حقیقت 0
▁twitter 0
▁którzy 0
рес 0
▁חז 0
▁đấy 0
ünüz 0
▁여러분은 0
▁thư 0
▁dẫn 0
▁ذات 0
▁geven 0
бере 0
▁علينا 0
▁voyez 0
▁الض 0
▁mạng 0
▁brain 0
▁每 0
вра 0
▁gas 0
▁chức 0
▁beni 0
bei 0
전히 0
ではなく 0
▁nuestros 0
▁explor 0
tique 0
dag 0
▁chọn 0
▁توانید 0
▁brawa 0
▁갖 0
▁second 0
▁jakie 0
▁deb 0
sun 0
kaar 0
▁tử 0
▁punk 0
▁jur 0
▁chơi 0
halb 0
تها 0
geb 0
▁חשוב 0
▁успе 0
▁możli 0
▁math 0
تا 0
▁кажа 0
▁stiamo 0
▁hatten 0
ظم 0
のように 0
▁שלה 0
▁mc 0
▁güzel 0
▁باشند 0
▁называ 0
▁tră 0
▁przek 0
▁million 0
▁iemand 0
▁פעם 0
▁kahka 0
▁cây 0
▁особе 0
▁parç 0
▁nig 0
▁واحدة 0
▁использу 0
▁голо 0
▁verk 0
▁mand 0
ساء 0
▁정보 0
▁البته 0
▁мой 0
▁pár 0
▁digit 0
▁شن 0
ileri 0
amat 0
▁בז 0
▁meno 0
▁oczy 0
مكان 0
tigen 0
▁منذ 0
▁شكرا 0
▁رائ 0
▁sl 0
▁alta 0
вает 0
▁amér 0
angen 0
▁sic 0
▁live 0
▁就是 0
▁حيات 0
▁vari 0
▁nő 0
▁ág 0
weise 0
▁هستم 0
▁tol 0
▁lem 0
▁hikay 0
▁hız 0
▁recon 0
▁possibil 0
шло 0
дом 0
heim 0
▁돌아 0
▁ху 0
▁bugün 0
try 0
려고 0
好的 0
▁الحياة 0
▁отве 0
▁güç 0
▁чер 0
▁natür 0
شار 0
▁otros 0
uv 0
ists 0
ーク 0
▁رأ 0
▁pov 0
▁nossos 0
▁társ 0
▁اجتما 0
▁спи 0
▁bisogno 0
▁입 0
▁非常 0
lement 0
▁érdek 0
▁tiv 0
▁gân 0
▁analiz 0
çe 0
▁произво 0
éo 0
▁mobil 0
▁죽 0
obb 0
▁אר 0
▁grandi 0
▁tier 0
isto 0
技术 0
▁میگ 0
▁bess 0
حدة 0
▁impro 0
▁hareket 0
▁képes 0
udar 0
ング 0
▁vas 0
▁soy 0
▁nucle 0
怎么 0
▁لنا 0
▁приро 0
▁знае 0
▁yapmak 0
▁három 0
▁egyszerű 0
ذهب 0
ween 0
▁rapp 0
▁bardziej 0
kaç 0
ciamo 0
など 0
▁المنا 0
▁love 0
osz 0
ーム 0
یمی 0
▁cier 0
▁atta 0
宇宙 0
▁이러한 0
▁قادر 0
מא 0
ull 0
owo 0
ciu 0
ショ 0
▁работи 0
▁ezeket 0
▁тво 0
▁зако 0
▁acel 0
▁ries 0
▁altre 0
ويل 0
▁könnte 0
▁kijk 0
▁werken 0
▁muitos 0
▁humanos 0
ורות 0
▁vielen 0
▁größ 0
▁dost 0
▁ứng 0
зве 0
▁няка 0
▁gelo 0
itori 0
▁tesz 0
▁sla 0
اله 0
мира 0
bij 0
▁결과 0
▁vời 0
ạch 0
פק 0
▁посмо 0
▁néz 0
▁날 0
قدم 0
데요 0
▁לצ 0
lijke 0
▁你们 0
▁فوق 0
▁آنجا 0
▁מער 0
▁motor 0
▁된 0
▁חיים 0
nem 0
▁実際 0
▁millions 0
▁capa 0
▁birkaç 0
▁22 0
▁例 0
undan 0
unun 0
▁يحدث 0
▁каждый 0
▁maior 0
▁موا 0
▁現 0
▁нужда 0
▁wr 0
▁outras 0
▁lle 0
ändern 0
▁ered 0
ましょう 0
▁прове 0
▁отгово 0
▁наде 0
▁unos 0
ومات 0
chter 0
▁link 0
▁centro 0
سانی 0
▁לכל 0
▁verschillen 0
▁nguyên 0
大家 0
▁verste 0
▁hey 0
▁chứng 0
ск 0
▁бли 0
iệm 0
▁ترین 0
▁oportun 0
▁belki 0
▁추 0
▁syn 0
▁sala 0
▁pil 0
ünde 0
▁مانند 0
▁дж 0
زا 0
מיד 0
виси 0
▁dispos 0
top 0
▁système 0
▁ejemplo 0
▁blog 0
▁becom 0
ering 0
aties 0
▁并且 0
▁בעצ 0
▁אדם 0
▁нови 0
▁muitas 0
▁ennek 0
▁موقع 0
▁تب 0
▁всяка 0
▁föld 0
truct 0
▁산 0
бор 0
▁طراح 0
▁universo 0
▁powin 0
▁each 0
iei 0
side 0
▁zek 0
ôt 0
iy 0
▁życia 0
▁mentre 0
uses 0
nio 0
▁anda 0
ъп 0
时间 0
▁primer 0
▁elkaar 0
ellett 0
cios 0
bri 0
▁bulun 0
داشت 0
orden 0
もしれ 0
▁конечно 0
▁chodzi 0
puis 0
进行 0
实际 0
▁ago 0
▁оке 0
hip 0
▁bastante 0
ionale 0
▁triệu 0
▁igen 0
דור 0
▁معم 0
▁ismer 0
جر 0
ucht 0
aları 0
▁vardı 0
▁buna 0
тво 0
▁بودن 0
▁194 0
غيرة 0
▁dựng 0
▁chết 0
▁اینها 0
▁noastră 0
ема 0
と思います 0
▁これが 0
▁zrobić 0
ikai 0
这里 0
▁توسط 0
▁chế 0
lé 0
来说 0
▁보이 0
▁انها 0
▁сказал 0
▁abb 0
zym 0
▁يتم 0
▁possible 0
بدو 0
мента 0
▁ját 0
▁afric 0
▁страна 0
▁kaz 0
▁természet 0
ieme 0
一下 0
めて 0
▁различни 0
▁فرد 0
▁probleme 0
▁ł 0
▁$ 0
▁moral 0
▁обо 0
▁micros 0
▁нали 0
▁cân 0
▁занима 0
▁lẽ 0
▁jelent 0
▁научи 0
▁vost 0
▁kunt 0
جم 0
שון 0
itive 0
只是 0
▁کود 0
▁sai 0
jące 0
▁scienti 0
▁数 0
▁предпо 0
▁отново 0
▁vinden 0
▁vere 0
▁gewoon 0
▁fontos 0
orii 0
▁capital 0
rais 0
▁שבו 0
▁grund 0
▁crianças 0
antal 0
כנס 0
▁elke 0
имо 0
▁تولید 0
проси 0
zus 0
pan 0
▁olur 0
▁meiner 0
▁얼마 0
▁רוצים 0
▁waż 0
▁tres 0
▁책 0
кро 0
under 0
同じ 0
▁אלא 0
▁önök 0
▁krijgen 0
▁acele 0
igu 0
利用 0
▁میشه 0
▁управ 0
▁года 0
▁ort 0
▁aument 0
▁فيها 0
▁наблю 0
▁започна 0
▁życie 0
▁perce 0
われ 0
▁وضع 0
▁norm 0
▁których 0
▁دیگه 0
▁направим 0
▁wys 0
▁diferen 0
▁אפשר 0
▁învă 0
قر 0
زة 0
に対 0
▁لحظ 0
ào 0
veer 0
iker 0
▁чрез 0
▁тър 0
▁hac 0
hang 0
▁ندار 0
▁הדבר 0
▁zab 0
▁cấp 0
▁asse 0
يك 0
▁wielu 0
קרא 0
▁بلکه 0
▁agric 0
▁2010 0
öző 0
gens 0
らしい 0
▁çe 0
▁licht 0
▁intro 0
▁kérdés 0
▁alto 0
▁ata 0
▁مؤ 0
▁برنامه 0
▁בג 0
▁fazendo 0
▁exemplo 0
▁ceci 0
ület 0
ジェ 0
▁darüber 0
学校 0
受け 0
▁нари 0
▁ry 0
▁ihn 0
▁връ 0
▁vele 0
▁pén 0
▁bank 0
기에 0
▁snel 0
▁ثلاث 0
▁במש 0
▁wollen 0
▁caz 0
▁vemos 0
▁hanem 0
▁dévelop 0
onde 0
▁weiß 0
▁europe 0
▁dù 0
icar 0
▁nau 0
▁kaç 0
▁gest 0
ضاء 0
▁tex 0
▁nooit 0
자가 0
ンの 0
▁מז 0
▁đạo 0
▁見 0
юсь 0
▁باشید 0
▁הנה 0
▁week 0
▁cau 0
شف 0
▁fui 0
▁rendszer 0
▁－ 0
▁말씀 0
▁primeiro 0
▁veces 0
▁niños 0
▁zamanda 0
▁reden 0
▁grupo 0
▁bize 0
▁simil 0
▁algor 0
лна 0
bert 0
▁hebt 0
▁항 0
未来 0
▁23 0
▁chia 0
▁cit 0
▁태 0
ầy 0
گز 0
agem 0
▁păr 0
▁pac 0
▁appar 0
kte 0
ged 0
▁wanne 0
medi 0
不会 0
▁المو 0
▁cultura 0
▁unite 0
смо 0
pli 0
▁فيه 0
▁wanneer 0
▁volte 0
▁scu 0
▁؛ 0
ющие 0
▁للم 0
zw 0
haal 0
▁ارز 0
▁sum 0
▁milion 0
▁ملي 0
▁נכון 0
▁hü 0
▁chiam 0
하여 0
되는 0
▁vent 0
▁costru 0
▁constr 0
zzo 0
▁علم 0
▁دادن 0
▁технологии 0
▁gehen 0
usta 0
▁הללו 0
▁человек 0
▁часть 0
▁mogą 0
umento 0
应该 0
▁לזה 0
▁haz 0
ilt 0
都是 0
▁большо 0
▁đứa 0
▁затова 0
▁posibil 0
▁impl 0
▁توجه 0
▁play 0
▁gặp 0
نان 0
bileceğ 0
▁większ 0
▁nền 0
▁health 0
рои 0
omas 0
場所 0
ステ 0
▁tháng 0
▁tir 0
それ 0
شخاص 0
▁כול 0
▁necesit 0
▁fuori 0
▁بتوان 0
▁perspec 0
▁moje 0
▁technology 0
▁resta 0
▁meille 0
▁evet 0
▁순 0
▁сним 0
wał 0
▁демо 0
▁گیر 0
▁impos 0
▁cụ 0
jących 0
▁הבי 0
▁czego 0
▁alcuni 0
съ 0
owanie 0
▁правят 0
רק 0
ispiel 0
リア 0
▁つまり 0
▁سطح 0
▁اسم 0
▁siem 0
▁saber 0
▁körül 0
ierte 0
▁존재 0
▁вяр 0
seam 0
acja 0
▁govern 0
▁achter 0
lerde 0
▁változ 0
▁tarafından 0
▁ruim 0
▁kons 0
▁came 0
ческа 0
pel 0
感じ 0
▁تماما 0
▁sĩ 0
▁aveva 0
▁נראה 0
▁xin 0
▁هوا 0
▁terre 0
▁conse 0
ضح 0
▁става 0
▁toe 0
یکی 0
nymi 0
▁사람이 0
▁因此 0
▁май 0
▁voit 0
▁ostat 0
▁nere 0
▁참 0
prowad 0
▁nuevo 0
▁help 0
▁commencé 0
▁좀 0
ulo 0
ージ 0
▁那么 0
▁دخ 0
▁בנו 0
▁зе 0
▁đa 0
▁ír 0
▁khỏi 0
▁أول 0
▁seine 0
idi 0
▁کتاب 0
▁دائ 0
▁kijken 0
▁few 0
▁campo 0
▁alkal 0
▁כבר 0
▁used 0
▁생각해 0
▁يوم 0
▁лучше 0
dım 0
一起 0
▁radio 0
▁gördüğ 0
▁شرکت 0
▁tussen 0
зира 0
ysł 0
▁ultim 0
▁nuovo 0
льные 0
▁لماذا 0
▁الأس 0
▁situa 0
▁발견 0
▁music 0
ünü 0
gono 0
▁истории 0
▁market 0
▁lei 0
▁beispiel 0
след 0
мой 0
ümüz 0
fog 0
emo 0
谢谢 0
▁앞 0
tunk 0
iếm 0
▁המח 0
▁personal 0
▁mari 0
▁differen 0
ạp 0
اقة 0
▁vezet 0
miyor 0
mand 0
▁تس 0
▁этим 0
▁szere 0
▁svil 0
▁plane 0
▁incon 0
▁삶 0
ete 0
▁여성 0
▁많이 0
▁دوباره 0
▁màu 0
▁бил 0
▁sorte 0
▁rip 0
▁המש 0
▁погле 0
▁שהיא 0
▁dưới 0
unca 0
inner 0
디어 0
▁بدن 0
▁thuy 0
▁wygląda 0
▁ambiente 0
▁sûr 0
ברי 0
abili 0
▁đô 0
▁cher 0
они 0
yk 0
▁too 0
amp 0
▁ваши 0
▁zon 0
▁mee 0
▁interac 0
▁depuis 0
▁절 0
▁ras 0
شین 0
dade 0
قى 0
emente 0
bilirsiniz 0
▁yardım 0
▁maggi 0
▁통해 0
▁tum 0
hető 0
▁áfrica 0
60 0
▁있어요 0
▁대해서 0
▁olacak 0
했죠 0
▁делать 0
▁weer 0
▁rim 0
▁opport 0
▁emer 0
ؤال 0
oren 0
▁oluyor 0
▁działa 0
▁deve 0
▁ander 0
▁learn 0
▁フ 0
йски 0
15 0
▁nhóm 0
▁exemplu 0
▁urban 0
▁ją 0
рую 0
face 0
上的 0
ータ 0
▁wurden 0
▁tamam 0
▁rõ 0
▁extrem 0
дем 0
ánd 0
ición 0
hec 0
entar 0
▁شنا 0
נם 0
oper 0
必须 0
▁הראשו 0
▁cla 0
ẹp 0
רום 0
тить 0
▁насе 0
▁наме 0
▁vero 0
▁kız 0
äu 0
▁woll 0
▁podría 0
▁phil 0
▁milyen 0
▁fikir 0
ákat 0
200 0
▁въпрос 0
▁kiş 0
▁얻 0
▁의미 0
▁تلا 0
▁tudják 0
деля 0
вание 0
ójában 0
larının 0
▁없는 0
▁nies 0
にある 0
▁közös 0
▁werde 0
▁phys 0
пера 0
hin 0
تمع 0
▁فى 0
られる 0
▁вместо 0
▁mano 0
▁bambini 0
▁האלו 0
▁után 0
▁células 0
▁bào 0
рд 0
▁아무 0
▁사이 0
▁uw 0
▁develop 0
▁пы 0
trz 0
izione 0
▁지구 0
▁نسب 0
▁физи 0
▁мину 0
▁product 0
▁ihren 0
מית 0
▁להשת 0
▁mogelijk 0
rez 0
成为 0
▁opportun 0
▁hacia 0
▁binnen 0
▁acestea 0
ברה 0
طان 0
תח 0
▁siempre 0
▁prov 0
▁jeder 0
▁direct 0
czas 0
▁گرفته 0
▁sư 0
▁desenvol 0
▁dw 0
راض 0
▁travers 0
ван 0
▁تف 0
▁סוג 0
▁conna 0
לד 0
▁spaz 0
▁peki 0
▁вза 0
▁cực 0
▁acela 0
▁дости 0
▁figyel 0
▁cảnh 0
цион 0
uştur 0
ises 0
▁tudjuk 0
▁thần 0
▁tengo 0
▁software 0
▁létre 0
觉得 0
▁casi 0
▁cra 0
▁않는 0
▁خاطر 0
yscy 0
uth 0
▁متفاوت 0
▁мире 0
▁qualcun 0
▁proget 0
▁plaats 0
▁nın 0
▁jesteśmy 0
▁acea 0
▁yaklaş 0
▁sous 0
▁１ 0
ıt 0
ello 0
crit 0
▁тогда 0
▁mass 0
▁i̇şte 0
▁istiyorum 0
▁ideas 0
▁wte 0
▁hablar 0
▁çıkar 0
▁سلول 0
▁estudi 0
▁уда 0
▁wtedy 0
▁lassen 0
حن 0
וע 0
ways 0
なければ 0
▁porta 0
▁onları 0
▁guar 0
عث 0
тка 0
▁برگ 0
▁آزمایش 0
▁oldukça 0
▁kilka 0
▁bilim 0
czego 0
▁شان 0
▁precisamos 0
muş 0
ulta 0
▁كذلك 0
▁проду 0
▁wyda 0
▁deney 0
▁其 0
▁medio 0
▁impact 0
▁görüyor 0
▁estados 0
▁earth 0
رده 0
ainte 0
▁וש 0
▁谢谢 0
elde 0
▁sett 0
cor 0
▁فه 0
▁lenne 0
ורת 0
能力 0
によって 0
▁châu 0
onl 0
▁dữ 0
▁иг 0
▁primeira 0
▁ongeveer 0
▁kein 0
▁درا 0
▁perd 0
▁fér 0
▁vista 0
▁prog 0
▁iedereen 0
itud 0
eira 0
бора 0
für 0
에도 0
▁أج 0
▁אחוז 0
▁usted 0
▁geor 0
▁1000 0
▁tov 0
▁midd 0
iri 0
▁ملا 0
▁erz 0
מין 0
ことに 0
▁desar 0
нско 0
不能 0
▁позволя 0
▁zmi 0
▁egyes 0
▁alatt 0
ềm 0
▁تصور 0
▁quay 0
туа 0
льной 0
▁etmek 0
しく 0
▁مقد 0
▁uzun 0
▁plant 0
▁hiss 0
▁duas 0
▁gid 0
кие 0
ough 0
ffe 0
elem 0
▁partir 0
▁エ 0
▁따라 0
▁계속 0
▁прекра 0
▁والت 0
▁vole 0
かもしれ 0
▁которых 0
▁resol 0
وتر 0
acy 0
▁온 0
▁between 0
▁простран 0
▁ebben 0
信息 0
▁vad 0
▁обу 0
▁meest 0
▁đánh 0
▁giản 0
óc 0
▁viết 0
▁valójában 0
рио 0
tech 0
▁كنا 0
▁رؤ 0
▁manière 0
▁án 0
ość 0
jet 0
▁그들의 0
▁tecnología 0
▁sondern 0
äs 0
ună 0
▁lebens 0
시다 0
▁journ 0
▁entr 0
▁الخاص 0
▁彼は 0
▁xuống 0
ویی 0
luk 0
写真 0
▁quanh 0
▁ludz 0
gere 0
▁הגדול 0
▁alak 0
ریق 0
▁اد 0
▁mở 0
шки 0
个人 0
мент 0
▁кита 0
▁act 0
میم 0
werk 0
▁robo 0
▁dese 0
ствие 0
▁pregunt 0
ران 0
ării 0
▁فی 0
▁toată 0
▁albo 0
성을 0
▁washing 0
▁acred 0
ắm 0
trib 0
▁rien 0
▁obrigado 0
нное 0
▁egyet 0
▁audi 0
▁شدم 0
▁постро 0
▁zdję 0
▁unserer 0
▁primo 0
▁kıs 0
▁デ 0
▁اشت 0
▁океа 0
▁sorun 0
▁gyak 0
сси 0
▁voil 0
▁phim 0
▁dịch 0
▁amo 0
ţe 0
▁нео 0
▁нека 0
▁trabaj 0
▁얘 0
ומות 0
zeni 0
数据 0
▁المع 0
▁ум 0
▁карти 0
▁pyt 0
rek 0
多くの 0
のような 0
▁quem 0
▁funktion 0
лё 0
ció 0
estra 0
esten 0
anted 0
▁гледа 0
▁obten 0
anas 0
▁vandaag 0
▁sino 0
▁geliş 0
▁esz 0
▁cią 0
▁ainsi 0
▁acqua 0
▁です 0
uls 0
▁által 0
لس 0
되어 0
▁الحد 0
▁comer 0
رخ 0
tiz 0
▁współ 0
▁nguồn 0
that 0
▁foram 0
素晴 0
▁musimy 0
▁کننده 0
▁yay 0
diğimiz 0
生命 0
▁خانه 0
▁първо 0
▁szerint 0
▁pó 0
▁obie 0
يب 0
prim 0
ickel 0
▁ск 0
▁under 0
▁space 0
▁miljo 0
çok 0
▁probleem 0
成功 0
▁הדברים 0
▁austr 0
лъ 0
▁szól 0
énk 0
köz 0
▁طبی 0
▁году 0
▁африка 0
▁digital 0
一次 0
▁这就是 0
▁ziem 0
▁양 0
کز 0
▁للأ 0
▁otras 0
▁chắc 0
рения 0
▁проблема 0
▁maybe 0
▁entend 0
▁dezvol 0
있는 0
▁amelyek 0
▁中 0
פרי 0
נתי 0
hrt 0
这样的 0
▁اع 0
▁במה 0
▁nghi 0
▁avais 0
▁уче 0
▁pren 0
▁koń 0
▁êtes 0
▁investig 0
▁histori 0
▁tű 0
ène 0
lej 0
因为 0
▁대부분 0
▁قام 0
▁ontwikkel 0
aban 0
▁عبر 0
▁להי 0
▁התח 0
▁znaj 0
▁jól 0
▁geweld 0
▁2009 0
▁근 0
ften 0
ców 0
▁jusqu 0
▁consid 0
צע 0
ança 0
▁семе 0
▁zrozum 0
▁novo 0
lang 0
▁voltak 0
▁milyon 0
▁intellig 0
▁hôm 0
▁27 0
▁esos 0
cere 0
▁страни 0
▁ortaya 0
▁gig 0
oli 0
▁また 0
▁باشیم 0
▁اذا 0
▁מספר 0
▁wäre 0
▁lugares 0
▁culture 0
iai 0
bla 0
▁währ 0
▁serie 0
قم 0
▁скоро 0
▁kunst 0
▁ща 0
ément 0
样的 0
▁آینده 0
▁sát 0
▁odkry 0
▁denen 0
▁ות 0
یب 0
▁도시 0
▁provo 0
▁geleden 0
▁flu 0
его 0
▁pau 0
▁nossas 0
▁vale 0
▁gegen 0
▁fle 0
▁complic 0
дит 0
▁собстве 0
▁някой 0
▁orice 0
▁контро 0
▁dzięki 0
▁allí 0
רוב 0
▁xa 0
▁compart 0
ática 0
ival 0
▁защи 0
주의 0
▁וג 0
▁случва 0
▁инстру 0
▁astr 0
▁뇌 0
▁ובכן 0
▁décou 0
cus 0
▁القيام 0
▁wetenschap 0
▁decid 0
▁생각합니다 0
▁eau 0
▁camin 0
▁дома 0
▁segur 0
▁תי 0
رفة 0
fik 0
▁بیر 0
▁çöz 0
▁grow 0
حل 0
óri 0
▁хорошо 0
▁god 0
▁cinco 0
قبل 0
▁خودم 0
▁вероятно 0
▁вла 0
▁preo 0
▁appel 0
يز 0
واب 0
的事情 0
▁המס 0
▁înseam 0
▁cominci 0
ług 0
つけ 0
▁모르 0
▁às 0
▁nicio 0
▁khá 0
ابه 0
ioane 0
人が 0
▁とても 0
▁البح 0
▁neue 0
dő 0
▁میده 0
▁뿐 0
▁میلیون 0
▁máqu 0
▁meses 0
▁conect 0
כנולוגיה 0
▁równie 0
とき 0
▁위해서 0
▁سخت 0
▁intelig 0
▁báo 0
kun 0
드는 0
にと 0
▁thêm 0
▁hiz 0
▁dai 0
irea 0
▁آدم 0
▁xác 0
▁khiến 0
▁financi 0
▁컴 0
ومی 0
kiej 0
他们的 0
▁spraw 0
▁jobb 0
▁città 0
anse 0
▁مرت 0
▁гло 0
▁vực 0
▁adn 0
ultat 0
▁verhaal 0
▁sche 0
▁incluso 0
▁だ 0
▁あなた 0
▁üz 0
▁sicher 0
▁business 0
▁bru 0
▁времени 0
▁prea 0
▁press 0
▁altijd 0
▁투 0
pot 0
▁بذلك 0
▁важ 0
▁înce 0
▁éch 0
▁rom 0
rup 0
▁이미 0
▁виждате 0
▁phía 0
▁keer 0
יתם 0
▁مل 0
▁حرکت 0
▁الأرض 0
▁zonder 0
▁natürlich 0
▁image 0
▁카 0
ميع 0
ять 0
▁너무 0
▁يكن 0
▁uso 0
▁expér 0
▁سری 0
▁затем 0
▁verschillende 0
حتاج 0
▁말입니다 0
▁processo 0
▁mondta 0
▁beginnen 0
▁aceea 0
wej 0
▁عالم 0
▁surpr 0
ضی 0
▁방식 0
▁پرس 0
▁origin 0
kat 0
aş 0
▁ford 0
ítani 0
▁יהיה 0
▁szy 0
▁aim 0
tał 0
▁تماشا 0
▁видим 0
▁anlat 0
▁parec 0
▁creier 0
▁ありがとう 0
قية 0
▁alguien 0
ностью 0
▁proiect 0
군요 0
▁verde 0
▁megk 0
kim 0
arlo 0
▁עדיין 0
▁ért 0
▁madre 0
▁作 0
情報 0
▁infras 0
▁familie 0
rir 0
▁бра 0
▁wszyscy 0
▁ense 0
iser 0
▁steeds 0
строй 0
éd 0
▁نتی 0
▁اجازه 0
▁confi 0
▁birçok 0
вс 0
▁jaren 0
ns 0
▁humano 0
▁construir 0
▁children 0
ários 0
自己的 0
▁لها 0
▁طرف 0
ья 0
▁cervel 0
▁agua 0
하죠 0
▁وما 0
▁сами 0
▁öyle 0
▁light 0
▁gelen 0
pły 0
▁ока 0
▁исти 0
▁plut 0
ביב 0
тъ 0
▁washington 0
جار 0
מוש 0
mus 0
▁타 0
▁ши 0
▁것이죠 0
▁נמצא 0
▁machine 0
▁impar 0
▁quar 0
▁beb 0
政治 0
べて 0
▁наш 0
▁vissz 0
▁muh 0
gram 0
▁înseamnă 0
ساعد 0
dzą 0
▁تاری 0
קש 0
mon 0
良い 0
の一 0
▁처음 0
▁이용 0
▁جهانی 0
▁zmieni 0
ثل 0
▁وإ 0
▁üst 0
اح 0
ких 0
вают 0
stein 0
▁پول 0
▁während 0
▁general 0
▁beweg 0
▁באות 0
▁били 0
тру 0
bers 0
ász 0
weg 0
iny 0
alax 0
かに 0
▁vê 0
▁sogar 0
▁klas 0
▁шко 0
▁нем 0
▁đàn 0
▁alguém 0
▁알아 0
▁taş 0
yar 0
겠죠 0
▁przysz 0
▁kommen 0
▁ezért 0
▁dati 0
ury 0
きた 0
▁secre 0
▁cle 0
▁bilgis 0
▁poderia 0
▁ezen 0
▁done 0
▁لأنه 0
▁innych 0
▁会 0
▁segundo 0
▁legal 0
נוי 0
▁паци 0
▁vùng 0
▁יי 0
▁eux 0
▁본 0
емся 0
▁컴퓨 0
▁شبیه 0
▁أد 0
▁rius 0
fera 0
▁pris 0
▁intéress 0
ؤلاء 0
▁حی 0
▁doesn 0
なが 0
▁当然 0
▁économ 0
▁whole 0
▁kişi 0
▁crede 0
▁そこで 0
▁nego 0
▁jöv 0
▁ignor 0
▁还有 0
▁nieuw 0
סק 0
▁باعث 0
▁acab 0
iện 0
igo 0
▁verg 0
▁maneira 0
▁home 0
▁בשבי 0
یدم 0
▁materia 0
▁certain 0
aden 0
になります 0
▁đôi 0
▁vesz 0
▁tekrar 0
log 0
▁אחרים 0
提供 0
到的 0
▁nav 0
likte 0
이라고 0
리카 0
▁observ 0
▁isra 0
ماء 0
기도 0
事实上 0
▁گذشته 0
▁veri 0
▁czym 0
▁confer 0
cznie 0
▁six 0
▁pouva 0
▁devam 0
▁bev 0
unea 0
▁sec 0
▁oluş 0
▁誰 0
▁صف 0
▁phép 0
▁bud 0
انا 0
▁вие 0
▁example 0
anz 0
시키 0
▁실험 0
▁публи 0
▁stanno 0
▁mức 0
cola 0
に入 0
▁run 0
רכ 0
▁нашите 0
▁direc 0
▁condu 0
дол 0
szín 0
▁فقد 0
▁mú 0
▁흥 0
вши 0
▁vọng 0
▁güven 0
▁czł 0
▁sokkal 0
▁rap 0
▁aproape 0
▁يوجد 0
▁ומה 0
▁בעי 0
стно 0
ással 0
▁נפ 0
▁ula 0
ével 0
jed 0
▁włas 0
▁seja 0
▁prova 0
ینی 0
▁prost 0
▁jut 0
eil 0
▁أب 0
▁nova 0
pido 0
▁عدد 0
▁جان 0
▁תח 0
▁конце 0
▁enfer 0
▁bring 0
▁beet 0
هاية 0
anta 0
▁pis 0
▁galax 0
واء 0
▁amen 0
▁충 0
创造 0
▁popula 0
▁fís 0
بور 0
▁nhanh 0
▁geliyor 0
▁csal 0
▁никога 0
▁attravers 0
łości 0
thet 0
▁onderzo 0
▁دارید 0
▁qualcuno 0
▁カ 0
▁vissza 0
▁tham 0
نين 0
zzük 0
▁نتیجه 0
▁osz 0
▁シ 0
أة 0
тят 0
▁primera 0
▁dés 0
tır 0
▁그것이 0
▁التح 0
▁sev 0
▁less 0
▁frage 0
▁fis 0
انون 0
zal 0
jta 0
anız 0
思い 0
原因 0
▁همچنین 0
▁пет 0
▁maak 0
▁mér 0
▁dazu 0
òa 0
ences 0
▁água 0
▁2007 0
▁皆さん 0
znac 0
▁يعني 0
▁زیر 0
▁зае 0
▁grat 0
▁assez 0
сен 0
zik 0
言う 0
▁کا 0
▁отноше 0
▁petit 0
צל 0
лень 0
äd 0
arse 0
▁процента 0
ète 0
▁彼女 0
▁резуль 0
وست 0
rim 0
larına 0
▁בדיוק 0
▁looking 0
▁elkez 0
til 0
▁глоба 0
▁eigenlijk 0
▁disco 0
unge 0
▁prom 0
▁العام 0
▁לך 0
رسی 0
▁правим 0
▁бих 0
▁биз 0
▁imagina 0
▁chút 0
ılık 0
viamente 0
oló 0
▁디자 0
▁خانو 0
▁interest 0
▁intens 0
▁div 0
ồng 0
нци 0
nehmen 0
nę 0
▁derni 0
▁קצת 0
▁צי 0
▁muse 0
нте 0
40 0
▁существу 0
▁try 0
▁değiştir 0
▁سنوات 0
▁color 0
pital 0
يين 0
وانات 0
▁컴퓨터 0
▁refer 0
▁организа 0
▁herkes 0
▁مدرس 0
▁увели 0
▁ore 0
▁denke 0
emenea 0
▁оце 0
▁industri 0
▁francis 0
нди 0
▁voilà 0
▁teljesen 0
▁aer 0
tetlen 0
pers 0
▁האנשים 0
▁zod 0
▁trata 0
▁tục 0
▁fast 0
▁emberi 0
▁２ 0
▁먹 0
lardan 0
▁encontr 0
▁deel 0
きます 0
▁califor 0
fte 0
▁لكي 0
▁потом 0
▁вну 0
▁équ 0
▁fonction 0
świad 0
▁بگو 0
▁înainte 0
▁permite 0
▁arkada 0
▁araştır 0
▁społecz 0
▁molte 0
▁eks 0
这一 0
▁növ 0
▁gps 0
▁càng 0
▁아프 0
▁يش 0
▁zwischen 0
▁sentir 0
▁عليها 0
▁insieme 0
▁ahí 0
liğ 0
▁سیا 0
▁الام 0
公司 0
ップ 0
▁لإ 0
élk 0
stra 0
atto 0
▁dum 0
▁capire 0
▁特 0
кте 0
▁nostru 0
▁オ 0
▁ني 0
▁פר 0
▁példá 0
szych 0
igkeit 0
▁그건 0
▁چهار 0
▁jaki 0
▁cuenta 0
ביר 0
фо 0
ties 0
▁خواهیم 0
▁atom 0
ograph 0
liği 0
ason 0
aam 0
私たち 0
▁أريد 0
▁democra 0
▁prefer 0
▁ira 0
▁dlaczego 0
نس 0
▁هنگ 0
▁눈 0
anych 0
▁поле 0
▁thậm 0
ătate 0
nent 0
人类 0
▁gắng 0
غل 0
80 0
▁الطبي 0
▁сигу 0
iras 0
으면 0
стта 0
▁сторо 0
▁образом 0
▁gost 0
льных 0
▁finden 0
mê 0
▁тран 0
▁sentido 0
▁nasa 0
▁klein 0
ميم 0
telen 0
스템 0
واع 0
endir 0
정을 0
▁здра 0
▁eset 0
▁창 0
ندان 0
qué 0
pend 0
jas 0
▁각 0
чка 0
▁происходит 0
▁коле 0
▁trzy 0
▁prat 0
▁habl 0
▁наре 0
▁şeyi 0
▁tutta 0
▁laborator 0
▁bilgisay 0
▁begrij 0
▁ór 0
▁باور 0
▁ku 0
▁chẳng 0
▁bı 0
▁aos 0
يدي 0
inek 0
▁해결 0
▁않았 0
▁información 0
▁artık 0
▁현재 0
▁일어나 0
▁آور 0
úr 0
ített 0
yo 0
yes 0
nap 0
▁малень 0
كذا 0
нка 0
rebbe 0
ライ 0
▁đủ 0
▁sonuç 0
▁외 0
zam 0
hout 0
▁מדו 0
▁аб 0
▁somm 0
▁recht 0
▁iată 0
▁avete 0
▁algunas 0
דש 0
daság 0
atal 0
▁سمت 0
▁הזמן 0
▁nhớ 0
mail 0
kele 0
jem 0
arde 0
▁والم 0
▁nichts 0
upra 0
▁محا 0
▁văzut 0
▁specie 0
atro 0
▁تبدیل 0
▁било 0
▁sour 0
▁premier 0
▁andare 0
לב 0
őr 0
uktur 0
lerine 0
▁もし 0
ać 0
基本 0
▁انر 0
▁quelqu 0
▁perform 0
▁asso 0
мисли 0
bym 0
▁بیرون 0
▁отли 0
▁çev 0
▁테 0
كنولوج 0
тор 0
ször 0
▁экономи 0
▁vrij 0
▁entwickel 0
▁ensuite 0
ilik 0
▁enqu 0
▁bef 0
ندی 0
ذن 0
nél 0
ava 0
▁친구 0
▁יום 0
▁sera 0
▁gerade 0
▁dete 0
▁イ 0
▁opera 0
▁ohne 0
▁között 0
▁glaube 0
▁entrepr 0
▁버 0
êng 0
nię 0
aggio 0
▁برو 0
▁näch 0
âl 0
▁있다고 0
▁mulț 0
▁drog 0
alité 0
▁되었습니다 0
▁میک 0
▁trouver 0
▁sed 0
▁hiçbir 0
▁ры 0
lant 0
▁دنب 0
▁нещата 0
▁dạng 0
▁600 0
păr 0
▁мест 0
▁natura 0
▁mutat 0
▁einmal 0
▁활 0
▁reli 0
▁huma 0
▁뒤 0
▁расте 0
▁kut 0
▁kiv 0
▁bacter 0
▁argent 0
עט 0
issance 0
ager 0
abet 0
▁شدند 0
▁zen 0
▁permet 0
▁country 0
ёл 0
▁кар 0
▁cento 0
▁arkadaş 0
真的 0
▁pourrait 0
▁neh 0
▁grav 0
▁endro 0
larımız 0
▁ליצור 0
▁sarebbe 0
▁láthat 0
▁istnie 0
▁creare 0
▁apare 0
▁mı 0
▁bou 0
仕事 0
▁igazán 0
▁chance 0
▁alm 0
واج 0
▁кру 0
▁separ 0
irur 0
に関 0
▁خواهند 0
▁sö 0
▁miei 0
▁jos 0
▁economia 0
etta 0
▁génér 0
רונות 0
ysteem 0
▁להפ 0
▁rond 0
▁egym 0
ête 0
ieten 0
▁újra 0
▁wanted 0
▁vedete 0
▁haciendo 0
▁dài 0
عادة 0
▁تکن 0
▁ברי 0
▁уди 0
▁jon 0
▁ech 0
▁bence 0
▁میتوان 0
▁طراحی 0
یزی 0
ческие 0
들에 0
わか 0
▁מוד 0
▁случай 0
▁пыта 0
▁говоря 0
▁gây 0
▁etk 0
▁chị 0
▁blan 0
▁قال 0
▁fiind 0
▁annak 0
▁バ 0
ikt 0
▁서로 0
▁تط 0
▁מבי 0
▁były 0
وقف 0
▁ep 0
▁buiten 0
istes 0
▁информация 0
▁ezzel 0
▁corp 0
сни 0
▁дале 0
▁взаимо 0
▁sabem 0
▁ext 0
wiście 0
cken 0
▁диа 0
▁supra 0
tire 0
력을 0
▁قر 0
ньше 0
▁irgend 0
▁always 0
aría 0
发展 0
▁vidas 0
▁uç 0
▁konus 0
izio 0
elden 0
▁sand 0
▁integr 0
▁giv 0
hando 0
ature 0
atot 0
▁שוב 0
▁tél 0
素晴らしい 0
健康 0
▁보고 0
▁الحي 0
实际上 0
▁ali 0
▁absolut 0
▁intu 0
хра 0
ит 0
ark 0
正在 0
▁diffic 0
▁cultur 0
gang 0
▁întâmplă 0
▁bent 0
▁טי 0
wel 0
arbe 0
▁оно 0
▁marav 0
▁części 0
▁create 0
قص 0
▁التع 0
▁đẹp 0
▁lap 0
▁پنج 0
▁milioni 0
▁گی 0
ورش 0
וכלו 0
наги 0
tare 0
▁questions 0
▁colla 0
安全 0
▁risp 0
▁ț 0
culo 0
▁얼마나 0
▁następ 0
▁mys 0
ceğim 0
adan 0
▁מפני 0
▁sebe 0
▁geben 0
سات 0
اية 0
zin 0
ース 0
▁gă 0
enzi 0
▁inve 0
▁gemacht 0
рим 0
jm 0
imes 0
▁дву 0
▁거죠 0
▁válasz 0
▁vũ 0
▁terri 0
▁którym 0
▁faut 0
▁dlat 0
▁행동 0
▁thuốc 0
▁ink 0
▁half 0
▁dlatego 0
▁democr 0
▁demand 0
▁away 0
قاء 0
дить 0
alım 0
▁بینید 0
▁имам 0
▁cerveau 0
100 0
小さ 0
▁אוה 0
▁queremos 0
▁gehir 0
▁bună 0
こう 0
▁경우 0
▁يبدو 0
▁vul 0
▁governo 0
▁fác 0
▁düşünüyor 0
▁adevărat 0
▁חושבים 0
▁poveste 0
▁każdy 0
▁beter 0
▁asemenea 0
▁효 0
ủng 0
ستخدام 0
yac 0
えます 0
▁struc 0
▁oluştur 0
▁hasonl 0
▁어디 0
▁آل 0
áló 0
ouwen 0
▁되는 0
▁rus 0
▁cére 0
▁bea 0
ieke 0
▁경제 0
▁المث 0
here 0
▁그런데 0
▁seria 0
▁finalmente 0
ğun 0
的东西 0
▁primul 0
▁hagy 0
leştir 0
fall 0
coli 0
とも 0
▁társad 0
▁nueva 0
▁cervello 0
issen 0
cam 0
adora 0
▁трудно 0
▁lider 0
schap 0
▁идеи 0
▁lucrurile 0
었고 0
▁свобо 0
▁ника 0
▁dễ 0
▁암 0
ليس 0
ırım 0
▁ساده 0
▁potem 0
▁hät 0
▁données 0
▁alkışlar 0
stellen 0
iliśmy 0
▁الأخ 0
erden 0
結果 0
たら 0
▁لك 0
▁inten 0
ologie 0
▁számára 0
▁repre 0
▁problemi 0
했던 0
▁يقوم 0
▁ماشین 0
▁מקום 0
▁vrouwen 0
▁legyen 0
▁изоб 0
▁timpul 0
▁lich 0
▁רי 0
heiro 0
▁instrument 0
▁번 0
تنا 0
이었습니다 0
▁глу 0
▁havia 0
йти 0
▁първи 0
▁онова 0
▁од 0
iram 0
▁לט 0
▁wyst 0
▁uc 0
▁trò 0
▁także 0
ところ 0
▁kiểm 0
▁allen 0
yś 0
▁물론 0
▁phản 0
▁nostre 0
▁ihrer 0
▁guy 0
▁diferite 0
▁afgh 0
自分 0
▁بعضی 0
▁הייתה 0
▁возмож 0
▁trang 0
▁biểu 0
erse 0
▁مختلفة 0
▁زنان 0
▁reag 0
▁kwam 0
леми 0
pira 0
kop 0
▁همیشه 0
▁сказать 0
▁toplum 0
▁giao 0
▁イン 0
íst 0
tă 0
▁החיים 0
▁pract 0
▁cand 0
وها 0
▁ocur 0
▁eğit 0
▁看 0
ijf 0
hetetlen 0
god 0
eleg 0
이라는 0
▁squ 0
▁pessoa 0
▁hưởng 0
▁genre 0
ماغ 0
áról 0
▁lệ 0
קרה 0
deo 0
ardo 0
▁جامعه 0
▁gos 0
▁aids 0
▁niemand 0
▁تصمیم 0
▁السيا 0
▁karar 0
▁hív 0
▁fascin 0
الك 0
osság 0
▁مرب 0
▁ın 0
رام 0
▁كبير 0
喜欢 0
▁горо 0
▁üret 0
▁fő 0
▁nasz 0
▁değer 0
ружи 0
asyon 0
▁해야 0
▁quad 0
▁descu 0
▁agen 0
▁таким 0
▁которой 0
▁type 0
▁dados 0
▁arról 0
rijven 0
ierung 0
做的 0
▁زیرا 0
▁trying 0
غة 0
▁نیز 0
▁عظ 0
▁гу 0
▁înț 0
▁kommt 0
▁ideia 0
▁devons 0
▁capaz 0
に行 0
▁시스템 0
▁もう 0
▁کلی 0
▁رشد 0
▁utiliser 0
▁즉 0
zeu 0
keiten 0
▁نور 0
▁problém 0
▁niek 0
▁każde 0
▁bos 0
▁끝 0
یط 0
▁彼らは 0
▁طريق 0
▁הנו 0
▁компью 0
▁trai 0
▁bren 0
cum 0
almas 0
▁abord 0
פיק 0
чего 0
dık 0
▁استخدام 0
▁עומ 0
▁полови 0
▁zast 0
▁hayal 0
▁belir 0
tuur 0
理由 0
▁경험 0
▁نقط 0
▁فا 0
▁בד 0
▁뉴 0
ming 0
▁بگذار 0
▁working 0
▁wasser 0
▁muz 0
ציה 0
▁تقوم 0
▁נה 0
▁swoje 0
ющий 0
что 0
séges 0
jr 0
자를 0
ませんでした 0
▁richard 0
▁libro 0
▁bilgi 0
стя 0
вни 0
kr 0
etting 0
▁olması 0
طق 0
yg 0
があり 0
▁الشخص 0
▁اگه 0
▁mont 0
▁document 0
▁datos 0
▁등 0
tschaft 0
▁потре 0
▁basit 0
wood 0
▁является 0
▁компют 0
▁również 0
▁etc 0
▁再 0
ieg 0
▁دریا 0
▁vedem 0
▁başar 0
▁bước 0
▁робо 0
▁позна 0
▁tám 0
▁dafür 0
▁dwa 0
wości 0
すること 0
▁trời 0
▁găs 0
дят 0
▁داشتم 0
▁mikro 0
▁frank 0
issent 0
ecte 0
aro 0
니까요 0
▁움 0
meyi 0
ably 0
甚至 0
▁zeigen 0
▁tényleg 0
▁kolej 0
▁حو 0
▁tradition 0
▁például 0
▁mniej 0
▁kì 0
▁destul 0
▁believe 0
itivo 0
화를 0
にとって 0
▁present 0
▁법 0
pas 0
onia 0
▁كبيرة 0
▁проект 0
▁бъдат 0
▁giảm 0
בוה 0
iałem 0
bros 0
▁kötü 0
▁kı 0
▁bog 0
▁سپس 0
▁repr 0
▁rese 0
▁prezent 0
▁einstein 0
▁cualquier 0
▁propos 0
▁gyer 0
▁giác 0
ولوژی 0
▁tồn 0
▁led 0
▁consci 0
شق 0
рить 0
ling 0
文化 0
ネット 0
▁dolgok 0
▁بالم 0
▁обы 0
▁неза 0
قاط 0
צד 0
▁oraz 0
▁food 0
yst 0
rent 0
bit 0
▁محد 0
▁kics 0
▁idé 0
кспери 0
ward 0
lega 0
esebb 0
bun 0
▁pron 0
▁book 0
קד 0
עו 0
▁منها 0
▁микро 0
▁foss 0
▁hig 0
▁créer 0
▁behand 0
▁音 0
ريب 0
▁تعداد 0
▁הראשון 0
▁zero 0
▁65 0
لاب 0
حه 0
óság 0
lerden 0
dido 0
기가 0
▁فعال 0
▁funciona 0
▁دنی 0
▁frente 0
▁bố 0
xi 0
mun 0
ドル 0
шно 0
▁انرژی 0
▁wissenschaft 0
▁quiz 0
▁koy 0
▁expérien 0
цу 0
amię 0
▁متح 0
agt 0
▁yü 0
▁fácil 0
▁crea 0
▁벌 0
цев 0
개의 0
▁prozent 0
▁높 0
وء 0
לית 0
erc 0
▁вместе 0
▁visu 0
▁szyb 0
▁وارد 0
▁oko 0
▁nome 0
▁250 0
ایش 0
▁دختر 0
▁yüksek 0
▁spot 0
▁istiyor 0
▁everything 0
▁cậu 0
▁مسئ 0
▁weit 0
▁ustedes 0
▁domin 0
íz 0
▁تجربه 0
▁человека 0
▁würden 0
▁boyunca 0
toztat 0
▁عکس 0
▁pont 0
ناه 0
了一个 0
▁تلاش 0
▁mechan 0
▁case 0
тим 0
ığınız 0
mű 0
cks 0
▁vend 0
▁ク 0
iza 0
之后 0
▁никогда 0
▁descoper 0
diamo 0
了一 0
▁đình 0
▁cientí 0
▁aún 0
ítés 0
ein 0
经济 0
▁أنت 0
▁груп 0
▁strateg 0
▁small 0
▁regul 0
▁想 0
yer 0
▁بیماری 0
▁potrebbe 0
▁percep 0
▁meus 0
▁afghan 0
فی 0
▁наблюда 0
шен 0
rus 0
解决 0
▁лекар 0
▁bás 0
▁접 0
дви 0
▁فرو 0
▁والذي 0
▁جزء 0
▁التص 0
▁hacerlo 0
▁femmes 0
▁arbeit 0
вести 0
自然 0
ないのです 0
▁między 0
obra 0
更多 0
新的 0
上げ 0
tyw 0
▁سرا 0
▁уби 0
▁zaczę 0
▁spir 0
▁dipl 0
▁¡ 0
ős 0
ances 0
▁proy 0
▁gebie 0
▁creativ 0
larında 0
gép 0
bed 0
▁senso 0
▁electr 0
▁bahs 0
în 0
学生 0
▁gam 0
▁birbir 0
▁akár 0
day 0
つか 0
▁street 0
▁prot 0
ابت 0
ваться 0
▁كانوا 0
▁надо 0
▁край 0
▁pensare 0
▁lab 0
nál 0
드리 0
네요 0
▁예를 0
▁success 0
▁read 0
▁erste 0
▁aprend 0
fs 0
chodzi 0
▁unidos 0
▁site 0
▁punt 0
▁diagn 0
▁你可以 0
▁میتون 0
▁oud 0
▁mama 0
▁haj 0
נן 0
▁thuyết 0
tas 0
▁eti 0
ческих 0
нан 0
아요 0
▁以及 0
▁pouvoir 0
▁ihtiyac 0
isen 0
bin 0
▁pian 0
▁kennen 0
▁central 0
adar 0
経済 0
▁گرد 0
▁quasi 0
▁malar 0
▁disponi 0
▁それが 0
▁بیشتری 0
▁לר 0
▁odpowie 0
▁تقری 0
▁ببینید 0
▁voltam 0
▁contar 0
תיים 0
вах 0
▁phủ 0
▁hozzá 0
▁eş 0
▁нея 0
▁young 0
▁responsabil 0
▁reac 0
▁obs 0
▁بسبب 0
▁некоторые 0
▁люби 0
▁которую 0
▁всегда 0
▁mot 0
▁future 0
▁aug 0
chę 0
▁sieht 0
グラ 0
▁семей 0
▁fény 0
▁erken 0
рю 0
ută 0
aires 0
точно 0
ols 0
への 0
▁obec 0
▁nouvel 0
äm 0
ages 0
▁địa 0
▁đá 0
▁yüzde 0
▁ayrı 0
▁상황 0
▁محیط 0
▁пря 0
▁других 0
▁ал 0
▁hic 0
▁vệ 0
▁thinking 0
▁reven 0
▁nuev 0
▁através 0
▁ask 0
▁annyi 0
גות 0
ırs 0
▁arab 0
▁빠 0
のに 0
▁опа 0
▁находи 0
▁mujeres 0
lage 0
gos 0
▁tovább 0
▁tomar 0
ורך 0
ואו 0
emi 0
▁optim 0
▁money 0
unos 0
▁گذا 0
▁قلي 0
▁آمد 0
▁milhões 0
teket 0
atique 0
▁milioane 0
▁fino 0
▁такие 0
▁powiedział 0
ток 0
25 0
▁רבה 0
▁nuestras 0
▁lange 0
▁communic 0
щество 0
▁움직 0
▁تصویر 0
▁vertel 0
▁using 0
▁sapete 0
נטי 0
▁שלך 0
▁подума 0
▁produce 0
▁أكبر 0
▁продол 0
▁körny 0
▁flo 0
ză 0
▁criar 0
▁돈 0
ضية 0
ובה 0
жем 0
zó 0
年代 0
▁дове 0
▁vér 0
▁sais 0
▁cris 0
▁ужа 0
▁crit 0
▁2005 0
manın 0
biliriz 0
ーの 0
▁المتحدة 0
▁мина 0
▁etwa 0
ليم 0
деть 0
larla 0
▁كرد 0
▁بدأت 0
▁kutat 0
▁サ 0
▁означава 0
▁éner 0
▁geni 0
▁gay 0
▁black 0
当に 0
▁어느 0
▁детей 0
▁هؤلاء 0
▁świata 0
▁trud 0
▁thương 0
▁savaş 0
▁hạn 0
▁dever 0
üket 0
nung 0
itet 0
たり 0
▁прия 0
▁sizin 0
わけ 0
▁עושה 0
▁בערך 0
▁segít 0
▁잠 0
ござ 0
▁چیزهایی 0
▁şir 0
▁prendre 0
شرة 0
űr 0
▁سوال 0
▁mikor 0
▁mex 0
▁lợi 0
▁deber 0
فكير 0
ъка 0
ösen 0
lerinin 0
▁להבין 0
▁facă 0
▁يم 0
▁wonder 0
▁dünyanın 0
▁bilgisayar 0
▁verstehen 0
▁azi 0
всем 0
話を 0
▁والأ 0
▁واقعی 0
▁solar 0
▁gyor 0
▁は 0
▁ניתן 0
țion 0
リス 0
ということです 0
▁нашей 0
▁gleich 0
▁genom 0
льный 0
cję 0
真正 0
▁ين 0
▁فكرة 0
▁leid 0
▁billi 0
▁گفتم 0
▁מיי 0
▁интересно 0
▁tierra 0
▁pill 0
ключа 0
iszt 0
城市 0
▁minder 0
▁の 0
się 0
peł 0
düm 0
▁typ 0
▁mulţ 0
▁américa 0
ارس 0
▁چی 0
▁نظام 0
▁ונ 0
▁tamamen 0
▁plas 0
טח 0
dedor 0
▁گونه 0
▁הצי 0
▁винаги 0
▁verschieden 0
▁mục 0
지도 0
▁بج 0
▁совер 0
▁nouveau 0
人々 0
▁постоя 0
▁totul 0
▁passiert 0
ământ 0
inç 0
▁нашата 0
▁rev 0
▁prime 0
▁pontos 0
▁incr 0
▁병 0
زيد 0
ולוג 0
▁לחשוב 0
▁בתוך 0
▁lok 0
▁irány 0
▁cant 0
ories 0
▁קשה 0
▁הזאת 0
▁kia 0
ựa 0
ونا 0
alak 0
▁연결 0
▁نس 0
▁универ 0
▁înţ 0
▁lasci 0
▁lì 0
▁importa 0
▁hastal 0
▁要 0
лната 0
影响 0
少し 0
▁למע 0
▁leren 0
▁crear 0
▁chcę 0
בול 0
▁ساعت 0
▁יודע 0
▁tỉ 0
▁parlare 0
▁megvál 0
nu 0
hu 0
まれ 0
▁verm 0
▁transport 0
▁konnte 0
▁conven 0
▁去 0
ادي 0
лом 0
가는 0
のが 0
▁مب 0
▁יכולה 0
▁ваше 0
▁nigdy 0
▁gio 0
été 0
▁gat 0
чки 0
▁شيئا 0
▁тыся 0
▁sotto 0
▁puedo 0
▁interpre 0
▁estes 0
▁doet 0
▁نف 0
▁دنبال 0
▁깨 0
▁۳ 0
quement 0
forme 0
▁찾아 0
▁الطريقة 0
▁убе 0
▁музи 0
▁высо 0
▁suiv 0
▁sigur 0
▁naturale 0
▁különböző 0
▁george 0
▁genera 0
▁gou 0
کتر 0
علومات 0
дение 0
▁그의 0
▁هزار 0
▁מסוג 0
▁đoạn 0
▁vòng 0
▁niveau 0
▁jelen 0
▁event 0
▁인터 0
▁написа 0
▁feme 0
▁bán 0
▁مما 0
▁város 0
▁thôi 0
▁tari 0
▁comprendre 0
▁anf 0
ומים 0
рам 0
▁sign 0
oarece 0
▁възможно 0
▁abil 0
▁صحي 0
▁практи 0
▁вода 0
▁sık 0
▁rossz 0
▁pala 0
▁cause 0
ълно 0
isce 0
alia 0
스로 0
▁нищо 0
▁orada 0
ily 0
细胞 0
▁العديد 0
▁veramente 0
▁number 0
▁nerede 0
▁dik 0
zit 0
▁нарича 0
▁record 0
▁mulheres 0
▁grado 0
▁deles 0
گیری 0
щая 0
ationen 0
▁прода 0
▁şöyle 0
▁manh 0
▁코 0
▁只 0
entras 0
▁програм 0
▁vừa 0
▁millionen 0
▁cineva 0
▁آورد 0
▁déj 0
طا 0
رية 0
qui 0
てみ 0
▁영향 0
▁zawsze 0
▁vak 0
ذكر 0
12 0
▁учили 0
▁слож 0
▁cara 0
یدی 0
かけ 0
▁stanie 0
▁siete 0
▁five 0
▁concep 0
голя 0
▁сла 0
▁vertellen 0
íp 0
biliyor 0
いい 0
▁خانواده 0
▁забо 0
سية 0
кус 0
tube 0
stand 0
是在 0
▁ziemi 0
▁horas 0
לום 0
tta 0
▁البشر 0
▁اجتماعی 0
▁niektó 0
ekom 0
される 0
▁지난 0
▁toc 0
▁stessa 0
וריה 0
▁أما 0
▁באי 0
▁lehetőség 0
▁incl 0
uj 0
szym 0
▁pracy 0
▁nazy 0
▁daran 0
▁میان 0
▁valor 0
▁ersten 0
لايا 0
íveis 0
quel 0
mee 0
たのです 0
▁quali 0
▁means 0
▁baby 0
گفت 0
▁تقریبا 0
▁wszystkich 0
▁aprender 0
nell 0
▁давайте 0
▁trzeba 0
פל 0
vra 0
tö 0
▁carbon 0
作品 0
▁دي 0
وير 0
owane 0
▁próbál 0
▁perfect 0
▁inne 0
ската 0
▁stem 0
▁sant 0
▁revolu 0
▁cev 0
らに 0
かもしれません 0
▁оказа 0
▁vast 0
▁fanno 0
▁compass 0
▁cambio 0
עם 0
cje 0
▁toch 0
▁sembra 0
▁secondo 0
▁rad 0
▁prepar 0
▁posi 0
▁kultur 0
ustr 0
したい 0
▁explo 0
▁alguma 0
чета 0
str 0
명의 0
やって 0
▁kiếm 0
▁hiszem 0
▁appelle 0
▁ロ 0
ulu 0
kiego 0
halar 0
▁نعم 0
▁دهم 0
▁מכו 0
▁такой 0
▁kids 0
500 0
▁sze 0
▁mój 0
▁lai 0
▁homme 0
▁chirur 0
▁betek 0
פט 0
▁peux 0
шка 0
czenie 0
▁فض 0
▁בחי 0
pri 0
▁درک 0
▁במקום 0
▁музы 0
▁tę 0
▁кро 0
▁cerebro 0
帮助 0
ニュー 0
▁아이디어 0
▁енерги 0
áv 0
prend 0
gef 0
▁이야기를 0
▁determin 0
▁date 0
zyst 0
vő 0
나요 0
▁گوش 0
▁медици 0
▁интернет 0
的问题 0
▁یع 0
▁قص 0
▁stabil 0
▁bă 0
▁amigos 0
простра 0
ưu 0
▁متش 0
▁بسا 0
▁האר 0
▁которое 0
▁вра 0
▁pregunta 0
ници 0
情况 0
▁پروژه 0
▁يقول 0
▁ради 0
▁przypad 0
▁i̇nsan 0
▁confr 0
orth 0
▁وجد 0
▁صدا 0
▁jum 0
▁sì 0
▁certains 0
▁길 0
etr 0
▁یعنی 0
▁سيكون 0
▁avaient 0
אן 0
bon 0
▁私達 0
▁بما 0
▁вой 0
▁frauen 0
▁dużo 0
واز 0
ios 0
리아 0
简单 0
▁sempl 0
▁将 0
זר 0
стри 0
mamız 0
ium 0
▁데이 0
▁مواد 0
▁متوجه 0
▁طب 0
▁מסת 0
▁пом 0
▁étudi 0
▁combin 0
ża 0
inizi 0
▁будут 0
▁persoon 0
▁miał 0
зви 0
nąć 0
릅니다 0
▁بیا 0
▁pensé 0
▁diverse 0
uté 0
onos 0
amentos 0
▁전에 0
▁últimos 0
▁macch 0
▁köny 0
ظام 0
ודות 0
къде 0
▁eli 0
ческой 0
tanto 0
▁изобра 0
ienza 0
aient 0
▁wyobra 0
▁vão 0
▁trải 0
▁pensando 0
▁mid 0
▁enquanto 0
teur 0
entie 0
▁vite 0
ằm 0
ومة 0
لاح 0
onság 0
▁있게 0
▁чувства 0
▁rápido 0
ذج 0
这么 0
▁흥미 0
▁نقوم 0
▁другой 0
▁chciał 0
дове 0
▁기억 0
▁komple 0
▁développ 0
▁avevo 0
结果 0
▁тер 0
▁mesma 0
▁hoop 0
▁group 0
▁concer 0
lerinde 0
▁국가 0
▁tru 0
▁rek 0
▁recent 0
▁quale 0
▁miles 0
خته 0
cendo 0
▁uważ 0
غم 0
ându 0
deren 0
者の 0
ステム 0
▁vragen 0
▁uman 0
▁sendo 0
▁ingen 0
▁große 0
▁amerikan 0
▁ジ 0
מיים 0
选择 0
▁срав 0
▁икономи 0
▁hầu 0
pit 0
meno 0
atur 0
▁hil 0
▁beteg 0
▁리 0
нуть 0
▁أص 0
▁partes 0
nement 0
間の 0
▁엄청 0
▁השני 0
▁къ 0
▁head 0
доста 0
었어요 0
스트 0
▁דול 0
▁resto 0
▁copil 0
▁настоя 0
▁schimb 0
▁lép 0
了解 0
▁מוש 0
▁verr 0
▁mogli 0
▁birlikte 0
גש 0
טו 0
нности 0
лектро 0
nea 0
dial 0
細胞 0
▁الأع 0
▁ситуа 0
▁сем 0
▁thanh 0
▁amint 0
рение 0
ształ 0
ention 0
意识 0
▁음악 0
▁hộ 0
▁很 0
менти 0
elli 0
▁کنار 0
▁طريقة 0
▁took 0
▁recher 0
▁océ 0
▁mientras 0
▁kamer 0
▁ואנחנו 0
▁ram 0
▁aproxim 0
organ 0
▁tour 0
ünket 0
▁比如 0
اتی 0
آن 0
▁پشت 0
▁заедно 0
▁жела 0
▁fest 0
▁用 0
стой 0
вън 0
ája 0
▁éves 0
▁moeil 0
▁ابت 0
▁parad 0
گو 0
su 0
동안 0
过去 0
下来 0
▁luật 0
▁biztos 0
▁没有 0
▁ご 0
ören 0
utet 0
▁thi 0
▁podczas 0
▁deoarece 0
▁بیمار 0
▁оп 0
▁бър 0
▁kahkahalar 0
tero 0
める 0
▁میز 0
▁informatie 0
▁harika 0
▁alz 0
tür 0
jący 0
▁ور 0
▁zorunda 0
▁oui 0
▁francisco 0
▁formas 0
▁farlo 0
▁domanda 0
▁cérebro 0
ará 0
▁ули 0
▁безо 0
▁niets 0
▁ganze 0
лле 0
리가 0
▁그것을 0
▁החי 0
▁îng 0
▁sequ 0
▁benut 0
לך 0
▁מדה 0
▁кор 0
▁velo 0
▁siebie 0
теля 0
들도 0
▁دهید 0
▁دوم 0
▁מוז 0
▁земята 0
▁zes 0
▁trecut 0
▁habit 0
▁déjà 0
▁człowie 0
してく 0
▁만드는 0
▁我们的 0
▁そこ 0
▁منظور 0
▁بسیاری 0
▁أجل 0
▁dedi 0
▁besta 0
ركات 0
ológi 0
왔습니다 0
▁anderson 0
istic 0
ekkel 0
他的 0
になりました 0
кри 0
▁клетки 0
▁sợ 0
▁másod 0
▁手 0
вид 0
zych 0
▁уро 0
▁необходимо 0
▁rộng 0
▁passé 0
▁etki 0
▁dabei 0
נטר 0
▁فل 0
▁حدث 0
▁جوان 0
▁العاده 0
▁môi 0
▁hip 0
wijl 0
▁يق 0
▁собира 0
▁elv 0
▁ble 0
بین 0
тки 0
ていました 0
▁apprend 0
ţion 0
▁للغ 0
▁שבה 0
▁muzy 0
▁crois 0
▁intelligen 0
▁놀라 0
▁trăm 0
▁gri 0
▁fejlő 0
▁chân 0
▁agit 0
如此 0
十分 0
▁저희는 0
▁pomyś 0
▁pozi 0
▁neuron 0
лов 0
▁לדבר 0
▁структу 0
сты 0
以上 0
▁پاس 0
▁trochę 0
私は 0
▁свой 0
▁ők 0
▁dio 0
▁comida 0
よく 0
▁هی 0
▁توانند 0
▁mark 0
▁aantal 0
▁ハ 0
стъп 0
▁numero 0
▁giữ 0
▁epid 0
нията 0
źniej 0
stell 0
oko 0
▁넘 0
組み 0
▁موسی 0
▁plutôt 0
▁modelo 0
▁ensemble 0
▁ceux 0
▁ün 0
вое 0
irs 0
▁وهذه 0
▁своей 0
▁produz 0
▁natuurlijk 0
جع 0
oft 0
ierz 0
▁mondiale 0
▁magaz 0
▁harv 0
▁독 0
▁事实上 0
цо 0
▁поглед 0
▁wilde 0
▁nemen 0
ילו 0
▁вещи 0
▁terwijl 0
▁religi 0
▁ponto 0
▁miljoen 0
▁fim 0
▁embar 0
اريخ 0
▁نزد 0
▁قسم 0
▁zaczy 0
▁darwin 0
▁ciudad 0
дох 0
грани 0
ıla 0
abiliriz 0
▁במשך 0
▁palab 0
▁letzten 0
ایت 0
גד 0
zeit 0
的地方 0
▁الآخر 0
▁sug 0
▁paul 0
▁következő 0
▁année 0
lıyor 0
组织 0
▁디자인 0
▁거의 0
▁폭 0
غلب 0
全て 0
▁אותנו 0
▁măs 0
▁którą 0
сили 0
ásra 0
▁بحث 0
▁çalışt 0
▁hid 0
▁einz 0
▁ür 0
関係 0
▁جديدة 0
▁teach 0
▁repro 0
▁lény 0
entiel 0
重要な 0
▁جل 0
▁grou 0
▁人们 0
▁פני 0
▁выгля 0
▁scoper 0
▁nehmen 0
▁acces 0
ورا 0
usti 0
junk 0
dea 0
大学 0
▁venit 0
▁sollte 0
▁particip 0
▁list 0
ффе 0
ılmaz 0
íts 0
変化 0
▁узна 0
▁mudan 0
uel 0
▁نما 0
▁влия 0
▁research 0
▁conserv 0
▁conv 0
▁パ 0
utions 0
osos 0
▁пор 0
▁fragen 0
▁ış 0
רבה 0
imde 0
時に 0
▁voula 0
▁luận 0
nous 0
实验 0
▁сигур 0
▁zone 0
▁popr 0
▁nokt 0
▁green 0
▁chez 0
대한 0
有一个 0
フリカ 0
▁הבע 0
▁тот 0
▁globale 0
▁czasu 0
▁card 0
rique 0
▁زیست 0
▁ничего 0
▁relativ 0
▁espec 0
▁descri 0
▁更 0
زینه 0
нки 0
ztam 0
asa 0
▁simplement 0
▁először 0
▁혹 0
ظهر 0
zek 0
▁اونا 0
▁veranderen 0
▁regard 0
▁lett 0
▁arăt 0
▁arată 0
fér 0
▁الأن 0
▁במי 0
▁поко 0
▁гене 0
▁conoc 0
ğraf 0
▁padre 0
▁concept 0
▁arqu 0
▁천 0
▁次 0
шая 0
▁verso 0
▁meta 0
▁hack 0
icy 0
相信 0
▁כת 0
▁hücre 0
▁hit 0
usa 0
▁לגבי 0
▁сми 0
▁tích 0
▁descobr 0
▁body 0
wić 0
▁زبان 0
▁ויש 0
▁בעצם 0
▁succes 0
▁căn 0
държа 0
ides 0
▁בסי 0
▁ziemlich 0
▁compet 0
lung 0
▁sue 0
▁possa 0
▁betekent 0
▁adesso 0
▁把 0
áro 0
ulp 0
teil 0
▁الشيء 0
▁maakt 0
▁enough 0
ستر 0
árt 0
▁свою 0
▁место 0
▁децата 0
▁şirket 0
▁teşekkürler 0
▁olma 0
▁neste 0
▁könnten 0
كنولوجيا 0
ريبا 0
言葉 0
▁zad 0
▁poți 0
▁pin 0
▁err 0
пъл 0
okban 0
cić 0
那个 0
▁그가 0
▁использовать 0
▁đoán 0
▁restaur 0
▁phục 0
▁hacen 0
▁dục 0
▁ä 0
▁فیلم 0
▁برابر 0
▁להשתמש 0
▁уста 0
▁момента 0
▁евро 0
▁sole 0
▁mắt 0
▁edil 0
▁automat 0
لات 0
toare 0
idge 0
▁имаше 0
▁örnek 0
▁building 0
וקים 0
ходя 0
ум 0
▁cabe 0
פס 0
dată 0
▁untersch 0
▁pesqu 0
▁become 0
كية 0
机器 0
事情 0
▁съществу 0
▁муж 0
▁veränder 0
▁mental 0
▁charles 0
▁będą 0
روف 0
ств 0
决定 0
▁мисле 0
▁própr 0
▁limit 0
▁lã 0
افظ 0
atore 0
人は 0
▁държа 0
▁stam 0
▁sollten 0
▁och 0
▁minutes 0
▁drept 0
▁dành 0
يمة 0
▁تعرف 0
▁بالط 0
▁sanat 0
▁1990 0
חס 0
piamo 0
▁عمر 0
▁توس 0
▁תמיד 0
نوع 0
ío 0
table 0
czę 0
▁קור 0
▁vá 0
▁uda 0
▁seis 0
▁oczywiście 0
tual 0
roy 0
▁admin 0
ılan 0
▁자연 0
▁נק 0
▁фотографи 0
▁vind 0
▁teknoloji 0
▁interna 0
▁dobrze 0
▁cuer 0
▁corps 0
élkül 0
tér 0
dire 0
えて 0
▁лишь 0
▁orient 0
▁fotos 0
▁目 0
계를 0
▁سخ 0
▁kereszt 0
▁estavam 0
أك 0
éria 0
▁molek 0
▁hồi 0
ктор 0
ネル 0
▁설명 0
▁الاست 0
▁дола 0
▁wykor 0
▁left 0
▁camera 0
▁ビ 0
▁خودش 0
▁بالفعل 0
▁بکن 0
▁kellett 0
wach 0
tti 0
▁회사 0
▁세포 0
▁미래 0
▁나타 0
▁هدف 0
▁صدای 0
▁пара 0
▁tối 0
▁razem 0
▁konden 0
eniu 0
▁جالب 0
▁vẻ 0
▁ulaş 0
▁myślę 0
يه 0
ניי 0
▁многие 0
▁megold 0
▁mele 0
▁国 0
olare 0
ようと 0
▁가진 0
▁הרו 0
▁мас 0
▁élec 0
▁side 0
▁sarà 0
▁mân 0
▁cuán 0
▁besser 0
▁arbeiten 0
▁2006 0
ços 0
esehen 0
▁정부 0
▁afghanistan 0
ilerin 0
▁حمل 0
▁מהם 0
▁đầy 0
▁invece 0
▁dată 0
lama 0
小さな 0
两个 0
▁이게 0
▁redu 0
▁plast 0
ulajd 0
▁erzäh 0
▁angeles 0
زش 0
ujemy 0
时候 0
▁يا 0
▁كار 0
▁сви 0
▁sof 0
▁テ 0
يع 0
仅仅 0
▁환경 0
▁спу 0
▁simplu 0
▁nối 0
▁kapcsolat 0
▁представля 0
▁west 0
▁population 0
нами 0
tate 0
ordo 0
omány 0
ischer 0
gew 0
▁תק 0
▁мира 0
▁çeşit 0
▁elér 0
▁2004 0
▁ţ 0
тура 0
łoż 0
ンを 0
▁szak 0
▁riêng 0
▁nouvelle 0
▁fora 0
▁خص 0
▁בצורה 0
▁eden 0
想法 0
クト 0
▁wpły 0
▁2011 0
rá 0
cyj 0
▁درمان 0
▁without 0
▁taki 0
▁coraz 0
▁büyü 0
جب 0
ман 0
▁나라 0
▁גר 0
▁zodat 0
▁iran 0
▁attraverso 0
▁alcune 0
ktor 0
kach 0
▁sob 0
▁jemand 0
ńs 0
▁времето 0
▁wall 0
▁quase 0
ציא 0
ob 0
imente 0
▁بهذا 0
▁الأطفال 0
▁érz 0
▁raison 0
▁mivel 0
▁lịch 0
▁front 0
▁bonne 0
▁몸 0
▁では 0
izen 0
itions 0
diğini 0
▁فن 0
▁négy 0
راب 0
得到 0
▁그게 0
▁пари 0
▁única 0
▁politik 0
▁compon 0
هنگ 0
자들이 0
▁مال 0
▁adol 0
éli 0
staw 0
▁アメリカ 0
▁חשב 0
▁subst 0
▁artic 0
んど 0
▁وهنا 0
▁خطر 0
▁commer 0
▁chica 0
▁auß 0
ياه 0
ünf 0
▁منه 0
▁המת 0
▁изслед 0
▁год 0
▁onların 0
▁comes 0
▁بسي 0
▁разрабо 0
▁vont 0
가를 0
▁code 0
vere 0
cağ 0
acağım 0
▁아직 0
▁상상 0
▁בלי 0
▁повечето 0
▁обна 0
▁szko 0
▁ooit 0
قائ 0
ums 0
ープ 0
▁아프리카 0
▁こんな 0
▁خوبی 0
▁zami 0
▁tipos 0
▁permit 0
▁około 0
▁lic 0
▁energy 0
▁danke 0
▁ほ 0
ield 0
beren 0
▁השת 0
▁month 0
▁minute 0
▁humana 0
xo 0
igheid 0
ectiv 0
スの 0
▁וכך 0
▁thuộc 0
▁matem 0
▁történik 0
▁mant 0
▁cic 0
פון 0
▁تکنولوژی 0
▁למצ 0
▁חדש 0
▁suficiente 0
▁successo 0
▁suff 0
▁devi 0
▁편 0
▁可以 0
ạy 0
واس 0
قال 0
פול 0
ıkları 0
▁principal 0
▁misma 0
▁minutos 0
▁đứng 0
▁sâu 0
▁pokaz 0
▁nekem 0
▁kỹ 0
▁existen 0
tellt 0
照片 0
ンピ 0
▁وی 0
▁כשא 0
▁público 0
▁opt 0
▁facendo 0
acje 0
▁보시 0
▁مثلا 0
▁افز 0
▁ואם 0
▁тра 0
▁долла 0
▁py 0
▁donner 0
▁comunic 0
▁birşey 0
ático 0
으며 0
许多 0
▁wida 0
▁widać 0
▁goede 0
▁dak 0
▁biển 0
לם 0
וץ 0
▁المعلومات 0
▁آمریکا 0
▁nổi 0
▁anima 0
▁메 0
적이 0
環境 0
▁교육 0
▁توی 0
▁uite 0
▁getting 0
▁호 0
ъв 0
rete 0
인지 0
▁موسیقی 0
▁تحقی 0
▁meglio 0
▁cellule 0
▁머 0
velmente 0
▁wach 0
▁víz 0
▁kicsit 0
▁kür 0
нять 0
urilor 0
での 0
▁پذ 0
▁פחות 0
▁לדע 0
▁such 0
▁sound 0
▁rzą 0
▁nation 0
▁erkek 0
ację 0
▁nenh 0
czenia 0
bet 0
▁نداشت 0
▁היינו 0
▁еще 0
▁cien 0
▁より 0
شاف 0
▁선택 0
▁הדרך 0
▁produk 0
▁megér 0
▁مدرسه 0
▁قمنا 0
▁آموزش 0
▁произве 0
▁lòng 0
▁diện 0
▁computador 0
ván 0
nagy 0
성이 0
▁例えば 0
▁커 0
חור 0
ancia 0
项目 0
だけで 0
▁چشم 0
▁وجه 0
▁شگفت 0
▁آش 0
▁פת 0
▁welche 0
▁posto 0
▁islam 0
▁fundamental 0
▁algorit 0
جتما 0
ową 0
ilh 0
abileceğ 0
גו 0
ưỡ 0
imizin 0
ayan 0
▁моей 0
▁вне 0
▁архи 0
▁uomo 0
▁illus 0
▁avuto 0
şa 0
zeug 0
berg 0
不同的 0
わり 0
▁نستطيع 0
▁arasında 0
▁anyag 0
után 0
inter 0
▁ساخته 0
▁القد 0
▁свърза 0
▁дър 0
▁nimic 0
▁existem 0
▁doll 0
▁ding 0
▁aspect 0
▁1960 0
ثة 0
גה 0
unis 0
▁обратно 0
▁немного 0
▁oznac 0
▁morte 0
▁32 0
raient 0
影響 0
展示 0
大脑 0
▁스스로 0
▁وأن 0
▁végül 0
▁egyetlen 0
жат 0
▁پد 0
هام 0
чё 0
过程 0
▁جيد 0
▁ללא 0
▁studio 0
▁laatste 0
▁gebeurt 0
▁ell 0
ował 0
istra 0
ilyen 0
▁энерги 0
▁trợ 0
▁thiên 0
▁merge 0
▁contre 0
okkal 0
ments 0
▁връз 0
▁talking 0
▁sprechen 0
teren 0
eram 0
aps 0
머니 0
▁يست 0
▁موفق 0
▁yakın 0
▁wollte 0
▁manip 0
▁gyermek 0
▁energía 0
▁daten 0
רגע 0
▁org 0
▁numa 0
▁gemaakt 0
▁появи 0
▁опита 0
▁puțin 0
جات 0
раст 0
íteni 0
ipe 0
fie 0
▁пацие 0
▁yerine 0
▁oda 0
▁james 0
▁dinheiro 0
کنون 0
стей 0
身体 0
▁관한 0
▁کی 0
▁pământ 0
▁making 0
▁deta 0
adamente 0
▁就像 0
▁العل 0
▁фил 0
▁transpar 0
▁jor 0
▁eredmény 0
▁papier 0
▁pm 0
عى 0
pia 0
atti 0
▁разка 0
▁исследова 0
▁student 0
▁rodzaj 0
▁nis 0
unkat 0
▁وعند 0
▁musik 0
▁apă 0
tei 0
▁نحو 0
▁میکنم 0
▁עשו 0
▁страхо 0
▁спра 0
▁dollari 0
▁dias 0
动物 0
▁устрой 0
▁назва 0
▁volgende 0
▁meinen 0
▁kir 0
▁유전 0
▁دلار 0
▁személy 0
▁seit 0
▁ende 0
▁떠 0
לנו 0
ститу 0
▁تعلمون 0
▁הראשונה 0
▁verdi 0
▁ブ 0
류의 0
▁למש 0
▁телеф 0
▁невероятно 0
▁micha 0
▁meisten 0
▁laborat 0
▁interesting 0
▁fotoğraf 0
▁eas 0
▁begrijpen 0
зни 0
onse 0
▁سازمان 0
▁تست 0
▁امید 0
▁компании 0
▁totalmente 0
▁pensamos 0
▁olmas 0
ré 0
lerle 0
▁프로젝 0
▁پیچ 0
▁meinem 0
▁jong 0
▁gor 0
▁ấn 0
يار 0
ância 0
▁آف 0
▁נע 0
▁המוח 0
▁saat 0
▁sir 0
▁közösség 0
▁gazdaság 0
licht 0
▁будуще 0
▁răspuns 0
▁onlara 0
▁kır 0
▁apple 0
цата 0
лина 0
sam 0
▁같이 0
▁lut 0
▁aktiv 0
▁僕 0
nánk 0
▁동물 0
▁چنین 0
▁scen 0
▁fuera 0
▁capacid 0
ird 0
場合 0
▁برخی 0
▁econ 0
▁desarrol 0
هن 0
bere 0
arios 0
▁възмож 0
колко 0
ując 0
ball 0
环境 0
之前 0
▁작업 0
▁оба 0
▁бога 0
▁teles 0
▁montrer 0
▁kív 0
schein 0
거든 0
一直 0
▁شی 0
▁بطريقة 0
▁בדרך 0
▁знам 0
▁savoir 0
▁quite 0
▁problèmes 0
▁dil 0
هات 0
ческий 0
ügy 0
ítet 0
char 0
▁гри 0
▁programa 0
▁dop 0
▁demek 0
思考 0
▁letter 0
дми 0
sége 0
▁каждо 0
▁đạt 0
▁tạp 0
▁propri 0
▁fondament 0
▁195 0
ثير 0
קס 0
ране 0
▁이것을 0
▁رنگ 0
▁zet 0
▁nes 0
▁mois 0
▁lives 0
یره 0
puesto 0
▁törté 0
▁sure 0
▁nan 0
▁létez 0
תיד 0
omi 0
▁معنا 0
▁عرض 0
▁единстве 0
▁toán 0
▁מערכת 0
▁технология 0
▁наших 0
▁tulajd 0
▁sopra 0
▁pierwszy 0
▁heure 0
iếu 0
▁저의 0
▁يعمل 0
▁شئ 0
▁נח 0
▁celui 0
owego 0
▁여기서 0
▁particul 0
wiek 0
▁تماشاگران 0
▁sense 0
▁quais 0
מנות 0
▁معا 0
▁промени 0
▁flor 0
▁上 0
حية 0
▁поне 0
▁гре 0
▁ами 0
▁vrea 0
▁ofer 0
jego 0
blich 0
같은 0
▁학교 0
▁だから 0
▁כמובן 0
▁похо 0
▁malad 0
▁habil 0
产生 0
▁جعل 0
▁thoại 0
▁room 0
▁۵ 0
▁بهترین 0
▁финан 0
▁стана 0
▁çiz 0
▁amery 0
ولايات 0
فض 0
▁ész 0
▁sonunda 0
▁kenn 0
▁enkele 0
wort 0
tries 0
hrung 0
▁프로젝트 0
▁کنتر 0
▁ندارد 0
▁właści 0
▁vuel 0
▁probably 0
▁eran 0
▁dij 0
▁와 0
сла 0
ross 0
▁الأشخاص 0
▁דו 0
▁olhar 0
▁mudar 0
▁mối 0
▁inse 0
▁dura 0
▁afry 0
ובי 0
от 0
▁المخ 0
▁ית 0
▁maggior 0
▁interesante 0
▁feliz 0
▁dinero 0
стли 0
сом 0
вь 0
terior 0
tte 0
▁בהם 0
▁тео 0
▁stuk 0
▁deja 0
▁class 0
▁cut 0
ések 0
▁우주 0
▁împre 0
▁landen 0
▁conhec 0
▁associ 0
èo 0
zed 0
ników 0
▁תר 0
▁toekom 0
▁söz 0
▁raum 0
▁millió 0
▁mercado 0
▁lorsque 0
фа 0
bracht 0
男性 0
れて 0
▁얘기 0
▁سم 0
▁بو 0
▁הולך 0
▁importantes 0
mis 0
▁نخ 0
▁بپ 0
▁kas 0
▁entra 0
ift 0
大きな 0
▁말하 0
▁يأ 0
▁ادام 0
▁произо 0
▁количество 0
▁yat 0
▁pół 0
▁interior 0
▁harvard 0
دار 0
ващо 0
tout 0
▁социа 0
▁viitor 0
▁told 0
▁sevi 0
▁onderzoek 0
▁insegn 0
▁地 0
gro 0
cü 0
▁кре 0
▁üzerine 0
▁încerc 0
▁osser 0
▁maioria 0
▁ino 0
▁hoch 0
▁gereken 0
▁beetje 0
▁میخوا 0
▁أق 0
▁mann 0
▁level 0
▁تستطيع 0
▁zitten 0
▁yếu 0
чные 0
лка 0
艺术 0
▁다양 0
▁لهذا 0
▁родите 0
▁zin 0
▁struct 0
▁poţi 0
▁frum 0
▁abbast 0
▁abbastanza 0
ụp 0
הלי 0
ılı 0
gest 0
▁tah 0
▁increí 0
▁girl 0
▁alrededor 0
veg 0
illa 0
alog 0
18 0
▁그럼 0
▁állam 0
▁vâng 0
▁moyen 0
▁kỷ 0
▁creat 0
מם 0
akat 0
通り 0
自身 0
ったのです 0
▁אף 0
▁бед 0
▁teknoloj 0
▁jug 0
▁hatta 0
▁gái 0
▁dzis 0
ثیر 0
בלים 0
вается 0
ária 0
upart 0
▁ادامه 0
▁ему 0
▁visz 0
▁pergunt 0
▁مجموعة 0
▁פה 0
▁xung 0
▁vision 0
▁trông 0
▁komputer 0
▁hart 0
▁â 0
iglia 0
▁여러분의 0
▁مف 0
▁такое 0
▁yal 0
▁föl 0
▁aí 0
itude 0
ieurs 0
년에 0
▁사랑 0
▁чети 0
▁podob 0
▁plupart 0
▁jours 0
▁american 0
▁체 0
łość 0
▁genoeg 0
▁foglal 0
▁במו 0
▁parents 0
▁oyun 0
▁mettre 0
elked 0
▁moeilijk 0
▁miatt 0
▁doświad 0
viz 0
tty 0
lamak 0
▁أمر 0
▁rock 0
▁począ 0
▁mek 0
ופה 0
schijn 0
essi 0
▁اه 0
▁вътре 0
▁possibile 0
▁miesz 0
▁happened 0
idente 0
▁راست 0
▁المص 0
▁hombre 0
▁frequ 0
sız 0
했고 0
이는 0
▁למי 0
▁перед 0
▁profund 0
▁niente 0
▁nehéz 0
▁feito 0
▁bekommen 0
жим 0
itoare 0
ンド 0
▁طریق 0
▁дере 0
▁çoğu 0
▁poja 0
▁menny 0
▁lég 0
▁kla 0
よりも 0
▁لهم 0
▁כזה 0
▁решения 0
▁wik 0
▁pamię 0
▁120 0
ряд 0
▁זוהי 0
▁związ 0
▁מישהו 0
▁והיא 0
▁znale 0
▁választ 0
▁progetto 0
▁tudomány 0
▁mindenki 0
ריות 0
гли 0
quelle 0
inea 0
方面 0
拥有 0
▁حاضرین 0
▁כעת 0
▁thái 0
▁rede 0
▁powo 0
▁地球 0
лки 0
zić 0
eme 0
atz 0
意思 0
▁тоже 0
▁сша 0
▁vaak 0
▁geçir 0
▁훨 0
шли 0
amenti 0
▁veg 0
▁vedi 0
▁precisa 0
▁facciamo 0
▁erf 0
▁cercet 0
льного 0
ruk 0
▁poł 0
▁közel 0
▁history 0
▁haut 0
▁hora 0
いう 0
▁这种 0
▁другие 0
▁évvel 0
▁questão 0
راع 0
ارب 0
чных 0
șit 0
bbi 0
지고 0
▁لان 0
▁săn 0
▁potrzebu 0
▁familia 0
▁figli 0
▁은 0
ési 0
ateur 0
▁yaklaşık 0
▁ordinate 0
▁közül 0
▁conflic 0
▁규 0
▁kleinen 0
▁genç 0
чества 0
▁훨씬 0
▁пъти 0
▁şehir 0
▁zaczą 0
▁uygul 0
▁trúc 0
ersi 0
▁миллио 0
▁mundial 0
ערכת 0
zare 0
ologia 0
lott 0
ficio 0
▁képzel 0
кви 0
féle 0
▁dolari 0
▁diversi 0
емы 0
vény 0
ofd 0
也是 0
▁مادر 0
▁سعی 0
▁встре 0
▁sappiamo 0
▁hatır 0
يلة 0
лыша 0
sh 0
gesch 0
▁사람들을 0
▁רע 0
▁большин 0
▁încât 0
▁tratta 0
▁juntos 0
▁hö 0
▁acerca 0
ئات 0
らは 0
▁بعدی 0
▁מידע 0
▁לנ 0
▁твър 0
luss 0
andon 0
▁למצוא 0
▁резул 0
▁месе 0
▁vive 0
▁cidade 0
vány 0
▁sagt 0
▁regen 0
▁passa 0
▁müz 0
▁lista 0
▁discut 0
бой 0
gez 0
adaki 0
那里 0
▁احتمالا 0
▁אור 0
▁математи 0
▁történet 0
▁thúc 0
▁kilom 0
줍니다 0
▁dintr 0
чной 0
ню 0
малко 0
▁پاسخ 0
▁أنني 0
▁разме 0
▁través 0
▁papel 0
▁megm 0
▁férfi 0
▁costa 0
▁civil 0
פרים 0
했어요 0
▁لحظه 0
▁درون 0
▁بالأ 0
▁بدا 0
▁данни 0
▁внимание 0
▁безопа 0
▁siano 0
▁probe 0
нные 0
ziek 0
があ 0
▁същи 0
▁società 0
▁situation 0
▁respu 0
▁której 0
▁hayvan 0
▁dirig 0
ően 0
sanız 0
거든요 0
▁마지 0
▁гражда 0
▁fez 0
sgál 0
可能性 0
▁asupra 0
خصوص 0
▁کنی 0
▁удиви 0
▁знаю 0
▁mayoría 0
▁kamp 0
▁california 0
יוחד 0
scheinlich 0
整个 0
▁таких 0
▁spiel 0
▁plă 0
▁kong 0
▁darauf 0
ствия 0
arsi 0
되고 0
▁۱۹ 0
▁manten 0
▁huis 0
▁cours 0
▁atten 0
ijkt 0
タイ 0
▁обича 0
▁дет 0
▁paese 0
▁ktoś 0
▁daki 0
ئی 0
колкото 0
vre 0
előtt 0
blic 0
11 0
▁פרו 0
▁אשר 0
▁bran 0
ursos 0
▁افتاد 0
▁yes 0
▁vroeg 0
▁sistemi 0
▁pretty 0
▁işte 0
▁distr 0
▁amor 0
▁aiut 0
▁家 0
▁& 0
طل 0
íg 0
vos 0
▁لديهم 0
▁сим 0
▁поме 0
▁weniger 0
▁vận 0
▁teoria 0
▁sep 0
▁scr 0
ïn 0
adomo 0
▁حي 0
▁lit 0
▁curi 0
▁afgan 0
ودی 0
ace 0
年の 0
▁incroy 0
ñas 0
kra 0
cine 0
▁שאי 0
משים 0
בית 0
öttem 0
ónde 0
が必要 0
▁개발 0
▁medicina 0
▁living 0
▁forte 0
▁compos 0
ált 0
变得 0
を受け 0
▁조금 0
▁лабора 0
▁veren 0
▁raccon 0
▁mulțumesc 0
ראו 0
ượt 0
imenti 0
인데 0
▁ответ 0
▁family 0
▁eigentlich 0
szik 0
言いました 0
▁마지막 0
▁انگیز 0
▁случае 0
▁później 0
یمان 0
ógy 0
らい 0
であり 0
▁26 0
علق 0
גיש 0
треть 0
leo 0
ivos 0
dür 0
cular 0
不知道 0
ございました 0
▁완전히 0
▁שמע 0
▁напълно 0
▁trovare 0
▁band 0
вление 0
upp 0
fac 0
but 0
やり 0
▁نگه 0
▁المس 0
▁имате 0
▁zg 0
▁word 0
▁powiedz 0
▁ngữ 0
▁nul 0
▁glück 0
▁escri 0
ói 0
▁것과 0
▁إذن 0
▁facile 0
▁baix 0
▁anything 0
▁난 0
ходят 0
ukat 0
▁одной 0
▁musica 0
▁ister 0
▁golf 0
зя 0
вала 0
aines 0
▁لازم 0
▁самое 0
▁ponad 0
▁once 0
▁cierto 0
システム 0
▁للغاية 0
▁העי 0
▁биологи 0
▁összes 0
▁seem 0
▁série 0
▁puţin 0
▁présent 0
▁갈 0
▁人々 0
▁さて 0
▁рай 0
▁ruimte 0
▁nauczy 0
▁lata 0
▁identific 0
▁우리에게 0
▁۲۰ 0
▁краси 0
▁standard 0
▁quatro 0
▁przeci 0
▁essen 0
▁começar 0
▁与 0
حاول 0
zon 0
hou 0
▁szép 0
▁kiểu 0
▁heiß 0
▁azzal 0
▁aur 0
▁95 0
یتی 0
зма 0
ôle 0
szor 0
▁демокра 0
▁ning 0
▁męż 0
▁journal 0
ליים 0
owied 0
dük 0
建筑 0
▁الكل 0
▁понять 0
▁мре 0
▁elkép 0
тря 0
mac 0
door 0
alne 0
▁remar 0
▁lep 0
▁licz 0
▁klin 0
▁espaço 0
▁dziś 0
▁ذهن 0
▁تغي 0
▁أخذ 0
▁המק 0
▁gé 0
ws 0
▁کنترل 0
▁ساله 0
▁בזמן 0
▁chip 0
▁bras 0
▁海 0
től 0
라도 0
▁usare 0
▁ngồi 0
▁mozg 0
▁countries 0
▁conten 0
ادل 0
нят 0
ктивно 0
lığ 0
▁نسبت 0
▁أنهم 0
▁zona 0
▁pozw 0
▁hoa 0
▁gedaan 0
▁diseñ 0
データ 0
▁خوان 0
▁prostu 0
▁propor 0
loc 0
▁ילדים 0
▁говорят 0
▁történt 0
▁petite 0
▁iskol 0
▁بطور 0
▁extr 0
▁cambiar 0
▁allons 0
▁across 0
▁使 0
רגיה 0
zat 0
▁pierwsze 0
▁kb 0
▁images 0
▁allow 0
▁잡 0
▁라 0
torno 0
性的 0
例子 0
▁גבוה 0
▁эффе 0
▁electric 0
▁ederim 0
▁center 0
▁اقتصاد 0
▁énergie 0
▁robots 0
▁popular 0
▁mặc 0
▁mẫu 0
▁collabor 0
êt 0
enség 0
ンピュー 0
▁marte 0
▁hızlı 0
dro 0
▁않을 0
▁النا 0
▁מזה 0
▁מוכ 0
▁כולם 0
▁khắp 0
▁gép 0
▁erst 0
нни 0
ionează 0
有一 0
▁eer 0
اهی 0
kunft 0
答え 0
▁разре 0
▁sły 0
▁mieux 0
▁fus 0
▁alkalmaz 0
йде 0
mö 0
▁为什么 0
▁هنگامی 0
▁نکرد 0
▁призна 0
▁голяма 0
▁hope 0
▁effect 0
verti 0
icio 0
▁ただ 0
▁temat 0
▁punct 0
▁minuten 0
▁bura 0
▁于 0
ческого 0
színű 0
szą 0
ging 0
ではない 0
▁עליו 0
▁politi 0
▁jövő 0
▁gobier 0
▁espacio 0
想要 0
▁קבו 0
▁била 0
▁vala 0
▁niciodată 0
▁mere 0
▁chương 0
▁bırak 0
▁합 0
зно 0
janak 0
▁gust 0
▁멋 0
שבו 0
tie 0
▁فعلا 0
▁מל 0
▁spazio 0
▁słu 0
▁rice 0
uwen 0
adás 0
▁دائما 0
▁اسا 0
▁zegt 0
▁număr 0
▁fuer 0
▁complete 0
▁bizi 0
▁bijna 0
▁argument 0
wen 0
put 0
感觉 0
▁чего 0
▁ан 0
▁tuần 0
▁trụ 0
▁keş 0
▁feh 0
▁صرف 0
▁שהיה 0
▁wes 0
▁sistemas 0
▁sache 0
▁infin 0
▁1980 0
бри 0
▁valaki 0
▁tax 0
▁numai 0
▁doit 0
ples 0
low 0
ately 0
チャ 0
▁这样 0
▁نزدیک 0
▁سرعت 0
▁werkt 0
▁sağlık 0
▁dónde 0
▁alex 0
ций 0
▁에너 0
▁رسید 0
▁вселе 0
▁rand 0
▁news 0
▁komór 0
▁iy 0
▁houden 0
▁continua 0
▁aplic 0
تح 0
телни 0
emaal 0
▁לקחת 0
▁האנו 0
▁окру 0
▁напра 0
▁szczę 0
▁pensa 0
▁partea 0
▁gouvern 0
▁conseguir 0
▁coming 0
▁놓 0
هاد 0
▁ماد 0
▁разбере 0
▁есте 0
▁varia 0
▁stuff 0
▁slechts 0
▁política 0
▁pois 0
▁herr 0
▁aper 0
верх 0
liş 0
jek 0
▁전체 0
▁وأنا 0
▁للح 0
▁музика 0
▁radi 0
▁oznacza 0
ızı 0
idar 0
cal 0
すれば 0
▁당신이 0
▁unseren 0
▁szen 0
▁male 0
▁gelecek 0
גיל 0
чните 0
zna 0
▁quien 0
▁niesam 0
▁imaginar 0
ودة 0
ستیم 0
ברת 0
őbb 0
yla 0
lük 0
▁באמצ 0
▁висо 0
▁tasarım 0
▁osią 0
▁mostra 0
▁考え 0
жать 0
nić 0
▁순간 0
▁همراه 0
▁ידע 0
▁בזה 0
▁rezultat 0
▁paesi 0
▁글 0
вую 0
ваш 0
▁ترس 0
▁הלא 0
▁университе 0
▁сол 0
▁материа 0
▁ведь 0
▁împreună 0
▁thomas 0
▁pytanie 0
▁niesamow 0
▁kormány 0
▁ill 0
▁filme 0
ăzi 0
osan 0
かり 0
▁برخ 0
▁risult 0
▁ksią 0
▁importe 0
▁else 0
▁braz 0
كار 0
vezet 0
▁مرح 0
▁technologies 0
▁deed 0
▁chamado 0
קת 0
▁نک 0
▁קו 0
▁יה 0
▁relat 0
▁problemen 0
▁modè 0
▁felt 0
▁chin 0
▁bron 0
▁ball 0
活動 0
▁осъ 0
▁뭐 0
сур 0
▁사람들 0
▁tiết 0
▁sosyal 0
▁puedes 0
▁pasado 0
▁mieć 0
▁％ 0
▁چقدر 0
▁هرگز 0
▁غذا 0
▁المر 0
▁legjo 0
רתי 0
nam 0
chs 0
▁پیشرفت 0
▁לאנשים 0
▁בואו 0
▁uds 0
▁segunda 0
▁reason 0
▁chr 0
▁농 0
▁心 0
rou 0
▁것에 0
▁szabad 0
▁penser 0
▁modell 0
▁mindan 0
▁hé 0
گیر 0
تمام 0
дель 0
thers 0
还是 0
▁سنت 0
▁جو 0
▁القط 0
▁érték 0
▁while 0
▁dezelfde 0
тори 0
üşt 0
▁때문이죠 0
▁今日 0
▁área 0
▁poter 0
▁passer 0
▁mr 0
▁csod 0
ъж 0
▁معنی 0
▁الصورة 0
▁תע 0
▁нами 0
▁백 0
▁능 0
▁気 0
гре 0
기는 0
之间 0
▁קורה 0
▁mogę 0
▁move 0
▁controle 0
▁apl 0
וות 0
łych 0
ítógép 0
yczne 0
bido 0
▁حوالي 0
▁voz 0
▁niger 0
▁elektron 0
жете 0
解決 0
▁реб 0
▁mici 0
▁irak 0
vía 0
ザイン 0
っていました 0
▁کاف 0
▁للا 0
▁уме 0
▁történe 0
▁santé 0
▁gewe 0
▁đọc 0
▁ánh 0
▁vardır 0
▁miejsca 0
▁epidem 0
▁carte 0
atlan 0
▁simul 0
▁saw 0
▁famí 0
▁challen 0
▁bedeutet 0
stre 0
ptăm 0
▁무슨 0
▁모습 0
▁私たちの 0
▁پایین 0
▁רבים 0
▁örne 0
▁cửa 0
وح 0
ייתי 0
をも 0
▁vui 0
▁ville 0
▁gevo 0
▁1950 0
ربة 0
▁معظم 0
▁дело 0
▁suốt 0
▁sac 0
▁refle 0
▁książ 0
рна 0
áveis 0
▁ونحن 0
▁смята 0
▁ideea 0
нача 0
ках 0
▁większość 0
▁quattro 0
סוף 0
상을 0
▁치료 0
▁проти 0
▁zwier 0
▁lớp 0
▁changer 0
▁basis 0
▁ウ 0
▁التج 0
▁меся 0
▁sport 0
▁réalis 0
▁corr 0
ılmış 0
zeń 0
だろう 0
▁공간 0
▁projeto 0
▁اهم 0
▁movimento 0
▁geluk 0
ặng 0
هاب 0
anat 0
行動 0
▁저를 0
▁되어 0
▁가져 0
▁طبي 0
▁כמעט 0
▁veut 0
▁schle 0
▁polity 0
▁michael 0
▁marad 0
▁keresztül 0
▁estim 0
стояние 0
ród 0
▁خبر 0
▁שונים 0
▁шо 0
▁serait 0
▁laquelle 0
▁kerül 0
▁espr 0
▁dacht 0
▁către 0
▁abban 0
árd 0
szech 0
▁알려 0
▁那些 0
▁último 0
▁lieu 0
▁facil 0
▁ajuns 0
▁здо 0
▁mau 0
روب 0
pol 0
ficie 0
私の 0
▁这里 0
▁четири 0
▁interessant 0
въ 0
teurs 0
hand 0
▁항상 0
▁نبا 0
▁рассказа 0
▁viện 0
▁mindannyi 0
טיקה 0
▁결국 0
▁کلا 0
▁tweede 0
▁nessuno 0
▁gehirn 0
▁dalle 0
▁막 0
py 0
annt 0
▁마치 0
▁בסדר 0
▁доро 0
▁perci 0
▁force 0
▁굉 0
ستند 0
ünden 0
lardı 0
aż 0
▁دنیای 0
出す 0
▁我々は 0
▁اید 0
▁أقل 0
▁напо 0
▁казах 0
▁достатъ 0
▁supuesto 0
▁staan 0
▁mili 0
▁area 0
非洲 0
後に 0
▁굉장 0
▁我们可以 0
▁בית 0
▁реал 0
▁отколкото 0
▁steve 0
▁simplemente 0
▁risk 0
▁知 0
▁ト 0
אלה 0
unes 0
dere 0
▁누구 0
▁سرما 0
כב 0
גיד 0
ской 0
tain 0
ieur 0
▁خواهید 0
מונות 0
yd 0
▁remember 0
▁ila 0
▁dolgoz 0
▁días 0
شة 0
ján 0
다가 0
てください 0
▁있다면 0
▁보면 0
▁tet 0
▁amazon 0
وال 0
ísér 0
urde 0
isini 0
信じ 0
アイ 0
▁생명 0
▁관심 0
▁가족 0
▁まず 0
▁صغيرة 0
▁כיצד 0
▁obama 0
ково 0
▁mec 0
▁large 0
▁doi 0
مند 0
百万 0
ながら 0
▁있도록 0
▁않은 0
▁حما 0
▁اکنون 0
▁сце 0
▁добро 0
▁kés 0
▁impression 0
יונות 0
кий 0
▁사람들에게 0
▁그녀는 0
▁관련 0
▁کسانی 0
▁حصل 0
▁olay 0
▁dört 0
▁betra 0
رایی 0
schijnlijk 0
iyoruz 0
前に 0
▁хотел 0
▁изобре 0
▁wind 0
ynam 0
▁слова 0
▁значение 0
▁módon 0
▁gingen 0
▁expérience 0
сия 0
äter 0
wier 0
chu 0
▁학생 0
▁műv 0
▁khỏ 0
▁即 0
طع 0
朋友 0
ていた 0
▁поль 0
▁visual 0
▁problemă 0
▁moest 0
▁estud 0
▁designer 0
رک 0
ließ 0
▁단지 0
▁сам 0
▁мла 0
▁выра 0
▁obra 0
▁nour 0
▁jedes 0
▁empresas 0
▁dạy 0
▁cool 0
▁똑 0
▁하지 0
▁있는지 0
▁מדע 0
▁стре 0
▁моята 0
▁дово 0
▁máquina 0
70 0
注意 0
▁所有 0
▁thí 0
▁tervez 0
▁muziek 0
▁kolay 0
▁keep 0
▁angst 0
▁жу 0
ложение 0
▁میکنند 0
▁جديد 0
▁إي 0
▁מעט 0
▁אינ 0
▁неу 0
▁voed 0
▁verbind 0
volution 0
utor 0
liegen 0
之一 0
しましょう 0
▁yeniden 0
▁vijf 0
▁naqu 0
▁indic 0
▁helemaal 0
▁fot 0
▁egyen 0
▁高 0
ensa 0
▁생물 0
▁מכל 0
▁odpowied 0
▁ervar 0
▁discover 0
כלו 0
▁снова 0
▁musique 0
▁környez 0
▁khám 0
▁ia 0
▁buy 0
▁bost 0
cura 0
▁הקט 0
▁отговор 0
▁гор 0
▁vâr 0
▁mù 0
▁hiểm 0
olgál 0
chtig 0
▁לקבל 0
▁ограни 0
▁însă 0
▁punkt 0
▁norte 0
▁채 0
▁검 0
zeć 0
iver 0
网络 0
▁وان 0
▁تلف 0
▁пов 0
▁мета 0
▁бизнес 0
▁égal 0
▁ziel 0
▁singur 0
▁hossz 0
▁having 0
▁espé 0
▁effet 0
▁colab 0
imm 0
fühl 0
▁ارزش 0
▁בלתי 0
▁позволи 0
▁prawdzi 0
▁nano 0
▁mulți 0
▁escala 0
جال 0
vens 0
▁לעצ 0
▁чувство 0
▁мужчи 0
▁vrai 0
▁relations 0
▁regardez 0
▁pracu 0
▁großen 0
▁ganzen 0
▁comunità 0
▁토 0
واصل 0
tać 0
remmo 0
ateurs 0
▁моло 0
▁китай 0
▁semplic 0
▁posible 0
فاع 0
ğa 0
ído 0
zlich 0
onstr 0
lit 0
者が 0
▁کجا 0
▁יוצ 0
▁причина 0
▁wahrscheinlich 0
▁low 0
▁house 0
▁hund 0
▁aarde 0
▁2001 0
висимо 0
とな 0
▁지도 0
▁прово 0
▁меч 0
▁számítógép 0
▁molé 0
▁körper 0
▁entsche 0
▁cono 0
▁bàn 0
▁위험 0
▁これらの 0
▁لح 0
▁דר 0
▁слуша 0
▁изуча 0
▁thủ 0
▁miesi 0
▁ă 0
ństwa 0
gé 0
したら 0
▁مض 0
▁قمت 0
▁הופ 0
▁richt 0
▁inkább 0
▁agli 0
运动 0
为什么 0
▁قا 0
▁브 0
▁만든 0
▁الطاقة 0
▁абсо 0
▁technik 0
▁propre 0
▁minde 0
▁magnet 0
▁i̇l 0
▁frau 0
▁departe 0
▁boven 0
▁일부 0
▁살아 0
▁جميعا 0
▁الولايات 0
▁разгово 0
▁toți 0
▁name 0
▁invol 0
▁helyzet 0
▁energi 0
▁chine 0
▁adat 0
стите 0
лектри 0
▁جنوب 0
▁انا 0
▁שמת 0
▁тъ 0
▁бро 0
▁simp 0
▁inclu 0
▁chắn 0
hangi 0
eros 0
的话 0
▁непо 0
▁wier 0
▁teor 0
▁hetzelfde 0
▁chw 0
▁700 0
▁先 0
tery 0
sin 0
lywood 0
▁מאשר 0
▁управля 0
▁течение 0
▁밖 0
чный 0
ório 0
ince 0
hív 0
czne 0
▁малки 0
▁medida 0
▁massa 0
▁magas 0
▁mong 0
▁ii 0
▁escre 0
▁copiii 0
▁ajung 0
کو 0
pal 0
less 0
erw 0
▁לעולם 0
▁לאחר 0
▁често 0
▁yea 0
▁temel 0
▁prowad 0
▁petre 0
▁herhangi 0
▁envi 0
▁둘 0
▁پرد 0
▁قليلا 0
▁רצ 0
▁пости 0
▁voul 0
▁nhiệm 0
▁livre 0
icul 0
cidente 0
▁ويمكن 0
▁قانون 0
▁زیاد 0
▁מגי 0
▁verder 0
▁espace 0
▁descubr 0
سائل 0
гледа 0
▁もっと 0
▁هفته 0
▁ואתם 0
▁хиля 0
▁ràng 0
▁oamenilor 0
▁makes 0
▁dimin 0
▁compor 0
ását 0
layan 0
dzić 0
abilirsiniz 0
▁مليون 0
▁فأ 0
▁رود 0
▁студе 0
▁przestr 0
▁informação 0
۰۰۰ 0
کا 0
élet 0
rot 0
来自 0
▁כה 0
▁öğret 0
▁yeah 0
▁ontdek 0
▁kommun 0
▁kezel 0
▁groe 0
▁chung 0
▁brut 0
▁민 0
كو 0
eleri 0
違い 0
▁بله 0
▁experience 0
▁dije 0
▁2003 0
ئلة 0
чить 0
iczne 0
▁долларов 0
▁seama 0
▁lâu 0
▁bringen 0
▁alguna 0
▁또는 0
▁یافت 0
▁semana 0
▁rio 0
▁előtt 0
lagen 0
enst 0
▁혹은 0
▁رای 0
▁кого 0
▁взгля 0
▁бъдеще 0
▁ricerca 0
▁hemen 0
▁hala 0
لية 0
ניס 0
מרים 0
uu 0
▁형태 0
▁patru 0
▁번째 0
פוא 0
דבר 0
בא 0
пля 0
rac 0
▁정치 0
▁legtö 0
▁ihm 0
▁hospital 0
▁extraordinar 0
▁clas 0
▁arquite 0
maları 0
장을 0
就会 0
▁organiza 0
▁night 0
where 0
lerce 0
▁의사 0
▁مرگ 0
▁لد 0
▁البيانات 0
▁yine 0
eked 0
▁이는 0
▁대단 0
▁הארץ 0
▁услови 0
▁ква 0
▁seen 0
▁nyom 0
▁mathemat 0
▁ké 0
▁elektro 0
جان 0
اطر 0
anger 0
▁인도 0
▁סט 0
▁результа 0
▁профе 0
▁колкото 0
▁yür 0
▁quanti 0
▁pover 0
▁parole 0
▁ontwer 0
▁lernen 0
▁glauben 0
ئن 0
mio 0
ivi 0
enci 0
ake 0
▁دولت 0
▁اصلی 0
▁найти 0
▁semplice 0
▁rigu 0
▁nők 0
▁iliş 0
▁hoeveel 0
▁fazem 0
変え 0
▁وبعد 0
▁تحد 0
▁לכך 0
▁כאילו 0
▁очеви 0
▁représ 0
▁persze 0
ולות 0
ждения 0
bé 0
▁同じ 0
▁حقي 0
▁جواب 0
▁לומר 0
▁ארו 0
▁tran 0
▁perman 0
▁dood 0
▁cung 0
▁buổi 0
érer 0
éma 0
komen 0
issez 0
elte 0
dza 0
わせ 0
▁무엇을 0
▁بإمكان 0
▁изку 0
▁communa 0
▁cima 0
▁bác 0
مار 0
стен 0
つも 0
▁проблемы 0
▁praten 0
▁nagyobb 0
▁exista 0
▁eerst 0
кнове 0
구요 0
▁côté 0
▁asked 0
▁2012 0
tec 0
fus 0
스를 0
時代 0
▁scor 0
▁coin 0
无法 0
▁tard 0
▁svilupp 0
▁reto 0
▁khỏe 0
▁discuss 0
ijden 0
enso 0
变化 0
▁سف 0
▁הפר 0
▁près 0
▁plek 0
▁okul 0
▁femme 0
ודל 0
byśmy 0
주는 0
▁دادم 0
▁ליי 0
▁valószínű 0
▁proberen 0
▁ongel 0
▁khủng 0
▁gemeenschap 0
▁dau 0
▁conce 0
▁혁 0
▁科学 0
▁社会 0
امت 0
iken 0
halen 0
▁تمر 0
▁اث 0
▁table 0
▁piano 0
▁milie 0
▁innovation 0
▁eing 0
▁bada 0
▁ait 0
von 0
ump 0
même 0
lene 0
emt 0
▁صورة 0
▁אה 0
▁сли 0
▁пси 0
▁öff 0
ijs 0
▁پزش 0
▁مدت 0
▁קטן 0
▁reak 0
▁brauchen 0
▁băr 0
ذب 0
arden 0
▁răm 0
▁megsz 0
▁malaria 0
▁lucre 0
▁ghi 0
▁efici 0
▁altă 0
▁メ 0
ками 0
ához 0
wir 0
ursa 0
gre 0
▁قدم 0
▁создать 0
▁ways 0
▁plaat 0
▁lichaam 0
يفة 0
هاز 0
кры 0
▁كت 0
▁قلب 0
▁הרעיון 0
▁sui 0
▁stare 0
▁rozum 0
▁mężczy 0
▁engel 0
nios 0
landır 0
▁همانطور 0
▁شناس 0
▁ау 0
▁ngôi 0
▁kier 0
▁implic 0
▁căr 0
▁３ 0
ạng 0
حات 0
▁마음 0
▁가치 0
▁какой 0
▁wirtschaft 0
▁toekomst 0
▁oric 0
▁necesitamos 0
▁elimin 0
▁뭔 0
▁多 0
menin 0
ーを 0
▁говорим 0
▁naszych 0
шие 0
леку 0
гне 0
▁לתוך 0
▁tema 0
▁resultado 0
▁mua 0
▁interesant 0
▁doty 0
▁『 0
باه 0
usi 0
fique 0
레이 0
▁이루 0
▁único 0
▁trov 0
▁single 0
▁retro 0
▁pieni 0
▁community 0
▁ayrıca 0
▁』 0
сят 0
льное 0
▁دولار 0
▁משמ 0
▁regi 0
▁domu 0
usand 0
owan 0
参加 0
▁于是 0
▁بزن 0
▁step 0
▁lingu 0
خرج 0
▁модели 0
▁доба 0
▁razón 0
▁incredibil 0
▁carr 0
ким 0
voorbeeld 0
かを 0
▁مجرد 0
▁întreb 0
▁struktur 0
▁bóng 0
فتر 0
▁ترت 0
▁архите 0
▁spesso 0
▁simplesmente 0
▁occident 0
▁impossi 0
▁gruppo 0
▁almost 0
ماد 0
سن 0
bben 0
植物 0
たちは 0
おり 0
▁نهای 0
▁национа 0
▁teg 0
▁sería 0
▁ked 0
▁dh 0
▁cio 0
ложе 0
fon 0
ckt 0
▁دریافت 0
▁أشياء 0
▁לגמרי 0
▁помощью 0
▁wis 0
▁provavelmente 0
▁chạy 0
▁apart 0
żyć 0
oman 0
bardziej 0
大き 0
▁vediamo 0
▁sở 0
▁resulta 0
▁kaynak 0
▁enfant 0
▁diseño 0
▁cort 0
是个 0
ための 0
▁נוכל 0
▁בשי 0
▁ее 0
▁tentando 0
▁najbardziej 0
▁gândi 0
▁compte 0
▁데이터 0
▁מנס 0
▁кул 0
▁ves 0
▁sli 0
▁aveam 0
нец 0
vem 0
là 0
▁проу 0
▁кръ 0
▁connect 0
▁ahhoz 0
هاي 0
צוב 0
лено 0
ścia 0
ĩnh 0
nunk 0
▁단순 0
▁مطال 0
▁souvent 0
▁sır 0
▁quelli 0
▁problems 0
▁meet 0
▁homem 0
▁논 0
יינו 0
生き 0
完成 0
▁오늘날 0
▁میکنه 0
▁كيفية 0
▁érdekes 0
ética 0
fet 0
▁효과 0
▁چیزهای 0
▁والد 0
▁هند 0
▁בן 0
▁тому 0
▁големи 0
▁fabr 0
▁直 0
рани 0
site 0
elim 0
ですね 0
▁역사 0
▁נוס 0
▁nothing 0
▁ilginç 0
▁gezond 0
▁evolution 0
вым 0
pte 0
over 0
iat 0
是一 0
大な 0
变成 0
▁пои 0
▁зо 0
▁similar 0
▁inside 0
▁egyre 0
▁chicago 0
▁bijvoorbeeld 0
وقع 0
chis 0
▁مک 0
▁luce 0
▁conto 0
▁buen 0
▁800 0
рие 0
スを 0
▁سریع 0
▁افزایش 0
▁manif 0
▁eins 0
▁cogn 0
▁assist 0
سون 0
▁그냥 0
▁我认为 0
▁ресур 0
▁época 0
▁gön 0
▁dzieje 0
tage 0
ierten 0
▁هستید 0
▁days 0
▁accord 0
زال 0
сколь 0
itiva 0
ものを 0
▁zeker 0
▁ogrom 0
▁gesehen 0
▁떨 0
▁하죠 0
▁자신의 0
▁מלא 0
▁предизви 0
▁waarschijnlijk 0
▁sms 0
▁dific 0
▁devo 0
▁28 0
کرم 0
licher 0
話し 0
▁있는데 0
▁말이 0
▁śro 0
▁igual 0
▁gondolkod 0
▁dale 0
טות 0
ości 0
nit 0
民主 0
▁گذاشت 0
▁מור 0
▁използваме 0
▁işe 0
▁conhe 0
▁attention 0
ющей 0
щей 0
цио 0
цето 0
óst 0
るのです 0
▁کمتر 0
▁правител 0
▁vert 0
inare 0
adem 0
▁świet 0
▁vorba 0
▁százal 0
▁represent 0
▁iss 0
▁infec 0
▁erinner 0
▁différentes 0
▁buch 0
▁ere 0
▁הו 0
▁pomysł 0
▁egyszer 0
▁dłu 0
скую 0
țiile 0
plan 0
iques 0
heden 0
子ど 0
▁форма 0
▁trouve 0
▁pf 0
▁doctor 0
▁applic 0
▁답 0
▁۴ 0
tiğini 0
not 0
iede 0
eye 0
▁طی 0
▁البعض 0
▁أل 0
▁значит 0
▁vorm 0
▁lou 0
▁israel 0
ريقيا 0
áss 0
siz 0
▁هزینه 0
▁دقیقا 0
▁миллиар 0
▁милиона 0
▁surface 0
▁konusunda 0
▁kiện 0
▁hô 0
▁guvern 0
وري 0
ánt 0
sehen 0
▁يستطيع 0
▁хими 0
▁секу 0
▁évek 0
▁oplos 0
▁gelir 0
وكب 0
תיי 0
とんど 0
っても 0
▁فضا 0
▁נא 0
▁чуде 0
▁милиар 0
▁scris 0
▁otur 0
▁donna 0
▁cánh 0
מון 0
ismer 0
興味 0
▁רוב 0
▁абсолю 0
▁emplo 0
ники 0
work 0
ię 0
dra 0
▁تل 0
▁смы 0
▁weise 0
▁vag 0
▁umani 0
▁quién 0
▁często 0
elas 0
▁것도 0
▁وصل 0
▁شرای 0
▁твор 0
▁решение 0
▁всем 0
▁áp 0
▁saú 0
▁past 0
▁pł 0
نوان 0
بحث 0
▁صن 0
▁работе 0
▁zukunft 0
▁cấu 0
ёр 0
bilecek 0
説明 0
▁דוג 0
▁prest 0
▁levens 0
▁jim 0
▁estaban 0
árias 0
tamente 0
kle 0
ficos 0
▁долара 0
▁matter 0
▁jen 0
▁expos 0
▁devenit 0
▁몰 0
يني 0
فظ 0
будь 0
bus 0
分子 0
今天 0
▁گرفتم 0
▁عج 0
▁интерес 0
▁patients 0
▁otten 0
▁oor 0
▁luat 0
▁cooper 0
ونها 0
kommen 0
▁自分の 0
▁vostro 0
▁valamit 0
▁trưởng 0
▁echte 0
▁băng 0
тро 0
ーショ 0
▁않았습니다 0
▁기본 0
▁صوت 0
▁شرایط 0
▁رفتار 0
▁piccolo 0
▁modul 0
▁hizo 0
▁gesund 0
▁elkezd 0
лиги 0
şe 0
yas 0
ught 0
ous 0
miss 0
kon 0
edia 0
▁трябваше 0
▁stadt 0
▁someone 0
lerinden 0
iyorum 0
▁بان 0
▁историята 0
▁bell 0
itie 0
itare 0
▁شبکه 0
▁прошло 0
▁книга 0
▁дже 0
▁osób 0
▁bizonyos 0
▁36 0
صال 0
сеща 0
съл 0
ired 0
졌습니다 0
▁میلیارد 0
▁מכי 0
▁цялата 0
▁seite 0
▁contribu 0
▁광 0
▁到 0
żej 0
taj 0
rile 0
자는 0
▁私たちが 0
▁שנו 0
▁колле 0
▁институ 0
▁wiem 0
▁tă 0
▁mulţumesc 0
▁contact 0
тать 0
йд 0
íthat 0
esa 0
状況 0
ロー 0
▁성공 0
▁שהת 0
▁принци 0
▁primero 0
▁adult 0
▁별 0
הליך 0
reas 0
▁시작했습니다 0
▁מספיק 0
▁יחד 0
▁небо 0
▁vengono 0
▁osob 0
▁hotel 0
▁dato 0
▁akart 0
ابی 0
лън 0
▁인터넷 0
▁이름 0
▁الأولى 0
▁изпра 0
▁tarde 0
▁matt 0
▁kne 0
▁creë 0
▁bepa 0
▁answer 0
ológia 0
imize 0
年間 0
られた 0
しない 0
▁البل 0
▁לשי 0
▁сила 0
▁заста 0
▁sozi 0
▁possível 0
▁nhập 0
ząc 0
zint 0
umu 0
▁часто 0
▁подо 0
▁relacion 0
▁lungo 0
▁canti 0
▁bg 0
séget 0
graph 0
▁하나의 0
▁بودیم 0
▁שג 0
▁אית 0
▁специа 0
▁says 0
▁réalité 0
▁nutzen 0
▁geldi 0
▁alzheim 0
▁애 0
▁か 0
дения 0
zej 0
akter 0
精神 0
▁نیر 0
▁خلق 0
▁וכל 0
▁закон 0
▁достатъчно 0
▁semmi 0
▁kosten 0
▁enfermed 0
▁출 0
▁مقابل 0
▁افرادی 0
▁verl 0
▁parle 0
▁opowie 0
wers 0
dzę 0
くさん 0
▁partner 0
▁nein 0
▁chứ 0
▁celle 0
▁adapt 0
▁금 0
اپ 0
ネルギ 0
▁معت 0
▁تكن 0
▁תא 0
▁המדי 0
▁sb 0
▁nouă 0
▁delen 0
▁； 0
▁측 0
onti 0
▁내가 0
▁میکرد 0
▁مشابه 0
▁кора 0
▁pequeño 0
▁lua 0
▁civiliz 0
▁beim 0
▁aconteceu 0
yat 0
biera 0
었던 0
▁지나 0
▁متشکرم 0
▁versuchen 0
▁sommige 0
▁hoofd 0
▁gebruikt 0
▁dane 0
▁cały 0
▁antig 0
ויים 0
idelijk 0
használ 0
cop 0
attan 0
是什么 0
▁כדור 0
▁тут 0
▁извест 0
▁united 0
▁structure 0
▁states 0
▁milyar 0
▁goes 0
▁geval 0
▁bewegen 0
▁age 0
יהם 0
טית 0
self 0
発見 0
々な 0
▁このような 0
▁meter 0
▁hind 0
lendir 0
▁الهند 0
▁שתי 0
▁язы 0
▁saúde 0
▁parla 0
▁jedno 0
حيط 0
נטרנט 0
umul 0
▁رخ 0
▁خد 0
▁מיליון 0
▁גור 0
▁возможность 0
▁vẽ 0
▁produt 0
▁ihrem 0
▁bunları 0
icia 0
amaz 0
一点 0
▁цели 0
▁începe 0
▁kesin 0
пя 0
нок 0
식을 0
▁영향을 0
▁ره 0
▁دهه 0
▁része 0
▁drugie 0
▁boston 0
вого 0
próbál 0
imat 0
学习 0
▁وعندما 0
▁תש 0
▁постоянно 0
▁нарече 0
▁takich 0
▁gördüğünüz 0
▁frü 0
▁fiatal 0
▁elj 0
▁dolarów 0
rière 0
iso 0
▁رابط 0
▁خصوص 0
▁множе 0
▁анг 0
▁seguir 0
▁geliştir 0
▁etti 0
▁environment 0
▁cám 0
▁水 0
arele 0
자들은 0
行为 0
▁어려 0
▁گیری 0
▁اینترنت 0
▁дни 0
▁incroyable 0
▁impac 0
▁benne 0
▁bí 0
راق 0
ront 0
基因 0
動物 0
▁שש 0
▁проекти 0
▁độc 0
▁đông 0
▁última 0
▁xét 0
▁thousand 0
▁often 0
▁kísér 0
▁giusto 0
▁eml 0
▁contex 0
liyor 0
90 0
▁пак 0
▁éve 0
▁sposo 0
▁raggi 0
▁hale 0
▁gla 0
▁cambiare 0
기로 0
▁تمامی 0
▁חוק 0
▁степе 0
▁обнаружи 0
▁вземе 0
▁xúc 0
▁wenig 0
▁tổng 0
▁pubblico 0
▁gezegen 0
▁empresa 0
▁dessa 0
▁dương 0
▁33 0
▁を 0
ירות 0
になり 0
ちろ 0
▁복잡 0
▁تاریخ 0
▁коро 0
▁oké 0
▁cuerpo 0
álni 0
oth 0
ektir 0
blica 0
続け 0
找到 0
▁그림 0
▁ספר 0
▁данные 0
▁állat 0
▁zobaczyć 0
▁yerde 0
▁nadie 0
▁miliard 0
▁chuyên 0
▁autour 0
▁add 0
▁청 0
indeki 0
年に 0
▁방법을 0
▁кажется 0
▁uniti 0
▁moja 0
▁increíble 0
▁construit 0
▁concentr 0
ספר 0
ots 0
했을 0
キャ 0
らない 0
▁آوری 0
▁rein 0
▁enerji 0
▁bune 0
טין 0
ências 0
diğiniz 0
▁상태 0
▁문제를 0
▁なぜなら 0
▁مار 0
▁стать 0
▁wspól 0
▁watch 0
▁tecn 0
▁teste 0
▁quo 0
▁móz 0
▁happens 0
▁eğitim 0
▁crimin 0
▁דולר 0
▁религи 0
▁scuola 0
▁kabul 0
▁kẻ 0
ルの 0
▁أين 0
▁промя 0
▁within 0
▁unele 0
▁társadal 0
▁text 0
▁rzeczyw 0
▁fantas 0
▁doanh 0
▁czasie 0
▁ж 0
حال 0
слу 0
wid 0
piej 0
iene 0
▁الخاصة 0
▁الأخرى 0
▁לחלו 0
▁לאי 0
▁сча 0
▁putern 0
▁prendere 0
▁powiedzieć 0
▁picture 0
▁nyel 0
▁minun 0
▁fing 0
▁endroit 0
▁dolgokat 0
ila 0
halt 0
▁발전 0
▁我在 0
▁دیده 0
▁קוד 0
▁vorrei 0
▁hasonló 0
力を 0
▁それを 0
▁عليك 0
▁عصب 0
▁ثلاثة 0
▁работы 0
▁potra 0
▁nằm 0
▁megj 0
▁jij 0
▁idi 0
▁eind 0
▁davran 0
▁család 0
▁caracter 0
▁both 0
▁bag 0
нс 0
wają 0
olar 0
iți 0
ension 0
▁کامپی 0
▁матери 0
▁unterschied 0
▁self 0
▁rezol 0
▁mesaj 0
кара 0
어서 0
▁الخط 0
▁показва 0
▁поддер 0
▁travaill 0
▁industria 0
▁carro 0
▁already 0
▁接 0
عبة 0
iec 0
fli 0
▁пое 0
▁znaleź 0
▁vorbesc 0
▁vedeți 0
▁settim 0
▁män 0
eng 0
▁wiemy 0
▁thập 0
▁sess 0
▁dnia 0
▁asc 0
▁araç 0
であ 0
▁هنالك 0
▁سخن 0
▁ín 0
▁superficie 0
▁miejsce 0
▁kí 0
▁inj 0
▁afrique 0
عين 0
ших 0
нява 0
事を 0
▁והת 0
▁voce 0
▁pross 0
▁połą 0
▁phí 0
▁hear 0
▁effetti 0
mai 0
지가 0
물을 0
▁他の 0
▁út 0
dzin 0
aine 0
▁رؤية 0
▁todavía 0
▁soha 0
▁quatre 0
▁byłem 0
▁boa 0
utie 0
kün 0
eras 0
▁所以我 0
▁тради 0
▁основа 0
▁spor 0
▁során 0
▁remo 0
▁ours 0
▁minket 0
▁képesek 0
▁cellules 0
▁bö 0
يارات 0
őd 0
▁이걸 0
▁ولم 0
▁основ 0
▁дре 0
▁programma 0
▁hơi 0
▁cole 0
ством 0
kı 0
hil 0
▁социал 0
▁warto 0
▁transpor 0
▁livello 0
▁fünf 0
▁elde 0
▁deep 0
▁cạnh 0
▁준 0
קיי 0
פוס 0
ётся 0
ysi 0
anken 0
하는데 0
자의 0
예요 0
▁مقدار 0
▁להע 0
▁לז 0
▁опера 0
▁vivo 0
▁proyecto 0
▁presente 0
▁kilomet 0
▁feed 0
▁fá 0
▁convin 0
ایل 0
וכל 0
ръща 0
нных 0
fre 0
aa 0
가가 0
并不 0
▁magam 0
▁king 0
▁digo 0
ether 0
ależ 0
ンは 0
▁توسعه 0
▁עלינו 0
▁строи 0
▁lijkt 0
▁guerre 0
▁gezien 0
▁azien 0
▁医 0
نظر 0
cina 0
▁صحيح 0
▁собствен 0
▁zau 0
▁puteți 0
▁должен 0
▁sull 0
▁strada 0
▁melyek 0
▁interno 0
▁dispar 0
▁dachte 0
gia 0
▁حقيقة 0
▁ефе 0
▁pé 0
▁meeste 0
▁gyógy 0
▁cuốn 0
▁comprom 0
▁被 0
פורים 0
кли 0
tonság 0
▁있을까요 0
▁않고 0
▁تحدث 0
▁реша 0
▁жена 0
▁środ 0
▁sẻ 0
▁requ 0
▁oldal 0
▁hạt 0
▁hón 0
▁gerekiyor 0
unter 0
entă 0
▁اتفاقی 0
▁направя 0
▁ат 0
▁whether 0
▁señ 0
▁sắc 0
▁inici 0
üp 0
死亡 0
▁محدود 0
▁проте 0
▁весь 0
▁strut 0
▁maison 0
▁jedy 0
▁içer 0
▁desa 0
▁bundan 0
صاب 0
▁نقطه 0
▁первый 0
▁prodo 0
▁nyil 0
▁hinter 0
▁arrive 0
usal 0
▁現在 0
▁ته 0
▁بزرگی 0
▁النوع 0
▁menge 0
▁dział 0
▁desc 0
فعله 0
onders 0
▁داشتند 0
▁החל 0
▁сър 0
▁unii 0
▁siker 0
▁rzecz 0
▁nélkül 0
ogat 0
gehen 0
科技 0
作用 0
▁ここで 0
▁نمایش 0
▁میخ 0
▁بهم 0
▁بس 0
▁прямо 0
▁мето 0
▁вопро 0
▁unglau 0
▁rug 0
трудни 0
cn 0
adă 0
自由 0
▁دادیم 0
▁تقريبا 0
▁циф 0
▁roman 0
▁ngạc 0
▁condiv 0
тил 0
ög 0
していました 0
▁مطم 0
▁قرن 0
▁искус 0
▁ези 0
▁speak 0
▁empre 0
▁간단 0
▁نشون 0
▁نخوا 0
▁уров 0
▁достаточно 0
▁виждаме 0
▁umie 0
▁informazioni 0
▁hacemos 0
▁değişik 0
memiz 0
▁الدول 0
▁связа 0
▁vállal 0
▁seul 0
▁capit 0
▁aime 0
мпа 0
кое 0
ijnen 0
hrer 0
主義 0
▁것처럼 0
▁ممن 0
▁שונה 0
▁חוד 0
▁הגי 0
▁occhi 0
▁faptul 0
▁csap 0
inos 0
里的 0
▁седми 0
▁право 0
▁гото 0
▁tane 0
▁kích 0
▁faisons 0
трите 0
teken 0
kli 0
리에 0
▁пора 0
▁rencon 0
▁peł 0
▁maș 0
▁cuatro 0
▁compren 0
▁avevano 0
▁‘ 0
pont 0
isation 0
었을 0
▁planeten 0
▁pir 0
▁hữ 0
▁hữu 0
▁distribu 0
▁物 0
зия 0
estre 0
dowis 0
▁فق 0
▁מהמ 0
▁куль 0
▁prieten 0
▁hazır 0
▁erde 0
дж 0
asztal 0
的方式 0
▁وكل 0
▁שאם 0
حق 0
преки 0
owym 0
▁문제가 0
▁שכל 0
▁שום 0
▁упо 0
▁wiecie 0
▁temp 0
▁photos 0
▁nev 0
▁nesse 0
▁cuál 0
▁chỗ 0
عدة 0
سمى 0
거죠 0
の中で 0
▁如果我们 0
▁شاهد 0
▁زنده 0
▁הדי 0
▁hậu 0
▁figure 0
▁coleg 0
▁《 0
בט 0
gaan 0
とても 0
▁아름 0
▁مشاه 0
▁waarin 0
▁soms 0
▁opin 0
▁excep 0
▁comunica 0
▁》 0
برد 0
śniej 0
ókat 0
tikus 0
iscono 0
美元 0
ちろん 0
▁شع 0
▁امکان 0
▁ניס 0
▁באותו 0
▁אותן 0
▁uzak 0
▁patient 0
▁możecie 0
▁gast 0
▁cevap 0
▁2050 0
ברות 0
rog 0
onge 0
fois 0
▁제게 0
▁waarop 0
▁schnell 0
▁mezzo 0
▁könny 0
▁gevoel 0
cupa 0
▁الكب 0
▁ابزار 0
▁исследо 0
▁probabilmente 0
▁olmayan 0
▁institu 0
▁indem 0
▁dünyada 0
▁diyor 0
▁conex 0
▁clin 0
▁극 0
entos 0
edir 0
르는 0
▁spend 0
▁răz 0
▁pénz 0
▁powodu 0
▁pięk 0
▁moz 0
▁ingl 0
▁eleg 0
лните 0
емо 0
orde 0
elik 0
apta 0
者は 0
▁کافی 0
▁ülkel 0
▁toţi 0
▁sentiment 0
tir 0
rions 0
ismus 0
▁누군 0
▁개인 0
▁さらに 0
▁معل 0
▁أصبح 0
▁société 0
▁perc 0
▁mira 0
сет 0
르게 0
计算 0
くな 0
▁نیستند 0
▁ridic 0
▁nadzie 0
ógł 0
anyag 0
経験 0
組織 0
▁프로그 0
▁بگویم 0
▁profit 0
▁paylaş 0
▁genere 0
▁fix 0
▁envo 0
нибудь 0
sem 0
iség 0
することが 0
▁것들이 0
▁المل 0
▁зад 0
▁wcze 0
▁odpowiedzi 0
▁leaders 0
amin 0
ッド 0
のでしょうか 0
▁مشخص 0
▁الحصول 0
▁противо 0
▁szerin 0
▁ngành 0
▁mély 0
▁lány 0
▁hónap 0
▁bajo 0
жет 0
nız 0
inig 0
aby 0
▁بهذه 0
▁zoveel 0
▁lec 0
▁computers 0
ảm 0
ליות 0
▁것들을 0
▁построи 0
▁очевидно 0
▁ülke 0
▁întâl 0
▁universum 0
▁encu 0
▁dönt 0
כונה 0
ърт 0
uję 0
kar 0
▁بشه 0
▁prób 0
▁gostaria 0
▁enige 0
▁depen 0
▁annyira 0
صبحت 0
ian 0
ential 0
▁자동 0
▁יצי 0
▁später 0
▁nyug 0
▁chụp 0
شي 0
éről 0
리스 0
▁תנו 0
▁הספר 0
▁писа 0
▁öld 0
▁leer 0
▁genes 0
▁쉽 0
èce 0
▁بفهم 0
▁същото 0
▁desenvolv 0
ătă 0
szük 0
▁بناء 0
▁שר 0
▁בטוח 0
▁функ 0
▁перио 0
▁żad 0
▁ügy 0
▁puteţi 0
▁aile 0
ıyordu 0
zás 0
our 0
声音 0
关系 0
▁과정 0
▁新しい 0
▁نعرف 0
▁فرص 0
▁أرد 0
▁ино 0
▁menselijke 0
▁jelenti 0
▁heart 0
▁읽 0
ריקה 0
tex 0
자면 0
▁そんな 0
▁וגם 0
▁според 0
▁usu 0
▁működ 0
▁molécul 0
▁felic 0
▁billion 0
▁권 0
вени 0
▁מוח 0
▁точки 0
▁énor 0
▁vidéo 0
▁queria 0
▁phút 0
▁oft 0
▁legnagy 0
▁lựa 0
ابان 0
▁우린 0
▁말을 0
▁بعنوان 0
▁עבודה 0
▁забе 0
▁ей 0
▁zbu 0
▁semplicemente 0
▁planète 0
▁infer 0
▁geeft 0
▁dalej 0
koń 0
cc 0
▁לתת 0
▁saying 0
▁osiąg 0
▁milliards 0
▁metal 0
▁legjobb 0
▁játék 0
▁acontecendo 0
디오 0
▁взаимодей 0
▁şeyleri 0
▁salud 0
▁brengen 0
tiamo 0
▁мозъка 0
▁nạn 0
▁hommes 0
▁chịu 0
▁chống 0
▁amazing 0
▁allo 0
ריק 0
ưỡng 0
▁وف 0
▁طبیعی 0
▁حقوق 0
▁nee 0
▁lak 0
▁inanılmaz 0
▁hét 0
▁entde 0
▁cen 0
▁リ 0
aggi 0
▁محل 0
▁ری 0
▁الحك 0
▁الأح 0
▁wra 0
▁ráj 0
מור 0
úly 0
fft 0
eling 0
▁نرى 0
▁נשים 0
▁работать 0
▁нав 0
▁tale 0
▁sulle 0
▁passo 0
▁jan 0
▁individual 0
▁circu 0
▁트 0
orten 0
▁المؤ 0
▁дизай 0
▁вд 0
▁şunu 0
▁risol 0
▁recursos 0
▁motivo 0
▁cura 0
見せ 0
▁خودمان 0
▁thé 0
▁scri 0
▁moim 0
▁desse 0
▁attiv 0
▁architec 0
▁그걸 0
▁tijdens 0
▁siè 0
▁precum 0
▁geçen 0
▁felul 0
فضل 0
ступа 0
vole 0
rage 0
ria 0
ppi 0
aje 0
▁도움 0
▁своих 0
▁меха 0
▁yalnız 0
▁email 0
▁beha 0
łę 0
csak 0
▁바꾸 0
▁داشتن 0
▁משתמשים 0
▁филь 0
▁обществе 0
▁évben 0
▁költ 0
▁inste 0
▁desta 0
▁conduc 0
▁anci 0
רונה 0
mittel 0
ează 0
食物 0
▁الشب 0
▁לבנות 0
▁ugyanaz 0
▁podía 0
▁historii 0
▁aquela 0
▁allez 0
▁agricul 0
جد 0
üst 0
▁لكل 0
▁آغ 0
▁часа 0
▁говорит 0
▁tentar 0
▁spé 0
▁map 0
▁lumii 0
▁emotion 0
зм 0
larından 0
▁اطراف 0
▁מחדש 0
▁לשנות 0
▁לפע 0
▁xanh 0
▁systeem 0
▁obraz 0
▁najlep 0
▁miglia 0
▁construi 0
▁bedo 0
жды 0
▁יח 0
▁инвести 0
▁środowis 0
▁technológi 0
▁phức 0
▁jobban 0
▁ideal 0
▁hayır 0
▁categ 0
▁bolyg 0
▁alzheimer 0
▁子供 0
áu 0
ativas 0
它的 0
ては 0
▁예술 0
▁보세요 0
▁برق 0
▁הפי 0
▁мор 0
▁schaffen 0
▁ray 0
▁mucha 0
▁keinen 0
▁każd 0
▁hatalmas 0
▁belle 0
▁빨 0
ארד 0
órias 0
cto 0
atif 0
历史 0
▁работает 0
▁sust 0
▁ana 0
なん 0
▁한번 0
▁놀라운 0
▁عدم 0
▁سرمایه 0
▁باشم 0
▁сложно 0
▁ке 0
▁école 0
▁tấm 0
▁pensate 0
▁krank 0
▁instead 0
▁inner 0
▁ecos 0
▁판 0
tiene 0
oknak 0
bly 0
电脑 0
▁نصف 0
▁согла 0
▁плани 0
▁quería 0
▁poziom 0
▁logo 0
▁laboratorio 0
▁güne 0
▁bakter 0
▁afl 0
▁희 0
ỏng 0
عام 0
ığında 0
ério 0
lığı 0
られます 0
▁받아 0
▁לכן 0
▁инже 0
▁zan 0
▁rappres 0
▁iniziato 0
▁grootste 0
▁라는 0
wohl 0
feje 0
▁états 0
▁myself 0
▁migliore 0
▁erfa 0
▁aquele 0
▁찍 0
кция 0
hatunk 0
한다는 0
▁기회 0
▁而是 0
▁انداز 0
▁לוק 0
▁repe 0
▁etraf 0
▁eta 0
▁beş 0
пли 0
oci 0
ingt 0
hatjuk 0
▁енергия 0
▁çalışan 0
▁familiar 0
ției 0
wania 0
mé 0
isión 0
▁결정 0
▁تعمل 0
▁увидеть 0
▁попа 0
▁заба 0
▁sometimes 0
▁idées 0
▁ezelőtt 0
▁escuela 0
▁căl 0
▁aud 0
вления 0
zung 0
wis 0
ping 0
omini 0
学家 0
▁לעבוד 0
▁среда 0
▁измени 0
▁zasad 0
▁zile 0
▁scher 0
▁nuova 0
▁interesse 0
▁game 0
indre 0
が見 0
▁respuesta 0
▁pobre 0
▁müzik 0
▁kazan 0
▁estre 0
גן 0
▁这是一个 0
▁قسمت 0
▁семь 0
▁производ 0
▁malatt 0
▁fenomen 0
▁egészség 0
▁dys 0
▁beden 0
zuk 0
rijf 0
れます 0
▁لديك 0
▁لج 0
▁الفكرة 0
▁מול 0
▁trouvé 0
▁tức 0
▁soru 0
▁kısm 0
▁협 0
ابد 0
程度 0
▁примерно 0
▁tuv 0
▁gesell 0
▁cinque 0
طلاق 0
änd 0
byt 0
assen 0
▁النظر 0
▁נש 0
▁trabajar 0
▁pacientes 0
▁manch 0
▁begonnen 0
tım 0
ettek 0
▁oltre 0
▁líder 0
▁kobiet 0
▁inşa 0
▁enter 0
▁感 0
בח 0
стью 0
дне 0
▁להגיע 0
▁wieku 0
▁quei 0
▁piace 0
▁milieu 0
▁miliardi 0
▁brand 0
вим 0
űn 0
dp 0
▁떨어 0
▁تاثیر 0
▁السي 0
▁sold 0
▁przesz 0
▁imper 0
▁dunque 0
اط 0
çi 0
ccio 0
簡単 0
▁טובה 0
▁בבית 0
▁zrozumie 0
▁mâ 0
▁laiss 0
▁jede 0
▁international 0
▁compa 0
▁außer 0
▁相 0
▁ち 0
ركز 0
дн 0
umin 0
nier 0
▁구조 0
▁갖고 0
▁מכיוון 0
▁точка 0
▁oni 0
▁hepsi 0
ظار 0
mod 0
▁ناب 0
▁بررسی 0
▁отда 0
▁днк 0
▁въпреки 0
▁nume 0
▁környezet 0
▁hoog 0
▁giov 0
▁edin 0
▁bárm 0
▁basically 0
leme 0
れました 0
▁자기 0
▁שיכול 0
▁доказа 0
▁şans 0
▁suoi 0
▁jednym 0
▁fueron 0
▁entwick 0
▁company 0
▁cổ 0
▁85 0
▁ダ 0
laşt 0
▁الوح 0
▁правя 0
▁își 0
▁putut 0
▁looked 0
▁真 0
ווי 0
кции 0
uttos 0
etzen 0
▁하면 0
▁الحديث 0
▁להש 0
▁этому 0
▁станови 0
▁ölüm 0
▁tệ 0
▁stră 0
▁semanas 0
▁ngôn 0
▁khăn 0
▁colocar 0
▁azonban 0
اخت 0
כלה 0
ביבה 0
anho 0
▁الدماغ 0
▁חס 0
▁wrong 0
▁istnieje 0
▁hätte 0
▁began 0
▁ô 0
ecta 0
시피 0
遺伝 0
▁покажа 0
▁pais 0
▁enfr 0
▁blue 0
▁artifici 0
는데요 0
▁중국 0
▁север 0
▁мозга 0
▁piuttos 0
▁piuttosto 0
▁metri 0
▁majoritatea 0
▁czyli 0
▁향 0
ẩy 0
кого 0
жите 0
ıyız 0
▁سرطان 0
▁également 0
▁vorbe 0
▁terüle 0
▁presque 0
▁oklas 0
▁bec 0
یرات 0
پا 0
kken 0
出现 0
▁بخشی 0
▁vec 0
▁sztu 0
▁sigui 0
▁scar 0
▁immagine 0
▁całe 0
נסות 0
open 0
別の 0
▁مشكلة 0
▁قاد 0
▁فكر 0
▁داشتیم 0
▁uomini 0
▁solution 0
▁sog 0
▁coca 0
▁осъзна 0
▁заради 0
▁двига 0
▁zobaczy 0
▁propria 0
▁legtöbb 0
▁exac 0
▁doktor 0
▁diagnost 0
▁cod 0
дям 0
▁当我 0
▁ואי 0
▁стали 0
▁vostra 0
▁sujet 0
▁ningu 0
▁bouwen 0
▁먼 0
ẵn 0
وسي 0
ële 0
sınız 0
立ち 0
▁يعرف 0
▁ההת 0
▁בל 0
▁trasform 0
▁terap 0
▁războ 0
▁oraș 0
▁oklaski 0
▁modific 0
▁greu 0
▁entrar 0
▁benzer 0
▁autos 0
шком 0
ństwo 0
来的 0
▁생산 0
▁существует 0
zas 0
andır 0
aktır 0
▁건강 0
▁مجبور 0
▁لديه 0
▁ضد 0
▁التق 0
▁اكت 0
▁однако 0
▁mógł 0
▁kulland 0
▁ję 0
كب 0
זרת 0
ariamente 0
▁سفر 0
▁troppo 0
▁programm 0
▁kenya 0
▁faites 0
▁esen 0
▁comportamento 0
кая 0
数字 0
▁пода 0
▁оча 0
▁музыка 0
▁jedną 0
▁imagen 0
▁gesagt 0
او 0
шни 0
нена 0
ziu 0
iends 0
との 0
▁نکته 0
▁للإ 0
▁طرح 0
▁никой 0
▁взема 0
▁true 0
▁everybody 0
рва 0
▁лег 0
▁идеята 0
▁legnagyobb 0
▁karma 0
▁isol 0
▁eszköz 0
▁aplica 0
телите 0
▁کلم 0
▁هكذا 0
▁правитель 0
▁зве 0
▁trim 0
▁phạm 0
▁indo 0
▁helpen 0
▁dessas 0
▁beeld 0
▁سراسر 0
▁слън 0
▁ăsta 0
▁stessi 0
▁exatamente 0
▁coup 0
▁astăzi 0
▁另 0
سد 0
нтов 0
ulez 0
kami 0
izin 0
▁بالطبع 0
▁đội 0
▁zmienia 0
▁różnych 0
▁hề 0
▁głów 0
▁년 0
▁脳 0
שינו 0
שור 0
рами 0
culos 0
▁نهاية 0
▁words 0
▁largo 0
▁inova 0
▁express 0
▁elb 0
▁devlet 0
▁1970 0
▁二 0
רב 0
щества 0
onych 0
odată 0
jal 0
しまう 0
▁סרט 0
▁המע 0
▁wspania 0
▁eksper 0
▁autom 0
کاری 0
щих 0
dott 0
dam 0
로부터 0
내는 0
かか 0
▁کنن 0
▁resolver 0
▁order 0
▁oceano 0
▁object 0
▁dựa 0
▁drug 0
▁bevor 0
עד 0
жава 0
中心 0
▁일은 0
▁말했습니다 0
▁نمونه 0
▁đen 0
▁revolution 0
▁russ 0
▁impres 0
▁genel 0
علام 0
▁이유는 0
▁سازی 0
▁المثال 0
▁סיפור 0
▁profond 0
▁powsta 0
▁jeff 0
▁free 0
▁copi 0
ètres 0
ujące 0
▁비슷 0
▁تغيير 0
▁zdro 0
▁nekünk 0
▁llevar 0
▁dare 0
▁cibo 0
кога 0
łym 0
ıma 0
▁يمكنكم 0
▁عبار 0
▁מצי 0
▁won 0
▁vrem 0
▁rozpo 0
▁nigeria 0
▁mãe 0
▁mecan 0
▁hold 0
▁eigenen 0
▁edificio 0
▁conclus 0
▁beauti 0
وما 0
льным 0
днъж 0
vio 0
▁신경 0
▁مسیر 0
▁دانشگاه 0
▁اینطور 0
▁מתחי 0
▁пита 0
▁меньше 0
▁épít 0
▁którego 0
▁gute 0
▁bunların 0
▁앉 0
ếp 0
veaux 0
地区 0
▁יוצא 0
▁миллионов 0
▁компания 0
▁души 0
▁афри 0
▁tanım 0
▁ovviamente 0
▁llev 0
▁giorni 0
▁ervan 0
▁dung 0
▁29 0
唯一 0
世纪 0
しても 0
▁但我 0
▁مصرف 0
▁بصورة 0
▁المشكلة 0
▁последните 0
▁искаме 0
▁white 0
▁quím 0
▁instant 0
▁faj 0
▁chuẩn 0
▁blijven 0
nünk 0
▁작품 0
▁فك 0
▁جلو 0
▁الجد 0
▁ölç 0
▁proceso 0
▁ogget 0
▁niño 0
▁kid 0
▁informations 0
▁funktioniert 0
▁elet 0
▁digitale 0
하며 0
▁vídeo 0
▁probablemente 0
▁nowe 0
▁friends 0
ولی 0
שיך 0
добре 0
róż 0
変わ 0
タン 0
▁나는 0
▁بهش 0
▁град 0
▁yaptık 0
▁pazi 0
▁explic 0
▁empezar 0
موذج 0
тили 0
quiera 0
▁моби 0
▁vest 0
▁tái 0
▁psic 0
▁güçlü 0
خانه 0
ting 0
aty 0
经历 0
▁كتاب 0
▁السؤال 0
▁robić 0
▁języ 0
▁isted 0
▁government 0
راج 0
ריך 0
чув 0
imas 0
印度 0
▁안에 0
▁میکنیم 0
▁كال 0
▁целия 0
▁đức 0
▁zaczyna 0
▁sẵn 0
▁progress 0
▁ninguém 0
▁months 0
▁machines 0
▁compag 0
țele 0
átok 0
tier 0
orda 0
全球 0
サイ 0
もあります 0
▁שלוש 0
▁אתכם 0
▁група 0
▁verant 0
▁scoperto 0
▁gang 0
yiz 0
dom 0
▁започнах 0
▁pequeno 0
▁observa 0
▁istediğim 0
▁페 0
▁可 0
▁公 0
קהי 0
▁طويل 0
▁שאתה 0
▁בשביל 0
▁בעלי 0
▁човеш 0
▁училище 0
▁tratar 0
▁reste 0
▁indie 0
▁boldo 0
▁beautiful 0
ásokat 0
onstru 0
cipl 0
집니다 0
食べ 0
プロジェ 0
▁ببر 0
▁запи 0
▁potrzeb 0
▁gondolom 0
▁fabric 0
▁erw 0
דמה 0
larım 0
abe 0
されています 0
▁نوعی 0
▁الجميع 0
▁اک 0
▁бло 0
▁schauen 0
▁rot 0
▁przyp 0
▁gren 0
▁début 0
▁couple 0
▁coll 0
▁choro 0
▁듣 0
مم 0
ält 0
tiver 0
osas 0
alan 0
对于 0
▁دادند 0
▁أعرف 0
▁работу 0
▁людям 0
▁города 0
▁бес 0
▁padr 0
▁obi 0
▁geniş 0
▁ern 0
▁팔 0
▁通过 0
نون 0
teş 0
arem 0
令人 0
▁الماضي 0
▁מהר 0
▁инду 0
▁đau 0
▁pianeta 0
▁llegar 0
וה 0
어를 0
▁대학 0
▁yanl 0
▁quý 0
▁mutter 0
▁insanları 0
▁dair 0
▁conj 0
▁cells 0
されました 0
▁گفته 0
▁يريد 0
▁بنفس 0
▁العلا 0
▁המט 0
▁норма 0
▁woman 0
▁risposta 0
▁rais 0
▁niezwy 0
▁ngoại 0
▁multă 0
▁militar 0
▁medical 0
▁elé 0
▁ego 0
teza 0
mesini 0
leti 0
ilmiş 0
gefähr 0
間に 0
付け 0
▁全て 0
▁ultima 0
▁stress 0
▁sizi 0
▁pokaza 0
▁famille 0
▁embereket 0
▁colleg 0
خش 0
ите 0
ţiile 0
wczy 0
niki 0
▁цел 0
▁соверше 0
▁коло 0
▁okaz 0
▁expect 0
▁biztonság 0
▁atte 0
▁łą 0
مق 0
képpen 0
デア 0
▁زندگ 0
▁каме 0
▁trabalhar 0
▁london 0
żli 0
ude 0
totta 0
管理 0
たちが 0
▁جنب 0
▁tudunk 0
▁savons 0
▁recuper 0
▁geloof 0
▁düzen 0
▁compañ 0
▁classe 0
▁bic 0
▁astea 0
▁탐 0
▁жа 0
ница 0
tivi 0
iaj 0
emu 0
dować 0
▁بق 0
▁الإنسان 0
▁أرب 0
▁until 0
▁raj 0
▁imedi 0
▁einzel 0
▁dần 0
▁comprar 0
▁chac 0
телей 0
lier 0
entr 0
主义 0
▁전혀 0
▁그러면 0
▁تعد 0
▁буква 0
▁temperatura 0
▁pudi 0
▁pomoc 0
▁mary 0
wną 0
assem 0
かな 0
▁النساء 0
▁szerintem 0
▁spin 0
▁neu 0
▁environnement 0
▁无 0
▁ám 0
hetünk 0
fta 0
▁필요한 0
▁مکان 0
▁عوض 0
▁неи 0
▁tây 0
▁smart 0
▁neredeyse 0
▁metros 0
▁doe 0
▁biy 0
▁ați 0
طلب 0
زء 0
дени 0
say 0
▁нова 0
▁tienes 0
▁sola 0
▁society 0
▁rozwiąz 0
▁meis 0
▁amerikai 0
▁algún 0
моби 0
flé 0
引き 0
バー 0
▁stanford 0
▁nyilván 0
▁mintha 0
▁lenni 0
▁inac 0
▁gag 0
▁essayer 0
▁dedic 0
▁códig 0
ửi 0
קל 0
eknek 0
の人々 0
なりません 0
▁كام 0
▁молеку 0
▁mauva 0
▁laptop 0
▁futur 0
▁cuno 0
▁augen 0
זם 0
ешь 0
äus 0
ră 0
pod 0
erais 0
▁노력 0
▁ありがとうございました 0
▁گر 0
▁أقول 0
▁היחי 0
▁xử 0
▁verte 0
▁soldi 0
▁richtig 0
▁mózgu 0
▁klar 0
▁gras 0
▁erfol 0
▁economie 0
▁daca 0
▁biologie 0
خیص 0
либо 0
bild 0
시간 0
▁ومع 0
▁الخلايا 0
▁הולכים 0
▁uğ 0
▁mannen 0
▁changement 0
▁像 0
рё 0
legen 0
cule 0
空间 0
▁להראות 0
▁sắp 0
▁oran 0
▁normale 0
▁gradu 0
▁퍼 0
▁太 0
mm 0
cier 0
apoi 0
▁하나는 0
▁النظام 0
▁succede 0
▁alter 0
ورك 0
şim 0
éph 0
ință 0
enin 0
による 0
▁אפש 0
▁моми 0
▁đóng 0
▁wasn 0
▁resposta 0
▁ms 0
▁konnten 0
▁klima 0
▁ip 0
▁hav 0
▁especie 0
▁continue 0
▁העבודה 0
▁המא 0
▁цве 0
▁револю 0
▁ню 0
▁core 0
▁bani 0
קן 0
ınır 0
zysta 0
owany 0
lemek 0
ház 0
agę 0
初の 0
▁بكل 0
▁ожи 0
▁wykorzyst 0
▁wunder 0
▁mesi 0
صنع 0
льная 0
вайки 0
ępu 0
niejsze 0
사를 0
じゃ 0
▁ممکنه 0
▁شكل 0
▁اتاق 0
▁своего 0
▁écr 0
▁áreas 0
▁wystar 0
▁viața 0
▁seguro 0
▁produkt 0
▁mindent 0
▁hoz 0
▁femin 0
▁access 0
خصص 0
reiben 0
kre 0
iting 0
▁میکند 0
▁كثيرا 0
▁زده 0
▁някак 0
▁ích 0
▁famos 0
▁engine 0
▁实际上 0
чната 0
velles 0
urre 0
フィ 0
ゆる 0
▁本当に 0
▁دیگران 0
▁очи 0
▁potere 0
▁moeder 0
▁mane 0
▁law 0
▁invers 0
▁inizio 0
▁bakın 0
看看 0
▁싶은 0
▁نوشت 0
▁مربوط 0
▁двух 0
▁виру 0
▁marché 0
▁lạc 0
▁ذا 0
ונ 0
udo 0
jard 0
iţi 0
denken 0
boren 0
怎样 0
▁کاه 0
▁چال 0
▁соста 0
▁petrol 0
▁nouvelles 0
▁najwięk 0
▁müm 0
▁látható 0
▁khắc 0
▁jön 0
▁gyakor 0
▁comen 0
▁혼 0
▁女性 0
قيق 0
ского 0
のある 0
▁مناسب 0
▁sav 0
▁począt 0
ưng 0
lä 0
bot 0
▁엄청난 0
▁사람들의 0
▁것으로 0
▁vogliamo 0
▁tulajdon 0
▁perspectiva 0
▁condi 0
وبا 0
dna 0
通常 0
様々な 0
になった 0
▁살고 0
▁نحتاج 0
▁تشخیص 0
▁بخوا 0
▁зда 0
▁întâmplat 0
▁tha 0
▁statist 0
▁region 0
▁nuclear 0
▁mümkün 0
▁lắng 0
▁humain 0
▁difficult 0
▁cieka 0
▁buz 0
ופי 0
에서도 0
意味着 0
▁정보를 0
▁помисли 0
▁здраве 0
▁özellikle 0
▁wcześniej 0
▁ungefähr 0
▁megfel 0
▁mơ 0
▁capacità 0
▁beyin 0
▁animale 0
▁.... 0
▁ź 0
шим 0
tz 0
地域 0
▁종류의 0
▁ly 0
▁destek 0
àu 0
▁четы 0
▁physi 0
▁bri 0
ỏa 0
קרו 0
▁همون 0
▁מהא 0
▁поте 0
▁иногда 0
▁век 0
▁predic 0
▁kaf 0
▁felfe 0
▁bilir 0
ודו 0
方向 0
フォ 0
▁있기 0
▁منهم 0
▁נות 0
▁והמ 0
▁замеча 0
▁ważne 0
▁tellement 0
▁looks 0
▁groupe 0
▁denkt 0
▁ciągu 0
되었습니다 0
プロジェクト 0
▁말하는 0
▁شر 0
▁المحيط 0
▁абсолютно 0
▁znajdu 0
▁travailler 0
▁since 0
▁resim 0
▁olmal 0
▁lạ 0
▁luni 0
▁kg 0
▁apres 0
حظة 0
بری 0
方が 0
与え 0
▁واقعیت 0
▁رفتن 0
▁אחרת 0
▁приш 0
▁yapıyor 0
▁south 0
▁literalmente 0
▁lik 0
▁heißt 0
▁늘 0
▁下 0
باس 0
által 0
tenek 0
apte 0
的一个 0
▁المب 0
▁uiteind 0
▁sente 0
▁ong 0
▁nhiệt 0
▁mist 0
▁experi 0
▁deal 0
▁를 0
ابق 0
yim 0
nieuw 0
agli 0
っていた 0
▁있어서 0
▁сама 0
▁проблеми 0
▁trend 0
▁jumătate 0
▁isn 0
▁crisis 0
▁패 0
щение 0
iding 0
hle 0
atele 0
가요 0
▁предизвика 0
▁woj 0
▁văd 0
▁pię 0
▁numit 0
▁médic 0
▁lief 0
▁kant 0
▁explos 0
▁context 0
▁beyn 0
نتج 0
قف 0
קור 0
вед 0
新しい 0
才能 0
にいる 0
▁알게 0
▁صور 0
▁سبيل 0
▁tahmin 0
▁sost 0
▁dokład 0
▁deli 0
▁amiket 0
zte 0
evens 0
治療 0
ンが 0
▁우리를 0
▁يخ 0
▁وظ 0
▁معد 0
▁عنه 0
▁بلند 0
▁משמעות 0
▁хотя 0
▁совсем 0
▁рак 0
▁използват 0
▁prior 0
▁nieuws 0
▁markt 0
▁entire 0
▁chcemy 0
▁無 0
▁み 0
льше 0
▁деся 0
▁бързо 0
▁tyle 0
▁schwier 0
▁schön 0
▁神 0
בתי 0
бър 0
uluk 0
room 0
asındaki 0
abiliyor 0
시에 0
或者 0
▁بلا 0
▁yem 0
▁widzimy 0
▁urm 0
▁stimul 0
▁longo 0
نف 0
فهوم 0
тера 0
zać 0
werken 0
pios 0
cro 0
▁これを 0
▁السا 0
▁להח 0
▁быстро 0
▁trag 0
▁reduc 0
▁olduğumuz 0
▁megt 0
▁hombres 0
▁ară 0
▁= 0
▁الريا 0
▁движение 0
▁tai 0
▁fizik 0
▁evid 0
▁espero 0
▁ciencia 0
▁q 0
ural 0
dzieli 0
이를 0
建立 0
のでしょう 0
▁아닌 0
▁بك 0
▁الحقي 0
▁îşi 0
▁nello 0
▁miljard 0
▁interag 0
غب 0
pon 0
ciais 0
開発 0
▁بواس 0
▁מים 0
▁ארבע 0
▁слишком 0
▁vine 0
▁thách 0
▁plusieurs 0
▁hí 0
▁everyone 0
▁daarom 0
ersch 0
cei 0
인이 0
において 0
▁پایان 0
▁نوعا 0
▁عدة 0
▁أث 0
▁époque 0
▁szczeg 0
▁lumière 0
▁fäh 0
▁democrat 0
▁depres 0
▁analog 0
ваем 0
alde 0
患者 0
复杂 0
▁گذاری 0
▁праве 0
▁дизайн 0
▁réflé 0
▁portanto 0
▁nevez 0
▁marketing 0
▁genug 0
▁deste 0
▁commencer 0
őtt 0
czek 0
的时间 0
▁اضا 0
▁сообще 0
▁сгра 0
▁somente 0
▁kurz 0
▁hứng 0
▁dikkat 0
▁acontecer 0
▁용 0
vá 0
uyu 0
gın 0
▁你知道 0
▁купи 0
▁водо 0
▁épp 0
▁vượt 0
▁tárgy 0
▁szél 0
▁repül 0
▁fizemos 0
▁chăm 0
▁brill 0
▁や 0
ריה 0
bru 0
세계 0
意义 0
▁neuen 0
▁middle 0
▁buena 0
сфе 0
ieniu 0
概念 0
有趣 0
▁مجد 0
▁пръ 0
▁voulez 0
▁vem 0
▁tỷ 0
▁source 0
▁sistemul 0
▁resultados 0
▁quizá 0
▁dziec 0
▁dollár 0
▁costruire 0
ומרים 0
בנה 0
redi 0
gas 0
지어 0
をする 0
▁پدر 0
▁بینی 0
▁מצא 0
▁споделя 0
▁wikip 0
▁voorbeeld 0
▁stworzy 0
▁ragazzi 0
▁otr 0
▁mortal 0
▁giro 0
▁depress 0
▁część 0
כולת 0
стойчи 0
ício 0
light 0
多数 0
▁정신 0
▁برخورد 0
▁آما 0
▁такива 0
▁sobreviv 0
▁rapidamente 0
▁rák 0
▁eenv 0
▁commence 0
▁chữ 0
▁brz 0
▁alb 0
▁임 0
▁多くの 0
ţiei 0
usement 0
oloj 0
cci 0
ひと 0
▁وش 0
▁منطقه 0
▁голям 0
▁анали 0
▁reale 0
▁nak 0
ترك 0
vangen 0
utto 0
nienia 0
dis 0
▁분명 0
▁خر 0
▁еди 0
▁zim 0
▁woorden 0
▁testa 0
▁sfâr 0
▁neki 0
▁lényeg 0
▁byli 0
▁astronom 0
▁appena 0
üli 0
家庭 0
▁обяс 0
▁изключи 0
▁довольно 0
▁большинство 0
▁vue 0
▁llamado 0
▁dele 0
▁dej 0
عتبر 0
гова 0
各种 0
▁보는 0
▁非常に 0
▁جال 0
▁большое 0
▁poza 0
▁kính 0
▁dens 0
▁curs 0
▁cale 0
▁bazen 0
▁ador 0
ونم 0
дар 0
szego 0
努力 0
▁أنفس 0
▁ואת 0
▁кило 0
▁клю 0
▁доступ 0
▁всему 0
▁técn 0
▁szolgál 0
▁réponse 0
▁narr 0
▁담 0
دیگر 0
טת 0
해보 0
▁پذیر 0
▁שמש 0
▁מוצ 0
▁vall 0
▁sale 0
▁izin 0
▁feite 0
▁escola 0
▁cég 0
▁甚至 0
ميل 0
סיה 0
вли 0
宗教 0
子ども 0
▁تاب 0
▁כאלה 0
▁прежи 0
▁studenten 0
▁nghèo 0
▁mulţi 0
тици 0
горе 0
kta 0
▁제공 0
▁아버 0
▁不过 0
▁نیم 0
▁خورد 0
▁ללכת 0
▁הבא 0
▁çift 0
▁rej 0
▁olacağ 0
▁mégis 0
▁gand 0
▁construire 0
▁cade 0
וסר 0
일까요 0
制造 0
ベル 0
▁对于 0
▁پوش 0
▁وض 0
▁بحا 0
▁יע 0
▁sosten 0
▁posta 0
▁pune 0
▁novamente 0
▁monitor 0
▁lavorare 0
▁heard 0
▁famiglia 0
▁college 0
▁animali 0
ший 0
estas 0
▁отде 0
▁обя 0
▁ед 0
▁thiếu 0
▁schre 0
▁prakt 0
▁moderne 0
قتصادی 0
ריים 0
רוע 0
щие 0
usias 0
jék 0
도를 0
年的 0
▁میشود 0
▁رفتم 0
▁توضی 0
▁ترون 0
▁паза 0
▁имеет 0
▁sky 0
▁share 0
▁seconda 0
▁pakistan 0
▁mah 0
▁expli 0
▁elef 0
▁altında 0
ובות 0
телна 0
▁저에게 0
▁نريد 0
▁تبدو 0
▁tare 0
▁seks 0
▁resist 0
▁escr 0
حص 0
ıydı 0
rebbero 0
机会 0
暴力 0
控制 0
初めて 0
▁تريد 0
▁приходи 0
▁widzicie 0
▁veil 0
▁macchina 0
▁krit 0
▁każdego 0
▁haus 0
▁folyamat 0
ąt 0
meg 0
ンス 0
▁정말로 0
▁ایست 0
▁שבע 0
▁האדם 0
▁telefo 0
▁poner 0
▁lecz 0
▁ficar 0
▁experiência 0
▁avanti 0
اتي 0
יד 0
owałem 0
ați 0
成長 0
▁سان 0
▁روب 0
▁درس 0
▁آسی 0
▁működik 0
▁jurul 0
كال 0
bringen 0
atom 0
▁どんな 0
▁pequeña 0
شن 0
ваше 0
şık 0
richt 0
masını 0
我々 0
と同じ 0
▁충분 0
▁보다 0
▁کشف 0
▁صنعت 0
▁מאות 0
▁כיום 0
▁אומרים 0
▁опы 0
▁кому 0
▁probablement 0
▁naszej 0
▁jud 0
▁esperienza 0
▁aż 0
▁군 0
vertir 0
urch 0
▁조직 0
▁עובד 0
▁nacional 0
▁microsoft 0
▁deg 0
pf 0
omos 0
inn 0
음을 0
어나 0
▁وسی 0
▁رائع 0
▁фер 0
▁клас 0
▁казват 0
▁szár 0
▁seiner 0
▁sever 0
▁pillanat 0
▁nekik 0
▁natureza 0
▁gere 0
▁fek 0
▁connec 0
רופה 0
נע 0
unku 0
iyorlar 0
ienne 0
etem 0
想象 0
していた 0
▁השנים 0
▁понякога 0
▁thất 0
▁psycholog 0
▁később 0
▁dramat 0
▁basicamente 0
起き 0
状態 0
▁정확 0
▁متر 0
▁ساختمان 0
▁زمینه 0
▁اونجا 0
▁סביב 0
▁хоте 0
▁valóban 0
▁university 0
▁pud 0
▁obecnie 0
▁megkér 0
▁maş 0
▁built 0
▁biss 0
▁afin 0
ms 0
ikat 0
dopo 0
ミュ 0
イル 0
したのです 0
▁مبا 0
▁قوان 0
▁изра 0
▁đột 0
▁viag 0
▁pły 0
▁enseñ 0
▁bilhões 0
ộn 0
fiques 0
elves 0
▁صنا 0
▁ştiin 0
▁links 0
▁improv 0
כלים 0
nika 0
esinde 0
化学 0
ニア 0
▁느끼 0
▁بساز 0
▁תוכ 0
▁ultra 0
▁schimbă 0
▁nächsten 0
▁gobierno 0
▁eski 0
▁blu 0
نتاج 0
פתח 0
uste 0
kw 0
izar 0
aret 0
▁מסו 0
▁יל 0
▁объяс 0
▁механи 0
▁yönet 0
▁mózg 0
▁investi 0
غيير 0
роде 0
임을 0
演讲 0
国の 0
▁שהמ 0
▁тан 0
▁budy 0
امة 0
usu 0
▁거기 0
▁неболь 0
▁ştiţi 0
▁venir 0
▁szybko 0
▁kreeg 0
▁ideeën 0
▁criança 0
ünün 0
▁جور 0
▁совершенно 0
▁parçası 0
▁humains 0
▁climat 0
שיתי 0
סון 0
края 0
amız 0
acyj 0
▁הבעיה 0
▁sorprend 0
▁nép 0
▁mică 0
▁industrie 0
▁clă 0
▁biç 0
让我 0
▁다양한 0
▁也许 0
▁گرفتن 0
▁الأمور 0
▁мислим 0
▁învăț 0
▁yanlış 0
▁proced 0
▁hot 0
▁felad 0
▁让我们 0
▁دستگاه 0
▁المال 0
▁пози 0
▁śmier 0
▁szív 0
▁study 0
▁rând 0
▁places 0
▁pick 0
▁megné 0
▁mật 0
▁island 0
▁hạnh 0
▁deniz 0
▁colo 0
▁ange 0
▁说 0
ליה 0
hel 0
制作 0
を使って 0
▁السبب 0
▁اقتصادی 0
▁צעי 0
▁éppen 0
▁stil 0
▁ron 0
▁pasa 0
▁intent 0
▁gezondheid 0
▁gewor 0
▁cambiamento 0
▁bambino 0
▁anlay 0
пуска 0
нска 0
új 0
isinde 0
ilea 0
icznych 0
ardan 0
▁روا 0
▁жени 0
▁mudança 0
▁levar 0
▁jeż 0
▁głos 0
▁falando 0
▁différents 0
▁avions 0
moi 0
icon 0
在一起 0
▁영화 0
▁против 0
▁видя 0
▁razy 0
▁precies 0
▁martin 0
▁incor 0
▁erzählen 0
▁ayak 0
وبة 0
круг 0
łada 0
chos 0
▁المكان 0
▁дети 0
▁дъ 0
▁usamos 0
▁ucz 0
▁tàu 0
▁racon 0
▁próximo 0
▁przem 0
▁produit 0
▁mère 0
▁khán 0
▁gusta 0
▁dot 0
▁베 0
فية 0
iej 0
egu 0
▁진행 0
▁تفاوت 0
▁التكنولوجيا 0
▁اكثر 0
▁קיי 0
▁uur 0
▁ouv 0
▁lib 0
▁kry 0
▁follow 0
▁encontramos 0
▁colec 0
▁55 0
лени 0
uge 0
liam 0
치는 0
▁여러분께 0
▁سپاس 0
▁тъй 0
▁tett 0
▁przyj 0
лят 0
équ 0
leben 0
ecten 0
더군요 0
件事 0
▁يس 0
▁لب 0
▁فال 0
▁נכנס 0
▁автомоби 0
▁lãnh 0
▁grupos 0
▁box 0
view 0
itás 0
elfen 0
dendo 0
▁나오 0
▁проуч 0
▁говорить 0
▁впер 0
▁wohl 0
▁vient 0
▁uiteindelijk 0
▁tầm 0
▁săptăm 0
▁szeg 0
▁dedim 0
▁csök 0
▁coû 0
▁cerebr 0
ışı 0
ジー 0
▁같습니다 0
▁آید 0
▁одного 0
▁завър 0
▁perciò 0
▁pensez 0
▁dv 0
▁ders 0
فاعل 0
ъра 0
ządz 0
atar 0
로서 0
▁کودکان 0
▁فیز 0
▁آس 0
▁никто 0
▁начали 0
▁veloc 0
▁repu 0
▁petits 0
▁mojej 0
▁magn 0
▁infrastr 0
▁feric 0
▁envol 0
▁accept 0
времен 0
▁فيما 0
▁حياة 0
▁אופ 0
▁volgens 0
▁scrit 0
▁potencial 0
▁must 0
▁gyors 0
▁ativ 0
телност 0
vido 0
전에 0
▁모두가 0
▁もちろん 0
▁کامل 0
▁قبلا 0
▁powinni 0
мся 0
wię 0
aların 0
▁الكون 0
▁הבר 0
▁тай 0
▁szeretnék 0
▁neler 0
▁experiencia 0
▁desses 0
▁ciência 0
▁aider 0
▁2015 0
kos 0
erei 0
▁아마도 0
▁보호 0
▁wiadomo 0
▁voedsel 0
▁stworzyć 0
▁peso 0
▁manhattan 0
▁jedna 0
▁demandé 0
ریف 0
nelle 0
価値 0
うち 0
▁سنگ 0
▁بينما 0
▁الطب 0
▁أهم 0
▁להר 0
▁לדוג 0
▁çoğ 0
▁verst 0
▁somebody 0
▁peric 0
▁침 0
▁범 0
▁電 0
راک 0
לול 0
ıc 0
根本 0
を行 0
▁شویم 0
▁обикнове 0
▁вокруг 0
▁manipul 0
▁anul 0
▁acestei 0
▁빛 0
oração 0
asına 0
ależy 0
还有 0
質問 0
シャ 0
▁تقول 0
▁שאנשים 0
▁stories 0
▁robert 0
▁pág 0
▁instal 0
▁fica 0
▁eben 0
▁antwoord 0
welt 0
seniz 0
하면서 0
▁łat 0
▁vet 0
▁ultimi 0
▁tą 0
▁schul 0
▁higgs 0
▁echip 0
▁eis 0
▁dấu 0
▁bush 0
▁bono 0
شاء 0
ствата 0
ęg 0
últ 0
▁مدل 0
▁عق 0
▁общество 0
▁индия 0
▁yapar 0
▁paradig 0
▁komplex 0
▁emlé 0
▁dá 0
▁csodál 0
▁autonom 0
פא 0
тур 0
kolwiek 0
普通 0
▁한다는 0
▁발생 0
▁тро 0
▁страны 0
▁çözüm 0
▁yeter 0
▁możliwości 0
▁focus 0
▁certaines 0
▁action 0
▁대신 0
▁کاهش 0
▁عاما 0
▁بسر 0
▁التفكير 0
▁שנקרא 0
▁לדעת 0
▁фран 0
▁снимка 0
▁близ 0
▁torna 0
▁szuk 0
▁sapere 0
▁regarder 0
▁engl 0
▁başladı 0
▁훌 0
▁핵 0
مله 0
שובה 0
çar 0
ienden 0
acie 0
▁모델 0
▁نکن 0
▁الدا 0
▁контроли 0
▁компютър 0
▁wod 0
▁recherche 0
▁pequena 0
▁passado 0
▁oktat 0
▁estrut 0
▁espos 0
▁cuvin 0
▁ascol 0
▁afac 0
▁2020 0
ствовать 0
podar 0
fil 0
尝试 0
中の 0
▁それで 0
▁קרי 0
▁כולנו 0
▁molecul 0
▁konfer 0
▁biológ 0
▁bib 0
▁anum 0
▁허 0
vious 0
genes 0
정한 0
最も 0
▁然而 0
▁ژن 0
▁میزان 0
▁קרו 0
▁нама 0
▁știți 0
▁pensato 0
▁nimeni 0
▁lea 0
▁graag 0
▁contem 0
▁cong 0
رائه 0
нном 0
éré 0
imet 0
이가 0
アメリカ 0
▁프로그램 0
▁хиляди 0
▁собой 0
▁tội 0
▁propag 0
▁parfois 0
▁learned 0
▁konk 0
▁immagini 0
▁idei 0
▁esprit 0
▁enkel 0
▁dobre 0
▁dy 0
▁brin 0
▁봅 0
ורק 0
ástico 0
cida 0
選択 0
确实 0
活动 0
形成 0
▁同时 0
▁你会 0
▁۱۰ 0
▁فران 0
▁عال 0
▁شم 0
▁بحاجة 0
▁שפ 0
▁офи 0
▁send 0
▁megpróbál 0
▁măr 0
▁jas 0
▁gửi 0
▁folose 0
▁fazemos 0
▁descr 0
▁celor 0
▁apo 0
▁2002 0
твер 0
зывает 0
ımızı 0
력이 0
▁כוח 0
▁tempor 0
▁néha 0
▁mera 0
▁kork 0
▁hong 0
▁cải 0
▁ayudar 0
▁além 0
▁acord 0
בק 0
leyen 0
렸습니다 0
ディア 0
▁تغییرات 0
▁welke 0
▁renge 0
▁muhtem 0
▁bomb 0
▁꽤 0
ناک 0
باء 0
iona 0
czes 0
機能 0
よね 0
▁دارو 0
▁כסף 0
▁англи 0
▁vizsgál 0
▁tabii 0
▁târ 0
▁reun 0
▁fert 0
▁asa 0
▁が 0
وغ 0
печат 0
ître 0
uzioni 0
sak 0
jünk 0
dok 0
▁我们在 0
▁להבי 0
▁края 0
▁vivre 0
▁stos 0
▁oss 0
▁noemen 0
▁nhiễ 0
▁lưu 0
▁groep 0
▁funziona 0
▁desap 0
▁canada 0
▁beo 0
واجه 0
кты 0
undos 0
▁그곳 0
▁مسئله 0
▁قاب 0
▁ار 0
▁сп 0
▁прог 0
▁кое 0
▁umano 0
▁końcu 0
▁kart 0
▁collec 0
▁bağlant 0
▁bât 0
▁abandon 0
גרים 0
cip 0
▁وهناك 0
▁maanden 0
▁cư 0
нный 0
дро 0
uyên 0
mais 0
lor 0
▁چرخ 0
▁سوم 0
▁מנת 0
▁גדולה 0
▁zeigt 0
▁unserem 0
▁pronto 0
▁miliarde 0
▁lent 0
▁játsz 0
▁incredibile 0
▁darum 0
▁będziemy 0
▁小 0
ياس 0
тории 0
ваща 0
rieben 0
anic 0
疾病 0
几个 0
▁پیچیده 0
▁حالی 0
▁înapoi 0
▁tố 0
▁oppos 0
▁carta 0
tad 0
eze 0
alk 0
▁برگرد 0
▁экспери 0
▁книги 0
▁totu 0
▁szint 0
▁sene 0
▁parten 0
▁ajunge 0
нези 0
ib 0
finden 0
视频 0
▁عاد 0
▁جدیدی 0
▁מדוע 0
▁חושבת 0
▁וזו 0
▁איש 0
▁viață 0
▁respir 0
▁liste 0
▁hòa 0
▁cunos 0
▁bord 0
מנים 0
vit 0
▁جنسی 0
▁اهمیت 0
▁системы 0
▁пространство 0
▁отво 0
▁изо 0
▁publik 0
▁gândit 0
▁cinq 0
נטים 0
дете 0
ètement 0
zs 0
znie 0
owaliśmy 0
astro 0
▁아니면 0
▁وبالت 0
▁عاشق 0
▁رابطه 0
▁özg 0
▁tốc 0
▁tü 0
▁tòa 0
▁sınır 0
▁promo 0
▁politici 0
▁pienso 0
▁meto 0
▁mej 0
▁família 0
▁centre 0
▁cận 0
▁absor 0
▁۶ 0
ğini 0
lot 0
brar 0
做了 0
▁توضیح 0
▁şaş 0
▁thụ 0
▁pai 0
▁mart 0
▁danych 0
כתי 0
겠지만 0
▁기계 0
▁بگم 0
▁ולמ 0
▁știu 0
▁svilup 0
▁niệm 0
▁heen 0
▁bauen 0
▁acestor 0
▁면 0
קשר 0
ıda 0
dert 0
altă 0
重要的 0
持ち 0
できない 0
▁works 0
▁nota 0
▁kem 0
▁dosta 0
▁dinosa 0
▁넣 0
هور 0
هتمام 0
ضة 0
こそ 0
▁굉장히 0
▁不是 0
▁نفسه 0
▁مشا 0
▁صفحه 0
▁جيدة 0
▁بیان 0
▁невероят 0
▁überall 0
▁though 0
▁ther 0
▁succ 0
▁sad 0
▁noite 0
▁key 0
▁kali 0
▁hük 0
▁fly 0
▁delas 0
▁against 0
▁adul 0
▁actual 0
aniem 0
音乐 0
▁миру 0
▁внутри 0
▁serve 0
▁profession 0
▁istem 0
▁homens 0
▁hollywood 0
▁bisschen 0
üler 0
ウェ 0
ることは 0
▁следващи 0
▁william 0
▁website 0
▁wcią 0
▁termen 0
▁symbol 0
▁resso 0
▁pain 0
▁clear 0
▁alkot 0
теше 0
ţile 0
第一 0
▁электро 0
▁видеть 0
▁uita 0
▁signifie 0
▁indien 0
▁herum 0
▁education 0
▁donné 0
▁aşağı 0
ابات 0
마다 0
▁چیزها 0
▁الماء 0
▁שמא 0
▁сделали 0
▁rése 0
▁recente 0
▁quick 0
▁ogr 0
▁loin 0
▁ine 0
iről 0
hend 0
geno 0
geben 0
意识到 0
▁هاي 0
▁لش 0
▁прибли 0
▁потен 0
▁верну 0
▁zamiast 0
▁rak 0
▁quân 0
▁mäd 0
▁khách 0
▁guardate 0
▁empez 0
▁言 0
временно 0
izioni 0
▁منكم 0
▁عملية 0
▁изгра 0
▁helfen 0
▁dello 0
▁aurait 0
aber 0
▁훌륭 0
▁행복 0
▁ارائه 0
▁שמו 0
▁погово 0
▁état 0
▁pouvait 0
▁mujer 0
▁miglior 0
▁leng 0
▁knew 0
شمند 0
usst 0
telt 0
owiada 0
센트 0
▁아래 0
▁وذلك 0
▁نهایت 0
▁ببینیم 0
▁اعتقد 0
▁мини 0
▁phúc 0
▁niềm 0
▁kitap 0
▁gdyby 0
▁especí 0
▁begann 0
▁blei 0
مهور 0
ستی 0
фика 0
umen 0
りません 0
▁전쟁 0
▁أحب 0
▁насколько 0
▁надя 0
▁миро 0
▁tumor 0
▁piece 0
▁melh 0
▁lucht 0
▁dă 0
▁comecei 0
▁animais 0
סטי 0
ющее 0
가능 0
してみ 0
▁특히 0
▁심지어 0
▁محصول 0
▁علاقه 0
▁מתוך 0
▁rendel 0
▁ran 0
▁gesam 0
▁dostęp 0
хе 0
이라 0
▁여전히 0
▁שינוי 0
▁tinham 0
▁spelen 0
▁pergunta 0
▁mei 0
▁diverso 0
▁depart 0
▁construc 0
▁cinci 0
▁cantidad 0
▁benefici 0
▁aţi 0
סטוריה 0
וצאה 0
mento 0
대에 0
▁الصور 0
▁السر 0
▁основно 0
▁другите 0
▁invisi 0
▁geweest 0
▁appare 0
ریقا 0
צרים 0
érték 0
ota 0
igde 0
한다면 0
감을 0
▁로봇 0
▁그러니까 0
▁کلمه 0
▁درد 0
▁خودشان 0
▁trực 0
▁ongelo 0
▁accad 0
гнем 0
erait 0
たちの 0
▁попита 0
▁новые 0
▁schwer 0
▁ond 0
▁musi 0
▁insanlara 0
▁gospodar 0
▁emb 0
▁dernière 0
▁alapvet 0
ברו 0
issons 0
actér 0
教え 0
▁했죠 0
▁tanulmány 0
▁livro 0
▁embargo 0
▁değildir 0
▁decy 0
▁appris 0
▁apa 0
pet 0
olni 0
hib 0
cando 0
叫做 0
▁어린 0
▁چیست 0
▁وبال 0
▁مدیر 0
▁удо 0
▁nuôi 0
▁nö 0
▁hes 0
▁grâ 0
▁elt 0
▁badania 0
▁alcan 0
▁aggi 0
зъм 0
arda 0
装置 0
いに 0
▁زي 0
▁الأمري 0
▁многих 0
▁бакте 0
▁ressour 0
▁dzisiaj 0
▁debe 0
וגי 0
是否 0
ダー 0
を通 0
▁نقل 0
▁שמי 0
▁לפי 0
▁хара 0
▁спроси 0
▁види 0
▁walk 0
▁veh 0
▁sviluppo 0
▁fragment 0
▁exactly 0
бата 0
dió 0
と言 0
▁مقا 0
▁viaţa 0
▁tehnologie 0
▁nacht 0
▁horiz 0
▁ellas 0
▁amar 0
▁뜻 0
▁グ 0
▁٫ 0
ומי 0
нат 0
zys 0
rów 0
습니까 0
▁최근 0
▁비행 0
▁موسي 0
▁قصة 0
▁מעל 0
▁одни 0
▁wró 0
▁tren 0
▁televis 0
gek 0
aufen 0
abol 0
인데요 0
目の 0
▁چالش 0
▁شخصی 0
▁участ 0
▁първата 0
▁satis 0
▁habr 0
▁dź 0
▁研究 0
نامج 0
שם 0
▁רח 0
▁במח 0
▁universe 0
▁preocup 0
▁mali 0
▁eur 0
▁biblio 0
▁amigo 0
▁acht 0
ریس 0
انب 0
вод 0
tructura 0
isine 0
ilerini 0
igur 0
czucie 0
▁изменить 0
▁zorgen 0
▁systems 0
▁duidelijk 0
▁distin 0
▁acestui 0
реди 0
ęt 0
rados 0
isches 0
▁人間 0
▁مطالعه 0
▁مشکلات 0
▁جمعیت 0
▁partout 0
▁milliarden 0
▁fondo 0
▁decided 0
▁código 0
▁curios 0
▁aunque 0
▁키 0
сми 0
лена 0
ин 0
合作 0
効果 0
▁زد 0
▁المجتمع 0
▁כנ 0
▁éc 0
▁wow 0
▁vulner 0
▁taking 0
▁pegar 0
▁manchmal 0
▁mapa 0
▁limite 0
▁karmaşık 0
▁incrível 0
▁güneş 0
▁gioc 0
▁dolgot 0
▁became 0
wamy 0
▁سای 0
▁שצ 0
▁пъту 0
▁ştiu 0
▁razão 0
▁peur 0
▁organizz 0
▁namen 0
▁méde 0
▁bau 0
▁apprendre 0
▁animales 0
remos 0
▁약간 0
▁분야 0
▁所以我们 0
▁عالی 0
▁توانم 0
▁الصغيرة 0
▁yaşad 0
▁vs 0
▁szín 0
▁photograph 0
▁gegevens 0
دان 0
фици 0
wość 0
说的 0
▁اثر 0
▁телеви 0
▁persoană 0
▁huy 0
▁dad 0
▁beszélni 0
ريس 0
ítja 0
ragen 0
alement 0
ずっと 0
▁배우 0
▁最后 0
▁گذار 0
▁الكم 0
▁תוך 0
▁yaptığımız 0
▁technologii 0
▁nikt 0
▁egyszerűen 0
щите 0
жении 0
árok 0
imp 0
▁현실 0
▁생각을 0
▁درآ 0
▁сек 0
▁сни 0
▁разно 0
▁trova 0
▁species 0
▁scan 0
▁nhiêu 0
▁manag 0
▁kav 0
▁heures 0
▁grond 0
▁dieren 0
▁chiều 0
راط 0
ترة 0
זרה 0
电影 0
▁מהי 0
▁prawie 0
▁petró 0
▁mondtam 0
▁lös 0
▁khối 0
▁kok 0
▁arăta 0
▁ẩn 0
ریه 0
разу 0
țile 0
ıyı 0
tein 0
olt 0
ested 0
aces 0
ações 0
하도록 0
感到 0
▁특별 0
▁لديها 0
▁سیاره 0
▁מכם 0
▁междуна 0
▁wert 0
▁százalék 0
▁ricord 0
▁mez 0
▁küres 0
▁deva 0
جو 0
madan 0
iliyor 0
chè 0
ファ 0
▁فرز 0
▁خي 0
▁السل 0
▁חשבתי 0
▁הלי 0
▁показать 0
▁пле 0
▁właściwie 0
▁kik 0
▁hir 0
▁acredito 0
ogli 0
larca 0
ekre 0
▁فنا 0
▁دقیقه 0
▁اساس 0
▁нако 0
▁възраст 0
▁zaj 0
▁probléma 0
▁montag 0
▁march 0
▁locuri 0
▁inteligen 0
▁insul 0
▁encontra 0
▁doğal 0
▁dinam 0
▁afrik 0
zez 0
hetjük 0
egd 0
대의 0
기의 0
したり 0
▁되고 0
▁대부분의 0
▁بک 0
▁работата 0
▁đấu 0
▁presidente 0
▁podstaw 0
▁ngược 0
▁männer 0
▁break 0
▁bf 0
▁animaux 0
къв 0
зд 0
umente 0
ufen 0
nale 0
进入 0
平均 0
▁szeretném 0
▁război 0
▁pozwala 0
▁mouv 0
▁mani 0
▁kobiety 0
▁equip 0
▁elev 0
▁bob 0
طلق 0
nitt 0
されている 0
▁当你 0
▁خورش 0
▁المستقبل 0
▁shar 0
▁position 0
▁planeet 0
▁megtan 0
▁firma 0
▁enorm 0
▁能 0
йт 0
chodz 0
为了 0
▁여기에 0
▁ниво 0
▁rzeczywisto 0
▁petróleo 0
▁liegt 0
▁kéo 0
▁görüş 0
▁demokrat 0
▁comenz 0
שיר 0
oh 0
back 0
어야 0
▁자유 0
▁جزي 0
▁السن 0
▁söyl 0
▁original 0
▁nobel 0
▁montre 0
▁mers 0
▁ferr 0
▁aucun 0
▁レ 0
щения 0
циите 0
óch 0
ésre 0
erra 0
don 0
私が 0
深い 0
映画 0
▁ברח 0
▁усеща 0
▁preciso 0
▁második 0
▁mud 0
▁khổ 0
▁i̇lk 0
▁esqu 0
▁esem 0
▁問題 0
وجب 0
خي 0
късно 0
fajta 0
パー 0
▁自然 0
▁voiture 0
▁silen 0
▁películ 0
▁palabras 0
▁negó 0
▁listen 0
▁họa 0
▁hoff 0
▁hijos 0
▁geboren 0
▁energii 0
▁cử 0
▁boyut 0
قیه 0
орк 0
образи 0
chaffen 0
▁دانید 0
▁לפת 0
▁насто 0
▁дълго 0
▁scient 0
▁mother 0
▁북 0
▁갔 0
ברתי 0
zną 0
rite 0
punk 0
nas 0
jenek 0
inson 0
▁تقل 0
▁קול 0
▁ללמוד 0
▁והא 0
▁הגיע 0
▁фон 0
▁umane 0
▁tarih 0
▁szav 0
▁risadas 0
▁respect 0
▁progres 0
▁noche 0
▁lam 0
▁initi 0
▁imagem 0
▁iler 0
▁hice 0
▁explica 0
▁amerik 0
кую 0
tuig 0
▁توانایی 0
▁بدم 0
▁القص 0
▁רב 0
▁periodo 0
▁dwóch 0
▁190 0
غط 0
sor 0
arla 0
▁장소 0
▁غرب 0
▁להפוך 0
▁нов 0
▁видях 0
▁yas 0
▁voll 0
▁naz 0
▁média 0
▁interak 0
▁firm 0
▁fire 0
سبوع 0
щую 0
той 0
нал 0
çu 0
wiać 0
jcie 0
imal 0
anten 0
지에 0
保护 0
▁시간을 0
▁آغاز 0
▁הסיפור 0
▁wegen 0
▁tù 0
▁publiek 0
▁proc 0
▁piccola 0
▁nhờ 0
▁mesa 0
▁completely 0
▁aide 0
▁agr 0
ادث 0
бер 0
ését 0
icii 0
▁문화 0
▁מתכו 0
▁котором 0
▁информации 0
▁világban 0
▁vond 0
▁toeg 0
▁proven 0
▁nokta 0
▁aumento 0
שימה 0
yment 0
治疗 0
▁멋진 0
▁당신은 0
▁يجعل 0
▁merav 0
▁lhes 0
▁ideen 0
▁geweldig 0
▁､ 0
▁깊 0
ляр 0
ţele 0
zone 0
wards 0
reau 0
orto 0
점을 0
▁이루어 0
▁сы 0
▁społecze 0
▁sr 0
▁pomi 0
▁ligne 0
▁liebe 0
▁avrebbe 0
ồm 0
פחה 0
öket 0
miar 0
这是 0
计划 0
突然 0
作为 0
▁ترى 0
▁הרי 0
▁роди 0
▁proz 0
▁factor 0
▁complètement 0
▁carne 0
عيش 0
ivamente 0
emd 0
dit 0
cker 0
alo 0
カー 0
▁مز 0
▁الأكثر 0
▁техните 0
▁множество 0
▁глав 0
▁tapasztal 0
▁nourrit 0
▁lepiej 0
▁fro 0
▁corect 0
▁ド 0
شرات 0
тий 0
влека 0
kant 0
iller 0
▁인생 0
▁راحت 0
▁بدست 0
▁מבו 0
▁переда 0
▁женщин 0
▁pozosta 0
▁paciente 0
▁muita 0
▁metafor 0
▁internation 0
▁hosszú 0
▁evren 0
▁casos 0
▁素晴らしい 0
nök 0
acağız 0
들입니다 0
继续 0
▁نع 0
▁разпо 0
▁объе 0
▁érzék 0
▁unas 0
▁ogen 0
▁grâce 0
▁bott 0
▁arriver 0
ظمة 0
לון 0
âne 0
isinin 0
ennent 0
arci 0
首先 0
へと 0
▁바다 0
▁مذه 0
▁במהלך 0
▁особено 0
▁генети 0
▁tán 0
▁note 0
▁monte 0
▁entendu 0
uage 0
ritt 0
illo 0
将会 0
▁오래 0
▁가르 0
▁大きな 0
▁учё 0
▁променя 0
▁sak 0
▁lun 0
▁erről 0
טיבי 0
容易 0
▁기술을 0
▁والآن 0
▁لط 0
▁ضرب 0
▁روند 0
▁دوستان 0
▁بگذارید 0
▁מיליארד 0
▁המידע 0
▁супер 0
▁исследования 0
▁sugg 0
▁niej 0
▁kısa 0
▁kimse 0
▁jaz 0
▁generation 0
▁eth 0
ğe 0
zcie 0
wijs 0
tidi 0
meliy 0
hode 0
체를 0
▁يفعل 0
▁المشا 0
▁повто 0
▁transforma 0
▁happening 0
▁engag 0
▁destin 0
▁camino 0
▁antibio 0
מתי 0
тна 0
wolu 0
調査 0
▁модел 0
▁ello 0
▁cd 0
▁beide 0
رانی 0
סתכל 0
честве 0
лён 0
selves 0
lerimiz 0
hunder 0
asını 0
▁لهذه 0
▁أصبحت 0
▁промяна 0
▁zde 0
▁themselves 0
▁sytu 0
▁programme 0
▁platform 0
▁ourselves 0
▁mindez 0
▁megváltoztat 0
▁hersenen 0
▁gouvernement 0
▁193 0
تين 0
בלתי 0
ondere 0
lete 0
듯이 0
联系 0
▁ستكون 0
▁știm 0
▁puiss 0
▁passion 0
▁nửa 0
▁intim 0
▁egyetem 0
▁chiama 0
▁birleş 0
▁alın 0
▁نقا 0
▁مدى 0
▁طبیعت 0
▁תהיה 0
▁факт 0
▁zmian 0
▁zbyt 0
▁vertro 0
▁tudja 0
▁sanırım 0
▁popol 0
▁plastic 0
▁palav 0
▁măsură 0
▁kinds 0
▁ettiğ 0
▁ổ 0
äche 0
▁شمال 0
▁zwyk 0
▁każdym 0
▁ice 0
▁danh 0
▁cep 0
▁플 0
щий 0
bior 0
多少 0
を得 0
▁전문 0
▁کامپیوتر 0
▁מדהים 0
▁התע 0
▁реги 0
▁мрежа 0
▁капита 0
▁zichzelf 0
▁tehnologia 0
▁przes 0
▁jer 0
▁inn 0
▁femei 0
▁décid 0
▁corpor 0
رسة 0
ختلف 0
рит 0
мага 0
wanie 0
potr 0
omra 0
istro 0
fej 0
amay 0
事が 0
▁주변 0
▁صنع 0
▁принима 0
▁đêm 0
▁velocid 0
▁trạng 0
▁dwie 0
▁aqueles 0
ريكا 0
feito 0
ester 0
にする 0
▁سپاسگ 0
▁أنك 0
▁wspom 0
▁volle 0
▁viselked 0
▁rę 0
▁procur 0
▁deden 0
▁cercare 0
▁batter 0
▁aucune 0
üsü 0
所有的 0
デル 0
▁распростра 0
▁горе 0
▁вроде 0
▁zaba 0
▁sociedade 0
▁rozma 0
▁professor 0
▁miasta 0
▁eeuw 0
▁chce 0
▁~ 0
ستن 0
onta 0
eso 0
ンプ 0
▁저희가 0
▁말씀드 0
▁彼女は 0
▁قلت 0
▁آفریقا 0
▁идва 0
▁novas 0
▁naturaleza 0
▁nội 0
▁nỗi 0
▁intérieur 0
▁disease 0
▁boek 0
▁bắc 0
ייקט 0
ופים 0
arm 0
anță 0
▁قل 0
▁компьютер 0
▁tenni 0
▁ragione 0
▁radic 0
▁particolare 0
▁kraj 0
▁felé 0
▁complexe 0
▁chữa 0
▁breve 0
цией 0
лон 0
гов 0
oty 0
ivent 0
那么 0
把它 0
に見 0
▁하기 0
▁반응 0
▁منظورم 0
▁مجال 0
▁قائ 0
▁بدان 0
▁oyn 0
▁lud 0
▁language 0
▁imá 0
▁fru 0
▁bezpie 0
▁分 0
ينات 0
سمح 0
أل 0
чие 0
uso 0
riez 0
radaki 0
deauna 0
어가 0
歴史 0
▁자동차 0
▁ظاه 0
▁رسد 0
▁ופ 0
▁каква 0
▁természetesen 0
▁rather 0
▁nhu 0
▁japan 0
▁impacto 0
▁espl 0
▁amis 0
▁42 0
כולם 0
umenti 0
ized 0
複雑 0
▁무언 0
▁بالإ 0
▁וד 0
▁writ 0
▁távol 0
▁kommunik 0
▁gór 0
▁augment 0
▁arten 0
روس 0
чени 0
стан 0
ject 0
eb 0
方を 0
▁最も 0
▁همینطور 0
▁میدان 0
▁эк 0
▁réfléch 0
▁quieren 0
▁números 0
▁kellene 0
▁finans 0
שבים 0
ודי 0
него 0
нси 0
ral 0
fit 0
▁관계 0
▁למד 0
▁כח 0
▁בעיה 0
▁предоста 0
▁çocu 0
▁mädchen 0
▁csoport 0
▁architekt 0
▁취 0
مام 0
حاء 0
ונה 0
ever 0
▁있었죠 0
▁시간이 0
▁באמצעות 0
▁вами 0
▁yuk 0
▁turns 0
▁statt 0
▁points 0
▁ordinateur 0
▁obsz 0
▁milliárd 0
▁könyv 0
▁klu 0
▁emin 0
▁dejar 0
▁celul 0
▁잃 0
рко 0
öny 0
pta 0
nią 0
iało 0
emde 0
文字 0
当时 0
らゆる 0
▁없었습니다 0
▁образова 0
▁đẩy 0
▁stehen 0
▁sey 0
▁gets 0
▁function 0
▁durumda 0
غر 0
עילות 0
tud 0
gers 0
▁생각하는 0
▁پرواز 0
▁لس 0
▁بدلا 0
▁אמרתי 0
▁предпри 0
▁écrit 0
▁service 0
▁samoch 0
▁persoane 0
▁overal 0
▁mii 0
▁jem 0
▁ileti 0
▁gesellschaft 0
▁fok 0
▁explicar 0
▁crec 0
yaç 0
jesz 0
gun 0
립니다 0
過去 0
▁也就是 0
▁עליהם 0
▁равно 0
▁sexual 0
▁realidade 0
▁quell 0
▁processus 0
▁nesta 0
▁masch 0
▁informationen 0
▁folgen 0
▁dönüş 0
ارک 0
ופו 0
zien 0
fice 0
企業 0
くらい 0
▁이를 0
▁أود 0
▁стал 0
▁voud 0
▁palavras 0
▁orvos 0
▁doua 0
▁탄 0
واقع 0
сети 0
häng 0
bm 0
acht 0
▁어머니 0
▁나무 0
▁واضح 0
▁نوی 0
▁نكون 0
▁مهند 0
▁хотим 0
▁сколько 0
▁zis 0
▁truc 0
▁neut 0
▁gram 0
▁düşünün 0
▁detal 0
▁adott 0
رون 0
zendo 0
ielle 0
iedenis 0
参与 0
共同 0
▁مواجه 0
▁مطمئن 0
▁нью 0
▁жените 0
▁yaşında 0
▁uczy 0
▁seinen 0
▁objetivo 0
▁növeked 0
▁harc 0
▁giz 0
▁full 0
▁cercando 0
▁celular 0
ulent 0
▁아이들이 0
▁무엇이 0
▁ينب 0
▁بواسطة 0
▁الطريق 0
▁עצמי 0
▁מרו 0
▁обычно 0
▁невро 0
▁нашето 0
▁versu 0
▁traum 0
▁tradic 0
▁modello 0
▁mots 0
▁ground 0
▁fronte 0
▁entsch 0
▁anten 0
▁akıl 0
▁aang 0
вили 0
ékony 0
▁참여 0
▁몇몇 0
▁نقشه 0
▁خم 0
▁المسا 0
▁להצי 0
▁всю 0
▁yapmaya 0
▁scienza 0
▁religion 0
▁others 0
▁mét 0
▁idéia 0
▁deneyim 0
▁compassion 0
▁along 0
▁נעשה 0
▁нашего 0
▁вклю 0
▁yere 0
▁großar 0
▁existi 0
كتب 0
طرح 0
wend 0
语言 0
获得 0
実際 0
だけでなく 0
▁دوره 0
▁أستطيع 0
▁השאלה 0
▁области 0
▁yours 0
▁nennen 0
▁ism 0
▁elképzel 0
▁cięż 0
▁boş 0
zey 0
zan 0
tigt 0
quei 0
diler 0
支持 0
主要 0
ちゃ 0
▁돈을 0
▁القاد 0
▁rent 0
▁procha 0
▁prawdopo 0
▁possibilità 0
▁mieszka 0
▁jeżeli 0
▁geworden 0
▁geïn 0
▁gehe 0
▁death 0
▁bakt 0
ریان 0
hnlich 0
hung 0
curité 0
解释 0
他の 0
▁لذ 0
▁بقیه 0
▁ارو 0
▁להתחיל 0
▁стати 0
▁élő 0
▁verändern 0
▁rè 0
▁patiën 0
▁dòng 0
▁dây 0
▁creato 0
▁azul 0
стие 0
ywat 0
teld 0
最后 0
小时 0
包括 0
らく 0
▁روشن 0
▁الأساس 0
▁срещу 0
▁прие 0
▁образование 0
▁мозг 0
▁voyons 0
▁village 0
▁vertra 0
▁próxima 0
▁nessa 0
▁kno 0
▁folosi 0
▁combusti 0
▁ajudar 0
יקה 0
זון 0
шения 0
судар 0
呼ば 0
デオ 0
▁tête 0
▁ones 0
▁nulla 0
▁dich 0
▁defini 0
▁dni 0
▁combat 0
داء 0
ומת 0
wnego 0
模式 0
▁바이 0
▁קל 0
▁стоит 0
▁vreme 0
▁phóng 0
▁phong 0
▁nhiễm 0
▁naszym 0
▁narzę 0
▁jam 0
▁independ 0
▁hỗ 0
▁grá 0
▁carto 0
قاد 0
فكار 0
עיל 0
nością 0
iune 0
heiten 0
cute 0
速度 0
▁생각하 0
▁사실을 0
▁چین 0
▁دعونا 0
▁المزيد 0
▁מנה 0
▁тор 0
▁велико 0
▁milionów 0
▁kev 0
▁colabor 0
واره 0
דל 0
bridge 0
▁تغير 0
▁стороны 0
▁szok 0
▁secur 0
▁principio 0
▁pontosan 0
▁politique 0
▁naturel 0
▁message 0
▁fit 0
▁demasi 0
лее 0
zintă 0
▁진짜 0
▁човешки 0
▁помога 0
▁tens 0
▁różne 0
▁rendre 0
▁maakte 0
▁longe 0
▁ước 0
шение 0
meden 0
ição 0
fes 0
arono 0
革命 0
工具 0
上の 0
に対して 0
▁קרה 0
▁распо 0
▁затво 0
▁szenved 0
▁pied 0
▁kształ 0
▁foc 0
▁distrib 0
▁benn 0
страда 0
ângă 0
cles 0
市场 0
价值 0
▁وسط 0
▁سیاه 0
▁الرئي 0
▁التن 0
▁התי 0
▁широ 0
▁предполага 0
▁мозък 0
▁месеца 0
▁wand 0
▁voort 0
▁violence 0
▁rok 0
▁développement 0
▁dynam 0
▁comunidad 0
▁boldog 0
вна 0
бро 0
eră 0
cea 0
遺伝子 0
合わせ 0
内容 0
ーン 0
デザイン 0
ょっと 0
▁작동 0
▁사람은 0
▁عمومی 0
▁стран 0
▁относи 0
▁окружа 0
▁polic 0
▁larg 0
▁gösteriyor 0
▁gyakran 0
▁erkennen 0
▁chciałbym 0
▁bầu 0
▁毎 0
اول 0
пусти 0
toff 0
mişti 0
냈습니다 0
났습니다 0
サー 0
クノ 0
▁راجع 0
▁împăr 0
▁znaleźć 0
▁sociedad 0
▁sobą 0
▁rừng 0
▁prototy 0
▁proje 0
▁prawda 0
▁nsa 0
▁materiale 0
▁locul 0
ỉnh 0
хода 0
nan 0
jel 0
ives 0
cionar 0
agne 0
▁حالة 0
▁تقد 0
▁שלושה 0
▁жив 0
▁örneğin 0
▁stava 0
▁rechts 0
▁hours 0
▁bạo 0
▁absolute 0
▁레 0
شري 0
кологи 0
ığın 0
dades 0
cing 0
▁활동 0
▁العم 0
▁الشمس 0
▁עליה 0
▁זק 0
▁малка 0
▁współpra 0
▁proprie 0
▁línea 0
▁ház 0
▁görüyorsunuz 0
▁duyg 0
▁detect 0
▁chimpan 0
▁可能 0
okra 0
dést 0
不可 0
▁其实 0
▁ръко 0
▁zmienić 0
▁storie 0
▁desigur 0
▁barát 0
يران 0
بعاد 0
ליון 0
ße 0
pren 0
cteur 0
cidos 0
▁شركة 0
▁امروزه 0
▁уг 0
▁телефон 0
▁началото 0
▁schwar 0
▁quiere 0
▁marche 0
▁itself 0
▁heyec 0
▁dönüşt 0
ارك 0
льном 0
ugi 0
truzione 0
tej 0
nék 0
神经 0
つは 0
▁تخيل 0
▁מבחי 0
▁делают 0
▁teren 0
▁fla 0
▁dagen 0
▁dél 0
▁communauté 0
▁așadar 0
שיים 0
тельные 0
вьте 0
éhez 0
ãi 0
owali 0
oszt 0
ってく 0
▁عائ 0
▁انق 0
▁харес 0
▁zupeł 0
▁zetten 0
▁version 0
▁protein 0
▁lĩnh 0
▁közép 0
▁fala 0
▁demonstr 0
▁cauza 0
▁外 0
▁+ 0
其中 0
会社 0
アイデア 0
▁표현 0
▁시장 0
▁물질 0
▁我们需要 0
▁دیدم 0
▁слыша 0
▁напред 0
▁можеш 0
▁xấu 0
▁szegény 0
▁scre 0
▁sân 0
▁quản 0
▁okyan 0
▁north 0
▁gore 0
▁encuent 0
▁birisi 0
يج 0
כר 0
יין 0
шую 0
ливо 0
erii 0
ború 0
後の 0
▁مناطق 0
▁יהיו 0
▁אק 0
▁шест 0
▁изпъл 0
▁большой 0
▁târziu 0
▁sunte 0
▁stron 0
▁impr 0
▁hihetetlen 0
▁găsit 0
▁5000 0
нтите 0
деми 0
âni 0
emmel 0
クノロ 0
▁자료 0
▁آنرا 0
▁прите 0
▁настолько 0
▁wyt 0
▁téléph 0
▁spielen 0
▁regel 0
▁jelle 0
▁gustaría 0
▁gent 0
▁feet 0
▁comunidade 0
▁carol 0
▁2030 0
▁압 0
▁ラ 0
تهم 0
חתי 0
ристи 0
siasi 0
oke 0
重新 0
規模 0
土地 0
▁필요가 0
▁第二 0
▁نشده 0
▁אחרות 0
▁ску 0
▁обър 0
▁вообще 0
▁бри 0
▁vivere 0
▁siguiente 0
▁qualsiasi 0
▁lỗi 0
▁emis 0
▁década 0
▁왔 0
▁âu 0
ît 0
ására 0
trzeg 0
▁گوید 0
▁القرن 0
▁мощ 0
▁zrob 0
▁wzi 0
▁politica 0
▁gates 0
▁couldn 0
▁ating 0
зь 0
ügyi 0
viamo 0
dowa 0
何か 0
▁רעיון 0
▁קר 0
▁форми 0
▁среди 0
▁нрави 0
▁permette 0
▁miş 0
▁honder 0
▁chegar 0
чай 0
нася 0
领域 0
進化 0
▁흥미로운 0
▁второ 0
▁đê 0
▁vooral 0
▁ritu 0
▁mắc 0
▁içine 0
▁ganh 0
▁bereits 0
▁benz 0
жни 0
ációt 0
yed 0
fia 0
eniz 0
cisi 0
bek 0
恐怖 0
に対する 0
▁아름다 0
▁процесс 0
▁план 0
▁должно 0
▁primi 0
▁poka 0
▁muhtemelen 0
▁kijkt 0
تل 0
ایید 0
לינו 0
мена 0
uts 0
▁운동 0
▁도구 0
▁기업 0
▁энергии 0
▁увеличи 0
▁пожа 0
▁uș 0
▁ruch 0
▁rele 0
▁navig 0
▁konu 0
▁ilus 0
▁ihtiyaç 0
▁ie 0
▁hastalık 0
▁física 0
▁egészen 0
▁całym 0
▁1998 0
сут 0
14 0
小的 0
同时 0
以前 0
りの 0
からの 0
▁بدین 0
▁الإنترنت 0
▁בתי 0
▁твърде 0
▁самых 0
▁éduc 0
▁vriend 0
▁taken 0
▁support 0
▁riusci 0
▁redor 0
▁przedsta 0
▁miałem 0
▁economic 0
▁deshalb 0
▁başlay 0
ваются 0
違う 0
▁인구 0
▁دانیم 0
▁الرجل 0
▁امر 0
▁грани 0
▁rw 0
▁publi 0
▁laser 0
▁kider 0
▁folosim 0
▁całkow 0
▁caminho 0
▁besonders 0
▁amíg 0
▁3000 0
כונות 0
och 0
itaire 0
had 0
面白 0
量的 0
▁성장 0
▁ובע 0
▁препо 0
▁государ 0
▁path 0
▁chấp 0
▁chor 0
▁arc 0
rà 0
fäl 0
▁달러 0
▁عشر 0
▁храна 0
▁работят 0
▁рам 0
▁scon 0
▁pasar 0
▁hava 0
▁entscheid 0
▁combina 0
▁chcie 0
▁cm 0
▁auzit 0
▁악 0
ليات 0
temps 0
bler 0
非常に 0
▁مرتبط 0
▁مرکز 0
▁عنها 0
▁سؤال 0
▁اشتباه 0
▁أر 0
▁yeux 0
▁tive 0
▁techni 0
▁povestea 0
▁nível 0
▁homo 0
▁historias 0
▁heyecan 0
▁happy 0
▁beat 0
▁arriva 0
рах 0
odów 0
nies 0
▁일반 0
▁가능한 0
▁طولانی 0
▁الگ 0
▁сащ 0
▁означает 0
▁онези 0
▁майка 0
▁вол 0
▁étr 0
▁rencontr 0
▁mieli 0
▁metod 0
▁małe 0
▁learning 0
▁beraber 0
בוע 0
resp 0
▁ですから 0
▁مستوى 0
▁سیاسی 0
▁رد 0
▁آمده 0
▁מקבלים 0
▁חייבים 0
▁çin 0
▁voya 0
▁tả 0
▁loop 0
▁gönder 0
▁artist 0
صله 0
ждение 0
ităţi 0
hy 0
glichen 0
▁사진을 0
▁부모 0
▁שיו 0
▁попы 0
▁zdjęcie 0
▁thê 0
▁third 0
▁ruh 0
▁rivol 0
▁prosper 0
▁olduğuna 0
▁meas 0
▁gebouw 0
▁bons 0
▁atmosfer 0
▁ót 0
vamos 0
材料 0
▁전세계 0
▁일입니다 0
▁実は 0
▁کودک 0
▁پسر 0
▁وهم 0
▁مالی 0
▁دارن 0
▁بخاطر 0
▁нево 0
▁preso 0
▁opnieuw 0
▁migliaia 0
▁maszy 0
▁katıl 0
▁halen 0
▁felfedez 0
▁feder 0
▁fakt 0
▁besl 0
▁ajutor 0
راك 0
стер 0
ville 0
temente 0
nich 0
jść 0
itting 0
원을 0
人に 0
▁역할 0
▁درخت 0
▁المط 0
▁תמונה 0
▁üzere 0
▁worked 0
▁pelos 0
▁pacj 0
▁certamente 0
▁atmosph 0
روج 0
ieht 0
▁گل 0
▁فرهنگ 0
▁худо 0
▁предвид 0
▁получить 0
▁verme 0
▁oxford 0
▁mindannyian 0
▁hulp 0
ități 0
有些 0
位置 0
シュ 0
▁کارهای 0
▁قصد 0
▁الممكن 0
▁życiu 0
▁yapan 0
▁unternehmen 0
▁tölt 0
▁smith 0
▁preoc 0
▁musste 0
▁libre 0
▁huge 0
▁fenn 0
▁entfer 0
▁eten 0
▁dovuto 0
▁desapare 0
▁adem 0
치를 0
反应 0
中国 0
いは 0
▁събира 0
▁wikipedia 0
▁sonraki 0
▁revel 0
▁próbu 0
▁otth 0
▁létrehoz 0
▁intre 0
▁forsch 0
▁affront 0
غان 0
וקר 0
трим 0
▁وكانت 0
▁искат 0
▁имах 0
▁trabalhando 0
▁plante 0
▁passato 0
▁nuove 0
▁leef 0
▁forza 0
▁elmond 0
▁early 0
▁compasi 0
▁clase 0
▁chamada 0
▁cập 0
▁básicamente 0
اع 0
ține 0
ęb 0
km 0
ases 0
▁문제는 0
▁まだ 0
▁טובים 0
▁טבע 0
▁добра 0
▁wciąż 0
▁riusc 0
▁mesela 0
▁masa 0
▁gehört 0
▁created 0
▁antar 0
ثي 0
לוב 0
ändig 0
ãos 0
itul 0
heits 0
bab 0
attam 0
▁هنر 0
▁نسل 0
▁مشاهده 0
▁рассказать 0
▁представя 0
▁tenden 0
▁rendben 0
▁rig 0
▁paio 0
▁koniec 0
▁kün 0
▁décidé 0
▁dream 0
▁desarrollo 0
▁derek 0
▁devez 0
▁compani 0
▁combien 0
▁chiamato 0
▁що 0
zep 0
ydı 0
几乎 0
▁직접 0
▁بحيث 0
▁женщины 0
▁önöknek 0
▁spați 0
▁sechs 0
▁diam 0
▁animals 0
▁ря 0
عط 0
זל 0
▁ясно 0
▁данных 0
▁verhalen 0
▁vedeţi 0
▁peter 0
▁modèle 0
▁mission 0
▁leuten 0
▁hepimiz 0
▁gau 0
▁anume 0
بيوتر 0
年轻 0
▁我是 0
▁یافته 0
▁آماده 0
▁לספר 0
▁справ 0
▁продолжа 0
▁преживя 0
▁думи 0
▁view 0
▁schule 0
▁paral 0
▁normalmente 0
▁cultiv 0
▁colum 0
▁chirurg 0
▁betegség 0
▁audience 0
▁۰۰۰ 0
pul 0
entas 0
ciler 0
였죠 0
▁바라 0
▁ماده 0
▁قطع 0
▁بكثير 0
▁امن 0
▁أست 0
▁лиде 0
▁историю 0
▁wed 0
▁sik 0
▁przeciw 0
▁preced 0
▁milhar 0
▁maravill 0
▁maguk 0
▁kesinlikle 0
▁intéressant 0
▁dios 0
▁belül 0
▁abbia 0
ítő 0
miyorum 0
ić 0
▁태양 0
▁지속 0
▁كني 0
▁شدیم 0
▁ולכן 0
▁הילדים 0
▁stup 0
▁puoi 0
▁ortak 0
▁médico 0
▁herrami 0
▁düşündüğ 0
▁cambridge 0
▁ales 0
ầng 0
יתנו 0
дут 0
вались 0
wart 0
tia 0
lanmış 0
代表 0
▁رفته 0
▁حجم 0
▁възможност 0
▁wydaje 0
▁tygod 0
▁thiện 0
▁reform 0
▁niên 0
▁museum 0
▁laboratori 0
▁deveria 0
▁갑 0
▁明 0
zahl 0
semos 0
leć 0
izia 0
essem 0
baut 0
目标 0
实现 0
に出 0
▁계획 0
▁בעזרת 0
▁попу 0
▁какви 0
▁zrozumieć 0
▁wody 0
▁valószínűleg 0
▁rozwij 0
▁ontmo 0
▁obviamente 0
▁milhares 0
▁mire 0
▁allá 0
èces 0
inho 0
ipo 0
határo 0
▁의해 0
▁پیام 0
▁اق 0
▁wyobraź 0
▁wpływ 0
▁változtat 0
▁vuole 0
▁perchè 0
▁oude 0
▁nourriture 0
▁matéria 0
▁heet 0
▁folyam 0
▁arrê 0
▁adică 0
▁는 0
▁如 0
éra 0
édi 0
trze 0
talál 0
laştır 0
ished 0
egeven 0
を持つ 0
▁모릅니다 0
▁غذ 0
▁собра 0
▁планета 0
▁đu 0
▁tutur 0
▁przeprowad 0
▁naturalmente 0
▁gave 0
▁behavi 0
▁amici 0
▁봤 0
дьми 0
roll 0
人間 0
▁첫번째 0
▁매일 0
▁作为 0
▁وليس 0
▁فان 0
▁حساب 0
▁بردا 0
▁серь 0
▁город 0
▁értel 0
▁çağ 0
▁vanuit 0
▁uim 0
▁studenti 0
▁servi 0
▁reality 0
▁pozwol 0
▁poor 0
▁latach 0
▁kent 0
▁i̇s 0
▁diventare 0
▁cán 0
▁benef 0
جهزة 0
стов 0
üng 0
ébe 0
áticas 0
urer 0
ceu 0
▁שיה 0
▁сфе 0
▁rahat 0
▁rb 0
▁nadal 0
▁nami 0
▁cult 0
▁amire 0
▁日 0
▁政府 0
عمال 0
õi 0
telor 0
石油 0
▁שונות 0
▁במע 0
▁превър 0
▁превра 0
▁ürün 0
▁çevre 0
▁yolu 0
▁voulais 0
▁thẳng 0
▁szabály 0
▁stell 0
▁produs 0
▁gebeuren 0
▁elmúlt 0
▁descoperit 0
▁compan 0
▁brein 0
▁bại 0
فاء 0
سیم 0
бен 0
ан 0
żę 0
ners 0
ctie 0
ネルギー 0
▁살펴 0
▁психо 0
▁зара 0
▁vegy 0
▁thousands 0
▁sóc 0
▁redes 0
▁porte 0
▁microbi 0
▁megfelelő 0
▁dorm 0
▁csodálatos 0
▁csup 0
▁creëren 0
▁abstra 0
וצאות 0
ктов 0
紹介 0
上が 0
くつか 0
▁그저 0
▁ندارند 0
▁تازه 0
▁людьми 0
▁észre 0
▁students 0
▁segítség 0
▁rozwią 0
▁miș 0
▁jahrhunder 0
▁install 0
▁beiden 0
▁baj 0
▁atu 0
▁出 0
שמע 0
прия 0
ky 0
elege 0
edy 0
arsanız 0
체가 0
ものは 0
▁الکتر 0
▁האחרונות 0
▁делает 0
▁wszech 0
▁völ 0
▁nerv 0
▁introdu 0
▁indietro 0
▁frei 0
▁fid 0
▁erreichen 0
▁dif 0
▁desenvolvimento 0
▁dang 0
▁clos 0
▁사는 0
▁روان 0
▁دیدن 0
▁побе 0
▁ним 0
▁zupełnie 0
▁wiz 0
▁tworzy 0
▁septem 0
▁psz 0
▁nisso 0
▁network 0
▁demon 0
▁1900 0
جابة 0
скоро 0
рует 0
vention 0
erto 0
attle 0
anţă 0
答案 0
▁사람을 0
▁گاهی 0
▁قض 0
▁شوید 0
▁משו 0
▁освен 0
▁биха 0
▁ünivers 0
▁stelle 0
▁sokat 0
▁repet 0
▁oploss 0
▁kopf 0
▁kalifor 0
▁jack 0
▁finally 0
▁biologia 0
▁풍 0
ıştır 0
zett 0
nant 0
haj 0
atív 0
려는 0
すべて 0
▁уго 0
▁világon 0
▁tuturor 0
▁soorten 0
▁művész 0
▁kê 0
▁junto 0
▁intelligence 0
▁impuls 0
▁entwickelt 0
▁derin 0
▁close 0
▁モ 0
وله 0
זים 0
шей 0
ząd 0
aste 0
99 0
らず 0
における 0
▁최고 0
▁보내 0
▁پوست 0
▁فعله 0
▁عض 0
▁ترکی 0
▁بشر 0
▁باره 0
▁רג 0
▁רבות 0
▁מעניין 0
▁тръ 0
▁одну 0
▁uzay 0
▁tratt 0
▁soát 0
▁rispetto 0
▁pensei 0
▁ném 0
▁meilleur 0
▁ling 0
▁gerekir 0
▁bağlı 0
ặn 0
接受 0
▁소리 0
▁искате 0
▁çocuklar 0
▁perh 0
▁nik 0
▁kraju 0
▁interven 0
▁grands 0
▁folosit 0
▁długo 0
▁daqu 0
▁biliyoruz 0
▁automo 0
ских 0
неш 0
vendo 0
tować 0
ientos 0
三个 0
リン 0
とか 0
▁더욱 0
▁موارد 0
▁тысяч 0
▁последние 0
▁thơ 0
▁scel 0
▁objetos 0
▁namens 0
▁miel 0
▁araya 0
▁48 0
ücken 0
dol 0
서는 0
▁کدام 0
▁سپاسگزار 0
▁изменения 0
▁tắc 0
▁perhaps 0
▁funda 0
▁egyesült 0
▁diferencia 0
▁diagnos 0
▁cities 0
▁améli 0
▁天 0
tant 0
mur 0
arg 0
を取り 0
になって 0
さに 0
▁진화 0
▁انتظار 0
▁בכך 0
▁zs 0
▁zaten 0
▁terem 0
▁tầng 0
▁rengeteg 0
▁netz 0
▁naszego 0
▁mev 0
▁kwamen 0
▁kli 0
▁joc 0
▁interne 0
▁geschichten 0
▁aven 0
▁빈 0
vide 0
lenül 0
▁있으 0
▁만들고 0
▁것이라고 0
▁کشت 0
▁لع 0
▁فروش 0
▁страда 0
▁смисъл 0
▁живу 0
▁şeyin 0
▁verke 0
▁giết 0
▁foot 0
▁ful 0
▁descobrir 0
▁cidades 0
▁ayuda 0
бите 0
bos 0
ンピュータ 0
ミュニ 0
▁شش 0
▁мъж 0
▁ката 0
▁videos 0
▁texas 0
▁profesor 0
▁krijgt 0
▁epo 0
▁começou 0
▁44 0
מט 0
kunde 0
▁۲۰۰ 0
▁اغلب 0
▁nuevas 0
▁loca 0
▁lenn 0
▁köt 0
▁gồm 0
▁aspett 0
▁anderes 0
▁ニュー 0
tera 0
stellung 0
実験 0
▁적이 0
▁인간의 0
▁세상을 0
▁ماهی 0
▁החד 0
▁еволю 0
▁глаза 0
▁reprezent 0
▁lag 0
▁hoạch 0
▁euch 0
عاية 0
حب 0
פע 0
вом 0
ztő 0
pass 0
eded 0
적이고 0
類の 0
▁사업 0
▁مصنوع 0
▁מני 0
▁кома 0
▁зале 0
▁долго 0
▁többet 0
▁részt 0
▁père 0
▁geschiedenis 0
גור 0
сата 0
ético 0
çons 0
nah 0
nisse 0
leges 0
jét 0
ilag 0
法律 0
全体 0
▁افس 0
▁гео 0
▁termos 0
▁przypadku 0
▁piccoli 0
▁luogo 0
▁lái 0
▁kevés 0
▁humor 0
▁hindistan 0
▁gon 0
▁ferrament 0
▁deuxi 0
דן 0
чеството 0
менты 0
лим 0
зем 0
abilecek 0
鼓掌 0
グル 0
さえ 0
▁것이었습니다 0
▁وعلى 0
▁ران 0
▁المرض 0
▁şaşır 0
▁tali 0
▁nông 0
▁gyű 0
▁diferit 0
▁bibliote 0
▁antwort 0
كه 0
כך 0
ющая 0
мыш 0
луч 0
вия 0
znego 0
zato 0
시는 0
挑战 0
处理 0
▁گفتند 0
▁общества 0
▁yüzy 0
▁visão 0
▁ngàn 0
▁geomet 0
▁expres 0
▁equipo 0
▁câm 0
▁créé 0
کیل 0
חלט 0
лението 0
uido 0
pak 0
cjon 0
▁それから 0
▁ומת 0
▁которым 0
▁verschiedene 0
▁tril 0
▁tiện 0
▁midden 0
▁lekar 0
▁dela 0
▁costo 0
▁concre 0
▁chau 0
▁alsof 0
قق 0
زاء 0
ческое 0
éter 0
回到 0
はず 0
▁那是 0
▁那就是 0
▁للع 0
▁מאז 0
▁естестве 0
▁zatem 0
▁tôn 0
▁jesteś 0
▁depend 0
▁câncer 0
▁conversa 0
▁bilder 0
veille 0
ither 0
ieri 0
하다고 0
に関する 0
▁קודם 0
▁разру 0
▁ощу 0
▁mondja 0
▁least 0
▁kont 0
▁czegoś 0
▁宇宙 0
צח 0
uyla 0
pped 0
kten 0
atyw 0
看到的 0
▁혁신 0
▁이후 0
▁înțeleg 0
▁vége 0
▁frustr 0
▁fille 0
▁adolesc 0
lát 0
ității 0
eur 0
出了 0
のを 0
せる 0
▁올라 0
▁باقی 0
▁עומד 0
▁лично 0
▁исках 0
▁stało 0
▁neve 0
▁nagyszerű 0
▁látni 0
▁lắm 0
▁lid 0
▁kost 0
▁imaginez 0
▁dado 0
▁bire 0
▁atención 0
▁após 0
ظن 0
gaz 0
▁الأد 0
▁zaken 0
▁slow 0
▁saj 0
▁sint 0
▁relationship 0
▁nenhum 0
▁kỉ 0
▁japon 0
▁insect 0
▁informacji 0
лем 0
ycznie 0
det 0
adt 0
▁영국 0
▁آزاد 0
▁להגיד 0
▁ред 0
▁разных 0
▁машина 0
▁архитекту 0
▁învăţ 0
▁repar 0
▁plantas 0
▁oxy 0
▁niego 0
▁możesz 0
▁mojego 0
▁mão 0
▁mág 0
▁dieu 0
▁coi 0
سباب 0
טל 0
рий 0
rive 0
ettes 0
13 0
▁מגיע 0
▁חדשה 0
▁ההי 0
▁устойчи 0
▁интересу 0
▁zajm 0
▁virgin 0
▁szüle 0
▁serio 0
▁sağlay 0
▁radical 0
▁olv 0
▁diy 0
▁contrar 0
▁assol 0
▁ambient 0
▁母 0
▁体 0
ер 0
дина 0
meyen 0
させる 0
▁안전 0
▁비용 0
▁만들었습니다 0
▁افتد 0
▁עצמו 0
▁לאח 0
▁ככל 0
▁стол 0
▁преда 0
▁достъп 0
▁всей 0
▁sentito 0
▁regres 0
▁mások 0
▁khai 0
▁intorno 0
▁falta 0
▁duiz 0
▁değildi 0
▁dernières 0
▁dachten 0
▁celule 0
mals 0
lain 0
lá 0
游戏 0
▁ור 0
▁במיוחד 0
▁viaţă 0
▁page 0
▁médi 0
▁merkez 0
▁centrum 0
اث 0
шта 0
áját 0
vore 0
hlt 0
eks 0
▁싶습니다 0
▁いい 0
▁نفسي 0
▁الكه 0
▁الدي 0
▁становится 0
▁експери 0
▁volunt 0
▁uitge 0
▁kult 0
▁inté 0
▁inny 0
▁háló 0
▁exactement 0
▁deus 0
▁comportament 0
▁celebr 0
▁ald 0
ــ 0
нтере 0
▁개의 0
▁کوت 0
▁смърт 0
▁видове 0
▁tudtam 0
▁seres 0
▁seb 0
▁omge 0
▁hören 0
▁architecture 0
ائج 0
чет 0
рка 0
дле 0
önh 0
enses 0
▁내려 0
▁نجات 0
▁إست 0
▁آه 0
▁транс 0
▁slide 0
▁signal 0
▁pesquisa 0
▁kullanarak 0
▁kalan 0
▁jeu 0
▁gider 0
▁apre 0
ئو 0
óz 0
ículo 0
omm 0
leye 0
idim 0
aţi 0
政策 0
学者 0
▁大家 0
▁مشغ 0
▁عمی 0
▁احد 0
▁состоя 0
▁sociales 0
▁podrían 0
▁médicos 0
▁machte 0
▁hại 0
▁gốc 0
▁domande 0
▁discipl 0
▁bestaat 0
▁밀 0
▁녹 0
alm 0
讨论 0
▁متحده 0
▁زیبا 0
▁опти 0
▁неда 0
▁înţeleg 0
▁tulajdonképpen 0
▁repede 0
▁repor 0
▁psi 0
▁objeto 0
▁koráb 0
▁abe 0
łego 0
plant 0
ciale 0
目的 0
想像 0
信号 0
を作り 0
▁말해 0
▁کشورهای 0
▁وبالتالي 0
▁مدينة 0
▁ترا 0
▁темпера 0
▁самый 0
▁права 0
▁осозна 0
▁wprowad 0
▁potrafi 0
▁oben 0
▁lage 0
▁inw 0
▁gdp 0
▁económ 0
▁dziewczy 0
▁brown 0
▁長 0
▁チ 0
ческая 0
issimo 0
erà 0
alarını 0
아서 0
▁후에 0
▁وهكذا 0
▁центра 0
▁акти 0
▁vezető 0
▁sej 0
▁monter 0
▁justo 0
▁imagens 0
▁grafik 0
▁chúa 0
افة 0
zeich 0
tific 0
ownie 0
mér 0
我在 0
▁시각 0
▁보여주 0
▁我不 0
▁جست 0
▁تری 0
▁נס 0
▁навер 0
▁деньги 0
▁въпроси 0
▁zwierzę 0
▁trừ 0
▁tornar 0
▁obserw 0
▁jane 0
▁i̇ng 0
▁educação 0
▁dispo 0
▁dizendo 0
▁başladım 0
▁amin 0
▁١ 0
جاه 0
őle 0
özben 0
ulos 0
latt 0
box 0
andan 0
aç 0
现实 0
▁싶어 0
▁アフリカ 0
▁نظرت 0
▁שהיו 0
▁снимки 0
▁werkelijk 0
▁utilise 0
▁takiego 0
▁studen 0
▁specific 0
▁seven 0
▁rendelkez 0
▁rei 0
▁podríamos 0
▁miktar 0
▁látjuk 0
▁jeunes 0
▁impossible 0
▁daw 0
▁dług 0
ztük 0
yin 0
tiques 0
mut 0
izm 0
iges 0
fak 0
시킬 0
都市 0
▁بسرعة 0
▁בנ 0
▁такого 0
▁индиви 0
▁söylüyor 0
▁repente 0
▁mettere 0
▁gebäu 0
▁gold 0
▁escal 0
▁밝 0
тон 0
zul 0
atiques 0
のために 0
▁معرفة 0
▁الحيوانات 0
▁الاجتما 0
▁צריכה 0
▁חדשות 0
▁живее 0
▁всяко 0
▁vois 0
▁terrible 0
▁lots 0
▁hafta 0
▁ettik 0
يام 0
баты 0
▁полностью 0
▁đừng 0
▁viszont 0
▁verli 0
▁vân 0
▁thấp 0
▁sieci 0
▁sını 0
▁seti 0
▁relev 0
▁pove 0
▁jeito 0
▁gondoltam 0
▁creierul 0
▁给 0
داع 0
èn 0
zték 0
uale 0
encias 0
ランド 0
ボット 0
▁نعلم 0
▁جهت 0
▁שהא 0
▁כוכ 0
▁התחלתי 0
▁цель 0
▁представьте 0
▁sector 0
▁hoş 0
▁halten 0
▁fotogra 0
▁folosesc 0
▁egyé 0
▁congr 0
▁acasă 0
انو 0
metros 0
iu 0
carea 0
16 0
事実 0
また 0
ないと 0
▁زوج 0
▁الحرب 0
▁образ 0
▁въпро 0
▁vrienden 0
▁söy 0
▁studie 0
▁seconde 0
▁quis 0
▁merg 0
▁melhores 0
▁lequel 0
▁koş 0
▁especialmente 0
▁dek 0
▁crescita 0
▁ax 0
דק 0
вана 0
mmo 0
ンジ 0
▁여자 0
▁مشتر 0
▁مرض 0
▁حدا 0
▁تفعل 0
▁البحث 0
▁שזו 0
▁חודשים 0
▁число 0
▁vaccin 0
▁senki 0
▁nécess 0
▁moich 0
▁mesure 0
▁küresel 0
▁institution 0
▁ilişk 0
▁hicimos 0
▁herşey 0
▁hablando 0
▁disent 0
▁devenir 0
▁皆 0
שיג 0
▁사고 0
▁منح 0
▁رأي 0
▁بزرگترین 0
▁الرجال 0
▁الخارج 0
▁הטבע 0
▁започва 0
▁întreaga 0
▁vibr 0
▁sku 0
▁sali 0
▁princ 0
▁oblig 0
▁juego 0
▁flow 0
▁ezer 0
▁differenza 0
▁boom 0
טרו 0
ターネット 0
▁tep 0
▁rapport 0
▁hands 0
▁cắt 0
▁clu 0
▁același 0
▁accep 0
▁​ 0
ואר 0
itation 0
innen 0
某种 0
ックス 0
▁수준 0
▁남자 0
▁اضافه 0
▁לחלוטין 0
▁הסיבה 0
▁ברור 0
▁моего 0
▁звук 0
▁ваша 0
▁tipi 0
▁rău 0
▁imágenes 0
▁igazság 0
▁films 0
▁estrat 0
▁choix 0
▁capacité 0
▁biom 0
▁必要 0
ואי 0
ımda 0
스러 0
英国 0
并不是 0
▁언제 0
▁내용 0
▁القا 0
▁yoktu 0
▁maladie 0
▁llama 0
▁heut 0
▁graph 0
▁brook 0
▁96 0
▁美国 0
یدار 0
bc 0
曾经 0
の問題 0
▁معمولا 0
▁مردان 0
▁чём 0
▁неё 0
▁нашия 0
▁аль 0
▁trebuia 0
▁próprio 0
▁jobs 0
▁histórias 0
▁educación 0
▁derde 0
▁ボ 0
ولد 0
اتر 0
тали 0
ièrement 0
持续 0
▁当我们 0
▁زدن 0
▁أخبر 0
▁проекта 0
▁żyw 0
▁presup 0
▁prison 0
▁easy 0
▁desaf 0
▁dağ 0
▁cominciato 0
▁attend 0
▁색 0
hagy 0
里面 0
模型 0
家族 0
中で 0
▁我要 0
▁לסי 0
▁בפני 0
▁отка 0
▁trách 0
▁tine 0
▁oraş 0
▁kore 0
▁devine 0
▁싸 0
▁关于 0
هند 0
ראים 0
ekte 0
duğu 0
▁كي 0
▁лесно 0
▁извън 0
▁trovato 0
▁straord 0
▁siècle 0
▁prue 0
▁petro 0
▁minister 0
▁mereu 0
▁kaar 0
▁during 0
▁completo 0
▁bölüm 0
▁ahogyan 0
▁1999 0
рования 0
мини 0
öne 0
acs 0
区域 0
▁물리 0
▁말할 0
▁درسته 0
▁сигурност 0
▁дире 0
▁возду 0
▁vlie 0
▁rif 0
▁mell 0
▁halál 0
▁fiindcă 0
▁cid 0
▁afgel 0
▁야 0
ımıza 0
remo 0
更多的 0
感染 0
がありました 0
▁ينبغي 0
▁فعالیت 0
▁حالت 0
▁раньше 0
▁инф 0
▁types 0
▁tanr 0
▁kahkaha 0
▁interv 0
▁gelu 0
▁dernier 0
пляска 0
vant 0
ceğiz 0
▁他说 0
▁مبت 0
▁существо 0
▁ръкопляска 0
▁поверх 0
▁особенно 0
▁обеспе 0
▁моих 0
▁дом 0
▁бъдещето 0
▁virtual 0
▁verspre 0
▁toile 0
▁secolo 0
▁okre 0
▁membr 0
▁kültür 0
▁herz 0
▁görmek 0
▁czasem 0
▁arh 0
▁낮 0
▁行 0
עור 0
льную 0
ände 0
acă 0
ったり 0
▁انسانی 0
▁цялото 0
▁рису 0
▁trebuit 0
▁technológia 0
▁teilen 0
▁staten 0
▁qualunque 0
▁gândim 0
▁filhos 0
▁descon 0
▁conjunto 0
▁comunidades 0
▁clima 0
▁arasındaki 0
▁analys 0
▁œ 0
לחמה 0
вани 0
utt 0
ray 0
para 0
estos 0
分析 0
レー 0
▁実際に 0
▁שהן 0
▁сметка 0
▁посо 0
▁болез 0
▁volevo 0
▁vig 0
▁rápid 0
▁fan 0
▁erh 0
▁direkt 0
▁divert 0
▁alp 0
שאר 0
קרים 0
стват 0
лог 0
ographic 0
fahren 0
dziel 0
antă 0
17 0
학자 0
▁لمدة 0
▁כלל 0
▁זוכ 0
▁предлага 0
▁utaz 0
▁travaille 0
▁triste 0
▁scott 0
▁módszer 0
▁lehetővé 0
▁görev 0
▁dog 0
▁csupán 0
ولي 0
iono 0
ash 0
들로 0
都会 0
かの 0
▁있지요 0
▁없을 0
▁فناوری 0
▁المق 0
▁prag 0
▁múl 0
▁manieren 0
▁giriş 0
▁eerder 0
▁diagram 0
▁appelé 0
▁aire 0
פקי 0
дой 0
▁하루 0
▁이곳 0
▁خواستم 0
▁ég 0
▁spieg 0
▁rod 0
▁niște 0
▁mejores 0
▁crise 0
▁azokat 0
зья 0
ąć 0
atkoz 0
ankt 0
도로 0
社区 0
▁했던 0
▁الدرا 0
▁מאיתנו 0
▁למח 0
▁отне 0
▁támogat 0
▁treat 0
▁takes 0
▁pubblic 0
▁pierd 0
▁odak 0
▁kĩ 0
נוך 0
ском 0
гло 0
вол 0
deel 0
amad 0
이에요 0
アフリカ 0
▁と言 0
▁سخنرانی 0
▁разбирате 0
▁испы 0
▁yöntem 0
▁linha 0
▁kamen 0
▁jard 0
▁hallgat 0
▁gânde 0
▁foglalkoz 0
▁effici 0
▁bewusst 0
▁aid 0
گار 0
גת 0
гни 0
вляет 0
bren 0
いている 0
▁صند 0
▁زم 0
▁неф 0
▁zeiden 0
▁irm 0
▁força 0
▁faccio 0
▁effica 0
▁déf 0
▁darab 0
▁cáncer 0
▁comercial 0
▁bicic 0
▁alf 0
▁붙 0
קשורת 0
ждат 0
éro 0
ycznych 0
により 0
▁건물 0
▁متوسط 0
▁întrebare 0
▁róla 0
▁mismos 0
▁mille 0
▁mercato 0
▁meravigli 0
▁histoires 0
▁duce 0
▁bedrijven 0
ierzch 0
观察 0
▁我々の 0
▁اللا 0
▁أفريقيا 0
▁עובדים 0
▁находится 0
▁менее 0
▁известно 0
▁çar 0
▁zna 0
▁verici 0
▁unglaublich 0
▁paris 0
▁lograr 0
▁felhasznál 0
▁dünyayı 0
▁즐 0
غذ 0
ţine 0
ători 0
nienie 0
ission 0
head 0
aka 0
只有 0
プログラ 0
どこ 0
▁없이 0
▁вида 0
▁вариа 0
▁ışık 0
▁siêu 0
▁police 0
▁perspek 0
▁pequeños 0
▁outside 0
▁okoz 0
▁nowy 0
▁magni 0
▁maat 0
▁giấy 0
▁estás 0
▁alber 0
ظيم 0
سال 0
ztünk 0
pide 0
都有 0
緒に 0
すべき 0
▁گستر 0
▁لأننا 0
▁تان 0
▁חדשים 0
▁начала 0
▁sembr 0
▁sebep 0
▁pobla 0
▁kural 0
▁kín 0
▁horen 0
▁houd 0
▁emlékez 0
▁drit 0
▁century 0
▁뛰 0
▁建 0
的大 0
気づ 0
▁המון 0
▁стало 0
▁поведение 0
▁мислите 0
▁đổ 0
▁représent 0
▁obrigada 0
▁farm 0
▁anlaş 0
▁130 0
רכז 0
trei 0
시다시피 0
其实 0
▁보이는 0
▁먼저 0
▁نفعل 0
▁نست 0
▁ضخ 0
▁المهم 0
▁לנסות 0
▁teszi 0
▁tận 0
▁steht 0
▁sàng 0
▁sca 0
▁parc 0
▁görüntü 0
▁düşünüyorum 0
▁darin 0
▁capable 0
▁bł 0
گون 0
گرد 0
бера 0
igr 0
fiz 0
erson 0
apor 0
없이 0
▁رح 0
▁بنی 0
▁النو 0
▁לגרום 0
▁лице 0
▁гала 0
▁rağ 0
▁prende 0
▁minhas 0
▁ibm 0
▁hír 0
▁exactamente 0
یار 0
مية 0
centr 0
aw 0
▁목표 0
▁مسئول 0
▁تلفن 0
▁القصة 0
▁אג 0
▁valley 0
▁nedir 0
▁leuk 0
▁genoma 0
▁eventu 0
▁elettr 0
▁bedrijf 0
▁블 0
ליח 0
ופר 0
yz 0
nim 0
loed 0
izado 0
dou 0
汽车 0
いけ 0
▁누가 0
▁هیجان 0
▁جریان 0
▁باد 0
▁מדברים 0
▁התא 0
▁дойде 0
▁бяхме 0
▁đích 0
▁világot 0
▁própria 0
▁oli 0
▁hero 0
▁gebeurde 0
▁fbi 0
ölt 0
arnos 0
이지 0
更加 0
▁تعریف 0
▁اصلا 0
▁שהי 0
▁שבא 0
▁съзна 0
▁возможности 0
▁будем 0
▁xuyên 0
▁secol 0
▁rối 0
▁idade 0
▁haiti 0
▁changed 0
▁р 0
вил 0
yczny 0
isel 0
cą 0
aal 0
世紀 0
一定 0
されます 0
▁すべて 0
▁امیدوار 0
▁آبی 0
▁החלט 0
▁במדי 0
▁представить 0
▁которого 0
▁vrut 0
▁pand 0
▁muncă 0
▁maga 0
▁ihtiyacımız 0
▁doel 0
▁desper 0
▁ampli 0
生产 0
关注 0
▁뿐만 0
▁مفهوم 0
▁عصر 0
▁خار 0
▁حیوانات 0
▁توجد 0
▁الاقتصاد 0
▁ככה 0
▁независимо 0
▁teda 0
▁sürü 0
▁século 0
▁bestimm 0
▁bezie 0
▁bewe 0
▁altı 0
وائ 0
нили 0
nyit 0
dal 0
arre 0
akes 0
ーマ 0
▁앞으로 0
▁سپاسگزارم 0
▁تلو 0
▁направих 0
▁движе 0
▁wist 0
▁uş 0
▁jac 0
▁forr 0
▁dışarı 0
▁dzień 0
▁dispositivo 0
▁behind 0
جوی 0
סיס 0
ев 0
wand 0
hão 0
hau 0
bble 0
asser 0
▁حياتي 0
▁تنا 0
▁secund 0
▁rete 0
▁interact 0
▁ilaç 0
▁démo 0
▁dizem 0
▁72 0
مای 0
לומר 0
дили 0
ıları 0
áticos 0
ács 0
vertido 0
孩子们 0
▁비디오 0
▁накрая 0
▁какие 0
▁ек 0
▁zmiany 0
▁villes 0
▁surviv 0
▁pewnie 0
▁offer 0
▁occup 0
▁mobile 0
▁lehetséges 0
▁eruit 0
▁equival 0
▁beoba 0
▁amount 0
קב 0
בן 0
ają 0
소를 0
产品 0
▁그리 0
▁건축 0
▁لباس 0
▁روح 0
▁بینیم 0
▁שאין 0
▁לשם 0
▁резултат 0
▁voie 0
▁sécurité 0
▁strony 0
▁siglo 0
▁sagten 0
▁reach 0
▁pattern 0
▁megy 0
▁kilku 0
▁gevol 0
▁extraordin 0
▁elfog 0
▁decen 0
▁debería 0
▁37 0
▁思 0
ليون 0
سمع 0
بلغ 0
bből 0
▁재미 0
▁두려 0
▁مجموعه 0
▁למו 0
▁правда 0
▁társadalmi 0
▁terren 0
▁taus 0
▁secret 0
▁muzyka 0
▁incer 0
▁előre 0
▁bărba 0
▁bese 0
▁acelaşi 0
ذر 0
ודת 0
ıldı 0
ósito 0
olsó 0
ladı 0
key 0
▁적용 0
▁사실은 0
▁بعمل 0
▁الماضية 0
▁الات 0
▁מסוגלים 0
▁воды 0
▁yeten 0
▁vorbi 0
▁querem 0
▁parola 0
▁near 0
▁megmutat 0
▁kuş 0
▁flex 0
▁empec 0
▁daher 0
▁certeza 0
▁bâtiment 0
▁총 0
ủy 0
وده 0
لوك 0
יוני 0
eyi 0
bamos 0
amak 0
트를 0
はありません 0
▁준비 0
▁가까 0
▁گویند 0
▁فرض 0
▁رائعة 0
▁بدأنا 0
▁أنواع 0
▁ממו 0
▁четыре 0
▁зах 0
▁загу 0
▁yağ 0
▁woord 0
▁thuis 0
▁taille 0
▁regierung 0
▁nimi 0
▁khởi 0
▁hüküm 0
▁gyerekek 0
▁flores 0
▁découvert 0
▁contrib 0
▁common 0
▁circul 0
▁chiesto 0
▁braucht 0
▁bilirsiniz 0
▁ante 0
سين 0
גני 0
цов 0
дия 0
rift 0
hh 0
▁있지만 0
▁민주 0
▁기록 0
▁رجل 0
▁بگیرید 0
▁البدا 0
▁космо 0
▁кара 0
▁задача 0
▁джо 0
▁гораз 0
▁tűnik 0
▁sănătate 0
▁származ 0
▁rodzin 0
▁preguntas 0
▁practic 0
▁esatt 0
▁dokument 0
▁젊 0
мени 0
зей 0
дена 0
ımın 0
nicy 0
jak 0
imizde 0
ielt 0
ここ 0
▁بند 0
▁שאלה 0
▁למרות 0
▁בעוד 0
▁конф 0
▁зрения 0
▁амери 0
▁următor 0
▁ud 0
▁tivemos 0
▁reu 0
▁moesten 0
▁kelim 0
▁influen 0
▁gazdasági 0
▁flug 0
▁diplom 0
▁dicen 0
▁chie 0
▁bedankt 0
رسال 0
ديو 0
משיך 0
כז 0
דאו 0
öttek 0
▁الصين 0
▁гораздо 0
▁vader 0
▁seinem 0
▁nézzük 0
▁gara 0
▁eric 0
▁companies 0
▁café 0
▁ajuda 0
▁セ 0
هي 0
äre 0
osop 0
igkeiten 0
한테 0
病気 0
是我们 0
▁كلما 0
▁יצ 0
▁поми 0
▁wszystkim 0
▁voulons 0
▁tabi 0
▁song 0
▁short 0
▁reduz 0
▁padres 0
▁muzică 0
▁luna 0
▁guys 0
▁effic 0
▁chacun 0
▁buradaki 0
▁benutzen 0
▁팀 0
צאת 0
ztak 0
odem 0
lüğ 0
doby 0
년간 0
リスト 0
しようと 0
▁мере 0
▁vivir 0
▁verwa 0
▁potremmo 0
▁needs 0
▁isten 0
▁irgendwie 0
▁hallott 0
▁canlı 0
▁biod 0
▁beslo 0
صدر 0
נהגות 0
atul 0
▁주는 0
▁こち 0
▁الصوت 0
▁الحا 0
▁الجل 0
▁сделал 0
▁визу 0
▁trip 0
▁ocor 0
▁esattamente 0
▁dobra 0
▁cambia 0
▁brazil 0
▁bilmiyor 0
▁밤 0
▁골 0
▁ミ 0
ناها 0
годи 0
выми 0
ătură 0
tiği 0
jár 0
始めました 0
向か 0
いった 0
▁وكن 0
▁تاريخ 0
▁משנה 0
▁отра 0
▁índia 0
▁xếp 0
▁sokan 0
▁rağmen 0
▁plaatsen 0
▁numer 0
▁mijlo 0
▁llamada 0
▁gấp 0
▁baixo 0
▁° 0
כיר 0
чем 0
вобо 0
ваха 0
ğim 0
terr 0
szt 0
siyon 0
ativos 0
aken 0
我想 0
▁포함 0
▁마찬 0
▁되면 0
▁گسترش 0
▁المدينة 0
▁נפלא 0
▁иметь 0
▁дли 0
▁говорил 0
▁équipe 0
▁vált 0
▁valóság 0
▁tenían 0
▁stor 0
▁snow 0
▁recuer 0
▁rum 0
▁mini 0
▁ervaring 0
▁einde 0
▁economía 0
▁dünyadaki 0
▁difference 0
▁comune 0
▁궁 0
wne 0
midd 0
cl 0
观众 0
▁شامل 0
▁أليس 0
▁רואה 0
▁помочь 0
▁период 0
▁называется 0
▁дълбо 0
▁treffen 0
▁soff 0
▁scale 0
▁obiet 0
▁máquinas 0
▁musul 0
▁líderes 0
▁legalább 0
▁jednego 0
▁iraq 0
▁gaf 0
▁empie 0
▁chuyến 0
▁alıp 0
лния 0
вена 0
registr 0
mniej 0
结构 0
んでいます 0
り返 0
▁پیر 0
▁مری 0
▁بازار 0
▁الجن 0
▁آخرین 0
▁ילד 0
▁разберем 0
▁материал 0
▁куда 0
▁заболе 0
▁говорю 0
▁xx 0
▁salute 0
▁perder 0
▁lost 0
▁hadd 0
▁görebilirsiniz 0
▁eksperyment 0
▁政治 0
یدیم 0
לל 0
וקה 0
тър 0
ografia 0
cate 0
atta 0
로는 0
战争 0
不可能 0
▁단계 0
▁یخ 0
▁погледнете 0
▁някога 0
▁zene 0
▁vooruit 0
▁vaz 0
▁számomra 0
▁sait 0
▁privile 0
▁milliers 0
▁londres 0
▁linie 0
▁leave 0
▁künst 0
▁innerhalb 0
▁hizmet 0
▁giai 0
▁ghana 0
▁dovremmo 0
▁democracia 0
▁dimos 0
▁choć 0
▁ambos 0
▁숨 0
ובדה 0
ложения 0
imientos 0
hood 0
alte 0
力量 0
▁لأنها 0
▁сможем 0
▁touch 0
▁schimba 0
▁ressemble 0
▁pobres 0
▁pena 0
▁olmadığını 0
▁necesita 0
▁nadzieję 0
▁carbono 0
▁avv 0
▁900 0
чо 0
дной 0
ței 0
iven 0
增长 0
▁کلاس 0
▁ساختار 0
▁الموسي 0
▁المدن 0
▁тялото 0
▁остана 0
▁демократи 0
▁включи 0
▁śred 0
▁yaptığı 0
▁veszély 0
▁servici 0
▁parado 0
▁jav 0
▁egal 0
▁compris 0
▁arbeite 0
רוא 0
וחר 0
让我们 0
んでいる 0
▁خدا 0
▁تض 0
▁الجزء 0
▁إد 0
▁آت 0
▁מעבר 0
▁איפה 0
▁правила 0
▁мага 0
▁връзка 0
▁viver 0
▁seeing 0
▁polar 0
▁oszt 0
▁olmam 0
▁matematik 0
▁legy 0
▁kracht 0
▁histor 0
▁comunque 0
▁blind 0
▁amélior 0
▁됐 0
▁女 0
рее 0
itari 0
comp 0
스가 0
▁상당 0
▁بگیریم 0
▁אוכל 0
▁услу 0
▁възду 0
▁urma 0
▁patent 0
▁paso 0
▁nuovi 0
▁lao 0
▁fazlas 0
▁흔 0
ساطة 0
מינים 0
öff 0
ország 0
kív 0
agă 0
▁여행 0
▁마찬가지 0
▁منابع 0
▁ممت 0
▁خور 0
▁تك 0
▁باستخدام 0
▁помощи 0
▁wort 0
▁preven 0
▁opportunità 0
▁màn 0
▁leader 0
▁given 0
▁friend 0
▁começamos 0
▁classi 0
▁ガ 0
▁۷ 0
łop 0
lałem 0
었는데 0
相当 0
▁높은 0
▁공동 0
▁نسخ 0
▁كثير 0
▁טכנולוגיה 0
▁прези 0
▁кана 0
▁добри 0
▁yava 0
▁verloren 0
▁toler 0
▁spar 0
▁sons 0
▁sinds 0
▁rédu 0
▁robią 0
▁oportunidad 0
▁legf 0
▁inev 0
▁guarda 0
▁gerne 0
▁começa 0
▁blis 0
▁besten 0
▁192 0
ндо 0
yka 0
mania 0
lap 0
ella 0
band 0
▁لكنها 0
▁ذهبت 0
▁الامر 0
▁החלק 0
▁אמרו 0
▁сказала 0
▁подход 0
▁видели 0
▁ressem 0
▁przypom 0
▁migliori 0
▁merak 0
▁kendini 0
▁informat 0
▁filoso 0
▁evident 0
▁eua 0
▁demande 0
▁arme 0
▁aquilo 0
عامل 0
سام 0
ונות 0
мов 0
zonder 0
apcsol 0
하다는 0
종의 0
▁변화를 0
▁今天 0
▁المنط 0
▁מתחילים 0
▁מעור 0
▁חייב 0
▁zanim 0
▁zape 0
▁widzie 0
▁verbre 0
▁trăi 0
▁sicure 0
▁scienzi 0
▁rende 0
▁myśli 0
▁magát 0
▁accident 0
שורים 0
ובים 0
waar 0
inaire 0
fal 0
cond 0
atieve 0
▁강연 0
▁为了 0
▁تونید 0
▁الصحي 0
▁التعليم 0
▁מבינים 0
▁מוג 0
▁факти 0
▁оши 0
▁начал 0
▁должна 0
▁госпо 0
▁yüzyıl 0
▁suk 0
▁nhảy 0
▁hung 0
▁diferença 0
▁dầu 0
▁dàng 0
▁反 0
мня 0
ților 0
valu 0
tette 0
haz 0
飛行 0
物語 0
在这里 0
ことで 0
▁كنيم 0
▁صغير 0
▁تجد 0
▁техни 0
▁verlie 0
▁valore 0
▁unique 0
▁tysią 0
▁trabajando 0
▁scă 0
▁respe 0
▁rin 0
▁ojos 0
▁następnie 0
▁moo 0
▁freund 0
▁enged 0
▁conser 0
يده 0
وث 0
ربون 0
دت 0
סות 0
żenie 0
ceán 0
bec 0
的故事 0
工程 0
准备 0
イス 0
▁سبب 0
▁אוהב 0
▁соеди 0
▁развитие 0
▁изто 0
▁возра 0
▁vicino 0
▁specta 0
▁plein 0
▁eyes 0
▁champ 0
▁asia 0
▁휴 0
▁۹ 0
letet 0
grund 0
ective 0
cii 0
ceau 0
amment 0
성의 0
えた 0
▁وید 0
▁جزيلا 0
▁vormen 0
▁uwagę 0
▁universal 0
▁swoją 0
▁rozm 0
▁risc 0
▁harmad 0
▁bánh 0
▁bie 0
▁基本 0
рени 0
zott 0
gyar 0
▁مشروع 0
▁راهی 0
▁تونیم 0
▁אד 0
▁стане 0
▁земле 0
▁война 0
▁vírus 0
▁vorstellen 0
▁poprzez 0
▁nick 0
▁függ 0
▁dando 0
▁bout 0
▁空 0
łeś 0
ódik 0
essa 0
ected 0
시켜 0
超过 0
▁보여드 0
▁يؤ 0
▁מוק 0
▁тек 0
▁милиарда 0
▁zda 0
▁tıp 0
▁religie 0
▁ouvir 0
▁gioco 0
▁destru 0
▁challenge 0
▁350 0
وک 0
сма 0
ноза 0
нга 0
reven 0
▁طفل 0
▁прев 0
▁wyzw 0
▁offen 0
▁makin 0
▁khiển 0
▁düşündüm 0
▁dicono 0
▁dicht 0
▁czek 0
▁blok 0
ويورك 0
ёте 0
вень 0
pir 0
ließlich 0
itable 0
성에 0
▁المياه 0
▁أبدا 0
▁להו 0
▁предизвикател 0
▁направите 0
▁várias 0
▁sürekli 0
▁struttura 0
▁square 0
▁kup 0
▁immedi 0
▁ekonomik 0
▁devono 0
▁cáo 0
▁aura 0
▁atlan 0
انیه 0
اور 0
ństw 0
łum 0
ásban 0
rew 0
imentos 0
▁يستخدم 0
▁فت 0
▁تصبح 0
▁הני 0
▁начать 0
▁économie 0
▁unor 0
▁prix 0
▁kiedyś 0
▁inteligente 0
▁gefühl 0
▁experimento 0
▁corrup 0
▁۸ 0
كات 0
ربما 0
вин 0
óan 0
flu 0
bez 0
机器人 0
就可以 0
▁잘못 0
▁هات 0
▁הטי 0
▁подго 0
▁направят 0
▁мом 0
▁конте 0
▁voix 0
▁visszat 0
▁swoich 0
▁recept 0
▁insanın 0
▁haver 0
śród 0
hamos 0
金を 0
ことも 0
▁접근 0
▁وحت 0
▁محلی 0
▁سع 0
▁خشون 0
▁النهاية 0
▁בשנה 0
▁поради 0
▁океана 0
▁здраво 0
▁yavaş 0
▁umwelt 0
▁städ 0
▁ss 0
▁naukow 0
▁guardare 0
▁fırs 0
▁demasiado 0
▁很多 0
▁ワ 0
▁ță 0
یشان 0
تمعات 0
ספ 0
oly 0
haus 0
수를 0
以及 0
▁삶을 0
▁깨달 0
▁عامل 0
▁اعتماد 0
▁מתחת 0
▁לעזור 0
▁малък 0
▁выглядит 0
▁window 0
▁semble 0
▁sbagli 0
▁paura 0
▁movimiento 0
▁miejscu 0
▁jedem 0
▁gruppe 0
▁dokładnie 0
▁dừng 0
▁abd 0
▁31 0
זרח 0
тко 0
trop 0
명이 0
되지 0
驚く 0
▁중에 0
▁따라서 0
▁당신의 0
▁مشغول 0
▁إليه 0
▁разпростра 0
▁круп 0
▁életem 0
▁yukarı 0
▁powerful 0
▁oorlog 0
▁muszę 0
▁geschä 0
▁eduk 0
pier 0
letek 0
haf 0
病毒 0
物理 0
物を 0
▁사라 0
▁彼の 0
▁حدي 0
▁آگاه 0
▁típ 0
▁rapidement 0
▁nü 0
▁marca 0
▁lad 0
▁gratis 0
▁giây 0
▁gemein 0
▁finalement 0
▁feu 0
▁dovrebbe 0
▁bureau 0
▁bemer 0
▁꿈 0
خره 0
ואה 0
чёт 0
就能 0
下さい 0
に戻 0
なくな 0
▁증가 0
▁보통 0
▁당시 0
▁پزشکی 0
▁تصاو 0
▁שעות 0
▁отношения 0
▁изключително 0
▁törvény 0
▁tudós 0
▁tante 0
▁selon 0
▁rode 0
▁overle 0
▁implica 0
▁démocr 0
▁슬 0
▁숫 0
قيام 0
дент 0
lassen 0
illag 0
icion 0
foly 0
atten 0
보면 0
やす 0
▁점점 0
▁誰も 0
▁نقش 0
▁خوام 0
▁بأنه 0
▁بوجود 0
▁أعني 0
▁спустя 0
▁посмотрите 0
▁ожида 0
▁атмо 0
▁viet 0
▁vezi 0
▁taal 0
▁przyszłości 0
▁pomiędzy 0
▁perto 0
▁mesmos 0
▁herinner 0
▁acuer 0
▁美 0
▁л 0
يري 0
أخذ 0
רוק 0
épar 0
wiają 0
verte 0
tij 0
forder 0
▁방식으로 0
▁يصبح 0
▁مراق 0
▁قوی 0
▁آمریکایی 0
▁אוקיי 0
▁атмосфе 0
▁lg 0
▁hätten 0
▁formă 0
▁ebből 0
▁cabeça 0
▁avion 0
▁ı 0
шна 0
ellow 0
cupar 0
baren 0
랍니다 0
探索 0
▁공유 0
▁الجنس 0
▁ויותר 0
▁магази 0
▁компьюте 0
▁информацию 0
▁kro 0
▁istot 0
▁hau 0
▁flux 0
▁fase 0
▁escuch 0
▁bakış 0
yű 0
inile 0
adevăr 0
意識 0
巨大的 0
▁我说 0
▁شیوه 0
▁сигна 0
▁могла 0
▁единствен 0
▁întrebat 0
▁yourself 0
▁tox 0
▁ngắn 0
▁meglep 0
▁lưới 0
▁kern 0
▁iba 0
▁emerg 0
▁căut 0
▁conditions 0
▁compara 0
▁adı 0
מק 0
им 0
гри 0
önt 0
olit 0
服务 0
▁사람의 0
▁يمكنني 0
▁لدى 0
▁داری 0
▁utolsó 0
▁tartış 0
▁jakby 0
▁gyorsan 0
▁fehér 0
▁efect 0
▁dolayı 0
▁cuid 0
▁cria 0
▁centina 0
▁capazes 0
▁afir 0
▁aw 0
أكيد 0
ферен 0
zig 0
egeben 0
cta 0
300 0
상이 0
表面 0
考虑 0
▁وإذا 0
▁تونه 0
▁العد 0
▁الظ 0
▁ازد 0
▁במקרה 0
▁сю 0
▁заб 0
▁thải 0
▁salvar 0
▁prez 0
▁początku 0
▁obvious 0
▁naam 0
▁muo 0
▁luister 0
▁hikaye 0
▁geleceğ 0
▁fum 0
▁davranış 0
чная 0
▁뉴욕 0
▁中国 0
▁ایالات 0
▁الثلاث 0
▁الاخت 0
▁разбра 0
▁đợi 0
▁wysok 0
▁termine 0
▁philip 0
▁modelos 0
▁industrial 0
▁fish 0
▁erőszak 0
▁ciudades 0
▁由 0
زمان 0
тельный 0
ıld 0
venes 0
udur 0
nologie 0
iving 0
うま 0
▁에너지 0
▁ساختن 0
▁באר 0
▁наконец 0
▁вещей 0
▁siendo 0
▁samym 0
▁powierzch 0
▁parecer 0
▁mete 0
▁gebied 0
▁electron 0
▁dvd 0
▁ceo 0
▁cardia 0
▁artista 0
▁architect 0
جی 0
verse 0
tile 0
teit 0
szem 0
bby 0
を見て 0
のも 0
▁میاد 0
▁محت 0
▁دسترسی 0
▁تعل 0
▁משום 0
▁החו 0
▁опу 0
▁непре 0
▁érez 0
▁vorbim 0
▁visit 0
▁tony 0
▁onderwijs 0
▁leon 0
▁ettim 0
▁少し 0
unile 0
icher 0
带来 0
分钟 0
が生 0
▁最近 0
▁المري 0
▁الأش 0
▁בשם 0
▁тела 0
▁моите 0
▁маги 0
▁ак 0
▁încre 0
▁sentire 0
▁representa 0
▁kevesebb 0
▁ecolog 0
▁前 0
طه 0
حيان 0
ствует 0
ăl 0
annte 0
角度 0
十年 0
人口 0
▁لذت 0
▁سري 0
▁الثانية 0
▁מעולם 0
▁търсе 0
▁sage 0
▁palest 0
▁mindegy 0
▁ikinci 0
▁globális 0
▁chiếu 0
▁avevamo 0
▁administr 0
▁結 0
kent 0
atoare 0
▁얼굴 0
▁私達は 0
▁پرت 0
▁سيا 0
▁رقم 0
▁جنگل 0
▁براي 0
▁нейро 0
▁минути 0
▁дево 0
▁безопасно 0
▁tradi 0
▁tiss 0
▁sinn 0
▁pace 0
▁oare 0
▁mounta 0
▁ingredi 0
▁케 0
▁少 0
ytu 0
radas 0
ikal 0
czaj 0
일한 0
▁שול 0
▁изче 0
▁жерт 0
▁întrebă 0
▁szinte 0
▁seçim 0
▁poko 0
▁period 0
▁needed 0
▁nä 0
▁metabol 0
▁investigación 0
▁hede 0
▁doilea 0
▁designers 0
▁célula 0
▁comin 0
▁centrale 0
▁bineîn 0
▁幸 0
פיה 0
ulás 0
tetés 0
入れ 0
ることを 0
▁تصميم 0
▁تیم 0
▁ממה 0
▁כנראה 0
▁ביחד 0
▁електри 0
▁доку 0
▁гори 0
▁spojr 0
▁schimbat 0
▁resour 0
▁pueda 0
▁ngân 0
▁lévő 0
▁kém 0
▁kett 0
▁führen 0
▁disser 0
▁devant 0
▁1984 0
خفض 0
שרים 0
átor 0
tabil 0
lossen 0
ding 0
고요 0
色的 0
人生 0
ナー 0
▁מדינות 0
▁светлина 0
▁öldür 0
▁öz 0
▁pix 0
▁ngăn 0
▁minuto 0
▁lont 0
▁infra 0
▁igazi 0
▁furn 0
▁entram 0
▁consequ 0
▁buona 0
▁brian 0
▁algorith 0
سازی 0
łod 0
시키는 0
过的 0
と思う 0
▁תת 0
▁וק 0
▁ötlet 0
▁ziekte 0
▁yalnızca 0
▁számít 0
▁services 0
▁reprezintă 0
▁quen 0
▁propia 0
▁performance 0
▁lângă 0
סם 0
ísticas 0
zają 0
ința 0
inha 0
观点 0
最近 0
显示 0
发生了 0
▁عقب 0
▁ايضا 0
▁أنحاء 0
▁העצ 0
▁следва 0
▁potuto 0
▁metà 0
▁kevin 0
▁kapcsolatban 0
▁humans 0
▁fair 0
▁erlau 0
▁dagli 0
▁begint 0
▁땅 0
קהל 0
זיק 0
чим 0
yız 0
cious 0
라이 0
まだ 0
▁원하는 0
▁사용하는 0
▁其中 0
▁کان 0
▁مور 0
▁للن 0
▁رسانه 0
▁ریا 0
▁تحقیقات 0
▁кур 0
▁nyelv 0
▁moving 0
▁minuti 0
▁imparato 0
▁ergeb 0
▁dead 0
▁cyber 0
▁comum 0
▁bescher 0
▁anne 0
зите 0
sour 0
illas 0
dies 0
agens 0
资源 0
认识 0
生物学 0
性を 0
中に 0
▁وص 0
▁زیب 0
▁خواست 0
▁мало 0
▁seguridad 0
▁satell 0
▁regarde 0
▁rady 0
▁popolazione 0
▁patienten 0
▁médicament 0
▁minim 0
▁invit 0
▁intra 0
▁güc 0
▁globaliz 0
▁całkiem 0
▁blood 0
▁astero 0
▁aba 0
▁教 0
▁ändern 0
potriva 0
으로부터 0
纽约 0
しているのです 0
▁نوشته 0
▁محافظ 0
▁ممكن 0
▁سوی 0
▁إلا 0
▁туда 0
▁серд 0
▁рекла 0
▁казвам 0
▁еже 0
▁óri 0
▁yaşayan 0
▁wykon 0
▁volledig 0
▁spę 0
▁sonras 0
▁riconos 0
▁rar 0
▁ngươ 0
▁klo 0
▁debemos 0
▁común 0
▁経済 0
▁űr 0
ẩu 0
טרה 0
éket 0
mina 0
enne 0
aną 0
으로써 0
利益 0
なんて 0
するのは 0
▁필요합니다 0
▁چيز 0
▁لغ 0
▁קטנה 0
▁начини 0
▁мной 0
▁жить 0
▁sangue 0
▁observar 0
▁nhắc 0
▁dépla 0
▁dziecko 0
▁dark 0
▁뭘 0
▁死 0
▁ヒ 0
רחש 0
ברסי 0
pis 0
jából 0
asto 0
ansa 0
▁방향 0
▁مقای 0
▁شکست 0
▁الموجود 0
▁السنة 0
▁מדהי 0
▁улуч 0
▁стой 0
▁масшта 0
▁ина 0
▁дене 0
▁wyja 0
▁verschiedenen 0
▁uro 0
▁turned 0
▁tấn 0
▁scriv 0
▁origine 0
▁genitori 0
▁experimente 0
▁effort 0
▁controll 0
▁bedoel 0
▁aufg 0
عاب 0
זיה 0
zeda 0
omer 0
csi 0
냅니다 0
人を 0
ることができます 0
くと 0
▁여러분들이 0
▁میبین 0
▁ثرو 0
▁بزرگتر 0
▁אחוזים 0
▁нечто 0
▁недоста 0
▁истински 0
▁zdjęcia 0
▁yürü 0
▁wyra 0
▁télé 0
▁reprodu 0
▁röv 0
▁olhos 0
▁incent 0
▁hawa 0
▁fear 0
▁drugs 0
انس 0
計画 0
動き 0
▁훌륭한 0
▁نمود 0
▁علمی 0
▁למעלה 0
▁כשאת 0
▁הממש 0
▁taka 0
▁stavo 0
▁stunden 0
▁spaţi 0
▁saranno 0
▁quê 0
▁political 0
▁ngờ 0
▁mówią 0
▁morgen 0
▁mük 0
▁gond 0
▁empat 0
▁east 0
▁drum 0
▁cust 0
▁cina 0
▁akk 0
وید 0
ارع 0
לוי 0
elek 0
드를 0
대를 0
出的 0
▁아시 0
▁我会 0
▁جهاز 0
▁המדע 0
▁whate 0
▁whatever 0
▁tâ 0
▁suite 0
▁scala 0
▁powinniśmy 0
▁niektóre 0
▁mennyire 0
▁locale 0
▁jaką 0
▁horri 0
▁hồ 0
▁gom 0
▁bitte 0
▁americani 0
чели 0
olen 0
分の 0
▁인류 0
▁돌아가 0
▁لی 0
▁איזה 0
▁такова 0
▁стро 0
▁систему 0
▁éducation 0
▁umana 0
▁obwohl 0
▁continent 0
▁chy 0
▁capacidad 0
שרות 0
מוקר 0
ответ 0
jén 0
coală 0
向け 0
▁你的 0
▁היכן 0
▁лекарства 0
▁движения 0
▁đỡ 0
▁volver 0
▁kuze 0
▁jh 0
▁imparare 0
▁entusias 0
▁endroits 0
▁ehhez 0
▁bốn 0
▁bür 0
▁겪 0
▁学 0
▁単 0
قلت 0
éken 0
inda 0
市場 0
另一个 0
▁יכולות 0
▁финансо 0
▁сети 0
▁помага 0
▁буд 0
▁átlag 0
▁próximos 0
▁odw 0
▁muestra 0
▁infect 0
▁horm 0
▁guid 0
▁gelukk 0
▁estudio 0
▁eşti 0
טיים 0
ările 0
trato 0
müş 0
leriyle 0
jach 0
abban 0
構造 0
兴趣 0
▁مقایسه 0
▁قدیمی 0
▁رم 0
▁خشونت 0
▁الطبيعة 0
▁إعادة 0
▁япо 0
▁путеше 0
▁повър 0
▁парт 0
▁организации 0
▁tamanho 0
▁perspective 0
▁pig 0
▁osserv 0
▁ebola 0
▁cens 0
▁atmosfera 0
▁agg 0
ılıyor 0
lenia 0
gestellt 0
危険 0
▁هزاران 0
▁تام 0
▁зависи 0
▁tuve 0
▁tratando 0
▁tradu 0
▁tama 0
▁jednej 0
▁importanti 0
▁edad 0
▁disney 0
▁cultural 0
▁尽 0
[...]
