# {"tokenization": 2, "inline_case": true, "nfkc": true, "protect_regex": "<lang:[^>]*>|<term>|</term>"}
e n
e r
▁ s
▁ d
▁ a
▁ p
i n
▁ t
e s
a n
o n
▁ m
a r
▁ c
e l
o r
▁ l
▁ v
i s
a t
▁ n
a l
e t
▁ b
i t
▁ k
▁ f
▁ o
a s
r e
▁ h
i l
r o
c h
▁d e
u n
o s
r a
▁ g
o m
▁ e
t i
t e
▁ i
u s
t a
▁ in
i e
▁ j
u r
o l
▁ w
a d
r i
e d
a m
o t
en t
▁ z
i c
l e
i d
e m
▁ u
in g
▁ r
i a
▁a n
i g
i on
i k
u l
q u
i r
▁ un
i m
o d
h e
▁ en
o v
s t
u t
▁ (
▁l a
▁p ro
u m
l a
▁n a
c i
t er
▁ 1
▁ re
▁ 2
▁s t
▁ -
es t
▁s e
an d
a k
▁a l
a g
e g
▁c on
e k
i v
o k
▁p ar
is t
u d
o g
a c
▁h ot
i j
▁l e
▁t o
▁ qu
▁t he
▁p r
▁hot el
n e
▁d i
a b
er s
▁c om
j e
▁ y
▁p o
▁ τ
a v
en d
▁ el
l i
▁f or
c e
m a
▁s p
a p
▁s u
▁a t
es s
н а
in e
s k
r u
i z
▁c h
▁a r
t o
. .
▁o f
▁d o
j a
▁ on
▁ с
n a
▁2 0
at ion
▁ et
ar e
s e
d e
▁ es
▁n e
p p
▁m a
an t
k a
il l
o u
▁ π
v er
▁ п
▁an d
o b
▁ er
i o
▁ ro
▁ σ
▁d es
▁o g
or t
o w
e c
▁j e
n i
os t
r an
▁d u
▁ κ
▁ é
g e
▁t e
el l
f or
т е
o c
▁b e
▁ α
н и
i en
▁a v
k e
it e
a i
▁ is
ο υ
er e
t u
▁p er
▁ ε
▁p re
▁ на
o p
0 0
▁j a
▁ и
▁ or
▁ ra
▁d a
p l
at e
▁s a
т о
d u
р а
▁qu e
▁ в
▁m ed
m e
n o
e b
▁ il
▁ 3
i b
▁e x
▁d el
d er
c om
▁v er
v e
as t
▁r es
▁o p
a j
▁n o
т а
en s
▁t h
▁p ri
al l
▁ д
i ch
▁20 1
▁a c
▁a s
u g
a ch
un g
▁ μ
▁o b
y s
α ι
in a
ar t
▁s k
v a
▁a g
in d
u b
k s
i er
ι α
a z
в а
▁t il
á l
á s
ó n
z e
é s
al e
i et
▁p l
ι κ
▁v o
n í
▁m e
▁d er
▁z a
p r
el e
t en
ä r
ar d
ti on
ö r
h a
as s
h o
en te
τ ε
▁s o
an g
▁t a
▁i m
t s
▁ о
f f
▁s er
us t
н о
▁v an
k o
ä n
m ent
▁o d
▁a m
n y
▁m ar
▁ к
al i
▁i r
on t
▁a u
▁d ie
▁d en
ã o
b er
▁d et
ν α
i p
▁par a
р е
▁a d
▁ –
.. .
▁p å
▁ 4
з а
▁s i
▁un d
н е
r at
v o
k t
▁l es
▁in ter
▁e m
▁f l
▁ î
▁ ri
u p
▁ à
▁m in
▁a p
▁a f
or d
▁t ra
▁ š
il e
c a
an s
i es
▁ 5
y t
z a
l er
▁ us
d a
▁î n
▁k a
p er
▁t r
▁i z
с т
j on
▁ est
▁ δ
v is
for m
ρ ο
▁o s
▁o m
i f
▁c o
un d
▁m et
j u
is s
l u
n ing
▁m o
▁k om
z y
▁p od
▁ за
▁p or
▁s om
ra m
▁v i
j i
p e
it y
р и
ad a
▁a b
▁p os
ε ι
l o
ch e
▁k on
b e
i re
b a
▁m an
t or
k l
▁v e
k i
▁b o
τ α
at i
▁k o
▁ "
▁o ch
a u
d en
л и
▁s z
á n
in t
▁ č
ic a
▁u m
ic e
▁τ η
▁l i
c o
n é
v el
k u
m i
▁t er
▁k an
▁v ar
▁ м
v en
id e
▁ þ
▁e in
at a
▁ á
ε ί
f t
▁ it
m er
▁d is
▁v al
▁s am
▁c u
τ ο
▁a ut
σ η
it h
m en
r es
b o
u ro
▁п о
ig h
on d
p o
ci ón
ρ α
el s
c k
▁t al
▁u t
▁v is
qu e
▁b y
é r
▁p ers
р о
▁g r
τ η
et t
▁com p
m o
in n
g i
▁in d
ri p
▁ ž
en e
▁p a
▁l u
π ο
h r
▁m od
ion e
▁pro du
▁l os
▁at t
s p
▁p e
ad e
or e
ie m
▁ γ
is e
▁c he
an n
▁p ol
▁a z
▁κ αι
p a
▁n u
ti v
an a
▁re g
on e
et e
em ent
it a
ur s
▁b r
at er
▁v a
▁τ ο
▁h e
) ,
j o
l and
k y
z i
it i
us e
▁д а
g en
f er
j en
▁f ör
ent o
▁g o
▁m u
t r
) .
▁s v
к а
▁hotel s
ad o
▁1 9
te m
▁s ta
ic i
ik a
ul t
æ r
▁ 6
ρ ι
т и
at o
▁ е
▁p u
g a
c es
▁h et
μ α
g y
▁pro g
b u
▁s h
▁h a
▁f r
▁c l
▁s ch
c t
ν ο
▁c ar
ij a
ä l
▁e en
л е
s a
▁g e
▁p ra
▁t u
end e
y n
▁k l
▁ ú
it t
ro s
▁t em
c ia
m an
is ta
i i
g er
l ine
▁b es
▁a pp
▁b l
▁1 0
l ig
▁c an
▁po ur
v al
l y
s i
▁c ent
▁k u
á t
▁un a
▁ ent
▁e uro
ie d
▁о т
▁in form
▁a k
▁pers on
▁c ol
p or
▁h ar
w a
▁ б
il le
▁w e
▁v on
▁con t
▁f in
в е
al a
ro m
en ti
ω ν
ç ão
re d
▁b ar
▁f il
▁s ol
▁m it
n et
▁ser v
u e
m in
ur i
i h
▁s l
▁c am
el le
ί α
▁ag us
▁t rip
ar i
▁h o
l et
2 0
▁ να
▁l as
▁ í
os ti
er a
▁é s
l es
ic k
el d
▁p la
▁p as
it u
▁ å
▁ 7
ch t
z en
ti c
▁α π
on s
▁ 8
ä t
h er
▁s ie
ý ch
▁d in
r y
z z
id a
▁f ra
n er
ц и
л а
▁20 0
ü r
▁c e
in i
▁g ħ
▁s c
in o
is k
ó w
▁s an
al iz
ч е
▁t ran
h et
iv e
▁s ur
í t
▁w eb
к и
▁in n
o ur
é g
▁к о
▁al l
an te
ar a
v i
▁t y
▁ ü
▁κ α
▁l o
il i
▁s em
ε ς
▁p h
jon i
un t
it o
ag e
▁m en
s te
p ort
▁p ř
p ro
▁w ith
is te
▁μ ε
or i
▁ ο
▁с е
▁d é
e j
▁m i
er t
k k
▁in st
▁t ak
b en
▁a ð
ch en
▁b u
s ta
ig e
ș i
м е
▁g en
▁c as
b l
▁na j
▁ 9
at t
▁m on
or a
s z
u j
ö n
c el
in s
w e
u ra
p os
▁p ot
an o
á r
b i
▁a ir
▁con s
▁τ ου
n ie
▁res ta
к о
▁h er
▁s in
▁f ac
ol og
▁s on
ø r
▁t ill
▁v il
τ ικ
▁ ist
в и
u re
▁ |
▁ /
h n
▁ “
l ed
▁p al
an e
в о
d o
▁ &
b le
am i
▁d at
▁z u
▁st r
u i
м а
▁γ ια
▁f a
f ic
▁v y
▁v ol
▁w h
f i
▁ x
er v
g an
▁ și
el t
▁f ran
▁c or
p ar
al t
o j
in k
is ti
er n
d i
as ta
y m
▁prog ram
at s
▁s m
en a
é n
ъ р
▁o t
c z
▁g u
▁p i
▁k e
k on
vis or
▁vo or
▁απ ό
and o
es ti
▁k r
▁d ans
▁j o
c l
▁k m
ι σ
▁y ou
▁ χ
▁g ra
▁o u
eg a
▁t ur
t re
д е
▁t ar
eg o
▁ έ
ig n
f a
▁es te
▁o l
▁c a
▁f ür
ek t
g u
t el
am a
ation s
▁pro f
▁s te
g o
id h
ed e
ad visor
á v
▁e f
c ess
▁f re
▁un e
▁m er
h t
for ma
έ ς
c on
ν τ
or es
▁p ent
▁di re
z n
▁m eg
p h
p s
k er
▁π ρο
el a
id ad
▁sp e
id en
ro l
▁ 0
im a
▁de m
en n
▁n ie
▁n ov
▁d as
▁pent ru
▁v ý
es ta
s o
▁b et
▁ į
▁resta ur
▁ε π
▁a le
г а
▁o ver
▁k i
ra v
▁r é
ώ ν
▁σ ε
▁on line
д и
▁a re
▁j ed
▁ а
ub l
ä ä
▁au f
h l
c tion
an ie
d z
å n
å r
an je
▁d om
▁k as
▁b a
on a
▁s al
▁al le
▁ [
▁и з
▁ è
▁t re
et a
an ia
u x
λ ο
v at
et s
▁for m
u ta
á g
▁el ler
▁ ö
д а
г о
as e
at iv
▁m il
z t
ä m
ol l
▁ η
▁e d
ci al
v ar
in en
л о
▁l eg
á m
b an
es te
y ch
ic o
ė s
en ta
▁k or
and e
▁f un
▁g ar
g g
ū s
ü l
▁с ъ
▁re c
w n
▁ β
▁a us
ț i
it é
it ion
▁po p
▁p at
ί ν
▁ är
▁h u
▁b est
▁g l
n ik
on g
▁n ot
▁n or
▁k un
▁e v
▁t od
ch a
▁ .
▁i k
it s
μ ε
▁1 5
av e
▁ne w
▁ „
m ente
u k
▁п ро
▁b il
▁σ υ
▁f e
é m
sk a
▁d an
it he
u je
▁к а
▁v ers
b re
ti g
▁par t
č i
▁d r
an ti
š e
w o
ing s
b y
c ion
▁d ar
▁п ре
it à
▁v õ
ie k
an ce
▁t ro
▁k ar
▁τη ν
▁c er
ι ο
b or
es e
▁es ta
ion i
▁д о
im o
é t
▁in forma
▁j ak
▁bo ok
p on
μ ο
▁m as
α ς
▁e gy
▁τη ς
un e
is i
▁m ag
c er
c ie
at ur
ad os
▁hotel l
ol d
▁pl us
p t
▁ не
▁l oc
▁f rom
▁f ot
▁or gan
▁u z
k en
ά ν
ac e
▁th at
▁be z
í n
▁f i
iv ers
▁p ort
▁vo us
▁ т
en g
j et
▁ut il
an i
w er
id o
▁m al
ti m
▁v el
ā s
▁s ob
p i
k et
r as
š an
ich t
z ione
ov a
▁t ag
▁n em
r it
▁b i
g ħ
el y
▁g ro
▁com o
δ ο
c u
▁f o
el la
ci j
s s
▁p om
ing en
▁d os
í a
▁n y
▁τ α
▁m y
▁d al
b ol
▁r el
õ es
▁ ό
▁j u
k om
n en
e v
▁re z
τ ή
▁b er
μ έ
s er
▁p ok
▁of f
▁ ur
1 0
▁n á
n osti
y d
ov á
p re
▁ у
▁c ap
и те
ā r
▁i d
im e
b il
▁pr in
▁d ig
▁v ia
▁pr es
▁in f
▁ '
▁π α
r al
ol o
▁ ра
▁ma i
j um
▁1 2
▁s ă
ни е
j em
m et
▁g rat
▁c re
om e
am e
▁u d
▁t ai
▁n os
s ch
ni h
▁k ö
▁tran s
at or
п о
▁ θ
ra d
g l
▁g er
▁n ó
g el
te d
▁m us
y l
os e
ж е
d el
f e
ol e
en í
▁k at
▁s el
▁t v
š t
ol i
ab le
ec t
t t
ī b
ot t
al es
ul l
λ α
▁ то
▁1 8
▁w as
▁w ir
st er
▁b ud
š í
ed ia
ρ ά
n u
et te
p le
m ar
k ov
▁b el
▁s av
ol a
r um
â n
é e
is h
▁th is
u a
σ ει
▁m ater
▁qu i
▁s us
▁b us
ti k
▁h og
▁d on
▁π ε
ov e
j er
n ost
▁w y
▁σ το
t ä
ac k
00 0
▁ra z
ed en
ž e
▁te ch
t ra
ρ ί
▁d ur
▁b re
▁b h
ś ci
▁n i
ни я
20 1
з и
▁m at
▁ma is
it et
▁b ed
ва не
am ente
▁u ma
▁f er
▁m ot
ik e
▁s im
ρ ό
▁n on
il a
▁o k
▁c r
с и
em b
▁st ud
▁v ie
n ý
m as
▁s ig
▁c i
▁m ak
▁na v
▁s å
▁n as
▁n et
es ter
▁inter n
▁w er
al s
▁z d
▁inter net
am b
τ ό
t on
p ri
li ch
í s
os ta
l d
est o
λ η
▁m ás
un a
▁n um
ξ ε
▁in c
▁g re
g r
▁ υ
▁e i
el i
it es
ó l
▁ φ
ρ ε
s l
▁z e
▁m is
▁aut om
ž i
t h
▁p on
ai re
k un
▁o ut
ij n
▁ex p
▁st at
u te
ent es
▁se g
ri j
am ent
▁ro z
m es
v or
▁c are
▁se c
▁t as
▁st and
▁m ul
en ce
▁in v
▁na ch
▁k ä
ar s
▁σ τη
▁g al
h u
▁3 0
▁hog y
▁av ec
ed er
or k
▁t ele
▁ko h
ál l
r et
n es
▁qu al
▁po u
τ ά
▁y our
l j
λ ε
▁π ου
l l
▁pre d
▁м о
▁c al
ā m
▁del la
od a
▁l et
▁w a
ç ões
▁w i
▁book ing
▁f u
▁g es
ur g
w i
ij e
▁c el
í o
▁in t
▁par ti
▁i š
ung en
p u
▁com m
um s
ä h
▁v ed
c y
ad h
ir t
a il
▁hotel ler
ri r
og ra
▁m ill
ac ion
▁c at
▁δ ια
g t
▁o c
▁in te
▁j est
▁al s
▁ε ίν
sk e
▁είν αι
▁p ak
▁pri v
ti f
χ εί
é l
▁am er
w ar
ent s
щ е
al d
ul ar
n ě
us s
iz z
▁m or
▁f am
▁v ir
ia i
ri c
ни те
▁par k
qu es
▁1 4
ul ui
a is
▁i de
b r
o i
ant s
is er
▁k ur
j s
í m
▁201 9
▁en er
▁ +
ρ γ
l ik
en i
▁e ff
v ers
м и
▁ те
▁p ag
▁al la
á il
▁p ubl
▁a pl
▁l og
▁pro v
▁b as
ol u
▁w ord
ч а
d y
ach t
im i
▁si ę
▁ ó
ci p
or s
▁b ru
▁α υ
▁1 1
м о
▁u pp
▁d ru
▁j ūs
▁a j
l as
▁d ist
▁n ä
▁b an
▁t ot
5 0
um a
us i
og le
▁p ass
▁k ol
in es
▁ik ke
▁p ost
▁t ek
m u
ή ς
▁m ap
▁su per
▁h ab
ess a
ud i
in u
▁u p
▁с а
▁as s
▁ —
are a
m s
▁201 7
ci ja
▁f ir
▁c li
▁p ap
il d
▁ г
▁v ide
id er
m on
l en
u v
í v
▁t i
κ ε
g h
e x
sk i
pr es
▁ap art
b b
ant es
ar y
1 9
▁e ine
▁s é
▁pro d
ov an
▁о б
▁ ż
ys tem
▁tech n
ok a
y r
an ta
us ta
am o
▁su b
▁π ο
v et
▁v ien
in ā
▁a an
ā d
ation al
m is
ş i
el o
τ ι
▁v or
ri a
▁1 6
▁201 8
els er
▁1 00
j ek
ij k
▁h as
▁t ut
▁ ф
▁d ok
ā k
р у
▁g eb
an y
▁u ž
an na
▁в ъ
▁b al
it z
α ν
▁tra vel
ε τε
h od
но ст
ä än
it en
ση ς
ne j
g et
▁h el
p la
r on
▁pro ble
▁de c
b ar
λ ά
▁gen er
▁s en
h ot
▁fl y
e z
i al
▁k am
▁v æ
ú n
▁sp r
▁s n
it er
▁d est
ου ν
▁w ar
á ci
av a
▁b ro
el en
ut er
w are
▁1 3
▁w ind
id ade
igh t
▁п ри
▁s y
▁h an
▁k ont
▁τ ι
▁con ta
▁l ib
is che
▁ ξε
ny ch
▁ х
▁en c
▁ra d
y a
▁res p
o ta
ü n
s c
g ar
r t
on n
▁t ab
ro v
▁h j
▁r is
oc k
▁z á
ess e
▁g a
▁y ra
i ra
ul a
é k
▁st ar
h d
ρ η
ο ύ
с та
▁ $
el se
ow s
▁s ter
n os
ek s
▁t en
▁m ob
un k
ri d
▁con f
it al
ē t
τ αι
▁c ity
▁v oc
▁inform ation
▁e k
▁h ó
▁ şi
eg or
ov er
ch er
ra z
▁o pp
▁2 4
i or
et ta
▁go ogle
▁v u
▁m es
▁al t
▁b ill
ur t
▁ch ar
▁des c
▁l ig
è re
▁ent re
r á
ma il
ци я
▁k tor
▁u l
▁с и
▁ar t
ov é
um ent
▁v id
▁h ost
▁sob re
s h
er en
▁s vo
ed a
л я
д о
▁ра з
ce p
š i
▁f y
▁t ip
▁1 7
▁t w
▁s is
▁h ol
▁k ad
ν η
ib il
▁z o
zz joni
▁z ijn
ti e
▁v ai
▁f ar
▁an n
in ter
▁ :
z o
f in
er o
▁produ k
ment s
▁p ie
g ra
ī t
▁201 6
▁t ie
ъ л
▁pl an
▁πε ρι
g es
pr ess
▁s ich
▁un ivers
ti ve
▁в и
on o
ig en
▁w ill
y k
▁ «
v ie
é p
tion s
í c
е н
r ar
▁part ner
am ento
▁g et
▁s ind
▁g ru
▁r et
n á
at ie
▁2 5
é d
il la
ij iet
▁m á
es k
▁s ú
▁j i
▁a ug
īb as
▁r u
▁t ik
z u
▁spe ci
▁i h
ð a
m ed
▁ž e
▁k ap
az ione
ar ta
s u
▁t ö
▁n ær
▁de i
▁ ре
▁t ä
▁fr ån
▁a ko
▁voc ê
▁un der
t ur
▁pro te
▁ q
σει ς
▁des ign
c s
ri g
z et
t al
νο δο
▁g od
▁o le
▁grat is
è s
c ed
▁h or
▁st or
iv o
r en
am h
▁me ð
▁ξε νοδο
▁n ão
h al
▁p an
l ad
ess o
▁ξενοδο χεί
▁l in
▁5 0
y b
▁al i
1 2
a f
▁t am
ir es
u ks
ti es
▁k er
as i
▁l iv
ar io
á d
il or
я т
ud e
▁м а
▁s ul
m eld
▁m ic
▁l and
▁f el
▁l im
▁pos s
σ τε
ib le
ð u
▁s il
▁min ut
ð ur
▁ •
▁α ν
un i
▁c z
▁f é
▁t or
ik u
o č
ter n
▁h and
o ut
ą c
▁τ ων
ου ς
▁on t
▁re p
n is
▁tran sp
▁re d
▁w o
σ ι
▁στη ν
▁t el
end o
t ó
▁t om
▁de g
h ar
с е
eb o
▁δ ε
▁u b
iz a
▁produ c
et er
▁n at
ci o
с ки
▁fy rir
▁euro pe
w s
▁w ie
ist or
▁pr ze
▁t á
at ed
ικ ό
▁b en
ð i
▁ac c
▁com pl
k el
2 00
f r
б о
p en
ij o
п а
sk o
ö s
▁ü ber
ot re
v ol
ab ol
п е
▁un ter
▁n el
g s
ist en
▁o der
á k
▁σ ας
ч и
▁h ave
ig a
г и
ta a
j ar
▁reg ist
az z
▁it al
▁no us
t es
ρ εί
▁p ad
λ ι
▁ че
il s
á in
▁s ystem
ro p
än d
▁t ri
▁r as
▁m ore
▁b or
1 1
á ri
tu ra
▁con st
▁επ ι
z d
l in
ad or
z ioni
▁g y
an ge
▁c ă
▁t est
▁et t
▁con d
▁z ap
▁z n
ak s
é ny
▁se o
▁hó tel
iv a
is en
▁n am
▁i g
h é
▁d ag
▁l at
▁é t
k or
▁b ij
▁ ή
an ja
θ ε
на та
u al
▁su pp
▁c en
▁d ell
ra c
3 0
φ ο
▁w or
od e
ik t
at h
▁l is
o ti
▁k ra
▁dis pon
▁ ess
▁se e
▁m ad
▁d z
▁h y
u f
▁en d
al la
é ri
▁im port
ta j
▁и н
ak o
v í
ion al
n om
p et
▁d iv
▁n ad
▁st ran
ţ i
▁n ar
▁ma j
▁an al
▁d v
▁t an
▁ >
it ar
on i
▁t im
▁serv ice
▁serv ic
▁fin an
▁vi ð
▁exp edia
▁s et
▁com e
▁vil la
š č
▁stand ard
f l
▁έ να
▁e u
at ud
▁mo ż
▁ro m
ad as
h ol
it ter
▁est á
▁tele f
ί δ
ion s
ik o
ά ρ
▁la h
▁s at
▁es c
e p
▁f ol
▁n atur
ö g
ak a
▁b ū
ass a
am s
λ ύ
ov en
▁v iet
▁h ome
j ekt
in ti
▁di es
▁a pr
▁ »
▁g am
os a
▁kon ta
ebo ok
▁per f
▁ef ter
h or
▁h v
t m
oc ity
с то
ach ta
ó s
▁προ σ
▁s ont
▁ex per
▁son o
in er
▁be ach
ar ch
▁gr and
ul d
▁b ra
▁s itu
▁travel ocity
ē j
l ing
▁g j
▁h at
▁m el
it ate
ell en
▁ та
▁r és
y w
re g
▁pr z
▁m ik
é ho
▁b la
▁m ont
▁s ite
▁19 9
h at
v u
▁s ou
▁c s
ci je
▁d ro
) :
▁fun k
h om
h en
▁v ä
ch ta
c is
v an
m od
▁a ust
▁b ol
d os
▁fac ebook
▁għ all
ok s
í l
em e
m at
ý m
▁dire c
▁м е
▁d it
ie x
is ch
w ire
i ro
▁op er
▁v otre
ă r
▁h al
▁κ ο
é es
o f
▁d ata
a ut
▁det te
ē r
▁so ft
▁d od
ind en
ř í
▁pi ù
ow a
▁os ob
▁l ang
▁po č
▁v en
c in
b h
▁b eg
h am
▁m ig
▁μ έ
ú s
et o
du c
ρ έ
w ard
il o
f u
á ny
b li
p ad
a in
▁publ ic
▁po z
▁st re
un n
α σ
á z
ст и
m os
▁ε κ
▁l ok
▁le is
ro d
c ar
▁mo ž
ra k
▁au x
▁hot wire
▁co ok
æ n
▁u k
▁α πο
b al
ul i
p an
c as
ω ς
▁u it
ic al
▁par te
st en
▁wind ows
▁an g
▁sa u
▁α να
▁væ re
▁k ot
▁l ä
▁do b
▁n icht
ν ε
end en
▁to p
ç a
▁p un
en z
ó r
k ar
▁f av
as ti
is ter
▁pol it
is ke
▁s ø
▁k al
k ö
▁d ra
on line
▁on e
▁in cl
р ъ
on y
▁en g
▁k ā
ag y
tu re
▁k tó
it el
t y
▁v äl
▁e ur
▁con c
id os
. ,
it ä
▁vide o
f o
ig t
▁pr zy
u le
i ri
ti d
κ ο
iss a
ik i
▁bes te
▁be h
▁in s
▁m ac
it or
л у
μ ά
▁ch un
▁l ie
▁għ al
and a
▁s iste
▁ind ust
ow e
▁produ kt
h i
ó d
us te
▁tem per
▁fre e
▁p et
im as
▁s w
ri v
▁pla y
▁k ter
▁wer den
▁di ff
x t
acion es
▁n ek
▁ar ch
▁ но
▁o ur
λο γ
т у
▁an meld
ρ ω
is ka
ing er
▁n om
v ir
▁l í
▁web s
▁p ār
ová ní
is chen
min ist
▁f å
λ έ
▁m ol
n ia
σ τ
▁m ie
å l
f ar
o ir
z er
▁su a
ri bu
▁ ще
ta v
μ ό
▁cam p
▁p og
ogra f
le g
▁k ön
ru k
▁do c
▁ab y
ц е
▁pl at
о р
▁m ost
m el
▁kä yt
h as
▁b ut
ic kl
▁an s
ac ji
▁je w
ś ć
ment o
▁4 0
▁ ø
▁ku i
▁i ch
д у
k in
l an
▁m og
if ic
▁z ak
▁na p
▁util iz
is u
▁kö z
ж а
im ent
▁k ai
▁fam il
er i
ικ ή
▁p ov
▁θ α
em a
▁al g
▁t id
la v
n ic
▁hotel y
▁s j
ud a
▁2 1
▁m om
ell o
▁μ πο
et ti
ik s
▁п а
▁j os
▁v eg
ć e
▁ %
▁d la
om h
▁n eg
om a
▁an ti
u ch
▁la i
▁na ar
▁2 2
▁a ff
ha ir
▁k n
▁v as
st o
▁s lu
l os
ti r
▁k õ
i ð
▁ го
▁τι ς
▁a o
ι ν
▁can cel
▁a i
ov at
ab il
н я
šan as
▁ ġ
qu ip
▁r end
▁d ost
▁f ab
▁jed n
▁201 5
ικ ά
▁l ed
s ti
▁autom at
▁j s
idad es
m y
le p
ve z
▁or b
▁r en
▁ma y
▁o st
▁n í
k um
▁ener g
▁be i
te k
▁b ad
ell es
ρ ή
▁re al
▁per m
ut o
r ie
la g
▁do or
ia u
ist o
▁ch r
▁l ub
▁př í
▁v in
▁man ag
j d
re m
▁pou ž
п и
en ie
▁st ol
i an
с о
ut h
d r
al o
▁в а
▁pr is
▁m emb
ag a
▁и ли
in te
▁do wn
pl o
▁v ær
▁b on
▁k ir
l ie
am p
ur es
▁o h
n ých
▁n iet
▁s ą
it ta
▁υ π
▁a on
ία ς
б и
ti ca
i os
1 8
ó k
l ic
▁pro ces
▁c um
ł a
▁b ek
▁res er
▁k op
le m
▁ho use
n em
▁ac tiv
ning er
eg en
▁201 2
▁ €
ot h
b ud
▁pra v
é se
σ ε
▁so ci
iv er
▁t ap
с ка
▁pri cel
▁lah ko
it us
1 5
▁tra d
▁se k
▁pro st
▁res erv
▁ ά
▁ne bo
v ille
ie j
▁prin cip
au x
▁u w
▁sp a
id ir
▁fav or
ö l
pl at
▁pricel ine
▁võ i
in st
▁la b
ст во
end er
γ κ
v ä
ent er
ł o
ж и
▁orb itz
ê n
b in
er d
▁n ed
▁k val
▁su ites
▁m ě
▁ ś
ik k
▁prof ess
▁tod os
it ed
▁an v
р я
▁dest in
ung s
o z
▁g i
▁techn olog
▁c op
el u
id u
all y
▁l iet
▁u por
j av
▁gl ob
▁a st
▁k ok
▁p ir
y cz
is a
▁v ac
ā t
▁com un
▁cas a
▁ma in
▁es p
í r
ro b
aj o
č no
zy st
ar be
▁sp ort
▁euro p
▁s or
ch i
▁ale bo
f ör
het en
▁fr á
▁h um
am os
б е
▁ster o
▁va š
ro id
α λ
▁k os
m p
ut ta
le x
▁то ва
ot o
▁s ab
ва т
ul o
▁upor ab
▁de ze
▁t it
m al
d es
▁st rat
b urg
v in
▁b he
om en
ar o
í te
▁sol u
ti fic
ar te
ö k
▁e con
od y
▁pro cess
▁ο ι
ak t
▁2 3
▁б е
x x
▁intern ational
▁l ond
▁a ch
▁пре д
▁ ħ
▁che ap
▁v r
h te
▁201 4
▁д е
la p
▁þ ú
▁s ti
h old
es z
u w
▁h os
y ak
▁ro om
i el
▁a qu
d et
▁cancel on
γ ο
▁pr í
k ur
1 6
1 4
al is
▁cont rol
wa y
▁cam b
r er
azz joni
j ed
j as
ê tre
s en
ich e
▁c ur
▁p es
▁air port
▁na š
▁въ з
š k
▁e g
▁c os
ov i
▁fac il
as jon
▁tw itter
μα τα
▁fil m
▁ub yt
▁g ol
ī dz
▁to ut
▁ õ
ле д
▁v ic
m iss
▁min n
щ а
▁ка то
▁res ort
▁του ς
▁servic es
▁h istor
▁l j
ek tr
um e
λ ή
in ess
▁den ne
▁għ and
▁g ran
▁r est
u ti
▁o ma
г ра
▁a er
▁m é
▁n ou
▁ma x
t v
▁z ur
g ram
jon ijiet
č en
▁im p
▁an t
b n
äl l
к ти
▁i hr
je š
▁c ab
▁aut or
▁col le
▁v z
id es
л но
χ ει
7 5
▁s í
γ ρα
▁o v
ul ta
▁d ir
▁201 3
ρ ια
▁m id
▁g an
▁z ob
▁pr on
či ų
ċ i
▁f inn
▁and re
ien te
▁organ iz
ap p
at es
▁wor ld
d ar
1 3
▁мо же
▁ ä
▁n ost
▁m use
▁in g
k r
τε ς
g ov
ме н
f ü
▁us e
iz i
id as
▁2 8
▁of er
▁k art
▁del le
▁j og
ov o
▁h r
▁soft ware
▁m ô
n ī
ber g
ta g
re b
▁e z
▁p il
▁v agy
▁de v
▁t ick
j el
ι δ
▁wh ich
▁aut o
▁m un
▁enc ont
o pp
at ter
ta in
▁i f
n it
6 0
▁jak o
em ber
▁euro pa
μ π
▁d re
▁restaur ant
▁s ar
▁d ia
z ő
" .
▁au ch
▁c ir
im h
o ft
ult ur
he id
▁ac cess
at ive
▁ne p
θ η
▁webs ite
j an
ī bu
μέ ν
im ento
▁g li
▁k li
▁z w
▁h om
k ow
▁v l
▁6 0
▁rez erv
v ē
ent al
f el
▁st ra
▁mar ket
el or
▁v ies
▁grat u
ickl y
τη τα
▁ε ν
cion es
▁m ens
a ir
▁s ka
▁se u
ó g
g ang
▁or d
▁ch u
▁ch i
▁s ve
▁t rat
ell er
щ и
2 5
c ol
i ón
č ní
▁t äm
▁pr é
j es
ó ir
n ar
μ η
▁s yn
an ter
v y
it ă
ny m
▁l ast
▁sa int
▁wir d
▁ein er
▁s unt
t il
▁sy st
▁anmeld elser
ag es
is c
▁с т
ί ες
▁sl oven
▁mater i
st r
▁l y
▁n är
▁t ime
▁h igh
▁and roid
▁a in
ji h
at ă
et i
" ,
▁v í
▁gro up
d am
▁k il
ig in
▁š t
▁v š
▁το ν
an to
ver e
▁ka yak
it os
ru c
▁s un
▁siste ma
em p
f en
▁ξενοδοχεί α
ut en
kl ad
än g
at u
▁n ing
▁m est
f s
▁δε ν
em m
um u
▁person al
ę p
▁k ost
on es
2 4
ρ ώ
▁c ette
e w
end a
▁al tern
▁ad minist
n ika
u er
▁tag ħ
es p
▁tr en
▁port ug
k al
it ies
b ra
▁al so
▁is land
▁2 7
i que
le v
▁б ъ
▁h en
щ о
▁l ist
▁el ektr
▁for ma
▁2 6
▁il i
ement s
en ia
te v
▁vie š
r å
i u
▁pop ul
с а
в ър
▁t udi
og a
h an
á ní
ύ ν
▁tr y
▁ind iv
▁resp ons
▁h am
▁bus iness
p ra
▁k re
▁p ä
▁b iex
ij as
▁b lu
ā l
▁st an
▁b iz
qu ickly
▁s ing
▁ak tiv
ig i
g io
τικ ά
o in
z ą
ot s
st and
▁h od
▁un s
▁z na
▁pro pri
▁δ ι
n ess
▁ab out
ć i
▁d ol
▁j ums
▁j eg
▁d í
am er
▁w ik
▁sv ar
▁me j
it te
a ð
▁j ag
▁l ar
▁str án
ț ii
πο ι
▁l an
▁v á
▁gr ande
ш е
α ρ
▁l ug
c ent
v od
▁μ ια
▁k it
▁h ver
▁ з
▁ne j
æ t
▁ ч
zen ia
1 7
ang er
▁mob il
▁kat egor
▁ε ξ
▁to ur
is ation
ning s
▁σ χ
▁nu est
▁p le
▁geb ru
▁k le
▁ ν
ät t
ud en
▁sk al
▁πα ρα
ac t
k ti
▁qu esto
▁a ce
im al
ē m
▁v it
ó t
▁an y
▁so cial
▁com pr
▁fu q
▁j ap
▁fot o
l at
en cia
to p
b et
ber gi
▁b is
τικ ό
▁w est
▁sz áll
a w
▁v ill
ė l
▁b ien
æ l
if e
m ing
▁g el
le y
ma z
in y
▁ad d
▁ser ver
▁ö ver
ío chta
em os
▁h vis
▁ch at
ñ o
f ort
ç o
▁it s
ci as
n ak
c ji
k an
l ov
▁a ud
▁k v
▁re m
▁l ot
▁tick ets
▁transp ort
v es
us ed
▁kön nen
▁h ier
и то
us es
▁pr en
nos ť
as a
▁to im
y en
▁n r
▁dis c
▁c ro
li o
▁ *
▁по д
▁pro p
▁des de
ph one
б а
▁inst all
▁b li
m m
▁l or
▁s ud
▁c ost
ic s
▁ak tu
m b
qu er
ort h
ντ αι
▁w at
▁mar k
ie c
h av
ġ ġ
▁kl ik
▁ein en
▁p en
ě t
▁am b
æ g
▁př ed
ij os
d f
ter s
▁i den
▁pod e
us ti
▁lu x
▁mod el
▁sz er
id i
ad es
▁l é
v ed
▁k ell
▁f ram
lig e
▁s ão
▁dur ch
▁d ass
iv at
▁r á
m un
к у
er ing
▁n ow
▁μπο ρεί
▁f eb
n um
4 0
▁telef on
▁п ра
▁fran k
ân d
b el
▁pr á
▁ter m
л ю
p od
▁201 0
is m
ă ri
▁e ks
▁tr as
p ol
j n
p is
▁cent re
ле н
▁pr ie
á la
▁j ul
sz ág
▁w s
▁slu ž
ό τε
ac í
▁t é
▁ar ī
az ă
▁ab s
▁k ul
▁re aliz
τικ ή
▁et tä
▁2 9
▁201 1
č e
▁f ond
▁ž iv
▁sta d
ij i
l jen
og ia
ри я
t d
▁di an
▁s ens
ion es
c je
▁h ac
▁b ou
▁m m
id ent
▁dis pos
s å
▁ot her
ż y
▁b ase
i ent
as h
▁conta ct
ur n
▁mod er
▁π ρό
j al
μ β
▁v end
▁h i
▁g ist
▁s es
▁y e
ν ω
▁l ong
▁a kt
▁pra c
▁ ли
y e
▁z ag
▁h is
▁p ens
ρι σ
▁re vie
od o
х о
▁p s
το ς
8 0
▁di en
те л
lo ad
ž en
▁econ om
ε ται
il u
▁sol o
h el
▁comm un
▁g ard
▁s it
ult at
▁b ag
▁kan n
▁word en
▁ка к
et en
os s
▁e c
z ion
li č
ing u
▁k up
▁host el
▁ λ
▁bes ch
▁αυ τό
l ja
▁da ug
▁k j
▁h eb
▁h on
h eden
▁в ре
▁ко ито
b í
▁ch a
▁pri mer
ch o
▁n ord
en er
š ie
▁st ation
▁ein em
▁dian abol
il t
ł y
▁d ivers
ar ma
us a
▁san ta
▁t iet
ø re
▁ #
▁ac tu
▁me er
▁m ond
▁dr ž
▁mic ros
▁sis tem
e a
cij as
▁prze z
▁ra pp
▁ag oda
▁l ink
ū t
▁koh te
▁v år
f ik
έ ρ
▁ch o
v ien
w or
e o
r ó
▁d or
ț ie
▁pre mi
▁p ic
an za
ên cia
yn d
▁f az
п ра
ъ т
▁d á
▁k ül
▁te hn
▁m und
d om
e ft
n im
it ud
▁s ho
am en
▁ges ch
at os
▁pro m
▁c ast
▁us a
▁the ir
▁ ισ
as te
▁pod at
▁c it
▁и ма
▁f ind
▁κ ά
ál ní
▁l ic
▁can ada
▁m í
e i
▁s um
▁n ut
▁s ag
▁prof es
▁e w
▁к ъ
▁m h
▁og så
ás a
ri ca
▁h än
ot ta
ij ke
és z
ch od
▁m å
θ εί
τικ ές
▁sp o
no ści
z or
▁m ind
▁cl ass
je v
▁re qu
▁κα τα
ne h
▁ex t
in ta
el ijk
▁cook ies
ova ť
ini ų
▁h av
▁d war
ur y
▁p el
and i
for d
ad r
▁y ork
z el
ī g
▁ż e
▁t ec
▁pro jekt
▁k w
▁μ π
▁ac est
▁c ri
ж да
▁ar be
λ λά
▁pro jek
▁z um
ar ia
▁mater ial
▁vie w
ф е
▁f ant
▁å r
▁naj bol
▁cas ino
at ura
▁tak o
v ik
and en
y st
σ α
ier a
▁se p
▁k ako
g al
al mente
in ės
▁συ ν
▁na ud
▁č e
op er
▁g c
k ol
s ég
is mo
▁j an
ig ur
▁ws zyst
▁d im
n olog
▁mot or
▁n å
▁þ að
ke it
▁l en
um i
as c
▁j ob
ę d
▁op en
с но
▁h il
▁pri m
▁stre et
▁вре ме
ad er
▁p ub
ci os
z za
aj u
▁cent ro
▁δ ω
ist ä
▁f á
z ie
z k
▁t eg
▁p ier
▁p ed
ti ge
▁ex tra
bn b
ier t
▁par is
á ra
lig t
▁pr ó
▁w ork
▁th ere
ward s
j ę
▁air bnb
ek k
▁var a
▁w el
ica ción
l í
▁an che
n as
d ag
▁k ro
j at
in ė
ut s
l igh
▁l td
h y
p end
▁d ri
▁k ort
▁ve č
íc í
▁v ak
▁re f
▁po w
▁fa oi
j te
▁d av
is ia
ra g
ge b
▁par l
ar es
ek en
ľ a
t ö
▁e quip
ka z
av o
ž ete
d s
t ar
▁se x
▁ex pl
▁or igin
lig a
▁kai p
▁u v
▁ph en
ag o
os i
ip s
it és
▁sh ow
ci ju
ž d
c ou
▁é r
ε ρ
▁pu ede
at ing
n ir
▁v se
▁re ce
▁micros oft
▁ú č
▁k uri
▁ch ur
n ek
ü ü
▁μ ας
▁ver w
ti co
σ ετε
en za
f il
cin ia
ach a
▁pla ce
▁kom p
▁b os
j ą
r é
cion al
ł ug
in as
▁ être
ш и
▁t ad
▁wa ar
▁g h
▁c es
ak e
▁h ur
▁c ou
li che
▁gar cinia
h ing
▁täm ä
ver t
j ud
iz e
▁se gu
▁mer c
▁д и
▁de fin
▁s he
▁ad res
▁dur ante
▁l äh
m ä
▁spe cial
σ τη
v ent
▁n é
▁st ock
▁m iss
η ση
▁rep ubl
л з
ning en
▁bla ck
y ti
ú il
▁lu ft
or g
▁com me
at ori
ás ok
▁po wer
né ho
▁inst itu
z és
” ,
▁con ten
▁ét é
ch es
▁h all
▁č as
▁pr et
▁cat egor
▁ ill
▁κα τά
ч ни
ch ten
▁t at
▁app lic
▁konta kt
ā j
▁m ich
▁kom mer
▁ @
с те
h ed
▁200 9
s el
▁inc lu
▁ra p
κ α
▁sav o
▁f ut
▁vies nī
▁ar tic
▁cent er
m ine
n s
ti va
▁produ ct
▁ε υ
2 2
▁m ass
ch ar
la b
▁kont rol
je c
▁б и
▁tie għ
▁fot ograf
li chen
▁indust ri
ц а
▁s ant
ier en
▁v å
σ κε
ра н
▁for t
▁k od
▁w ell
▁tab let
▁pro iz
▁the y
w ie
r is
ра не
▁t ul
▁p ove
▁ko ji
▁cent ral
k as
▁m ó
iv i
ru kt
▁w ater
” .
c ul
ф и
sz er
▁pr és
os o
▁js ou
▁ob s
▁σ τα
v it
▁ve z
▁es pe
▁no te
▁v ec
▁ne ed
▁qu ando
▁ar g
b es
▁hu wa
▁en gl
▁f on
z in
▁d hé
▁kom is
sk é
▁tö ö
▁z v
▁t we
▁z em
und en
▁sm ješ
st ra
▁n es
▁r us
▁me hr
▁pro s
▁j är
▁f ull
om i
al og
▁ge w
▁sam o
▁z as
▁c in
▁el e
▁gener al
▁in a
▁p c
▁down load
▁t ien
m it
▁amer ik
▁n ella
ρ ες
▁ap arta
▁c ul
▁l á
né es
b ia
▁на й
am as
▁ih re
▁k ans
▁z ab
or n
▁serv ici
▁on der
v ær
ite v
▁rad io
▁o ok
▁w enn
el li
ώ ς
▁ra k
3 2
▁f und
▁camb ogia
▁pop ular
▁j in
▁gar anti
ac y
▁tem po
▁med ic
▁hotel u
ick é
▁ ¿
n ega
▁b ack
▁re com
d an
л ни
vo j
▁u č
▁gu est
ņ em
λύ τε
▁c m
▁é l
š a
▁200 8
g od
es i
▁ktor é
▁ty p
ent os
▁o li
▁bh fu
▁informa ción
▁h vor
ċ ċ
ī jum
f ol
κ ό
▁t ij
▁v os
è me
ч ки
▁reg ul
aj te
. "
▁v ad
av ar
š ka
▁for sk
▁par tic
з о
▁vieš bu
▁c le
6 5
▁n ational
▁n år
▁бъ де
▁un ser
▁wszyst k
▁ri ch
ro j
е то
▁h ad
▁k ab
▁resta ura
im at
▁bl og
▁d ov
▁m ūs
▁hab en
io on
ā v
▁n og
än der
b ed
▁bhfu il
▁of fer
▁f al
je ct
▁ко н
men ta
sk ap
▁na k
▁mak s
▁se arch
▁hotel e
á cie
▁p õ
ř e
▁m ö
ff e
het ő
▁sk up
▁fl or
ks i
zn ál
id s
▁od p
▁reg ion
▁m ess
▁gebru ik
▁в си
▁lond on
▁m em
▁st art
▁p av
ib ile
all er
▁fl ug
▁v ys
n og
c ur
ot ti
▁f ri
▁pre v
ak se
▁ter min
hot el
▁sp re
δ α
▁wik ip
.. ..
▁t ā
τα ν
▁ess ere
š u
l og
▁h ô
▁v s
▁m õ
▁k ing
ot te
▁d ot
к т
▁kas uta
ta m
▁g em
in is
te ur
по лз
ικ ο
▁z ar
▁e ven
▁cl ub
v é
▁f ost
▁n od
▁prog ra
ta is
х а
ä är
h ra
ut t
▁i i
▁l ive
ning ar
▁f it
tor y
re a
▁f og
о б
▁ne ces
χ ν
▁μ α
▁dok ument
▁ba y
▁th an
▁su c
▁b az
▁s ci
▁val st
ér ie
hr en
▁þ ess
▁not re
▁s op
▁at á
▁tod o
ī v
o ol
▁det ail
▁m art
▁w ur
ø l
9 9
σ ία
▁en s
▁с та
ш а
▁at s
b ul
ļ u
▁х о
et ter
fa idh
land s
▁p age
ντ ά
▁dhé an
▁sel ec
▁ta x
i č
▁α ρ
aliz a
▁c ru
▁re v
▁de vel
▁pre m
ġ i
▁c ra
▁so uth
ū r
om s
ig er
▁м но
▁rez er
▁v še
σ ο
▁ áll
▁bar cel
▁t un
▁v ē
▁3 5
ad s
▁g eg
▁vš et
ij u
▁м и
▁and ere
v ek
▁ex ist
▁o z
▁v ál
▁h á
ka j
áci i
ñ os
▁mod ern
ing ar
▁s ä
▁a y
ari os
▁k es
▁col or
▁e ða
▁or g
▁z ad
▁co un
▁ne cess
▁un o
▁b and
▁vo i
ст ва
▁d ate
▁f our
en b
an as
ż u
p art
▁v ám
▁f ør
ri k
o ž
m t
▁s ign
zen í
7 0
▁va še
ov ý
ú na
▁ο πο
igh ts
▁ ċ
▁3 1
š ana
▁p ut
▁di fer
▁ ле
ad ores
▁feb ru
ņ u
▁ka ik
▁es pa
ction s
ition s
é is
op e
▁p ied
ow y
▁k unt
a a
j est
▁b ur
▁er a
▁restaur anter
▁δ η
▁l ö
▁zd rav
ț ă
it iv
▁dire ct
▁b le
en o
uj ú
▁m ů
ío cht
w y
п ре
▁sm art
ne y
▁prog no
▁kon s
▁s and
ő l
▁lu c
▁op tim
at en
▁ph ot
▁sz ám
▁200 7
á ban
▁j our
ow n
inā t
▁f j
▁strat eg
▁m os
▁κα θ
po z
p al
▁re fer
k em
zen ie
▁un ited
ου με
is es
▁t iem
▁t ú
d as
▁p am
▁lig ger
▁in de
▁8 0
▁d h
▁le ver
▁ma ch
▁n orth
▁aust ral
▁из полз
▁ar v
l iv
▁ver b
▁υ πο
▁con ne
▁f ile
cl us
is ce
ro pe
л ко
itet er
▁word t
u ž
▁m ov
π α
ľ ad
▁n ast
k ing
▁med ia
▁d id
ad i
▁þ e
h ou
2 3
▁s ik
▁v am
▁t ies
▁i p
ф ор
▁jo hn
▁j un
g ende
é ben
▁b ak
ub a
▁la ik
▁b ang
▁r ela
bi én
u z
▁z am
λ υ
▁z m
ł ad
▁ ня
is se
j eg
▁é ta
▁el ec
▁exper ien
в я
ic os
ab b
▁et ter
ра ни
n ú
▁j oka
▁g ali
▁ό τι
μά τ
ní ch
l á
▁n ur
ári o
pp e
▁im m
▁hol ida
▁któ re
c zy
ac ter
▁al c
in io
▁di ese
s m
ic an
c le
ami ento
ag en
ell ä
▁ri al
▁o vat
f re
č a
▁bed ste
st vo
▁te x
s et
t at
ow ych
▁σ ύ
r ation
ate ur
▁s ed
▁or az
ē c
n ica
▁new s
st up
st u
d in
до б
ü let
▁ro y
▁tam bién
▁h un
▁p ur
ia ł
θ έ
ys te
ho z
▁k ü
▁b ere
▁ch ina
im mer
▁t ok
é né
▁vis it
▁ar tik
▁tai p
ü ck
▁i e
▁te h
▁i ma
ē s
▁мно го
▁el ő
▁to us
▁br it
ī ba
▁с лед
d or
▁cent r
▁off ice
is on
▁š e
▁ex press
▁pe ut
▁prov in
▁ ‘
▁в е
pro du
▁i on
um p
or to
▁c ó
▁ко м
▁un i
▁pro t
▁19 8
▁h är
og u
h end
mar k
iden ce
▁επ ί
im ą
. ”
ér t
▁i ar
sk ih
▁ ust
▁a ra
▁ro man
ill er
▁t ud
f ul
▁z í
▁nær heten
θ ή
▁s la
on der
▁k in
á st
▁s od
as il
▁el ekt
▁ ни
▁as p
ist as
▁b ir
▁ це
▁κα λύτε
▁il mo
▁re wards
▁t iek
▁д ру
wo od
▁wh en
▁cap ac
á ch
v id
▁g jen
ob e
▁am ely
h em
2 1
▁svo j
▁sta ð
ta k
▁c ust
▁cent rum
ut us
ε υ
▁c ad
▁el ement
él é
▁su ur
▁к у
σι μο
et tu
an z
▁c y
▁ro s
and er
í onn
z ent
γρα φ
p rav
▁devel op
ic z
▁el eg
г у
▁h in
▁j ur
ál is
▁p ast
▁muse um
▁loc al
σ σ
▁h ow
f é
ό ν
τ υ
ri m
▁apl ik
▁бе з
▁v od
▁s r
y er
▁mig li
▁ž el
▁stero id
▁po ol
▁dist ribu
is ed
▁sam t
▁m ell
▁cont ra
▁a ber
▁χ ρη
l ä
▁v är
ord an
▁m ies
ere a
▁r y
▁h uma
ativ a
▁ac com
z ik
. )
h and
▁t ir
▁per i
om et
▁inv esti
▁c ard
▁s ak
▁vl ast
▁b ene
ek et
▁v ores
ż a
an c
▁l it
▁w ho
▁t wo
ens ion
▁nær heden
f ur
▁b ä
▁det al
... +
▁ber lin
un ci
g re
ž ia
▁ ál
ás i
▁tip o
k yt
v ad
▁b ó
▁du b
▁f at
ch é
ov anie
p y
▁p ul
ż i
с я
▁je j
ци и
▁cont inu
ug a
▁restaur ants
▁supp ort
is et
al ia
ster dam
o te
ξ η
ś cie
▁qu es
k te
▁em pres
č ne
▁r ég
▁ch am
▁e ver
v r
▁fran ce
▁v ent
r ast
▁in sp
▁dire kt
ro w
▁s as
▁sp ra
τ ί
ad y
▁ma idir
p el
▁ew rope
št ě
ov ých
▁com b
▁h d
os to
▁os s
iv el
cha ft
▁su as
▁ne ar
▁proble m
▁ ζ
d ic
▁w ys
▁ ц
ap e
▁bre z
▁he eft
▁v iz
▁sep tem
μέ νο
▁ap ie
aj ú
▁kter é
τη ση
▁l īdz
á id
▁const ru
▁j ot
ρο ύ
▁vers ch
ur ile
▁na bí
χ ή
▁var i
▁dig ital
▁j es
▁c il
▁progra ma
as se
tr y
▁b ec
▁er u
но то
▁t amb
in ar
kon om
è res
▁w il
▁v and
j ali
tic as
▁d ac
▁zd arma
▁pot reb
στ ια
▁on ze
▁trans fer
ek l
oc a
it se
▁v re
▁cer ca
▁ex c
▁p df
▁f all
▁вси чки
ър жа
▁vir tu
▁gre en
▁d um
a h
▁fir st
n ice
▁h im
▁ide al
▁mul ti
ie b
ant en
it as
▁nom bre
▁l ista
ó ri
op a
▁manag ement
▁ex cel
n ou
▁prof il
▁p ág
ta b
▁holida y
▁wi ę
▁s oc
▁inf o
sta v
▁con se
▁met eo
▁l ik
▁d ic
ri ka
▁inst rum
ad en
▁ka žd
▁h ø
▁f ej
ti ma
k ite
m ény
in form
es tiv
ø d
▁e p
▁pri vat
▁my ös
ψ η
▁le v
▁apart ments
▁i b
▁kor is
a y
un s
st ě
n ego
▁on ly
ce j
▁z aj
▁ri g
2 6
▁g ast
p ers
k ok
▁barcel ona
▁l ou
▁v ik
on ia
pp en
ст ве
▁are a
▁su ite
▁ek ki
▁l ine
▁pro bl
▁vis u
am is
č ka
r í
ag ra
ut il
▁s elle
dz ie
l æg
▁vis ta
χ ο
▁le ur
sl ov
y v
▁c la
▁se in
ι ά
ke y
or ia
ó p
γ γ
▁p it
▁s id
▁nu e
▁cu al
▁b ib
▁c ada
▁ph il
▁hel p
▁ka o
ai x
ester n
re c
▁n ě
▁t õ
▁l ike
▁am sterdam
cij os
itate a
▁inter ess
▁g est
▁j av
▁cont in
▁s ym
▁b ab
▁h ard
2 8
in os
ver n
▁compl et
▁min t
▁r um
op le
▁а ко
▁u ż
▁e ile
▁inte g
▁d us
▁al ta
▁el ect
šan u
▁b un
ap t
▁ad at
n t
r ess
▁9 0
▁h ö
▁ol d
▁glob al
εί τε
▁th em
▁ar ba
n ov
o ch
an ces
av ad
l é
▁sv et
▁j ac
š en
▁mund o
▁hac er
▁l id
▁va ir
▁tamb ém
ė j
▁profess ion
ó ł
б ва
ti que
▁tod as
b us
i ų
d aj
λ ει
▁ka up
▁4 5
▁j et
▁pro pos
▁o kk
in ne
▁gr und
▁κ ρι
▁k la
▁b ul
▁ ча
▁sig ni
▁у с
▁v ă
▁lu i
▁op in
σ τα
▁h em
▁te j
▁4 8
▁elektr on
▁inst al
▁n oc
▁h ann
▁f em
r ent
æ re
os ter
▁μ ο
▁б а
ρ ικ
▁apart ment
j ä
un o
if t
▁п е
s on
▁pr ess
▁c â
ü t
▁съ с
pp er
▁5 00
wi ą
▁per form
▁univers ity
▁lat v
is ko
min en
▁sp ē
▁con ven
▁an im
▁med i
▁hotel i
▁fly g
▁r at
▁pro ced
▁vý slov
ros s
▁l õ
▁h ans
et y
ári os
9 0
4 5
ir d
▁wh at
▁s ov
▁apl ic
zz o
re z
▁sta bil
▁fo i
2 7
▁vy h
ö d
g ál
▁hum an
▁co unt
ου ργ
▁co ur
íte ar
3 5
▁т ря
ar k
▁s ap
▁aer op
▁over n
▁map a
ване то
▁w al
▁n ok
s ob
ar m
b ut
▁es per
μ φ
▁ma ar
▁z al
▁n ú
et to
imi ento
▁r ele
▁to il
▁t aj
з е
σ ω
▁na č
ul le
▁m ult
▁тря бва
▁f ire
▁ver d
▁con fi
▁ ön
io us
ko z
it ā
▁syst ém
qu il
ass en
▁με τα
ние то
▁l ill
ъл га
▁cons ider
▁st y
▁b em
▁com ent
▁e mail
is o
▁ok ol
▁v asta
▁š to
om o
λ ό
▁nav ig
▁vo it
▁j ust
ter e
▁ ī
τα ς
▁gol f
▁b ran
ro und
ė t
æ k
▁p esso
▁έ χ
▁т я
▁j oc
ok at
▁market ing
▁d zi
▁σχ ε
τ έ
▁ε στια
▁svo je
le ga
▁pre g
▁it ali
o ja
pl ic
er to
ie den
▁portug al
us tu
▁faz er
: :
▁k ø
μ ή
ud z
▁her bergi
ö t
▁dis se
▁θ έ
k la
▁o ly
eg u
▁π αι
▁f le
en ci
▁tut ti
▁n im
▁mob ile
aro om
kk en
art en
▁m j
im us
▁fot os
v as
en as
▁m éd
▁qu esta
ρ υ
um o
▁hotel es
hot els
▁π ό
om b
▁a h
▁get aroom
▁k et
▁min ist
kl ju
▁r ent
t he
▁us u
▁be w
▁tot al
▁mom ent
▁mod o
c ă
el os
▁σ τι
▁7 0
▁revie ws
▁dhéan amh
▁ά λ
▁ital ia
or te
▁ro ad
ú r
c c
m us
▁tra va
▁bū t
w ork
ob b
▁fac e
▁se a
ut at
▁g ir
ö ra
▁m ån
▁restaur antes
▁tre bu
n ot
o on
u č
ia is
▁j er
▁m ere
▁anv änd
▁pro mo
m l
k us
ч ите
g on
▁t ol
η γ
▁d am
ė ti
и з
ss ä
▁mic ro
▁m l
▁poč as
▁f ak
▁al b
ar á
ar ti
ac z
is esti
k at
ný m
▁ev ent
▁per o
▁20 00
▁vi še
▁b ħ
▁ar m
▁comp uter
le gg
c us
ñ a
δ ια
▁къ м
ρι ο
▁po int
▁ro b
▁h ong
▁w estern
▁kon st
▁t on
▁us o
▁la p
i š
ó m
▁du ine
▁de ux
▁im ag
ê me
▁б ълга
te ch
el ő
▁k if
c í
l am
▁et c
▁dod at
μ ι
ok o
▁na gy
ar tik
▁τ ε
▁bhe ith
f ir
▁po b
or y
▁re ik
▁d ine
ри те
▁pr v
▁com mer
▁b io
ă m
▁app ro
ch u
ig ura
it ät
i at
ze j
▁de f
▁t élé
ý mi
od en
▁χρη σιμο
▁pe ople
om as
▁s ac
ck et
▁st ore
▁200 6
▁ty pe
▁f aire
ve is
o ff
▁επ ισ
n el
▁te am
▁gen om
ow anie
ow ania
h os
x im
▁j us
τ ρο
j ší
yt t
▁ap ro
aj ą
ç os
▁ro ku
tr as
al er
is in
l ia
▁ε ί
к лю
▁sel v
ho use
b jud
ha idh
f ast
▁περι ο
δ ε
▁ф и
ug h
ál y
▁in tel
▁organ is
▁engl ish
▁as so
n ut
▁tra b
j un
▁g ad
▁l od
▁stud io
▁g ior
owa ć
▁encont rar
ar g
▁pom oc
▁res ulta
n io
▁an avar
▁ty m
ba ar
▁p ia
am in
ed es
ti a
2 9
▁b oka
▁pri ma
▁ger man
▁y hte
▁b all
▁v ida
▁go od
▁bud e
ħ ħ
▁k ör
n je
▁b ig
ß en
i as
▁t art
al en
ét é
▁m ok
▁f h
ž a
▁pr at
▁sp or
▁fre m
h us
▁cust om
▁wikip edia
fi eld
p at
og en
▁camp ing
▁f estiv
c ja
▁s ü
▁m ir
▁te il
ot to
▁v om
▁vi ņ
▁su ch
▁la ke
▁o pl
ro š
▁li ik
▁p in
▁d ati
▁serv i
▁incl ud
st ell
▁pa ís
els en
ā cijas
▁comp any
ri f
ć a
pro gram
▁mas ter
▁sp an
ic as
▁b it
▁t ing
ци о
▁dac ă
an ça
▁desc rip
uj ą
sk u
▁th ese
zn am
▁с ре
▁κο ντά
▁gra d
▁sp ole
es a
p li
▁nu o
▁hj äl
d ob
jon ali
qu ier
an ne
▁v yt
▁om rå
iz ione
▁k esk
▁m inden
e f
▁go ed
▁be en
▁w ij
▁me x
▁sk y
▁e ast
ov al
itt el
▁σ η
c il
las ti
is z
▁hot éis
▁та ка
▁c az
▁ter ra
▁tiem po
▁εστια τό
▁r an
▁č lan
at ta
▁bre ak
ка та
ț ia
le ps
ab a
▁af ter
lo ž
▁la v
μα τος
▁sp let
▁w it
▁fo und
k am
ul u
я та
▁o vers
▁m and
▁n ego
▁použ ív
▁pa ys
ül t
ce pt
ien s
▁indiv idu
ρο ς
ran e
▁nor m
ní m
▁elec tr
us o
▁informa zioni
▁c ele
r z
▁mej or
▁da y
▁b lo
▁cer tific
g os
ic ion
▁π λη
ż e
▁k ak
▁pa y
▁h us
▁inv est
ogra ph
ί ζ
▁b end
m ist
é ly
▁or a
▁sam men
▁pu ò
▁i hn
▁по ве
▁ubyt ování
▁gard en
▁util is
▁mak e
as y
▁min i
ž u
au ta
ţ ii
▁pre cis
▁zí sk
g as
▁ex em
▁y a
at ure
▁l ight
▁ne u
π ει
n oc
▁av ail
▁det ta
▁ac ces
ú l
▁mu ito
▁c iv
▁ú l
▁parti cip
c or
g em
▁a iz
▁de b
▁mie js
un der
ê s
▁as ia
▁re k
▁tu o
h in
al ta
▁ku in
▁g io
▁ac qu
b all
g le
ass er
enb uter
da y
▁naj leps
olo č
v end
▁hotel let
▁an gel
pl es
▁i esp
▁en k
st ä
un kt
b on
▁app le
ro du
▁re du
j os
rid ge
un u
re ich
▁f is
ąc ych
ī m
▁h ill
y g
▁ε ργ
▁vy b
ow ie
f ica
▁fl ere
is tic
▁ ł
re en
inn en
▁cu ando
b as
▁bil der
t as
ē tu
▁ob jek
▁tim p
ви те
▁g os
í na
u ja
c os
▁te is
ti vo
▁restaura cje
ó j
▁conta c
m or
am ine
▁kom un
tiv i
č iai
at her
▁w ere
ä s
▁f ö
▁n õ
▁de z
▁to ate
▁m are
he it
▁ko je
▁ci ud
▁do ub
β ά
ů m
▁ра бо
ar ă
d ek
▁h ag
▁de ut
▁s og
▁po ate
▁ital ien
τ ών
pl ats
▁en vir
▁c osta
▁v äh
▁re cher
▁lo ok
▁bro w
▁tra in
s om
ån d
s am
red it
ort un
ik ka
▁com er
ol s
▁m äär
▁o ts
ib les
к ва
3 75
▁t av
z em
a ż
or gan
ци а
hat ó
τ ω
ov ed
▁þe ir
▁ob ten
▁op era
▁z us
bol in
zy ch
1 00
▁lí ne
▁b ha
▁prod otti
ul es
ra el
k ép
o us
▁sl ik
▁wur de
or szág
▁intern ation
▁la bor
▁ver y
ik us
▁ban k
ad em
▁j kun
▁an abol
kt or
ic ă
▁te xt
al ne
▁na cional
c an
▁destin ácii
▁ef tir
▁g ib
▁c zy
▁europe an
ú la
l it
▁em p
▁s ito
▁ će
▁z av
ers te
as zt
▁ve ľ
▁des pre
az ioni
ber t
▁sp ec
▁n ik
t os
σκε υ
ð ir
ate ľ
j š
▁vše ch
l s
▁asso ci
▁ne i
▁h ist
▁v aj
▁περι σσ
▁s ans
▁s qu
▁f ast
ü h
▁περισσ ότε
▁3 00
▁ 000
λ ία
▁sec ond
▁d ere
▁tu le
aliz z
▁s ic
▁p us
▁rez ult
▁be au
▁pre fer
▁st j
▁wszystk ie
▁cu i
l án
▁c é
as z
▁ra h
▁l ø
he im
с ъ
▁for um
é re
ro om
▁til by
▁l át
pp ing
▁w all
ig o
▁inter na
ativ o
▁pol ic
▁ό π
▁d ėl
v ing
▁con tr
▁t ento
▁ro d
▁μ η
▁jo h
b s
▁iden tif
ļ a
to j
▁iz r
▁de ca
v il
▁ž a
v á
k es
▁á r
▁k yl
▁g ov
l ar
▁iz m
▁cen y
▁hv ordan
▁v ás
▁diff er
it ti
v iet
▁se us
ta ble
▁koh ta
on na
▁z i
ab les
h la
▁cas o
▁sh are
▁man u
п ъл
at y
▁min im
▁m c
bo x
▁restaur anger
ys ninger
▁na še
▁b íl
▁g ä
bo ok
az i
▁us ted
▁manag er
ir m
▁e konom
n ą
▁α σ
▁to wn
st ar
▁inn ov
▁naj lep
▁ent er
a it
▁bū ti
▁s õ
men ti
g est
▁v ille
ло же
▁to al
f on
ob il
▁organ iza
т ни
▁it t
▁d l
ö ll
ma ch
▁al ler
ie g
▁me ille
▁tro u
ici al
▁ra m
ř ed
▁k ind
ла га
▁pol í
▁ver t
▁vý rob
d ien
ri es
tor i
▁εστιατό ρια
▁f oll
ici ón
▁g ame
ent re
▁stat es
lo ud
ub e
▁d ess
isi ún
j ak
▁n er
ov anje
с ко
c at
▁n asta
n ite
μα ν
▁viesnī cas
▁sul la
▁k ultur
▁ain si
▁us d
▁g la
▁h ely
▁heb ben
om is
▁s ent
▁kö vet
pp o
▁no i
▁ale x
ul la
▁m no
▁l ife
▁and ra
pe č
▁t in
c ont
▁us b
▁f ü
3 3
▁util izz
ig u
λ ες
▁i er
▁b ard
л на
hal ten
▁app arte
▁p ack
▁v é
! !
▁în tre
ü k
▁v es
▁lor o
o h
t els
▁n d
▁é v
▁ar ti
▁st ate
v ia
▁arch it
er te
óir í
▁in kl
b are
▁progno za
▁fir m
▁jūs u
ied z
á j
m ise
▁d oll
ann er
het er
ta ge
▁p é
▁re ci
▁finn s
▁d itt
n am
jum u
▁j am
▁m ade
k v
▁p ien
▁m ur
▁om d
▁t us
▁hil ton
ra da
▁α λλά
▁mu ch
▁b od
▁lug ar
▁princip al
▁l ena
▁on s
▁έ χει
ra í
▁l ow
▁ind ic
äll ä
ma i
ih in
o x
ě l
▁produc ts
▁toil et
▁car acter
▁fin al
▁gl as
wer k
▁pu te
ř eb
du ro
f ac
▁c ij
▁du e
en ces
▁in to
▁p ää
ac ja
s it
alt h
▁tr ès
g ot
▁in gen
né e
ī gi
gov or
k ou
▁15 0
▁mik ro
β α
▁aus si
▁f lex
h to
▁beh and
ac je
at te
▁th ro
▁moż esz
фор ма
▁a cht
▁ke h
▁kun nen
▁arg ent
ap a
▁ha y
▁qual ity
▁s ö
▁fa it
er ta
▁ac este
er m
▁põ h
un ta
il y
▁mer k
iss ion
) ;
▁е д
▁re pres
▁don nées
▁то зи
▁z el
▁t s
▁za č
▁κ άν
ли те
▁b ot
▁jot ka
υ να
▁l ors
▁kra j
ве н
▁anal y
▁mu ut
rip t
▁ro ck
▁αυ τή
▁pre c
▁wh ite
▁g éné
▁da ž
ec tu
▁y o
▁inter es
n d
▁we ek
▁br and
▁s le
▁č len
▁s iden
b ij
at av
γ μα
▁þ ar
ab h
▁qu el
ţ ie
▁fé idir
▁х а
z es
▁s ell
▁ ”
an ju
▁accom mod
em i
н ни
▁t ru
▁z ona
▁vis a
re e
og o
▁pos eb
▁je ho
š ķ
▁gre at
▁sk j
k ri
▁3 2
▁с те
▁at h
p as
4 8
▁iz man
▁as em
▁ve ik
▁b ý
▁19 7
▁pa ci
re j
н у
tion er
me a
▁3 3
▁k el
ρ ία
▁er bjud
▁pág ina
▁pro ject
b ir
ту ра
▁mar ia
v all
un es
hair le
▁gjen nom
▁s ok
▁ ιδ
ít ás
▁doc ument
▁z p
b ur
де н
▁mad rid
r ing
▁200 5
▁na z
▁bä sta
▁le ita
wa ć
at el
▁mu y
itt ä
▁ú s
▁natur al
▁g å
po int
▁t ér
▁por n
ä d
▁ev rop
▁egy es
▁sta v
▁som e
d és
e ff
▁w sp
▁chr ist
▁ra v
▁pas a
▁g ach
co unt
▁ges tion
▁to ute
▁χ ρή
rat i
ovan é
f all
▁pod er
ter i
ol la
b ru
▁sj á
en es
▁i eg
ill ä
▁aut ob
▁has znál
▁vi ol
▁ú t
▁j ih
▁w ä
š te
ра т
ă t
▁k y
▁su os
k é
й то
i ą
▁mom ento
▁max im
la im
▁fab ric
▁е в
▁au k
ut ar
ol gál
▁tem a
av i
▁f iz
▁kost en
r el
em o
▁pri me
á ir
▁aug ust
šan ās
0 1
c r
▁po h
▁t í
▁са мо
▁vers ion
▁pres ent
ρ ου
ik at
▁p iem
ī s
▁comp ar
π ε
għ u
п ла
▁pr il
▁pou vez
▁o se
o je
▁αν ά
▁cas e
d is
▁deg li
▁con fer
ü ss
zą d
▁któ ry
▁cont ribu
че ски
λ ίδ
iv al
▁h ere
á vel
ν ή
f te
▁o ce
ni č
n ers
▁intern acion
▁200 4
▁dig it
an ych
▁re kl
á b
▁t ör
▁pr iser
▁ин те
▁mon itor
▁parti r
▁s ad
▁is o
if i
▁ ón
▁sek ä
▁tec nolog
e uro
▁ro l
▁sz em
os c
▁a la
▁kon g
r ás
▁h ija
▁at ti
▁ ι
▁dat en
▁j el
▁d ab
hl en
▁χρησιμο ποι
▁e ch
bo ur
ø n
p ap
▁tra bal
▁h und
sk ie
▁mul te
▁vair āk
or er
▁try gg
y je
▁cor por
▁prin ci
▁pla za
▁tag s
▁b og
▁loc ation
ό ς
▁kon kur
▁пове че
▁temper atura
▁fran cis
▁þ ví
▁prz ed
o or
m ien
ί ο
▁in gl
▁phot os
▁deut sch
ч но
▁air ge
κ ρι
▁me ie
▁of ert
▁wh ere
▁men u
▁k urs
int re
9 5
tion en
▁kon f
▁с по
er im
ál ne
▁best ille
▁tur isti
▁il ma
▁g or
w al
▁μπορεί τε
p ă
▁kun st
▁r ental
st ellen
nie c
▁k amb
τ ές
▁tien e
á cia
w d
▁sch ool
o ci
▁esta dos
y o
▁b id
▁v ig
▁j ekk
▁me et
g n
▁p ela
▁kaik ki
n ig
▁ver ð
▁p ēc
▁é gal
ov it
▁pok oj
ro z
í vel
c are
ani u
▁mus ic
▁inform atie
▁e b
▁3 6
▁kam er
ž í
er de
▁pro jet
er er
▁z at
r in
s led
▁т ър
λ ου
μο ύ
0 7
▁parl ament
ó b
▁πο λι
▁vå ra
▁j ā
ди н
▁res e
▁ob sa
▁pro c
▁l on
▁ter ület
▁στι ς
▁pr ist
▁g old
▁στο ν
ρέ πει
▁abs ol
ans a
d ra
▁χ α
▁cook ie
▁ch ang
λ εί
é ir
á na
vie w
▁person as
po ol
▁b iet
▁ve el
▁met a
4 6
ek tiv
▁sec ur
j än
▁k enn
▁h itta
lj iv
ite it
▁fl at
▁for d
æ ði
p it
▁p elo
m h
▁dal la
▁ty ö
ta i
he z
▁bon us
3 8
▁st op
ве т
▁n eder
▁kõ ik
▁ar b
od u
ie f
▁can ad
▁dies er
▁d all
▁y hd
▁austral ia
bil d
▁po bli
▁sk lad
▁id ő
▁je i
▁pr est
▁man if
ar na
▁re is
äl t
▁far m
ö ð
▁г ра
▁smješ taj
ind o
▁mô žete
▁v ost
ov ě
ar r
▁v et
ind a
▁st il
ar b
f n
▁ter r
▁cr é
▁import ante
▁bu ild
▁re ad
п у
▁hótel um
▁β ο
▁pobli żu
▁tiegħ ek
▁ex ec
no ść
▁m ême
ś li
▁cual quier
▁w ol
vis ion
▁jūs ų
▁ ř
p ond
▁k ép
yt y
▁j ou
▁ch c
▁c art
ra i
č ni
▁fin de
▁ra c
z í
ol óg
f ér
ε ρο
▁ciud ad
▁spole č
ú bl
▁използ ва
te ment
ib er
▁α ντ
▁prod ut
▁foll ow
p ass
vel opp
sk á
▁n jih
μό ς
▁prote c
μέ νη
▁ch em
c am
iv os
st va
▁f ig
▁doub le
▁m än
▁doc um
m and
m ad
▁r ó
▁n ás
τ ισ
▁dis e
▁fin ans
▁g as
▁cont ro
▁avail able
k os
enbuter ol
p us
▁import ant
▁égal ement
p ie
duro bolin
▁t ied
▁b ord
b ec
▁bill ig
e u
õ t
▁ag gi
s sz
▁eur óp
▁ing red
ate urs
▁b iti
▁kn ow
k ä
š ení
▁пре з
▁o x
▁iz del
▁inn en
▁form ul
f ør
ill o
p il
▁se hr
▁l ad
í as
é st
▁c d
▁tra v
ord el
▁el le
ít és
ност та
f al
▁comp et
▁sam arbe
ist r
▁ ...
▁с во
▁n ivel
▁τι μ
▁dal ší
▁zna j
ob a
▁g com
▁den na
ess ä
y ar
▁3 7
ch ester
к е
ra j
▁sim ple
▁pre k
▁par ten
ό με
▁про ду
▁in ti
δ ή
▁brow ser
k ed
▁re cep
ό τητα
cs ol
▁k ou
- -
▁log o
im in
▁ λε
im s
▁vu elos
miss joni
st re
▁c est
▁dar b
▁kl ass
▁vi el
īb ā
sk ý
▁com fort
▁da ys
3 6
т ре
▁a ire
tig t
l us
▁r ów
▁s ites
▁s eda
val u
▁c od
▁con ver
▁g ur
▁m ā
▁um s
▁kom pl
▁ot ro
ag ne
▁altern ativ
▁t ý
φ έ
▁ob raz
▁jap an
in ni
p es
▁servici os
ene a
▁der es
pr ise
▁st ro
m är
▁s ale
ta va
▁pag ina
▁con form
▁us ed
▁all t
ation en
▁nov a
j ó
ń st
▁h old
▁f ont
▁tö bb
κ ά
▁с о
v ai
▁spo jen
ko h
f ts
ier ung
ß e
▁seg ur
▁s ó
▁j as
▁ξενοδοχεί ο
▁iz g
▁com ments
▁sp ir
▁v iv
▁h it
▁p iet
▁pri x
em u
▁tij d
▁hr vat
ks en
▁priv ate
▁tout es
▁origin al
▁re con
▁m g
é ad
▁ihn en
f ri
μ εί
▁wa y
el n
▁memb ri
▁apparte ment
▁prem ier
▁ισ το
olu tion
v aj
ol ine
s ur
k il
▁k ater
ch an
ost en
ast r
ha us
st ví
▁ro t
ent en
end an
▁aparta ment
▁þ á
▁speci f
ang a
b ro
ud ar
or ti
▁li el
ies z
ord in
ed s
▁man ge
▁e esti
š ki
ter a
▁fer ie
í k
▁f år
▁w id
▁dzi ę
ens a
ri ch
▁tr í
▁sa j
▁g az
▁super ior
▁dost up
▁e igen
▁mol to
j ligh
ð ar
ing e
▁r uss
▁c ali
▁administ rat
ho ut
m ista
▁bang kok
▁det er
▁gratu it
▁l eng
a ff
er es
ec to
▁dé velopp
z ă
▁δω ρε
▁α ξ
▁odp ow
▁b å
▁ко ето
h es
▁fl ash
wią z
▁19 6
▁moż e
п ри
ция та
▁l ov
▁ra g
▁d og
▁ver fü
▁õ ig
▁7 5
▁cl ic
“ .
▁inte gr
▁ye ars
hav n
n al
▁in ne
▁võ imal
uks en
▁r ú
▁v ier
od i
gg io
ar en
▁dest ina
d t
át ék
▁п ла
▁ν έ
ro uw
▁f øl
▁c ultur
▁ин форма
▁200 3
▁ma z
ze it
id el
▁met al
▁for s
▁tak é
▁ ort
▁c ena
▁kj ø
▁amer ican
▁c et
▁pro por
p ak
п ро
▁kom mun
▁akt ar
▁w c
▁с то
ări i
j iet
υ σ
en en
▁r un
▁l am
▁γ ε
ak ter
▁ža id
▁espe cial
▁blu e
im enta
▁pren ota
▁festiv al
▁j on
▁ö ssz
ag er
▁nast ęp
▁an i
▁dat os
▁hj æl
▁elect ric
▁3 8
▁rá p
▁finan ci
▁detail s
ρί ες
▁e du
g ere
з на
▁via c
▁kom ment
▁ré ir
▁sa f
▁he fur
▁v iss
tic os
▁h p
r ä
u ka
▁bill ige
tor ia
▁indiv id
nik i
▁z we
▁ch ild
▁hotel a
ва та
▁t uri
▁septem ber
ħ ra
▁f ær
▁nor mal
▁rapp ort
▁pod por
▁é g
▁z osta
it at
▁kohte essa
▁m este
én ek
ț a
▁st ato
at ti
▁sc op
▁ze it
b ær
▁do u
в ни
v are
▁ol la
▁mě stě
ab e
▁д у
ka an
▁dv d
▁s mo
▁pag al
▁h ä
▁sta y
kun s
▁an tes
č né
u va
ek si
▁l iste
▁el em
▁w ym
▁at mos
end re
k up
ob h
р ти
ș te
w ick
▁im ple
le ment
for me
▁t og
▁at rak
ε ια
ство то
d ig
ag em
▁pol iti
▁a de
▁δωρε άν
a ires
▁pro b
▁n ame
▁stat isti
▁t all
▁mie ście
▁s enti
ur en
▁h id
▁με γ
▁villa ge
η ρε
▁sp é
l im
▁x i
▁време то
h ely
▁m är
end i
ch y
▁roy al
us to
ac a
in c
▁lok aliz
ed i
▁προσ ω
3 1
▁og ni
č un
▁produk ter
▁πο λύ
▁3 4
ög lich
▁ch om
▁pri or
▁l enn
l ý
▁ef ekt
▁ex ter
▁break fast
▁m ű
▁se ver
ks jon
ac c
▁fo od
▁k ri
ra ž
▁est án
rig ht
▁vak anti
▁v ind
3 4
▁ar qu
▁v ě
▁daug iau
▁bhe idh
▁в о
ēt ā
▁pub bl
ί ου
▁μ ό
▁j á
▁vo z
ro g
▁comp an
▁kr ist
▁ня ко
▁hu one
▁бълга рия
k im
το ύ
æ ð
▁ст ра
▁t ista
▁kval itet
ber ry
e or
τή σεις
▁esta do
gr und
k re
▁b at
мо ж
z ung
vo or
ation er
ġ u
pla y
en é
itt à
sk y
ста в
▁ge en
▁ев ро
▁un ion
▁b ok
▁al te
m ann
es c
▁nou ve
an no
▁u ten
▁lok al
▁ind læg
▁č o
▁perm ite
▁di am
201 6
▁co urt
▁til g
▁bu vo
▁k ien
▁rel ig
▁che ck
▁m all
ab er
▁najbol j
▁f inden
▁б о
ell t
▁tal ál
hd oll
▁bou tique
her bergi
▁h jem
▁tar jo
á va
ί σ
▁ma ail
om at
um as
▁cz as
▁h ele
▁t äh
ç as
č as
▁por to
▁pok ud
▁ú j
μέ να
▁commun ic
▁sur f
ar n
▁κ ό
▁20 20
▁develop ment
▁č i
▁h asta
â t
▁bene f
▁cam era
▁ú daj
▁съ що
▁þ etta
▁produ its
▁ka ż
▁c all
▁m utta
▁dom a
▁s yd
▁n ic
▁ко йто
f ra
r il
▁χ ώ
▁κρι τικές
▁ot ros
▁l um
▁d ne
ja i
h ai
▁παι χν
▁sing ap
i ad
▁vá š
▁ф а
▁be idh
ní k
s erv
▁asem enea
▁per man
▁he alth
b and
▁d ados
▁pu erto
▁n ome
▁kom ple
ди те
g if
▁rez ultat
▁aud io
▁fant ast
un ter
▁bó ka
▁al kal
▁uns ere
z on
em bre
▁zob raz
ti er
φ α
▁gj øre
▁ я
пе ра
й те
▁se par
le ž
▁в се
▁е дин
▁str and
▁ro v
▁s ér
u pp
m ont
ist an
▁lang u
▁d yn
im p
р т
n or
f ach
▁c ittà
▁száll ás
▁cent ra
▁desc ri
eg e
im ai
for e
▁str on
d ir
in ts
▁informa ções
▁z ach
▁ny e
st an
iek š
▁hal u
▁f as
▁br asil
▁coun try
▁c and
▁ker es
k ap
▁pre par
ers e
▁v ri
▁premi um
▁všet ky
▁con te
▁ad v
▁как то
▁ilmo itus
▁dé c
▁pot re
▁famil y
zy m
▁bud get
▁nie u
ní ho
ο ν
κ έ
3 9
h ti
▁m b
▁m ēs
▁te en
▁car te
▁apr il
ul ts
▁a lap
▁sit io
ö tt
rij k
▁għand hom
▁hj el
▁res ult
▁го ди
ά ζ
▁r ub
▁mel hor
▁ ›
▁ye ar
▁ro ma
ow ej
▁in im
▁s ide
3 7
▁bud ap
▁та зи
v est
ρο φο
▁k og
▁cons ult
▁vas tu
▁ко га
kum missjoni
▁information en
▁par am
▁so us
an é
че н
▁by ť
▁trad ition
z ien
b rit
▁be v
▁g ri
▁mod if
p ä
5 5
ul os
▁kin der
v re
▁l ip
▁προ ς
▁or der
ro t
▁b are
▁r istor
▁cor re
ek om
▁reserv as
š ko
▁sig ur
en os
▁kom bin
▁προσω π
▁kli ent
▁ü ks
▁du ra
en je
▁sp el
▁program me
▁al um
▁av e
▁živ ot
▁v ere
▁raz lič
▁bl an
ti me
▁an ton
▁vis i
é ta
0 4
▁j en
▁kül ön
▁c él
z ia
▁un idos
▁d ent
▁we er
ta mento
▁c loud
jum s
ре н
▁spr áv
j ene
▁sim il
▁f ó
igh et
▁la vor
ag n
▁π ιο
▁thro ugh
▁han no
▁nú mer
▁v ene
un ge
▁t ová
▁sz olgál
▁про из
u c
▁le p
▁direc tor
▁st á
▁συ νε
nost í
▁ál tal
▁konta k
▁count y
iz io
▁no ch
▁pal auta
▁sem pre
▁pr áv
ân ă
▁perf ek
n ici
γ ω
▁bar n
sp art
▁wo uld
▁dru g
▁8 00
ch at
▁въз мож
▁a ž
▁s end
▁t es
▁so f
▁l ek
▁ri o
▁ανα ζ
▁kom pon
ε λ
uv ent
▁h yd
▁ жи
al le
k oll
▁qual quer
▁ ?
▁tak e
▁g öra
д ържа
ck er
án ak
▁job s
▁n yt
▁j is
▁š o
0 5
▁t ě
▁jan u
▁temper atur
lig ere
a ción
▁i om
▁dzię ki
klju č
▁s iv
▁bar a
▁be f
▁p y
ö v
▁καλύτε ρα
j ų
ικ ού
й н
▁zob ra
bo ard
k op
▁iz vē
▁note ik
r ž
▁p ant
▁j áték
ő k
▁nó tt
▁tas uta
▁nó s
▁m p
en h
▁l äm
▁p is
to wn
▁n ive
▁so ur
▁dis poz
▁twe et
▁sz ab
ir k
▁θ ε
▁off re
ū d
▁käyt tä
▁sh op
▁proiz vod
neh men
▁ne z
te urs
▁ob iek
eg ar
ch ts
▁apart m
▁pä iv
не то
ří zení
ist es
▁ge or
ņ ēm
▁gam es
▁sa or
▁ri ver
▁n ation
ot y
▁naud oj
▁j ist
▁iesp ēj
ard o
ari ad
▁ ään
▁ra di
ot ā
▁mog u
ir bh
▁recher che
▁vis as
▁val am
w ia
▁g endan
▁sl ov
▁wię cej
ē ja
▁pro per
▁en cu
ån g
▁s red
▁mak en
▁va ik
▁þ ér
m ens
▁febru ar
▁chr isti
j ad
ρί ζ
ün k
▁stran i
4 4
▁απο τε
▁uż yt
▁mod ific
▁mô že
▁h inn
▁j ose
et h
▁alt ri
▁j ung
la bor
pt on
▁s ł
▁sk o
▁rów nie
ιο ύ
▁til b
▁ü le
h alt
κ ή
▁bo x
ent ra
▁atti ec
▁piem ē
▁π ρέπει
wi ę
▁get ur
▁м у
▁l ung
▁cer ta
▁w elt
▁le urs
▁tem ps
▁man y
id enti
сто я
pos ta
▁s f
▁re port
▁$ $
▁ost at
▁sp ill
▁nem ok
▁sam s
da je
▁moż na
▁at l
μέν ες
ст ви
▁k um
▁mil li
em y
га т
▁prost or
ci ji
r š
▁k oll
ks å
▁9 9
i pp
on to
▁ra b
f urt
▁dé an
φ ών
k ami
h s
▁ob jet
▁b ør
▁propri et
▁p ont
▁cra zy
▁anal ys
▁ap ar
h re
▁m ét
uj í
i ż
l t
fic o
▁e qu
▁j ud
▁k de
▁s owie
▁apr ès
en zi
▁r ie
▁oc kså
▁rec enz
ing a
n ad
▁jed en
▁res idence
▁acc ord
▁kw al
m ir
▁prote ction
f ang
▁da udz
▁mag yar
▁trebu ie
am y
▁по лу
▁cond itions
▁v at
w ad
▁s ett
ί κ
▁u ur
▁kl as
▁4 00
▁sv eta
▁st át
▁f are
▁o ù
ck é
ż joni
▁hô tels
▁g æ
▁с лу
▁for ne
f ten
▁v ast
▁lim it
ro č
▁ser ie
sk er
la ug
▁pro to
▁num er
▁up d
▁pos kyt
▁v ra
ци те
▁bl ok
h it
▁inst ruk
▁mūs u
▁di z
ri cht
▁pri ce
on ic
ā cija
fü hr
▁d är
▁с пе
0 6
▁t unn
ти те
▁dis k
▁b ody
▁l oka
▁w in
▁m ár
▁mej ores
▁pers o
▁kap csol
▁c urs
▁ex tre
▁f oc
▁odpow ied
▁comp on
▁ob jekt
▁as í
l ut
z ar
▁trans form
id ente
▁b om
▁gu ard
li et
er et
ād ā
▁όπ ως
4 9
ta c
▁ktor ý
▁bil o
is me
▁h lav
μ μα
▁des en
▁võ ib
▁apl ika
vo ir
te ar
ci jo
▁pal ace
▁ur m
▁egyes ült
en ze
d al
▁reser vere
▁дру ги
▁fin ne
n ja
▁reser ver
▁dru gi
an j
ia usi
▁la g
▁j ie
pl an
▁ri c
▁pri js
m é
▁kont ro
ver k
▁p är
▁form at
▁r und
▁francis co
g in
jo ur
▁tie ž
▁може те
be z
▁dist ri
al po
ș ti
kk er
▁k ér
▁le hető
▁те зи
▁gov ern
igh eder
▁s co
▁p isc
▁pu eden
▁dispon ibil
▁envir on
▁kl imat
▁k g
č na
▁com ment
és i
▁mach ine
▁f ue
λ λη
ill es
▁ ķ
av at
▁is rael
uj ąc
t ér
▁l l
o ine
▁ví ce
▁vel ik
▁j um
▁ž en
▁aut res
▁fl ights
el em
▁meg et
▁g ab
we en
g ia
ки те
por ta
▁bíl ale
ra do
▁p ac
artik olu
ío ch
▁le het
▁h ij
▁espe ci
ra š
▁inform áci
▁sp oloč
▁t la
▁równie ż
h ip
it aj
▁famil ie
▁m ust
▁inform ations
▁ob chod
▁plat form
ri o
▁j ista
▁sø k
oc ia
um en
▁ ļ
▁tiet o
▁επί σης
▁pod ob
▁bar b
▁dri ve
art ha
an st
▁b ę
s n
0 8
▁by ć
arbe it
c d
▁technolog y
▁pl as
▁о сно
▁bes ø
▁artik el
spart ner
▁z b
▁dom in
ú ch
m me
▁ex clus
▁ch er
ab ile
aut res
▁tagħ hom
▁f eder
st j
▁mon te
u ur
▁ha fa
σ τή
λ ω
▁кога то
▁bl í
▁fon ction
el ig
r ett
▁euro opa
h ver
я то
a al
▁j ug
▁du omen
▁cont ent
▁cli entes
▁ein s
▁dav id
x y
ess en
▁til bud
▁qu ali
ak i
▁s ia
w ort
jen a
▁l itt
▁em plo
it ve
те н
▁min ib
▁serv izi
▁tem por
ăr ă
▁omd ö
▁st ru
to ber
▁użyt kow
ju k
▁najleps ze
▁o ike
▁kom ent
▁p end
ri er
не те
ικ ές
▁u e
▁d ô
▁no ti
да т
▁brez pla
▁int ens
▁ch amp
▁ro me
m id
▁ī pa
▁kon fer
est ä
fa hr
▁πα ρά
el ijke
ν ά
▁al ber
▁al oj
▁s ala
▁bet ween
▁cz ę
▁sch n
h op
ens ch
▁im ages
▁h ér
▁gist ista
▁k im
▁sk r
▁ch omh
▁fe idh
▁mů žete
▁n áv
un tain
▁ ©
▁ ψ
ha irt
▁energ ie
▁n ett
▁chu id
▁test oster
▁ä ven
▁kom pet
▁sh ang
▁rele v
v ec
▁pog led
▁al quil
▁ch ic
ur as
▁i ż
l op
g iv
ran g
▁ní os
al u
w an
▁obsa h
▁inc re
l ines
▁des ar
▁υπ άρ
θ υ
l on
φο ρά
▁je śli
st yr
▁ac ord
▁tut to
▁si is
▁n jeg
▁samarbe jd
▁ne v
▁gal er
ț ion
▁sø g
▁pre z
d ater
t ale
▁ig re
▁ind ia
▁rese arch
201 7
▁h ra
yb ės
▁πλη ροφο
ot u
▁was hing
▁revie w
ā ciju
▁resulta dos
ast ă
▁dies es
▁nov ember
▁ser á
azz jonijiet
st at
▁c oc
us er
ρ ει
tor e
▁cap ital
▁ ď
▁inf rast
▁minut es
▁pak alpo
▁sen za
▁uč ink
h ib
▁pa ul
▁vý sled
▁š k
▁ne ž
▁2 50
▁en n
▁dost ęp
▁b atter
ot er
▁signi fic
▁or ien
▁main ten
in imo
▁nat ure
▁man o
ux e
▁de cl
ev ens
▁ener gi
▁may or
u jo
▁my cket
▁min er
▁ob lasti
im ų
▁α ερο
▁ihr en
▁sz cz
b ere
▁perm ett
▁m be
at ies
▁gal ite
til bud
▁á t
▁c res
▁num ber
z ę
▁comp os
v är
σε ων
▁h ry
i ros
h li
λα μβ
▁pove z
ke iten
▁cons um
▁vo y
▁est o
▁il s
▁no ta
▁m ang
▁le ith
▁za h
▁person en
▁s ök
▁up rav
▁desar rol
um b
tem per
▁viešbu čiai
or p
▁ho e
ab el
▁an ge
▁kam p
am me
▁c lu
▁n ý
▁met od
▁veg et
qu et
▁nost ro
▁vel oc
▁con vers
▁ž em
▁rial ach
▁m äng
▁su o
▁те х
ok e
▁st ør
ke ző
v on
en ig
0 9
▁mon de
j ák
▁c ând
▁incl us
▁ast fel
▁e duc
▁le ag
▁h år
▁b ath
▁rap id
▁overn att
z immer
ρεί τε
ar se
x i
νο μ
▁služ by
ut z
▁en gel
▁περιο χή
k ter
▁ко ято
▁ac count
c ement
▁fac tory
▁w ant
éri ca
▁n ich
▁do br
▁moder ne
▁š i
ell ig
▁descrip tion
▁part ners
k amer
▁tr end
▁z an
ag gio
ņ a
nis se
▁g ör
▁proble ma
γ ή
▁ ως
ec ta
▁cs ak
▁stol te
▁b ör
▁в ър
▁out ros
κ ι
з у
at ore
u el
▁ac tive
ra it
ilu pp
▁est ar
an ze
▁dok um
uj ící
▁hag haidh
▁fun c
qu é
ica ção
ж ду
ш ите
g or
▁s d
en ne
▁ho zz
el and
▁y ks
ise en
▁sol ic
▁n ii
▁ace astă
▁pal vel
gu a
▁k dy
▁lig ne
ri ft
w el
ра к
▁r ess
▁и гра
ъ к
▁til f
▁fé ad
▁lu ks
▁m s
▁в ят
d em
k ir
re ib
▁frá bær
ou gh
▁пре ди
▁k iek
▁gu er
ho f
q q
▁t kun
▁π ρα
▁dob ro
▁st ati
β ο
▁pon ud
▁e ig
▁t able
▁n in
201 3
ług i
▁min ister
▁st rukt
▁in k
ti mo
▁pe uvent
μάτ ων
aj ā
▁energ ia
▁s tim
wa ys
▁kl ima
h led
▁rel ativ
▁servic io
ke j
▁co urs
▁pok er
▁fi x
in iai
h m
ου σ
к ри
▁at é
▁k ult
▁f en
ess i
▁h va
▁c ann
▁bru g
▁pron un
▁bard zo
ia us
z one
å d
▁profes ion
ff en
▁i me
ist ē
▁pa š
d ll
▁т у
▁ag en
▁вят ър
w ij
▁c t
“ ,
▁hos p
uks ia
▁kab el
i um
on te
iv es
▁room s
▁poss ibil
▁pan or
▁com bin
▁sob a
ro k
▁okk ar
▁ra ž
ț in
▁sk riv
▁res ultat
h ul
▁d intre
h ô
▁ever y
u o
▁bóka ðu
ord a
▁lod ge
▁v all
▁su iv
▁of re
tiv ità
sk im
▁mais on
▁kter ý
ové ho
▁h elt
s ak
▁p ils
▁sind et
et ag
av er
k ul
▁num ero
rat a
▁opl ysninger
etti va
ő s
▁f ich
▁budap est
▁poss ible
▁le id
▁z god
▁suc cess
▁por ta
▁pat ri
▁du bl
▁samarbejd spartner
▁apart man
▁par ker
▁παιχν ίδ
▁g le
ine ann
▁dispos it
c ks
▁sp os
▁mich a
la ge
▁m ida
▁cli ents
▁p ala
▁diff ér
▁s na
▁τ έ
ow ane
ен т
▁pra kt
▁ü hend
c up
▁tel jes
▁pos ta
▁l le
▁ver a
▁é rt
▁wer k
▁a ast
▁tan to
ij ā
▁g ang
▁3 9
▁hod not
▁υπ ηρε
▁da wn
▁comun ic
zz jonali
▁rec ens
μέν ων
astr ă
▁gib t
▁pla ya
▁ га
▁β ρείτε
201 2
ie cie
pu is
▁ф е
▁gen nem
▁i ek
▁strán ky
▁19 5
▁sams ung
▁va in
00 1
▁информа ция
▁net work
▁a ños
▁tik ai
▁solu tions
▁d ann
▁fran cia
▁em b
ţ ia
▁ °
▁σ τ
an cia
▁af in
▁j uli
il es
k se
c m
π η
w est
▁pap ild
war z
▁sav ien
▁person ale
al y
▁besch ik
▁c ode
k ą
▁vel iko
▁util iza
▁o ħra
ва те
▁rig ht
▁al iment
el es
ικ ής
▁p unk
▁απ α
▁ke y
b ind
▁leg al
▁pl ant
▁men os
с у
ist s
▁ch or
▁r ū
▁ihr er
▁200 2
ί να
it ut
▁op is
▁ein es
4 7
λ λα
▁v ita
▁och ran
▁z ich
▁pes qu
▁g au
▁squ are
ire ann
o ordel
í ta
▁por que
bo ð
ord s
▁bħ ala
▁mo že
itaj iet
▁ø n
▁dov ol
▁mūs ų
am men
▁ar k
ich en
▁we iter
j elen
▁b raz
▁sav u
▁av en
▁priv acy
ot as
miss ion
j ne
lep ší
▁ο ικο
ρα ς
▁av ant
▁cam po
▁κά θε
▁por no
▁pom o
▁ме жду
▁polit ik
▁tek st
▁númer o
▁ λά
▁net her
í se
isi ón
s che
▁l ös
ol as
▁b lev
it ive
▁e asy
▁ό λα
m ag
▁προ ϊ
ве те
▁product os
▁l ove
▁nuest ro
▁az t
un de
▁kõ r
nie j
▁m ynd
ė jo
▁e gen
iss ance
un da
é ro
▁hab it
▁i ii
▁person nes
b ack
▁pro ti
▁għand u
▁program m
▁с у
▁př i
bul k
y mo
▁migli ori
▁respons abil
▁del uxe
▁n elle
▁ur ząd
▁con di
▁sal v
▁en f
ri ja
▁n ell
▁lu cht
▁p á
р та
▁h ak
го во
▁he ad
í ts
a ž
▁th en
▁cli ent
д ъл
χ α
iz za
il is
▁iden tific
▁k az
▁dis p
u es
▁peri od
ind ust
r d
b ě
▁t os
j t
▁ques tions
▁program u
с лед
an cer
ч ка
▁δη μο
itu re
▁empres a
▁p az
h ör
▁pop ol
▁fr ont
▁hô tel
å ll
▁ε φ
▁gar ant
ъ п
▁kyl py
▁wor ks
▁se ad
n ico
▁internacion al
▁chc ete
▁pred stav
▁prod us
▁v ég
▁до б
ich te
▁met ro
▁- -
▁cham bre
▁es et
▁ul tra
▁r ă
▁sa ada
am at
▁aktu aliz
▁j ó
či us
0 3
▁раз ли
▁frank furt
▁hotell it
▁obiek tu
άν ι
▁g led
▁a w
j am
▁rend el
▁п ър
▁rezer w
b ers
um at
▁j ard
▁comp at
▁tre ba
▁speci fic
▁produ ction
i x
igh ed
▁e ach
ł at
ud o
▁colle ction
ing ton
am ok
▁ose b
▁ad ap
▁5 5
bor g
▁з на
ut in
▁wh ats
▁l inn
▁а в
▁ же
▁lib er
z ni
▁v ale
ia al
θη κε
▁b ri
ol is
р га
▁w ł
▁j ego
ir ati
k ont
▁g mb
8 8
is y
▁la w
▁kar te
▁te hd
б ли
▁pot řeb
um us
m ite
▁g lav
▁nej lepší
li cht
▁qu é
im u
d at
▁ja ar
▁f áil
▁c ie
▁sam e
▁gra f
ter ing
▁mel h
▁før ste
▁man uf
▁d y
▁en vi
▁nether lands
▁or o
▁k en
▁and eren
▁ko os
▁ty l
▁hotell id
w eb
ма та
ч на
▁ än
ti gen
unt as
ir an
φ έρ
▁rel acion
w in
▁gc ás
▁dim ens
▁meg jelen
ţ ă
▁fran c
▁al m
▁koll ha
▁l un
▁sich er
c ond
▁ara b
▁im per
▁на пра
0 2
l ą
▁pas laug
▁oly an
▁pol y
▁kamb ar
▁minut en
ru p
la is
▁tut te
▁der ni
▁ha us
▁mo untain
▁nov o
▁с вър
▁n al
ст ра
▁no en
ст ро
▁ri d
, ...
ме р
φών ηση
▁val or
z w
▁dí as
▁id ir
▁cam bi
▁bel gi
▁mar ch
sp ro
io oni
us lik
ord en
key pis
te ag
▁d ó
▁dz ie
▁de ve
▁εκ φώνηση
ć u
▁ ·
▁bil d
▁ph oto
st ill
л та
▁we ather
▁r ug
▁n ale
▁mar ina
▁ph p
▁de puis
▁j it
▁k uten
if ik
p ont
▁ó keypis
s lag
▁fa ir
▁washing ton
▁η νω
▁m ec
▁se ks
▁per met
s al
▁δ ικ
▁ob lik
k ra
v ě
r ind
ag i
▁l ég
ett y
▁mill ion
elle m
▁în tr
f ran
▁di pl
▁deter min
▁h amb
▁ar ri
lý s
ib re
ce v
št ina
▁1 20
▁f ic
▁b ass
ym as
▁hv il
▁от но
▁p úbl
ντ ή
▁hu is
▁ke ď
▁f urn
▁č esk
▁f ung
▁od st
▁inform asjon
▁ =
▁te ie
hl í
▁k iv
▁z ug
▁k ull
π ου
▁z ariad
▁enk elt
ib bli
▁без пла
▁vy už
▁ras p
▁veg as
de j
ys z
▁пра ви
ul ette
▁pers one
▁ver z
▁už ivat
▁el ett
▁const itu
▁h art
то р
á ř
n ed
▁cl ick
▁gra du
▁d ía
▁partic ular
▁gu ide
▁bo eken
ol it
▁j äl
tic s
c ov
▁f an
▁lar ge
▁t ub
▁да нни
▁200 1
k ār
▁f ru
ū ra
ek tor
т но
▁th ab
▁ni in
gif ter
ж ите
▁st ø
▁fit ness
▁int rodu
▁κ ι
est ra
▁pod em
▁použ it
▁s ver
▁fam ili
▁a ver
▁p ate
▁syst ème
val t
▁j ä
p ot
▁ró ż
▁cil vē
▁ne xt
ad av
▁w eg
▁nue va
▁r isk
▁f res
ņ as
el m
ν ες
▁ra čun
▁tiegħ u
▁dum ne
▁pre cios
▁те м
j ón
og at
it to
ib h
▁popul ære
▁par e
▁pr esso
de v
ċ jali
ô t
▁ag ain
t ää
am enti
in to
▁bå de
▁p ati
▁program ma
í omh
no j
el ta
▁u re
▁de par
▁w yn
▁f akt
▁m ér
▁inform ace
▁in ici
▁sol l
▁é p
▁въ в
ле ние
ρ ική
es en
dr ess
t í
ν ό
li que
▁sé cur
▁к ра
vis ta
ib r
ud et
ec k
▁perform ance
m aks
f un
▁β ρί
λο ύ
λε υ
ni en
▁me as
le c
▁g ou
iss ement
er na
olog ie
▁valam int
▁bes ta
▁ ти
at z
ow ego
▁k ú
▁bel ig
▁pres ente
e ur
▁mar ri
e e
▁szem ély
▁dur ing
k ka
▁ja un
▁qu er
▁mart in
▁wat ch
▁in om
▁jist għu
k ke
te ach
▁z od
yt tä
▁m ille
ma an
▁sch w
▁hotel ov
▁к ли
or en
ęd zy
▁secur ity
▁o wn
▁kat eg
ar on
▁ ār
▁perf ect
▁о пи
▁trygg t
▁informa cije
rad os
ī gs
▁vo ir
▁al les
r ú
▁α γ
ch os
isu us
201 8
▁zá klad
▁φ ο
▁tra du
ac o
▁h ind
ít ése
or ta
▁b ade
▁gru p
▁mi esto
▁sho uld
ed z
▁is so
šan ai
▁α γο
▁sa id
▁bal kon
ния та
▁le vel
zion ale
or o
χ αν
č ky
ist ati
▁au c
▁rés z
f ly
▁ ώ
▁fun cion
▁a os
▁pos ition
▁mo ins
▁ei rop
ell s
з да
▁experien ce
w ali
ло то
▁cer tif
▁w ara
▁v enta
t ri
í ch
un joni
▁mil j
▁πρό σ
▁kans sa
▁s wo
▁szolgál tat
φ ή
▁m ba
▁fer ien
▁mar s
st ī
▁d j
▁poss ono
l ess
g b
ό ρ
▁trou ver
p ost
▁des ig
n ap
á dz
e il
▁gos pod
▁tod a
6 7
ese en
▁mi x
l is
ag nir
rat t
▁su ure
а ри
άρ τη
▁dat ab
с к
▁omdö men
▁ar d
▁ubyt ov
▁ein fach
en c
▁zo als
▁till g
č ný
t én
ig keit
▁sat ell
se e
l ament
▁d ove
▁obs erv
▁me chan
▁tak że
▁mod ul
▁lib re
▁lis ä
τικ ών
▁i et
▁sc ar
▁fa oin
▁da w
ang en
▁g n
й ност
▁met er
▁pun kt
▁s ier
▁δι ε
▁s ija
▁žel ite
ικ ών
ovan ja
▁es im
▁l ud
ă tor
▁мо гат
▁sa ab
▁cl ar
201 4
b os
▁nos s
▁ άν
▁i ki
cep tion
▁c rit
a ug
▁nep iecie
▁sp i
▁bu urt
χ ουν
▁b land
ô sob
▁an ni
▁nepiecie š
▁with in
ko ľ
▁g ed
▁r it
tu be
ts m
▁a maz
▁ob lig
ot en
▁do po
g ed
▁k iej
ü ks
▁manuf ac
▁j ava
▁ό ταν
▁ex am
▁rezer va
▁nou vel
▁m öglich
▁kiej t
▁πε ρί
▁us ing
ρ ές
▁val d
▁ver k
ch te
▁ré p
▁s ý
ht ä
▁ob ra
▁f est
н г
te z
w end
▁об ла
▁kar ta
at ok
▁ca fé
ī ga
▁ ľ
ire a
our ces
lo ok
▁kon ver
▁sm all
ny t
▁aut hor
▁argent ina
▁sk in
▁zus ammen
id or
▁al to
▁ha ar
ло ги
▁t end
▁e ar
ik an
▁z on
if s
▁pr as
▁väl ja
▁in iti
▁b in
r s
▁nive au
ра бо
▁res ults
▁de kor
ė je
u en
▁c ú
wor ld
▁g ă
ich er
iz en
▁d ato
▁тем пера
▁hen kil
▁tyl ko
▁pied āv
▁h ud
▁bez peč
▁dok on
▁re gi
▁mond o
▁na gu
▁d ont
z ig
▁ji pp
▁pos to
▁qu anto
ow o
σ ουν
v ät
▁for ts
▁eng ine
ci u
- ,
▁h ånd
▁de dic
▁ma hdoll
▁ap s
▁d ij
ron om
▁trans l
▁wie der
ħ ba
▁stol ta
▁micha el
ur der
▁exec u
▁produt os
▁τα ξ
v us
ing o
▁provin ce
▁ewrope a
▁á rea
a ja
▁us ar
i ale
▁ ри
▁at ra
k ów
▁phil ips
▁po ž
▁g ł
m ak
▁ev oline
ρι ση
uf en
▁i v
b it
▁nieu we
▁l æ
▁amer ica
▁lin ks
r ut
▁par ad
▁in tr
▁uk ra
um ā
▁civ il
▁sp il
▁gru po
▁or i
▁re cht
em s
▁s ha
il ig
kom men
der n
▁pr int
▁k is
▁cha que
▁ho ch
▁cont rat
▁qual ité
b est
▁m ód
▁s me
▁то й
▁re pr
m il
▁dec or
▁d ina
▁sí ð
▁δω μάτ
7 7
j ár
▁nas led
▁nuest ra
▁leg g
or io
▁stad t
d on
▁j im
▁spr ing
▁f ine
▁l il
em ble
▁j ack
ol in
▁terület én
▁melh ores
▁ú r
zz jonijiet
el k
д но
er ar
pu és
▁ja hr
▁str ut
aj n
▁christi an
▁k us
▁ji ġu
▁κ υ
▁to pp
l ast
ap par
▁ass ist
▁é quip
▁ś wi
▁bru ker
▁l ent
▁maj or
á ž
▁и ска
▁f la
▁fir ma
gi or
▁pal īdz
▁pesso as
jen i
▁mot el
▁du pă
▁h tm
▁wit hout
st y
▁ein nig
p ta
% .
▁nač in
▁všech ny
une a
am ise
▁cl os
▁klik nite
▁s ido
▁i ad
▁bu y
▁system s
b les
b ill
ö ld
s ä
▁ma il
aj ji
▁l iter
▁sloven ija
▁d és
▁s ir
▁comp lex
▁ques tion
▁verfü g
д ни
▁s ess
in f
▁fu er
▁ser a
us el
▁pas ir
▁sec tor
▁dre pt
▁angel es
▁tid ligere
▁d ak
γρα μμα
▁g eme
ļ as
τε ί
▁fá cil
▁shang hai
▁6 5
▁fe ed
▁βο η
st s
ø j
▁joc uri
▁mi est
g ie
z iej
▁le ik
im b
6 8
er k
▁vil ág
▁ver de
▁merc ado
▁z immer
▁reg ional
4 2
up a
c ze
ul s
▁lö yt
er ne
▁koris nika
č io
é ge
at re
▁we it
c al
f att
▁des pués
an ud
▁k ed
▁mod e
▁f ie
▁dyn am
γ νω
š ta
▁m ala
it ing
▁htm l
▁g ada
▁val ley
▁ent fer
▁nod roš
▁m esto
ort s
▁detal jer
▁automat ic
ri ke
▁хо ра
l ijk
l al
▁er ed
▁web b
▁αξ ιο
▁min ute
▁vyb av
▁ut an
▁ ро
▁pass er
▁mh ux
▁person aliz
▁pra g
ick ý
ho ud
▁pre zent
▁k ada
▁tr é
▁trava il
g ru
▁в клю
▁profess ional
er c
ħ a
▁biz tos
ok u
le k
▁jedn ot
ν δ
▁le ad
▁um ož
äm ään
el ing
▁j ane
▁δ είτε
ka is
▁dec is
▁é is
▁sam me
g ing
▁inde pend
▁podat kov
▁or ice
▁š is
▁p v
c ast
sk ých
č ina
ö m
▁πα ρέ
tu ur
ip e
▁g aller
ard s
at akse
д ра
▁person a
ic iones
▁ten er
ist u
▁des k
end ada
▁alkal maz
▁so und
▁autob us
▁dub ai
▁a asta
▁dent ro
▁an aliz
n ij
▁sp l
▁h é
ch ange
k m
▁so fa
▁v inden
19 9
ek o
▁h led
la gen
▁πό λη
▁mus ik
▁probl ém
▁se as
ri que
▁euro pos
ec te
▁у пра
▁χ ω
▁mal ta
ish ed
▁sol id
sk om
ras se
pr in
▁h ip
▁αυ το
▁cons ul
▁im age
▁in ten
201 5
át h
▁desen vol
▁cl enbuterol
▁ja zy
ού ν
▁eff ic
▁air lines
▁k ob
▁kur ie
g d
▁š tev
l ink
▁d essa
ч ва
▁nue vo
▁s os
▁grand es
▁4 2
▁j ir
iet e
et r
▁sk i
na h
▁1 000
▁d ul
▁ap enas
в но
й ски
▁tim es
κ ρα
▁vys ok
▁éta it
▁eff ec
▁g ud
▁as u
č iau
▁prés ent
▁r ud
▁jag ħ
▁sho pping
▁φ ω
▁fri end
u ge
▁ny el
▁съ зда
▁sab iex
▁pr iem
▁καθ ώς
▁oce an
▁cam ere
t ele
▁s iem
▁a ħ
▁ext ens
6 4
▁bar atos
ū k
ü ge
to w
▁a ur
▁c ant
▁bý t
ys el
▁líne a
w eg
ad ra
▁v ul
▁о рга
н ски
▁pos sa
▁s s
vel se
p unkt
▁g ot
▁s iti
▁a isce
▁se ule
ie ct
ân ia
ac ie
▁t ego
▁k unden
á val
▁za w
▁с ко
▁си сте
▁cel eb
ges ch
em at
▁għand ha
▁n æ
or f
▁av is
s yn
▁b elle
ска та
5 00
▁mu k
▁p inter
▁s ang
is kt
ck en
▁us er
por te
zy ć
▁or lo
ó ria
hol m
is la
q a
▁par ha
▁g ala
ek a
▁marri ott
▁темпера тура
▁id ent
ick ých
▁u ts
ιν ων
z ne
u oj
w w
▁vic toria
el j
▁ke ine
▁bl ir
▁dec ember
▁sp is
▁sil ver
it ation
▁war en
å ende
ud u
on ta
▁in gy
ř ení
▁e fic
▁differ ent
menta ires
▁δι ά
▁rest or
æn d
ed or
▁въз ду
te il
▁neder land
▁ú daje
▁ ț
▁wo od
▁prec um
▁cali for
▁am h
š to
▁pre ven
▁s itt
▁commun ity
▁că tre
ist y
ur er
δ η
▁ro k
▁ewrope w
▁le at
ur ilor
h on
i ć
▁i gen
▁mož ete
▁for nit
ide achta
▁qu art
▁st ill
▁o if
▁ď al
▁á h
art h
▁col um
ad u
n an
ir anje
▁cu enta
τή ς
i ção
ban k
as ed
▁luc ru
ø y
▁h els
c ars
▁l ij
▁4 4
m ul
▁stj ör
▁k em
ω ση
ci er
▁m old
▁m ín
▁l op
▁g era
eta an
ran i
ien ia
ar u
▁am érica
▁thab hairt
▁kambar ys
▁uz ņēm
▁esp ec
iss ä
▁κ ου
▁off ers
▁z bor
c ke
▁με τά
l ē
▁g egen
ħ tie
г ле
íochta í
tig het
▁kun ne
tä minen
▁δε δο
s im
▁val g
h ic
▁mo z
om rå
▁zw ischen
▁minib ar
▁fo is
▁ст рани
n ji
▁pra d
▁per d
▁man ual
ta ja
▁met u
▁bez p
▁n un
мен т
▁mo tiv
б ите
▁ma ž
з ни
xx i
▁cle an
▁δ ύ
▁fej n
▁πληροφο ρίες
▁ann on
s ig
▁m ég
▁sec ret
χ ύ
▁technolog ie
▁ ю
▁el len
▁man chester
w ater
▁mi ð
▁é c
▁h ang
▁f ok
▁dru ž
on om
ire achta
ka i
elle ment
▁ko ja
vo us
▁e est
ud es
et es
▁ak ti
c ell
▁op tions
p m
▁pasa ul
k ül
č ení
▁requ ire
λίδ α
▁by gg
šč e
▁a jo
ni ú
▁þ ig
▁char les
p ens
▁4 6
γ η
▁res iden
com e
▁e es
▁sammen lig
▁difer entes
▁te at
▁je b
▁qu ar
▁jed nu
pl u
▁inter pr
inn er
▁nak tsm
▁ka h
▁app lik
к с
č ek
] .
it ori
▁spe ed
▁c ib
id ed
▁v est
▁kommun ik
á gi
yt ä
▁pap er
er itud
ā n
▁ag ent
▁dez vol
▁poč et
φ αλ
▁vol t
▁im pl
▁naktsm īt
▁an c
▁r ast
▁mů že
▁t än
iz ed
ní omh
▁spojen é
▁ne b
▁person ali
▁inform acje
▁biet et
▁mes mo
c em
▁w z
▁b ell
▁nos so
m end
▁t jen
▁bę dzie
ού με
▁p eter
au ks
▁k ész
▁pos led
is ki
▁i ga
sk ip
▁ta h
▁skj ul
▁add ition
▁lokaliz acji
х у
av imo
os sa
ли я
▁ve eb
▁lab ai
igh eter
▁b m
▁dv s
wo ord
ís lu
▁instrum ent
c ra
▁ur ban
▁est ão
▁do es
▁követ kező
▁reser va
sk og
▁post up
▁qu ant
▁so it
▁h ora
ob ili
▁on de
▁ak kor
iss en
▁ap m
reg ist
has znál
▁l ett
č nih
▁d ů
ο ς
▁mil it
▁ir land
g ro
▁g ram
l ó
▁sat el
▁mar ca
▁έχ ουν
▁ums agnir
▁te ž
▁ener gy
▁k und
▁ro ll
ati que
kel ijk
▁parti e
▁be fore
▁bes plat
▁4 7
▁l ing
▁sym bol
ála cha
▁repres ent
▁es ter
▁cli ente
ro me
emp el
▁servi ços
▁dos ta
▁när heten
▁jur id
ri ce
li p
▁beschik baar
▁serv izio
ο νται
▁od mor
▁vir us
▁el s
á ide
▁reg ol
▁π ά
għ a
чите лно
▁в ся
▁de j
е м
▁var at
▁flug v
itel j
ow er
ár s
▁ri cer
▁fin land
▁build ing
iv ad
▁comm ission
▁pop ula
▁fl u
▁rend szer
▁eff ettu
b ól
ats ioon
▁inf lu
▁de p
igh de
▁nä he
▁ε ται
ard a
ви я
an u
k iem
▁gr ö
▁ag ric
▁sport s
▁internation ale
▁pinter est
ic io
▁πρα γμα
á te
▁amh áin
▁ne ue
▁sta b
ad d
iv anje
▁im pro
▁pod jet
▁n ende
▁zo ek
▁alg un
▁brezpla čno
▁bos te
ig os
▁os a
at on
σ τά
▁nuest ros
▁m ora
▁συ γ
ell ige
▁minut os
niec ības
▁se irbh
▁ser ies
σ το
teag al
▁jär g
ic es
mis eks
ita ción
▁vien a
▁lim ited
p n
v s
ki h
▁colle c
▁vol i
uj te
▁l än
▁em ber
▁nor ge
▁leita ðu
▁σ ύν
▁st yr
jem e
4 3
▁ber g
ind i
▁n ight
è mes
▁sk at
ρή γο
▁vol ta
t it
land o
▁mas cus
8 5
par k
▁pri j
ro st
▁in den
ň uje
ys zer
m ot
▁diff ic
▁ö ll
to z
v ă
▁inkl ud
ū ras
ë n
▁r ô
av u
▁eirop as
▁n ol
▁sou bor
z ec
▁y fir
▁по мо
sk ého
▁artic le
▁off ici
▁nabí d
▁ro dz
kuns ill
αρ μο
▁c osa
▁r ing
▁произ во
▁ob jec
▁follow ing
▁е ле
ett ä
▁ta ħ
▁al ue
▁u po
▁as i
λ ικά
um is
▁γ ρήγο
▁m ali
osta v
ů sob
ant is
▁cos ì
▁th ird
▁sk ont
onn ement
▁le c
▁se al
λο ς
a use
▁aut re
▁h ög
▁com h
хо ди
u š
▁to e
id än
ре з
▁kit chen
▁bab y
▁kun i
έ ρα
▁kon to
▁b ic
▁c up
▁g d
те р
ē šanas
▁person n
▁inst ala
▁perm it
▁an o
b st
▁sam an
r zy
▁ph ys
▁sp ør
▁sp ot
γ ρά
▁j õ
▁cop y
▁ur l
kov é
▁s ize
ro u
хо д
▁ro h
▁4 9
▁th er
▁con ti
▁į mon
▁v rij
▁dubl in
ri ve
▁c ela
▁t var
an os
▁sk ys
▁συ μπ
il eg
▁sed an
▁m ud
s ystem
d ata
▁k ry
▁child ren
▁β α
r us
ē ju
▁gro ß
▁cons id
▁m ing
▁meg fel
ut é
n imi
▁α κό
▁sat is
ιν ή
▁sn el
ier te
ň a
ost on
iz ioni
uss en
än da
▁e ing
▁hv ad
▁ско ро
▁fre el
bo urg
ê t
▁ber icht
l ou
▁las er
▁compr ar
▁b ort
▁ε ισ
έ ντ
s v
▁tro p
▁pers p
▁ch ange
sk ega
▁nem zet
▁stol t
gh as
▁sa ug
▁produk tu
▁c ell
▁w inter
▁ac t
▁nouve au
ied ad
▁to uch
un is
▁tehd ä
eg n
ίν η
▁ví de
▁n ob
▁κ ρά
▁p unt
▁l ange
▁pa ie
▁zag ot
▁tro va
6 6
or ie
▁uk oll
med i
▁9 5
▁leg j
▁dan ych
▁un ui
jen o
it ik
▁có mo
те ри
▁con tem
▁num urs
▁pok oje
μι ουργ
▁ve iks
▁pa in
▁da ar
▁deutsch land
iv en
▁vá ros
▁tar ko
▁prac ov
▁eks per
на ли
▁s adr
▁try gt
▁person er
aliza ção
г ла
▁j ų
▁col labor
lich er
bi amo
▁f ed
▁est os
▁individ ual
не с
▁μεγ ά
▁al p
▁to eg
▁tem p
ib ili
▁ter rit
▁con du
▁δ υνα
▁jes us
▁includ ing
▁trab ajo
re au
▁ään täminen
ό τη
▁li itt
▁c idade
▁pr eto
č í
ci i
▁počas í
▁país es
ett es
▁le as
▁park ing
▁té c
▁ag re
▁výslov nosť
▁ф ор
▁dal īb
▁applic ation
▁l ī
é c
▁environ ment
kun ft
▁mun ic
▁développ ement
n at
▁n j
ny mi
ament os
▁z one
▁m ant
▁f elt
▁m ă
▁jus qu
▁sty le
c en
ul as
reg ol
▁m itt
δ ικ
че ние
▁polí tica
▁ag o
äl le
h ä
▁drž av
ля ва
▁geor ge
▁v lu
ter ior
▁su k
g j
▁pun to
ġ ija
▁poss ibile
▁conc ern
d h
▁ob rá
▁pos tav
▁ze er
▁ε λλά
b ou
▁sp rem
ī gu
ran s
▁pres ident
▁izman to
end om
g at
iem s
u h
▁szám ára
ļ i
▁sub st
▁ essa
g ens
for der
▁pri je
▁μό νο
pe ci
é ra
eg le
▁sécur ité
▁cen u
▁för etag
▁6 00
á ria
▁mon ta
▁na hr
▁co in
▁ingy enes
▁ !
▁exc ell
▁vy ber
▁v la
▁un ik
▁δη μιουργ
w ers
▁se ine
▁del a
▁imple ment
▁wo hn
si asi
▁zá kaz
f og
no ut
▁v ue
h ers
▁bec ause
▁ч рез
▁χ άρτη
▁pla ats
▁ér dek
ėt ų
är t
ċ ip
▁ar te
▁k aj
ρ ύ
ur u
▁parti ci
▁h ul
▁käyt tö
▁ad obe
λογ ισ
▁doll ar
▁henkil ö
▁tu a
▁pod rob
q s
▁f ără
▁λ ό
▁av alia
▁stud ent
▁cont re
▁unser er
▁cl ose
▁cal idad
▁ ние
n isk
▁el es
▁viet a
l ijke
æ tur
▁be oordel
▁cir c
▁č lán
al ing
re k
h ov
▁c ob
r ti
▁c ross
▁θ ερ
▁h au
▁se ura
▁val uta
▁po zn
▁β ά
▁le anas
▁rela x
ł ą
о ве
λ ια
or u
▁okk ur
ab or
▁mag az
n ud
els es
ze ch
4 1
▁ви со
ell ing
▁r and
▁αναζ ή
κ η
ния т
▁szcz eg
kl and
▁αγο ρά
у н
ta mente
χ ές
▁te ad
r or
▁br on
▁n ice
▁b iste
ħtie ġ
en ja
▁ah ora
áll al
c é
▁l å
▁pre is
▁cor res
▁pag rind
▁perf ekt
▁hor mon
▁ż y
nik ów
▁n ám
q l
sk ej
▁пре до
▁vår t
kl ar
in um
eto oth
▁er halten
▁y r
▁col l
▁eng land
af na
io je
js ť
▁kval it
▁naj d
▁trab aj
zi ť
▁an ab
λ ων
m ete
▁ac tion
▁ar c
▁gj ester
a us
▁dia g
▁nouvel le
än n
▁на чи
▁ti pp
▁desc ar
▁бъ дат
▁cer c
▁sver ige
ρι ν
▁r ám
kov ý
ør er
▁dar bo
▁a ument
é li
v eg
maks as
▁sp iel
▁ νο
▁inter ior
▁dem and
▁sk ip
▁ac u
gen het
▁p ill
▁facil mente
▁øn sker
γκ α
▁le y
▁van af
▁k oli
▁ill ust
ur al
á tor
▁sik ker
f ond
▁langu age
us ion
▁don de
▁le an
p ack
atur es
▁lis ää
▁ge z
▁best en
▁fil ter
▁жи во
▁χ ρό
▁pl ug
▁b ár
as k
▁täm än
▁d ta
ē jo
ers ch
▁pend ant
▁c ry
ê te
▁επι λογ
▁μ ικ
▁sz üks
alt y
▁k ina
▁je z
▁pa ik
▁p ies
▁e zt
ab ba
▁în c
▁moż li
im os
▁ex pos
▁ус лу
▁hjäl pa
▁γ ρα
▁ch amb
ik as
▁mož nosti
▁dot ycz
▁dispon ible
▁μέ ρος
ro ma
ξ ει
τ ουργ
▁vē l
v äl
▁prie š
ül ő
rol l
▁vaj ad
▁προϊ όν
▁u ży
εί α
▁nabí zí
▁fin o
p op
▁ч у
σ ια
▁entre pr
▁stat us
▁legj obb
j de
▁rel at
▁do en
▁et te
it is
z hou
lj anje
▁ac er
▁op re
g rad
▁na kon
▁gol den
▁b innen
▁m ål
▁aparta mento
▁san ti
▁f ho
end es
▁mi ami
pro d
▁c av
▁r f
▁ чи
▁es it
▁qual siasi
▁an os
▁produkt y
un to
▁ad op
▁manufac tur
▁pi el
f as
▁inter esse
▁π τήσεις
▁val ó
▁z elo
▁aust r
▁min u
▁polic y
▁h emm
▁im press
▁w omen
in ă
rej ser
▁chic ago
▁к и
▁app arta
▁adres a
▁pic c
ien za
ad el
τ ώ
▁ú dar
▁man i
φ ά
ís ticas
z ys
h ö
inform ation
v iz
ru ž
▁c ic
āj iem
τ ου
▁tu lem
▁za řízení
▁ty sk
æ gt
we ise
▁f ul
▁d je
w ind
nie js
▁er w
izz joni
▁rezerw acji
hu one
▁n ust
ed o
▁gou vern
l ø
öll ur
▁k red
▁ja u
▁ace asta
ška i
▁or e
▁r on
▁ital y
és zet
▁g ott
▁ac cep
ст ъп
▁cli que
▁dem ande
▁д ържа
temper atur
▁m ór
▁materi ale
▁b amb
▁ju an
men i
ασ ία
▁term ék
gel ijk
о н
▁ед на
% ,
v ide
a ção
w iet
in ę
▁ver enig
▁ 00
▁ab il
▁c red
h k
us sa
d d
la ub
im enti
▁or ient
▁př es
▁class ic
▁mex ico
▁aqu í
та та
▁r ang
▁ús áid
č u
▁to ol
▁t ali
▁tu otte
▁g ive
▁vien e
▁w ifi
ud io
▁all en
▁λε π
▁aerop orto
▁finan z
▁av ez
ir as
πο τε
▁rental cars
▁b ied
isi in
▁memb ru
▁anton io
n av
▁m ē
▁a mach
▁né cess
. “
▁for hold
t ha
▁im mer
id at
▁con oc
ci ó
δ ιά
il er
li er
▁ur č
k ů
▁dispon ibles
▁unter st
ess er
ag ħ
φ ι
ien e
▁ess enti
is cher
▁kontrol l
▁fo arte
▁pro ven
▁α κ
▁ad dress
▁th ose
▁ ē
▁u us
▁a ici
▁at unci
▁part y
▁g år
▁blu etooth
er as
▁a ik
▁mil ano
▁har mon
▁roz hod
ħ ol
am m
▁n ije
▁m ut
7 8
im m
val g
▁v urder
▁do ar
▁d ė
ze ug
▁în t
▁př e
λ λο
st änd
▁unter nehmen
ð um
▁σ τε
▁ня ма
ů ž
ħ aj
▁ka art
▁enc ore
é gi
▁å ter
jum i
t om
▁an tal
▁g b
▁í s
▁ri v
▁skys c
ț e
ag s
rouw en
ém u
▁за по
áci u
az a
▁informa cij
▁hosp ital
▁inc or
▁cl im
ži ūr
▁sch we
wa ż
▁pisc ina
▁apl ica
▁télé char
▁munic ip
us z
ti jd
▁qual ità
ν τας
ö ver
▁gä ster
▁съ държа
▁mind re
▁di f
ā la
an se
u it
▁sp ace
▁y le
▁pos ibil
▁áll amok
▁b ater
ge w
▁pan el
ál ó
▁o let
ov ej
▁ol ika
▁latv ija
▁bru ger
gel ig
ir ithe
iv ät
w ickl
▁sz ak
la c
▁ku id
▁ener get
▁евро пе
▁ž mon
▁cap it
▁propor cion
est as
ut as
▁con cer
▁то чка
▁re kom
v än
▁nam en
m ans
▁bez maksas
▁kont ra
▁luft havn
▁mån ga
6 9
▁t ant
▁δ ο
▁lu z
ша та
te c
▁an na
est en
et u
▁úl tim
▁s ave
▁þ egar
▁informa cija
un ivers
▁b aix
▁ac adem
c ut
▁jog os
ra ge
р ни
▁ή ταν
yn n
▁tor onto
▁c ik
▁gospod ar
ffe e
ri re
▁kon z
n ung
▁λ ει
p ara
ovan ý
▁pl ats
▁w ild
▁le jligh
eor pa
201 9
▁mag net
▁god t
▁ιστο σε
▁su unn
▁bas is
▁pes o
isi ä
▁kl ub
▁n iz
▁m ent
▁féad faidh
▁blí zk
p c
▁empres as
▁č er
g ir
е ма
ö ö
▁con he
▁sz ó
▁exist ă
▁wä hr
il ine
▁ste der
▁nost ra
▁m ekl
▁þ ín
▁ro se
▁ek stra
kom st
▁uv eden
▁sta m
▁z ast
▁em bar
isiún ta
δ ι
▁pi x
▁loc ated
ente mente
l ád
atu ur
▁jet zt
▁sour ce
▁sant é
ê m
▁ad em
▁k ats
▁вър ху
▁m ijn
äl tä
ch ina
í ne
jum a
▁conne c
▁app ar
▁š iu
ant ar
▁συ μβ
▁d iss
▁fol os
▁at en
in de
▁w ich
vo z
▁fall s
▁ofer ta
k ých
▁cur rent
ic ional
мен ти
▁ko ost
▁ма л
ær t
▁má qu
▁komment ar
▁ó s
▁drž ave
▁iz ra
ings ste
▁av ons
▁pl ata
▁est as
be eld
um iem
▁di o
▁webb plats
od uch
ċ ed
▁v zd
č ke
ene j
▁géné ral
▁trav és
hl as
ста вя
▁litt le
her n
u u
g am
▁s esta
ow any
ī k
érie ur
▁nä ra
▁все ки
ра на
▁int ellig
ag na
▁kom b
▁podat aka
ρί ου
▁pro y
▁vic ino
ți ile
▁zobra ziť
▁в ла
▁b ūs
▁ver den
▁t ega
в ят
▁rés erv
▁sp al
▁skysc anner
ší ch
▁so ut
▁comp te
▁ś rod
▁b ern
ing as
▁λά β
ier z
. [
▁š ī
▁k and
ot her
▁la at
ħ ed
▁pro xim
▁ ș
▁versch ieden
▁д ен
▁a round
▁s ää
▁ νε
ra y
▁ch ap
▁su p
▁p iek
▁uč in
▁u red
ij en
▁mo yen
▁μέ σω
fo x
▁cru z
▁s int
▁vå re
▁b rat
▁aktiv iteter
▁ind i
▁vend ar
nar od
ijo je
ū ros
d ire
▁f iec
ect os
νο ύ
▁lj ud
ie urs
ok ol
it taa
▁to ot
▁hogy an
▁qu ick
▁pens ion
va ig
▁th ree
▁δια θέ
š ten
us ega
▁an gl
▁mell om
á c
▁dies em
én t
id ing
am ar
▁et tev
▁oh ne
▁ch l
bl ij
▁em er
▁vent il
ec er
▁en kel
▁pot enti
ши я
▁bi olog
▁b ob
▁mit te
or ter
▁sin ua
h ľad
▁verw end
▁mu jer
ad al
▁ļ oti
▁an be
▁е фе
▁λει τουργ
λ μ
▁k rij
▁li h
▁na uj
▁di os
▁λ ί
▁le i
ja jo
ίν ει
▁bus car
ba y
▁par laim
▁h ran
пре де
▁pas i
p f
att le
se ign
▁bud ete
▁med io
▁priv ind
▁port al
▁sk ut
▁re ž
▁mog elijk
▁g ene
▁по ка
▁wh ile
▁скоро ст
au f
ec tiv
▁4 3
τικ ής
x ico
ēt as
▁199 9
in ä
▁κό σ
ži ť
▁b oth
▁tilg jen
бе то
▁bed rij
in fo
▁fj öl
▁pon ú
▁tagħ ha
ire acht
▁ħ afna
▁spr ings
▁re pl
8 9
с ите
▁zwe i
uks et
ri b
▁bo ard
▁ved ere
▁hy vä
al on
ръ з
ens te
κ λη
od h
▁uporab lja
▁d un
ti jiet
▁servi ço
▁dz iał
▁pos lov
as es
le ction
▁m ine
▁kter á
ś my
▁dé cou
▁a ño
t ons
▁nu ovo
▁i es
▁kaup ung
ъ н
▁mar i
▁t is
▁he im
▁divers e
▁kun der
▁pol i
ra pp
▁priv ac
▁di alog
▁орга ни
in ig
ta ch
▁h ub
▁bru k
ks et
▁op ro
▁pa ńst
▁ju h
ност и
δ υ
▁train ing
▁fel használ
▁προσωπ ικό
▁af sl
▁σύ γκ
al ik
ici ent
ρο ύν
▁hotel le
▁news let
sc reen
▁of ici
is l
τη ς
▁sol ar
▁j usti
▁ku idas
ę s
pl ass
▁kle ine
▁ih rem
▁men nes
▁ver if
▁проду кти
▁ch in
▁d ni
▁pr iekš
▁o zn
▁bew ert
r ze
▁er ine
▁b iss
▁esc ol
▁fl o
не ние
▁r in
▁amb iente
al ă
k od
▁la c
▁a sk
ś red
t te
▁fly rejser
r ale
▁hotel li
▁cons erv
▁komis ija
ada ť
▁4 1
▁mor gen
к ъ
▁band ar
▁európ ai
▁ass im
▁poč íta
v om
▁tech ni
▁hor as
▁le b
il ia
▁фе в
v õ
ick á
š ke
▁à s
▁b ent
▁sol át
▁zobraz it
▁ku va
om an
ща та
▁ro ute
▁b ac
c ard
▁cel u
ap pen
ân t
ru č
ier i
▁sp ain
ij ą
j är
▁proper ty
▁o il
▁le on
▁t ās
h á
▁ért ék
▁califor nia
ру ари
đ er
▁singap ore
▁jel ent
a je
▁mo unt
▁vit am
▁bar ra
▁tax i
e en
▁la k
▁g ut
▁stre am
▁be jn
▁col om
▁h ace
▁tehn olog
▁nu ev
▁τη λε
▁char l
▁actu aliz
▁g ost
▁i ev
▁liv ing
▁nost ri
ff ent
▁tart al
f ter
j us
▁ε μφ
▁ny a
δή ποτε
▁u g
▁ελλά δα
▁ri ad
▁ ő
ü ber
▁histor y
▁фев руари
▁nu a
one y
li es
▁soci et
er ia
▁ag ora
ka ch
dir ettiva
▁st o
k ning
▁zab ez
z na
▁ án
▁proble mas
ers o
▁š ajā
▁bh í
▁π ώς
▁d ll
▁met all
▁simil ar
▁s ina
▁so ov
▁regist ra
▁s ele
▁sm s
▁pol ož
▁amerik an
▁b ēr
us al
í veis
▁flor ida
200 9
▁f yl
▁hor iz
en y
▁gro te
▁jedn oduch
▁pro pr
▁cr ist
ti ck
▁transp ar
▁cond ition
imh se
▁pod le
▁que en
▁lug ares
▁pie g
▁f ish
▁konst ruk
▁aqu i
δ ρο
ag gi
▁j uni
▁vakanti e
n ur
m ater
▁s istē
eg gio
▁cons enti
▁п ъ
▁nos sa
ξ τε
ib en
d ő
ên cias
▁6 4
▁s ai
▁z ile
▁se ite
▁do pl
▁beg r
ve zet
▁pre cip
és ek
▁al tre
▁sin un
▁rec urs
▁el im
δ ες
▁izm ant
▁n iem
zy b
ér ation
▁t ier
▁fi eld
il ie
ti en
ti em
me er
▁β ασ
▁l eta
ar de
▁köz el
▁cle ar
ρα ση
▁re duc
ff er
▁ristor anti
h ält
j ets
▁med iter
▁d ry
▁rec ord
u oti
▁fl ight
▁βρί σκε
▁w ed
▁ro inn
▁at rav
▁kir j
itā tes
i ště
▁t red
d ik
tor es
ma in
▁cour se
щ ите
γ ε
▁bor av
▁п у
▁n ö
▁d w
▁n ied
j ung
▁το πο
▁m ė
kö z
este d
πο ί
▁on d
▁af rica
▁process o
ве де
▁π ρώ
ycz ne
▁tako đer
▁play er
▁er i
▁rialach án
▁funk tion
▁p ó
▁nie uw
▁m ús
▁ji ġi
ks on
▁c ub
▁i gra
στα ση
▁sing le
▁lo i
ņ ā
▁prov ide
▁προ ηγ
▁ná z
▁av oir
▁ξενοδοχεί ων
f it
ād āt
▁comp ara
▁for me
ţ a
ro ulette
▁g he
j ú
▁laik ā
sk at
b bi
▁tro t
▁ver ið
▁compl ete
wa ard
as ter
▁mo et
н ла
▁destina ci
ät ä
▁περισσότε ρα
201 1
▁t är
é vel
sp ort
ir s
▁pie ej
pta ut
▁wer eld
... ]
▁dag en
▁syd ney
▁za hte
for table
▁var je
▁fær ð
▁tele vis
▁fab b
▁ab biamo
č o
▁rasp berry
sk ar
▁π άν
▁by ł
▁co uld
ē ts
w as
ess ég
ers on
k ond
▁st ri
▁si ht
el is
er ti
n j
▁ol en
▁ma ith
plat z
▁izr unu
bi an
▁oh jel
im is
amis eks
ра з
â r
▁cal cul
▁w ien
▁gel egen
▁b au
ass i
▁t ím
▁þeir ra
▁τιμ ές
▁sci ence
▁πολι τε
▁most rar
κ τή
▁ε γ
▁hän en
▁ty pu
▁u den
▁zur ück
▁κ ε
▁ut vec
▁пред лага
▁bu enos
▁va at
▁m ēr
8 6
▁lic en
▁b odo
att uri
▁ple ase
▁j í
▁produ it
▁organ isation
ρ ών
▁pra kti
▁incl ude
▁dem on
▁at ten
о на
5 9
i ß
▁m att
īb ām
▁es o
20 10
▁tot o
▁sel ect
c ina
ú t
ini us
▁sa fe
▁piedāv ā
m ynd
▁käyttä j
or ca
u ose
▁é n
▁be ing
▁met abol
▁ ръ
▁am en
▁sta at
▁w etter
▁out look
▁opp ortun
▁prost řed
gh ts
▁o kt
▁fa hr
▁kl ar
ασ ίας
ran k
ie v
ó ja
hol der
▁dem ok
▁cons ig
þ ú
▁m esta
▁alb um
▁dumne avo
▁op rav
b ú
ai ent
▁ľ ud
▁kiek vien
▁mar kt
▁gesch ä
▁о ча
▁disposit ivo
ot ros
s ik
ere z
мен та
▁perfek te
λ ισ
▁t ám
▁szüks ég
▁mat ch
ite ľ
▁direc tory
▁bas ed
▁labor ator
ff i
▁recens ioni
▁bl ive
▁tr gov
о т
▁europ é
▁st ör
▁art íc
▁colle ge
ach e
▁by l
▁g ul
▁käyt tää
що то
▁segur idad
in į
ni es
▁eff ektiv
ow an
▁mbe idh
▁$$ $
▁ha ut
▁santi ago
▁chat roulette
▁sin ce
▁p ig
▁w yd
▁zak on
us h
▁m ati
▁s ine
bour ne
▁szer et
ia ble
▁man n
iss on
ma is
át y
t unes
▁pod ľa
▁lavor o
▁t enn
ú č
▁σύγκ ριση
▁net ts
l v
▁aust ria
▁μ ά
t ro
▁sek und
▁regist rer
ida an
ā lu
▁pal ju
▁f id
um ento
▁ap o
▁σχε τικά
▁hø j
м у
▁k av
▁n ė
▁dru ge
▁rec up
▁ve ic
▁german y
▁jane iro
▁ar na
▁z wiąz
us ten
▁на с
▁imm ag
ch io
▁is k
▁fol k
ie z
▁о ще
▁ca us
▁n an
▁plus ieurs
áz í
▁ε μπ
▁ ;
▁f är
▁l if
▁znaj du
▁ja ut
▁industri al
util isation
▁ änd
▁w rit
jet i
▁m ise
y ta
sa ug
▁const ruc
▁c í
▁dro it
en u
▁co oper
▁κ ύ
▁offer te
▁s we
▁ac um
▁f red
ie go
▁gebru ikt
▁met hod
▁is teach
▁ca ł
▁sa ņem
burg h
▁sistem as
tor s
land e
l je
▁πρό γραμμα
▁comp ag
l oc
▁o tras
ма ти
▁п и
т ро
▁par agra
не н
ic ka
▁co im
▁š pan
▁sal le
л ната
▁pol e
▁altern at
▁bil li
un ar
▁e valu
▁gled e
▁по тре
▁fol y
▁noss os
▁mog ą
▁κ έντ
λ ές
▁ku ul
k ast
▁euro op
▁k emp
▁g ps
l ust
▁vyber te
▁u zy
k ons
▁f ara
el as
▁un it
▁ct rip
el f
▁ad r
▁gratu ito
k á
st ru
▁produc ten
a ine
▁el ev
dy ti
▁insp ir
▁op ortun
▁trabal ho
▁rom ânia
к си
ě ní
▁via ggio
▁vo os
▁profes ional
▁r ých
▁elekt ri
▁ib is
▁každ ý
ill as
▁d ai
ij ing
▁look ing
▁nor te
og oč
iet en
q as
é qu
j in
ze ich
▁kl in
цио на
▁k lu
▁mis mo
▁dis play
▁f hor
v os
▁rés er
▁ste d
▁or den
▁mé id
▁inform ácie
▁sal on
▁в зе
oir í
▁t ion
r ól
▁tie š
▁var me
▁výslov nost
▁ча ст
▁for est
▁gr ill
ik si
▁pre vis
▁jär jest
▁he art
▁hamb urg
▁aven ue
▁ ντ
us ive
▁okol í
ot el
st al
▁rom ant
▁ho og
▁tre b
ju ta
▁výsled ky
▁r ych
▁encu entra
▁p ho
▁t esti
▁s ätt
▁m unk
nik u
ij ken
▁r è
▁pres enta
8 7
ā di
е р
▁inte gra
t et
j ent
▁dezvol t
▁k ru
▁blízk osti
ri et
▁vä ga
▁fre qu
▁ná st
▁re yk
it ement
▁her stellen
hal b
▁res pu
▁c n
▁pol o
é al
▁fa ç
▁ol tre
▁os p
▁hver jar
▁de po
▁př ip
▁bil a
ta d
ně jší
▁jej ich
kon a
▁fo ot
▁gra ph
▁j ää
κ αν
▁ver blij
ę zy
▁un ique
▁προσ φέρ
om m
▁wy b
▁sk ulle
▁ord in
▁miss ion
▁ ́
cz as
ł u
▁gist in
π ι
▁t egen
▁ofre ce
ų jų
kr ing
▁san to
▁s ín
ore a
▁ok tober
le b
▁bel ang
▁gistin ætur
те ли
im mä
▁indust ry
▁sob e
▁air es
▁qu esti
▁pe ł
▁pop is
▁group e
qu ement
ite iten
▁sä ker
▁al d
stell ung
▁š v
▁js em
▁vý kon
▁х и
▁επ α
▁g at
8 4
und o
▁ ¡
▁про е
ê tes
▁ž ád
r ā
z ó
▁k é
lig en
▁re par
▁disc over
▁mens chen
abil ity
▁m ün
▁ar ts
▁о с
▁situ ation
▁po ł
▁ubyt ovanie
▁p én
▁про гра
▁jung t
om ány
rat o
▁nat ura
▁wil li
▁m r
b ie
is ku
s lu
▁or ig
▁ter ug
▁az on
▁constru ction
▁mit ä
▁comp uta
▁sk irt
▁la ge
it ys
▁to o
▁dis co
▁pri ces
nik ov
▁dom ain
p ut
ied ade
200 8
▁mu ze
▁espa ñ
▁n g
▁οπο ίο
▁verb ind
▁inst ant
ies ta
▁ge f
ist at
εί ο
▁do it
▁w he
▁preg led
st ation
ma x
τ ων
▁geg evens
gy vend
ci pl
▁ofert as
▁pute ți
▁bm w
ruc ture
an ci
▁fir my
▁ ου
μ ου
▁pu zz
▁p ână
▁sel on
▁v ib
▁wi el
▁al ug
▁apartament os
ion a
▁se b
▁a inda
▁pe qu
og li
▁produk te
▁d c
▁kou pel
▁si ad
б у
▁lib ert
f unk
▁viešbu čių
ost í
kl op
dz iesz
▁χ λμ
▁reg el
▁fa is
нла йн
de c
▁bill eder
▁ver ific
▁nak up
▁kok o
▁о нлайн
▁við skip
v ilupp
i ques
os ť
▁s ut
▁versch ill
σ ίας
ě jší
ü gy
▁bul gar
▁b ija
ia in
▁8 5
▁son y
ky tu
▁izman toj
▁pier ws
▁to ho
▁m nog
▁i est
▁sh er
▁att ra
▁conf igur
▁th ings
▁le it
▁je an
▁t esta
▁pe que
k n
kk el
eg y
▁π ρω
▁mi ędzy
z at
▁zn amen
▁en ti
▁b ele
un ion
▁re ak
▁tä yd
▁sv ět
ac tiv
▁megfel elő
▁he il
ol ja
▁0 1
θεί τε
μ ιο
▁se znam
зу лта
ăr ile
▁fran ces
▁pre zzo
▁megjelen ítése
б ле
▁g ob
end ur
isk ās
con om
▁ro g
▁cer tain
▁mell an
▁exper t
▁n ort
т ки
▁od por
▁απα ντή
uje jo
▁ха рак
▁il g
▁pro ve
▁centr ale
at koz
к ла
rat as
ar tic
▁stock holm
g gi
▁tér kép
▁tör tén
▁mont re
ed el
▁fiec are
▁une i
▁eg ész
в на
▁y ksi
▁re ise
▁pu h
▁car ta
▁ev ents
▁ter az
▁vis ite
▁vol l
▁temper ature
▁seule ment
▁ре зулта
▁prog ress
ub bl
▁y mp
▁j ęzy
▁währ end
▁vær et
▁sam uti
▁reserv ations
▁mainten ant
eb a
▁pre cio
▁do pp
▁program as
ē ta
▁k ov
▁r ann
▁k ys
▁j ok
▁for ret
▁adem ás
e va
▁не го
▁span ien
▁stron ie
▁chur ch
▁dar ba
u ku
▁g iver
χ υ
▁ч ове
é b
ick en
í va
▁re produ
j ur
d av
r ito
ss ze
▁conf igura
en cial
cij ų
▁rel ations
n l
λε κ
▁tem at
▁bib lio
▁t age
▁w koll
g round
ве р
ost at
b ury
▁en da
▁inst ru
uj eme
it ie
▁or lando
f idh
▁d ě
▁εφ αρμο
▁pr esti
▁liet uva
▁erbjud er
k ün
t ter
▁с ве
▁facil ities
▁tra duc
nik e
з ва
w en
idh m
fe ar
e au
f h
tt es
▁dise ño
▁cor po
▁ο δ
eg i
κο π
▁dr ess
▁voy age
ci ch
mény ek
cer ia
đ u
▁ham pton
č aj
▁ph enter
au k
al an
▁e h
▁ав то
or ies
▁sp olu
▁billig ste
▁is ol
▁s ast
▁kla us
e ar
▁ ш
▁v ist
▁βοη θή
▁pi il
▁sem ester
▁qu ad
▁c ine
▁king dom
▁son raí
▁conse il
▁dumneavo astră
u an
▁pär ast
▁anc ora
▁th ail
ν ους
▁sam en
▁gy ven
▁vri jeme
т ри
▁sp od
▁aiz s
▁sv ak
un que
▁op t
▁im pos
▁contin ua
▁iz b
▁bu reau
a an
▁pro jec
▁ag ua
l ás
▁m ums
▁q ed
án d
▁kiejt ése
▁ris ult
▁b ine
▁airge adra
ч ните
▁π λα
eg os
▁c ód
f eld
▁an no
▁unterst üt
▁webs ites
et z
▁sp ôsob
ě r
▁flugv öllur
▁sel bst
▁iz govor
▁s yste
▁chamb res
▁us l
▁access o
s la
▁atrav és
▁не об
lie ß
so ft
▁επισ κέ
am t
sc ript
▁as c
▁с ме
, ,
š o
▁kon k
▁weit ere
ž as
▁v ab
▁συ σκευ
▁to w
tur es
▁ta ik
ith re
▁jo urs
▁cul ture
▁ve id
λ ικ
en ch
ş ti
ç ais
▁τ ρό
к ре
s ide
π ισ
ρ ικό
▁οπο ία
▁qual idade
▁[ ...]
is pi
το ν
μέν ου
h ang
▁dé cl
▁chu ig
▁mil es
▁kra ft
ik azzjoni
▁for bed
▁by g
re p
▁viet nam
в ка
▁orien ta
▁h ai
ī d
▁br uss
ł e
▁ktor á
▁memb res
áv ky
ti ce
▁in sta
▁cu id
▁hod noc
▁analy tics
▁seg uro
▁ ć
▁ü h
▁ricer ca
рабо т
z joni
▁ri ghts
ell inen
▁konta kti
f yl
as to
▁div is
▁se ñ
▁cen as
▁vs ak
▁hj á
▁n ød
▁distri ct
▁a x
▁bied t
achta í
▁pir m
á tica
ab bli
▁t ink
uj ete
7 9
om er
on ne
pr is
▁i ci
▁aut enti
▁amaz on
o ce
▁contr ô
ко но
▁confi ança
ше ние
▁z ie
▁at p
▁va id
▁sh ar
do or
all es
c imento
▁ed ition
▁compan ies
et as
ent r
ст ру
▁po ints
▁g á
▁έχ ετε
λ ους
▁electr ón
▁inter ven
▁obrá z
▁fl üge
▁z jed
▁ad icion
▁ós vik
▁sn ow
t in
it are
isk ā
y an
▁at bil
▁te or
▁dé ta
▁ü gy
▁ét ats
eb b
ρικ ής
d ie
. :
▁pri mo
▁száll od
▁off ent
ād es
▁soci ale
▁cab o
▁ta is
▁po by
o a
▁nagy on
▁bl å
▁u itz
▁con ex
▁v hod
▁qu est
ii i
jo y
▁dan mark
▁vide os
n itt
n te
▁anv änder
s ed
▁intel ig
▁desenvol v
▁hjel pe
▁pron unci
in al
▁bl oc
▁uporab o
▁u imh
▁er k
▁gr y
▁ta čiau
ur ance
iz ion
▁e j
▁con v
h ran
j ati
g eg
▁republ ika
▁m ys
▁os ta
▁amely ek
но ве
▁ε ύ
▁ure đ
▁person nel
▁at tività
▁tro vare
▁sa ist
▁inn legg
▁fle iri
ân cia
▁regist r
ic amente
▁má te
ø m
▁ ör
▁pap ier
h aj
ac tion
▁tro is
v ate
ít ása
▁solu tion
▁dist ance
▁a com
▁kur is
▁premi ère
▁polit ika
▁ro bert
▁gior no
▁reg ular
▁ma šč
ă to
m c
▁pos kytu
ál t
di č
▁võ im
▁tv í
▁le il
▁conne ct
▁cz emu
enn es
▁p id
▁coment arios
ni ť
ði ð
▁sar à
ре с
τικ ού
▁op tion
č et
▁с ту
üss en
est re
cou p
▁τοπο θε
▁f yr
▁repr és
▁væ l
koľ vek
ri ger
qu i
▁execu tive
▁best ill
▁l ys
▁vid é
▁h ung
▁w anne
▁sm å
▁ce a
▁st al
c ing
ując ym
ure zza
▁pom ô
ím av
ol are
▁αρ χ
▁rel ated
▁š al
par lament
▁zv ý
▁оча ква
▁mě sta
▁cal end
▁technolog ies
▁org ul
▁la ika
▁w en
ся ване
▁ind iri
▁re pre
▁arch ivo
▁del ta
▁mé xico
▁fire fox
▁reserv ar
al ité
k ut
del en
▁joh ann
▁prí stup
▁ob jav
▁té to
ότη τες
▁k ū
▁bol j
▁man era
áv ání
▁n ici
▁con duc
ard i
regol ament
▁ex port
▁v pra
ž io
se ite
▁z ij
▁učink ov
▁tri b
▁sh all
▁kompl et
▁kil om
▁die go
istic s
j l
▁enf ants
▁раз по
▁α φ
č an
▁προηγ ούμε
▁bal í
▁s érie
▁συνε ργ
f ace
▁kan ada
▁ist an
s ek
a on
▁tilby der
r ód
▁re vis
ks am
▁ma jo
is em
▁3 65
sp re
▁comp rom
▁sklad u
▁compl eta
▁pra w
j ál
▁по доб
▁gy ak
▁chi ar
▁про це
▁sul le
an k
el ess
▁map u
ş te
wickl ung
▁so ul
▁sem ana
t à
▁be ijing
ż s
inā tu
eb ord
▁z elen
▁soci été
▁med žia
▁kosten los
me zz
▁best u
▁els ő
▁ket one
at ia
▁pr esta
▁fr å
▁lors que
▁m ale
wo hn
▁о преде
▁δωμάτ ιο
3 00
▁kõ ige
▁wie ħed
▁wanne er
▁ε άν
▁lux ury
▁pu oi
▁ц я
▁dispon ibile
▁bes kyt
ts ég
σ ουμε
▁f isk
▁sal es
▁l em
▁re ģ
▁необ ходи
▁rekl am
▁επ ε
▁satel it
▁pot om
mi ð
▁a udi
▁vi ele
▁ch ron
▁vo idaan
▁ ā
▁mar c
cond ition
brit an
▁er fol
▁ε δ
▁ev olu
▁потре бите
j is
σ μα
ol id
▁στο ι
▁z g
▁p ip
▁est udi
▁h ug
ol en
▁az i
▁om ogoč
▁pi ano
all en
▁tehn olo
▁ná jsť
▁hist ori
▁per ché
b ö
то ри
▁λάβ ετε
k w
▁an on
st ö
▁materi ál
μ πο
▁m ist
k ien
ob y
d ia
▁un g
ut taa
▁sv é
jen je
▁ut tal
des ign
▁dro its
▁по ли
l ike
λαμβ άν
▁su te
▁pro iect
▁wszystk ich
yb os
▁d ú
▁y li
▁cu is
▁а д
ten i
▁lou is
ξη ς
▁char akter
▁fund ament
ary ti
▁contem por
▁б у
▁vu onna
b c
▁tar if
▁histor ia
▁edu ca
▁συγ κε
▁kom fort
θ ούν
ný mi
▁gr â
z as
b id
▁or szág
al ity
▁spr z
▁zar adi
▁pa ž
▁comer cial
áci ó
▁pet it
▁n op
w agen
r end
äl la
▁rund t
▁þ jón
▁nemok ama
▁di za
▁rec ent
▁tová bb
▁c ai
▁al f
στε ί
e in
▁de be
ta í
▁person ne
▁mat ri
▁för sta
▁partner em
za hl
▁не бето
p ově
ί νο
▁del iver
стви е
▁att ī
ie i
▁c over
gr ess
c ost
▁alle en
▁benef ici
ре д
▁va h
isten za
izz jonijiet
▁sk re
▁pod la
q t
ag ement
▁d va
се к
▁corres pond
▁par ceria
▁pasir ink
▁l ater
▁cu ir
▁me est
▁jam es
▁newslet ter
σ ματα
▁rés ult
▁g dy
▁cre ate
sp ra
▁tap a
▁de us
▁car atter
▁val ue
lýs ingar
▁t jän
не р
» .
▁fin na
▁v ap
ire adh
▁e a
▁am i
ro c
ot ts
▁dien st
▁e y
▁se hen
▁con na
▁dat ing
▁op slag
ch tig
▁mon ar
▁δ ρα
▁ps ych
▁r ue
ich ten
▁an ci
pro wad
▁раз ви
▁w ars
▁f he
▁vis ion
bo te
▁phenter mine
▁ ×
▁resp ect
na j
▁nap ra
ρ ους
aj ąc
▁ósvik nar
▁f ern
ck y
▁acces o
▁πε λά
▁lehető ség
le ist
h im
w ol
▁επισκέ π
▁dz ī
▁199 8
▁av i
b at
it ab
▁commer cial
▁navig ation
▁tecnolog ia
▁ ..
m ány
ла та
▁re ino
ре те
▁ob sta
as ia
▁и ме
▁ust var
v ra
ρί ς
▁che z
tel se
άνι ση
, "
▁beau coup
▁res ist
▁fut uro
▁t ell
n g
é ment
iz zi
▁se kun
▁sta ff
▁fr on
▁h eld
▁сре д
ys ég
t res
tic al
▁спе циа
ād as
á rod
ri ge
▁nov é
▁o ve
▁sit ten
σ ίες
▁h ľad
▁administ ra
hô tel
▁adr esse
op en
▁reg ister
k ab
em me
ir g
▁mo is
▁π ισ
▁κατα σκευ
▁kö l
▁h ela
▁m ø
▁s ien
▁por te
ál ia
ator s
ust on
▁a ika
▁z ás
▁ве че
▁a pres
ži ų
▁r ange
▁sla ap
▁es cu
▁bel g
▁toal et
▁ré du
ę ż
▁ir ány
▁co ast
▁f ő
▁ση μεί
▁у е
áv anie
ik or
▁gebruik en
ar am
▁hodnoc ení
▁βρίσκε ται
▁kr it
▁dom ov
▁ λέ
ar án
▁fran çais
▁dir et
ut ă
▁wur den
▁univers al
▁v ēr
▁a ri
▁sú bor
▁att rav
▁ ers
▁områ det
▁par c
ž iv
▁m ú
▁ex change
▁in sc
ha fen
▁gro w
▁espa ña
▁bes k
▁īpa š
č ki
▁š iro
▁pal m
▁lj udi
▁el imin
▁bet re
▁rég ion
▁δια μο
▁en or
▁c ort
wię ks
▁тя х
▁comb ina
▁veľ mi
zin árod
ча ва
▁br as
▁ви е
▁par em
▁l ut
īt ā
л ните
äm ä
▁situ a
i ar
▁th omas
▁ans var
▁p ne
ke en
▁no z
▁m he
▁g é
u chen
w ell
▁lu a
▁tví bre
m ål
▁verschill ende
f m
▁έ κ
cy j
▁pl ik
▁overn at
ána ch
▁aug st
erv ice
χ η
le ct
k ład
▁kä s
▁e co
▁r ink
ujo urs
▁z ve
▁t ov
ā tu
г ри
▁to urs
▁n este
vær else
▁gra zie
▁grâ ce
u cht
▁dam it
š ti
▁j al
▁p hr
▁tod ay
▁bor g
a o
▁vyh led
▁co ol
▁str ony
hr ú
r án
▁rep ülő
▁med ical
▁j em
▁rendel ke
▁c au
▁πολιτε ίες
▁nu ova
▁д ъл
äm för
▁pe u
▁el l
▁m am
θ ν
b ach
υ κ
▁inn an
▁restaur ante
▁ot vor
▁dire kte
po ż
n in
▁po zi
z iv
▁ äl
▁to ujours
▁is s
▁φ υσ
г не
▁yo ung
▁f os
ow ym
▁res pon
▁e get
▁võ t
▁h app
▁su g
▁sl im
▁φω το
▁ben ut
▁ve j
m ond
át t
▁sas ka
▁gu ang
m ore
▁pag es
x imo
▁kon cent
▁gal im
, ”
▁ees mär
▁rece pt
▁къ де
▁twe e
ξ ύ
▁eleg ant
▁ре ги
ложе ние
▁for te
▁con cep
▁у ве
▁vlast ní
l ingen
ju je
▁compl eto
ap plic
▁in neh
▁im pri
▁habit aciones
in ing
▁sk il
▁mag ħ
▁υπάρ χουν
▁d he
▁en qu
▁od govor
p ok
t is
▁gouvern ement
▁ste el
ine a
▁α με
me id
▁на ме
ně te
h ab
▁ro sa
▁tr es
or de
▁č ia
▁a ant
pp i
▁spé cial
λε ια
wi ad
▁ra port
▁ol ul
▁m ellem
▁air teagal
▁publ ik
ast re
▁tagħ na
et ten
▁h lad
é as
fa hren
▁на д
▁cast le
▁excel ente
▁dic tion
▁en cy
▁sim ul
▁la go
▁w asser
▁de ven
ot es
▁ettev õt
m ű
▁sh ort
▁де й
ge ving
▁cz ł
▁amerik ai
▁pu is
▁pres idente
▁prz eg
▁for n
h ui
▁ε ιδ
▁zn ale
▁v ī
ov ol
ti ver
λ ών
▁piil ota
▁jac kson
▁e jem
▁najlep šie
▁reser ve
▁fé in
▁о ро
▁autom obil
▁wy kor
▁kategor ie
▁cho is
▁vien na
y y
▁mat éri
▁въ про
▁st yl
▁ü bers
▁sé lection
κ τη
t c
▁ph one
▁5 9
* !
ull en
ha in
con o
▁ηνω μένες
ít ett
▁ε ικό
▁p ec
o are
▁võ r
▁ingl és
▁ser ve
▁speci fik
▁m ort
▁dan k
▁pie vien
▁cad re
▁h az
▁sloven sko
▁ne vo
ov ou
▁iz v
av anje
▁j ama
▁ex act
си я
▁di et
ig are
▁om kring
▁pal ma
▁down town
▁v állal
▁d ane
▁t ale
▁оро сяване
▁fot ogra
▁ob ec
▁o č
▁vost ro
λ ώ
▁t ým
▁mož nost
z ob
tif s
st å
▁e el
▁om egle
▁vre mea
▁sl ed
▁republ ic
▁out ras
nie g
▁g esti
▁quel ques
▁piemē ram
▁duomen ų
▁h itt
7 6
▁αντ ι
v ény
▁per žiūr
▁galler y
ó ra
ö kk
▁j ú
▁ot áz
▁n ogle
▁vis ual
▁ve zet
▁h oved
é f
▁b und
▁v ede
▁о ко
▁accommod ation
pers on
▁tex as
▁obs ługi
te en
ř ej
r ől
ц ен
▁istan bul
▁ar riv
▁re mo
▁a ta
▁sv jet
▁č l
▁sp ar
t w
ю щи
ik on
▁vill as
▁lé tre
olog y
p ade
▁ri cht
▁ab b
▁t ib
▁т ъ
▁ob aw
▁b ridge
▁v än
▁o tr
▁se it
▁ri ce
ent rum
al ni
ād ī
▁prod otto
▁stra ips
▁sa at
▁r up
od er
▁pas se
▁t ent
▁fun ction
ide al
▁mar co
▁vis ita
▁ju ż
▁z ra
ющи й
▁e orp
▁kon kr
▁pl ate
х и
b ek
▁mens en
▁fh áil
▁of ic
▁tren ut
ent ras
▁transp orte
▁tel es
ι ω
▁o w
j ana
k ā
▁ду ющий
ke a
ik ko
ád za
▁mus í
r ant
▁εται ρεί
for ta
▁vol jo
it ude
▁projek tu
▁za ht
▁sal ud
▁ves el
tif ul
b la
▁ce ea
▁favor iser
▁õig us
v ari
▁pr end
āl ā
▁elekt ro
▁þess i
▁pl asti
▁š ķ
▁d ens
ien ne
▁tv å
p ul
▁mu kaan
▁b ist
▁ar ra
sk em
▁nás led
▁bru ke
▁well ness
▁sam a
▁inter est
h ere
▁se v
▁ме ста
▁da oine
▁activ ités
▁s ost
▁beoordel ingen
▁spr end
στη μα
▁mar ché
▁el ke
ic y
▁м я
n ē
▁via je
p df
▁per mezz
▁m ember
▁φ ι
▁politi que
▁sija itse
▁internet u
ang el
▁cl imat
▁ό λες
▁5 2
ch as
▁bes tem
z an
▁y oga
▁alg uns
▁ré se
ie ke
▁bez o
▁anv ända
all o
▁imp act
▁przy pad
▁co ffee
▁př ih
▁l icht
ie ve
▁param et
▁utiliz ar
ass o
▁al ors
▁tra de
ini um
▁valst s
ind re
▁ay uda
▁αναζή τηση
▁dro tt
▁n ení
▁custom er
▁tysk land
▁κέντ ρο
▁st ry
ol es
▁δυνα τό
▁до ба
▁m lad
al ak
▁schwe iz
▁na cht
▁na u
▁in ner
ka uf
áv á
ä hr
▁g eld
▁про дъл
z ett
▁π ριν
s ett
▁b ajo
▁avalia ções
ρ ικά
▁mí st
rz eb
▁u zt
ни ка
▁ú gy
aw tor
▁ц ент
▁g lu
▁pap el
be h
▁ž iad
▁ih m
▁χω ρίς
▁з дра
hav en
▁d ve
▁natur ale
▁αρ χεί
asc ă
▁f ur
itt ää
▁reik al
▁goed k
▁до став
re y
▁nasta ven
▁pal jon
▁caz ul
▁in ol
el in
▁lie fer
▁recom mend
▁т ре
r ont
▁gala xy
▁la ps
▁pa ulo
▁z ato
▁parker ing
ä ra
▁ad gang
ère ment
ost as
īg ā
▁οδ ηγ
▁mar y
▁lj ós
g år
▁ άρ
▁nu air
ik ti
er st
▁al imenta
▁podat ke
▁ba in
▁mô žu
▁ge org
▁ch ile
▁thail and
ach as
▁st ellen
▁ens immä
▁ide a
▁nos otros
al ità
▁ефе кти
▁jap on
m g
▁app s
ν ετε
▁kdy ž
zi ć
▁ö ssze
▁сто йност
j anje
▁и м
▁nust at
▁ier ak
▁m oc
▁na ši
▁fö lj
▁roh kem
u ille
▁dire k
▁contac to
▁nė ra
h ire
▁prenota zioni
▁ilmo it
▁f els
▁b ug
▁k redit
▁na zzjonali
▁ди ре
▁seg unda
▁disc uss
▁beh ov
▁orgul ho
î n
▁oly mp
▁läh ellä
▁ob ser
z zi
▁η λεκ
▁t um
▁n en
κ ει
▁ot ra
▁до пъл
▁fly bill
▁kor ral
▁tr et
▁st os
ien ti
▁re form
úch áin
▁archit ekt
op h
in ky
▁vert rouwen
▁er g
▁depo is
▁няко и
▁reik ia
un ud
▁del e
▁σ ου
ij ų
ch ine
▁v ď
7 1
g us
7 2
▁ger iausi
olog ia
▁vy š
▁beh över
▁jkun u
▁mu uta
at as
is ing
▁ik un
▁af stand
e ce
ok ka
▁κι νη
▁strut tura
▁map pa
au j
av en
ard ro
▁dere chos
ony wać
▁event u
óri o
▁μ ία
▁fl oor
▁ch al
▁fa il
▁izr una
в у
▁gad ījum
▁cas as
▁па за
▁5 6
▁sch ön
▁wer d
▁3 60
ag ens
▁gu ar
▁cul tura
▁m üssen
am enta
ash ion
▁st u
▁smart phone
▁tur k
▁cos as
t est
se c
▁mund ial
▁minut ter
▁lin ux
▁m ans
▁hø y
et her
ak tiv
▁huone en
il ta
▁dok onywać
5 8
▁разли чни
▁pri dob
ia c
▁aceste a
▁ev entos
▁again st
▁d å
▁loc aliz
▁car act
▁t áv
▁g ün
▁desarrol lo
ra uk
м ите
▁pesqu isa
ad ó
ci ale
k rom
▁r åd
up t
▁sl ut
z s
▁údaj ov
▁köz ött
▁daw k
ug i
▁dem oc
▁drugi h
▁następ ującym
7 4
ter min
è ne
ub er
▁fotograf ie
▁s itä
▁упра в
▁n ato
▁pasi ū
▁χ ά
ma a
▁col leg
▁z ou
ik ult
▁men o
▁najbol je
ro gen
▁pers oon
▁bes oin
νο ικ
▁result ater
▁ne ver
▁bílale iga
▁kos ka
ós ág
▁mož né
▁ευ ρω
▁k ogu
▁esta ble
▁ag a
▁pod ruč
▁v ok
▁a way
▁kasuta da
▁th ink
c ido
ċċ ess
▁gal ima
▁ek st
▁pří pad
▁ca usa
стро й
▁sc en
▁s alt
▁let to
ě te
▁b ach
▁l ess
▁össz es
ț ine
▁tien en
▁ul tim
▁tren bol
че ни
ari an
ning u
ut are
▁alquil er
▁mul tim
▁post ing
▁naš ich
▁prá vo
▁hol land
▁communic ation
▁recurs os
▁hotell tilbud
é an
ch l
▁mil an
▁ja oks
▁sj äl
▁résult ats
▁fil tr
ší m
ти я
▁ont w
á tico
▁fe atures
▁ot ten
▁ad apt
▁štev il
▁liv re
í odh
▁veg na
▁interpr et
ov ací
▁αυτο κ
▁odpowied zi
▁dum nym
▁þe im
▁apartm án
▁am p
▁overnatt ingsste
λό γ
▁tro v
▁skut oč
▁effettu are
▁in nych
▁χρή ση
▁migli or
it ch
▁ofer ă
▁kom m
▁tred je
ut es
▁hrvat ska
▁am bi
v ara
e ver
▁les z
▁hozz á
▁vol led
▁ν ό
▁lu ogo
λε τε
ст та
▁g osti
▁gist ing
▁слу ча
▁m ij
▁må ste
φ ω
▁ud vik
j án
▁pog od
▁mel bourne
zn ik
▁car r
πο ιο
δ έ
▁ju ego
▁h lu
▁parti es
a ħ
è te
▁seirbh ís
▁ph ar
▁seg íts
▁entfer nt
▁í gy
▁p izza
▁fantast isk
▁sak er
▁начи н
gen es
▁c ord
ze ń
▁gal ven
▁r eng
▁muse o
▁υπ ό
t é
▁[ +
▁wall pap
▁cir ca
▁vš ak
yb ė
vy š
fr ont
het s
▁būt ų
▁su ff
pro duc
▁st ars
▁jedn ak
ke e
▁hill s
as is
▁s ven
▁παιχνίδ ι
▁po i
▁mess age
▁lie u
is as
st äll
ic ana
i us
▁re i
▁bez po
ti ka
n jo
▁ny om
▁i c
▁mag as
▁tilby r
le j
sk aber
▁mik ä
▁di as
im et
ge v
▁hotel ů
▁m io
ρε υ
eg li
ри о
▁su oi
▁an nu
▁вся ка
▁in ser
▁b ús
▁fut ure
▁est rat
▁flex ibil
▁prof ile
▁en joy
▁aj al
▁an te
▁v ip
▁aut taa
▁tla č
▁an se
▁propri o
▁pl ast
ē d
▁for ce
e ază
▁ch ine
▁se ction
ro ve
ή σετε
▁dne v
▁for am
b res
in imas
▁sav oir
▁tré imhse
▁beau tiful
k it
н ти
ė d
▁person lige
ek er
▁acer ca
▁un iti
▁ч лен
▁qu ello
▁στοι χεί
ž el
emb ro
inė je
▁εξ ο
▁τ ό
▁k ust
▁h owe
▁i o
cha ften
▁p ana
▁în că
к ция
▁equip o
rad h
▁n it
▁s ara
▁ri m
▁sel f
k var
по ръ
▁уе б
▁s á
▁tu ot
▁proiz v
▁г ла
▁c ore
▁bh fe
▁autom a
ati ques
▁os lo
▁ένα ς
φ ε
▁un iver
▁com mentaires
d le
▁med lem
▁å t
ст ри
▁of icial
▁w ww
▁мя сто
▁s mer
▁ret urn
▁work ing
p ur
tér kép
im me
in ki
▁min uti
▁izmant ot
o id
▁me zi
▁be b
▁con cept
▁al ko
▁lig t
▁r zec
▁sprz eda
▁se i
▁dalīb val
ota v
▁ad visor
ė kite
b ok
▁speci ale
ve č
▁w and
▁inkl usive
ție i
▁száll oda
▁i gu
▁via gem
ge ven
▁par as
pp a
▁vď aka
λ ικό
▁b ě
▁expl orer
▁egy et
▁sk ap
um ą
▁m anten
▁σύν δε
▁χα ρα
▁reyk jav
ι ών
▁ λι
▁por ov
at ar
λει ο
▁him mel
▁pi ę
il ise
w is
▁goedk ope
▁im pres
m ín
▁egy ik
▁υ ψη
▁m üü
▁desig ner
▁sh i
▁sa o
▁pr zet
▁minut ters
x e
c it
end ed
▁dire kti
▁μ ου
▁magyar ország
τ ρα
▁av ait
▁szállás hely
▁f íse
wor ks
▁puzz le
λ ιο
▁copy right
▁πο ι
▁do bre
▁lap top
▁espec í
bu je
τ ύ
▁mon tag
m ittel
▁po pr
an meld
ρο ν
▁j ord
un ut
▁p ali
▁bħ al
op s
▁am or
com hairle
iv å
▁th re
▁przeg lą
ít ó
▁s ort
a ñ
▁ex iste
▁νέ α
▁des e
ov ali
ti ed
▁gł ów
▁nat uur
▁a id
200 6
up e
m assa
ald ab
▁z onder
▁mu ud
▁lih ts
les zt
▁φωτο γραφ
▁fü hr
p ing
▁n us
ac ję
▁af rika
▁zd roj
λ ής
r ite
at em
▁z de
▁zob acz
ist ö
▁divers i
▁pr už
▁ma h
▁pr u
▁δρα στη
▁mús ica
▁organ izz
▁vyh ľad
ze p
▁но ви
sk ab
▁contin ue
▁es z
▁famil ia
▁fra me
▁bag no
▁s zyb
р ски
▁to ols
▁tud o
▁gro ot
▁medi ante
▁au ß
άρ κε
▁e erste
▁fac ile
▁actu al
▁val sti
νη ς
▁electr on
j ust
▁ver ant
ē šana
▁hjem mes
▁ri ca
к ра
▁ταξ ιδ
▁c able
om u
▁objek tu
▁α ρι
▁man e
el ige
▁char ge
kl ing
▁tid igare
▁up ra
▁ter me
▁váš ho
ab ili
▁re j
▁em ir
▁tär ke
▁al ém
▁l ift
▁val mist
▁gl ass
ċ ess
▁sk ri
▁jed no
▁war m
ens ä
▁regist ro
▁ ←
▁p ab
▁stim ul
▁с об
стве ни
▁cr éd
ks omh
▁bha ineann
▁val encia
▁mi asta
▁cons egu
▁zan im
li ance
▁de al
▁š peci
▁komun ik
▁air condition
▁ber l
p un
aj í
d k
▁us ług
▁bezpo śred
▁0 4
▁ti ġi
▁π ρά
▁fe arr
▁ ло
▁pr ès
▁em o
v ak
▁ná š
iste anna
sk oj
▁f én
x a
zi el
un ki
▁ger ne
è le
▁te pl
▁8 9
sk iej
ri ż
υ π
▁ζ ω
▁pri d
p om
▁z l
▁segur ança
▁ad vent
ec ted
ol ari
he ad
▁suos ik
i og
▁vien u
▁t ed
▁wy kon
▁s est
b eg
▁j ar
▁met rop
▁fra g
▁g ig
▁vac ances
▁zd ję
▁t ort
▁alex and
▁é let
▁raz voj
a e
▁s ør
▁pute a
n ete
▁vol vo
z ij
ig ne
▁bús qu
oll en
λο ι
▁so cio
p oc
▁s ada
▁0 9
▁artic les
ier ten
▁p ere
▁te ach
▁parha at
▁mag gi
▁dat um
c ów
vel ja
▁mes a
ist í
▁guer ra
▁can on
▁categor ia
▁a tiv
▁bill ede
▁prost red
▁lie gt
▁neu en
8 3
▁d ana
▁overs ikt
▁ ω
▁kohte en
ow i
▁ri k
▁reserver ingen
а ли
▁ain ult
s var
▁pam at
szer ű
▁t ussen
▁ide ale
ista a
д не
▁из и
▁kohte eseen
▁usu ario
▁ap are
▁годи ни
æn um
▁cap e
j ā
▁zag otav
▁qu indi
▁а т
ρε τε
▁lond res
▁hjäl p
l ös
▁roy alty
acy j
ца та
an ut
▁komp at
▁пра во
▁b ow
▁cond iciones
▁to wer
▁ob jed
▁her r
▁systém u
▁e ż
▁re ach
▁tarjo aa
га не
▁od bor
jum us
▁trebu i
ρικ ές
▁gra do
σ τό
ac qu
ľ adať
ri co
в ри
ot oj
▁nas zych
▁συγκε κρι
um enti
este der
▁п ло
ν ώ
um in
ar ju
d id
ít ott
▁pé ld
π αν
▁tur ist
ρ ων
▁vis er
▁kur u
▁z h
ik os
ăt ă
ti o
ak er
fi que
▁s ät
жда не
▁mon et
▁s re
ț ional
▁c redit
▁ма р
▁ac esso
▁s ri
ą ce
▁nek aj
▁hab itación
▁es pan
▁společ nosti
▁jednot liv
▁attrav erso
is p
▁es tim
▁osob a
▁applic ations
▁ch éad
▁ch é
art s
▁mi entras
▁εδ ώ
▁ech ip
▁tám ogat
▁dir etta
▁ ру
▁gæ ster
▁ach ter
▁su che
▁uživat el
ar ja
ā li
an al
▁l ite
og n
▁k rav
ło ż
▁nå gon
ok ra
▁ευρω πα
s ă
▁områ de
▁week end
re as
▁γ νω
ov u
εί ς
▁l cd
ün d
▁eorp ach
▁an net
▁ed it
▁b ü
ha il
▁neg ó
▁al go
▁a ñ
▁vlu chten
▁úl tima
m ina
iz ar
ir us
▁z iel
y ard
▁tr in
▁ku ch
▁españ ol
▁na pr
▁k ett
▁из пъл
▁par ce
▁var ia
▁th ar
iet ies
ni ž
▁c inn
na i
▁dell o
▁ce ann
▁pra ha
▁са й
▁pu edes
▁за т
ча т
▁hy vin
▁n ru
▁a is
▁pod emos
▁enter prise
bi ra
▁j ät
▁τηλε ό
▁jour nal
▁ob dob
k ot
▁com men
teri ores
ed ing
re v
▁bo ek
▁sp lit
ek u
▁lä s
▁h aj
▁signi fica
▁sch la
▁comp are
▁l ign
5 6
▁e as
▁sv ij
æn g
▁pr ø
▁all ow
▁s atur
▁bezp łat
▁qu and
▁in fer
▁ġ ener
δ ρό
▁process us
▁ke zel
ле жи
skie go
v ány
b ord
os an
▁а р
y ing
▁č ís
▁prz ek
▁me in
▁som mer
▁cl oth
ни ма
▁er re
▁ esse
▁j id
▁g cu
▁mö j
āl s
▁educ ation
er g
▁údaj ů
bo a
p in
▁et i
▁de part
▁airge ada
▁mit en
▁ni ños
▁govern ment
ci ą
▁f ashion
▁stand a
▁el los
▁ac cept
ž no
g mail
igh eden
īg as
▁per u
emm än
ț ilor
▁cr isto
▁per to
▁l yd
▁po ži
jár ás
▁urząd zenia
▁v eng
p ajji
▁nå gra
▁howe ver
▁an nées
▁š port
▁is ik
ċi żjoni
▁as oci
к та
▁как во
▁s äh
▁s āk
▁gior ni
▁som et
▁nad al
v yk
u aliz
▁cli enti
▁απαντή σεις
▁ja hren
j ete
▁επισκέπ τες
▁μ εί
▁ком п
▁u ud
▁0 8
▁об е
re cht
▁prod use
as ă
▁pok az
▁tek nolog
▁dá ta
▁k ļ
▁inol tre
▁w ink
inst al
▁be im
ativ os
▁sum mer
v ő
sp ě
▁t ac
ro pa
uer to
iss er
▁conf ort
▁b itte
é ar
▁за щи
▁star p
ia ła
▁p ł
ás át
▁op ções
ran o
inst all
m og
▁kv ali
ío cha
▁hr s
▁ust an
z ak
▁tej to
▁ένα ν
▁par im
▁us ando
at ro
▁vol ume
ell isen
ål ler
▁ad ult
▁liet uv
▁g ais
χ ε
▁ind ien
nut í
▁primer a
▁jos sa
▁a ge
stj ern
▁second o
▁r ö
▁jä sen
▁wykor zyst
▁l lam
▁s otto
▁par tik
▁kör ny
▁cat al
no te
▁al o
▁199 0
▁pa ar
▁d tí
▁ha ir
le ur
▁b ú
▁desk top
▁pla cer
u ze
▁war to
▁te ha
it um
▁sog gior
▁tra ck
▁res ources
▁bu ff
lež it
▁l ob
▁pubbl ic
▁pir ms
ījum u
z let
▁nepiecieš ams
▁об и
πο ς
▁er m
▁bl ock
ėj imo
▁v eter
▁gast en
▁tak že
ab i
▁n ém
▁parlaim inte
▁lok ale
▁teg ev
▁med zi
ir ts
▁6 9
qu el
b ene
▁forsk ellige
▁β ι
ig lia
ec tion
▁r ena
le id
▁ju egos
το ι
á veis
т на
▁ab u
▁kommentar er
û t
▁mno ž
▁ac uer
▁η με
▁rag gi
ni enia
u żu
ol ó
▁cuis ine
se en
▁v las
▁dispoz ici
▁w ła
▁si itä
▁eff ek
▁mož ností
it im
▁st var
▁zp ůsob
▁exam ple
▁pasiū ly
li ų
y ka
▁mo hou
▁ann ak
▁ma chen
▁sic urezza
▁g øre
va hel
▁sk or
y kl
▁ ►
200 7
▁5 1
íl ia
oč e
▁до ка
▁l ich
▁mem bre
í an
▁μπο ρούν
▁ent ão
▁bi an
b ard
▁s osten
▁fer ð
▁v yn
▁el a
ί ων
▁conven tion
▁ri es
▁rak end
▁o me
▁kar tu
▁flybill etter
zu ki
▁fil en
▁hau te
ension er
▁j elen
▁ra y
at to
λέ γ
▁α γγ
▁l ado
▁mēr ķ
▁r ů
▁europe j
▁op ciones
▁terr or
▁det tag
▁exem ple
▁ph ili
▁nad zor
▁kol ej
á roz
▁ ла
▁vac aciones
▁w ak
▁j ste
▁emplo y
r à
▁tip s
▁memb ers
▁ca fe
▁do is
ü ste
▁obraz ov
it age
▁cultur al
▁geg num
yw at
▁π λή
▁pom emb
▁sou ha
▁fr ench
▁ja h
iss ant
си гу
w ania
wer p
▁ver g
▁quart os
▁do bb
ar ne
▁biz tons
▁st ort
▁sa av
▁corre o
▁τηλεό ραση
s id
▁ja hre
ē ļ
▁op at
▁vil a
▁sen aste
▁nar av
fall s
▁ε γκα
pet to
est y
š as
▁k ori
c ję
▁zjed noc
μα τί
ar c
▁ho urs
▁zákaz ní
d v
▁ε νη
▁aerop uerto
ic u
ón u
▁ar hit
δ ιο
pla ce
▁con jun
man ia
▁pu re
ol ina
ob od
ра те
▁l isten
г ло
▁e den
by gg
▁vez es
s in
▁ke ep
▁d ram
y fik
r ía
▁pove č
▁vol s
▁for bind
▁sk ute
é v
ro it
▁tieš sa
▁sim ples
l ang
▁ret ro
▁p ár
▁vy k
w ert
▁cre ek
ně ní
h men
▁ter ve
▁št ud
▁mu ita
▁equip ment
▁upd ate
us se
χ ω
▁tu v
m ö
iz o
zen iu
▁ter ap
uv re
▁rent als
▁bandar í
▁5 4
ittä in
kon y
▁ce ļ
▁al ter
▁ι τα
ło ści
ра та
▁poby tu
▁in ov
▁μη χαν
▁κ ρα
▁πα ρο
▁f ys
æk ke
d ate
▁saska ņā
h um
▁pot rzeb
đ a
▁kat alog
▁tová bbi
▁vir gin
▁docum ents
▁b yt
p ēc
y z
▁ok vir
gel ige
▁väl j
jour d
▁in tu
f um
▁pi ir
ít ő
z cz
▁bu chen
▁ab le
▁pre ma
▁rah vus
▁tow els
ко ва
▁по з
▁kor ti
an ță
▁inter ac
▁ ģ
iv u
▁fl er
q orti
hn ú
▁7 2
▁би з
▁kr ing
▁m ou
▁st roj
h ia
▁свър за
▁v ite
▁no tific
j í
ik al
▁finan cial
tim m
laim int
ori al
▁5 8
gelijk ing
in iet
▁per g
▁pri est
▁opin ie
▁rov n
▁g ond
▁est ilo
▁halu an
ør s
▁į vai
▁ ну
ж ност
▁επισ κε
▁euroop an
▁absol ut
▁ent wick
▁d velja
▁tillg äng
▁go ści
▁στ ους
▁σ π
▁servici i
ji ang
▁pró pri
▁n ess
erse y
▁fly plass
▁fornit uri
▁g ros
an jem
▁f ib
▁g ate
▁bru ge
an í
▁fog lal
▁maj utus
▁[+ ]
pr ès
▁luft temperatur
▁te ile
до ве
▁le ist
▁don c
▁kil omet
▁li qu
▁ag haidh
▁n uro
▁biet en
▁program y
▁spe ċ
▁stud i
▁sa a
▁val mista
▁v ali
▁freel ancer
▁an ne
am ą
▁võimal ik
iti ð
▁exper i
▁p ek
▁máqu ina
▁artic ol
ότητα ς
f ni
▁pod czas
▁v ér
▁l ū
▁ch ú
▁tä i
▁al ways
ovan ých
ë le
▁ro imh
ż ej
▁se ktor
▁ymp är
▁alt ro
▁st esso
▁δύ ο
g ur
▁hard ware
▁dat u
eld ig
▁je ż
▁un ido
▁á irithe
▁verfüg bar
▁siem pre
l ung
▁na w
▁sur ve
ě st
▁услу ги
er land
▁att rak
κ ού
▁ġ ej
▁pu ol
▁bo ende
ά ς
▁in ni
▁v art
▁ce ux
z us
ew wel
▁kle in
l ju
▁informa ção
▁tra vers
▁ευρωπα ϊ
▁sus ij
▁t elo
▁par que
il v
α το
▁h ús
▁termin al
▁x box
▁pas ta
έ ν
- ]
ann t
▁salv ador
▁install ation
p g
▁n imi
▁me u
▁trot se
ст ни
▁uitz icht
▁tod ėl
s iste
▁verw ij
▁ус ло
▁k ant
▁aj án
▁st oc
τ ια
æt ti
▁biblio te
▁na g
▁god ine
▁an terior
▁arqu ivo
▁ak adem
cou ver
▁s tem
▁virtu al
sta d
▁tak a
▁κόσ μο
k ost
ut u
▁pr æ
reib ung
st of
▁her berg
▁su i
r ete
▁be ispi
▁b ie
jem a
▁t m
▁nod ig
▁kä es
▁eff et
▁už iv
▁princip ale
▁u ș
va a
▁προηγούμε νους
ut atud
▁vajad z
▁pun ta
▁pu eb
▁viet as
▁bl iver
ī ko
▁mer ced
▁requ est
j ate
i in
▁bib li
le ið
▁faç on
▁ang lič
ť a
▁dab ei
r eng
▁re ag
at ul
d ing
britan nien
as ka
ot ud
ut or
h ens
d ru
▁на у
▁proces o
itä ten
▁ed in
▁confer ence
ári as
o o
st ud
▁von atkoz
▁tran qu
sk ich
▁od lič
▁biz nes
5 4
▁v ins
▁vre men
ber gen
▁v ento
▁inform acji
p ag
j á
▁ §
om ha
▁potřeb y
▁tech nik
in ek
im en
o šanas
uj emy
ar si
▁n él
▁po co
▁så dan
▁spos ób
▁mar io
▁skriv ebord
▁pos ible
▁n ada
▁do ch
5 2
▁k än
▁concern ant
▁activ ities
▁za hl
s em
ko has
▁živ ljen
či ť
▁ urs
▁kø ben
v ens
▁pre ços
ön d
▁hjæl pe
v ri
т ър
▁zo om
▁str ess
▁sod el
ēj ā
▁φ θη
▁[ -]
p unt
▁0 6
π τυ
▁ ια
▁bro ad
▁ter rasse
▁ut tale
▁pod nik
▁airgeada is
s or
▁da ily
▁си гу
▁typ es
▁kli enta
5 1
ő r
ur re
ff a
at uri
▁om ega
▁vec tor
▁πελά τες
h ány
т ъ
▁pla ces
▁t ř
ro bi
▁dz īv
▁hotel uri
g tu
gh i
▁ra ibh
ativ es
▁alc uni
og ram
▁envi ar
▁su e
łą cz
▁arti kl
▁ æ
v io
▁ед но
ys ág
ár ú
▁kal end
▁znaj dziesz
▁sab er
▁of ere
ari um
▁iz ve
▁amerik as
▁und ers
▁er ity
sa ħħ
▁те ле
▁vz or
▁f ø
▁yhd ys
▁de pend
sta w
▁rám ci
▁s uma
▁pri jav
ą d
ol at
▁by en
▁mond iale
▁le ft
ro oms
▁am ar
▁algun os
▁l ille
▁dan iel
▁а к
b ænum
▁á ra
▁de pos
ba u
▁tor re
▁land s
▁všet kých
▁el k
▁p ud
▁mies te
▁pod roč
▁flor ence
w at
▁si x
▁dri ver
▁vær elser
▁nek ā
ύ θυ
▁с пи
▁alle m
▁u ta
▁brit ish
▁per fe
το ποι
▁vel mi
▁prof it
l osti
▁su omi
▁gr en
▁ra il
▁c ot
▁j at
▁cost ru
k ý
▁ma ur
▁f apt
▁complet amente
▁js me
▁po is
▁re js
ami entos
ir te
р ност
▁αν θ
▁island s
▁ne pri
▁ λα
é rat
▁plan et
ies a
▁от гово
ре мен
ν ου
ik en
▁k ét
▁m ä
▁ε σ
le gt
▁luks us
▁g ør
▁pet ers
▁5 7
▁ind ian
▁m iem
▁bu ch
on ingen
▁tule e
▁συ να
▁bl om
▁per c
▁v isto
▁pod mien
▁bill iga
▁fer ro
▁инте р
es per
▁szállod ák
▁bet al
z io
▁an other
▁ver gle
▁v ele
▁mater ia
▁br un
ogu ć
▁gr ie
▁qu ais
d ú
▁sesta v
▁fol g
▁už tik
ív ne
й ки
k ende
▁attī st
▁descrip ción
▁s und
▁form ula
ana is
▁d ijo
▁sc reen
ed al
▁löyt ämään
▁fin ance
▁o ko
iv ent
▁h ör
▁rezult ate
▁can al
▁l eder
ij an
▁след ва
▁mar g
▁vyb ran
▁ε νοικ
v elles
▁nach ází
▁sci enti
su q
z nych
n jih
▁l amp
om os
▁st one
▁ü ld
▁heb t
ro je
▁gio co
ě ř
▁pr vi
ī na
▁bl ij
▁θερ μο
▁phar laimint
▁ter re
▁besplat no
▁ped ro
der en
▁n ál
▁digit ale
▁ £
▁prez zi
ņ iem
▁vin tage
i ers
▁a e
▁k all
▁trans m
▁bus ca
▁vien as
▁d voj
▁j għ
ig ub
lo č
▁dou che
ora ção
▁gau ti
▁po ja
▁gan z
γω γ
ik y
▁reg ard
▁tim er
▁mai or
u ol
▁nation ale
▁pro z
▁pri jat
at ele
▁lj ubl
▁απ ευ
▁stat en
▁z are
▁vyt vo
▁z or
▁mar kk
tra vel
iz or
▁accommod atie
▁š īs
▁ne amh
am u
▁bu c
era ción
▁décl ar
w h
γραφ ή
▁form ular
▁възду ха
ī ta
▁produc to
▁pl án
▁m ese
▁zp rac
▁informa ții
▁g if
▁exper iment
▁ties iog
ko op
▁fat to
▁aon tais
▁d oloč
▁ ņem
▁személy es
le i
▁dal le
▁wy ś
k ort
▁or ange
▁count ries
▁j ersey
f an
▁s che
cess o
▁upp er
▁aut on
▁y out
ba hn
▁pon u
▁se con
et ään
▁re chts
▁en vo
▁talál ható
▁šiu o
▁мо де
ot os
φο ρές
▁ni ður
▁t anie
л ъ
τ σι
▁la ger
j ima
▁mal o
▁ri ig
▁pv c
ab eth
▁pi è
▁g ente
▁gar der
▁cam a
▁obten er
▁μέ σα
▁g il
▁nou velles
▁requ is
▁ü zlet
▁a š
▁cap s
ema akt
▁re as
▁þ ann
un um
νο ς
▁ter ms
emp io
▁as men
▁g ce
ali ų
▁pos top
▁mu cho
▁feidh me
▁inv ol
▁flug hafen
▁suosik iks
es h
▁tah ansa
rad or
▁and en
▁pod mín
▁se otud
▁lib r
▁q abel
ik ia
▁199 7
▁itali an
ó i
▁frank rike
▁pr endre
▁sem in
asjon er
▁pre p
▁l änder
▁vál aszt
▁an k
è tres
▁ф ун
▁p yt
▁pass ar
▁prenota zione
▁zad ar
▁segu ir
▁v ivo
▁5 3
í oc
ar ie
ти е
á it
▁bet ter
▁inst ruc
▁loc ale
▁re ven
▁( "
▁γ αλ
▁nov i
▁l ije
▁jed er
j ava
▁ejem plo
▁mag ni
▁prev ious
▁pod rás
▁contro le
▁der as
▁ка че
▁extre m
▁bas ic
▁dom u
ov ania
▁vse h
▁vol gende
▁ch rome
▁kam ers
μ ί
▁manif atturi
▁t ør
ī ties
▁v esti
▁respons able
▁realiz z
c rip
▁inn ovat
▁z ien
b t
▁k ier
μα τισ
▁g ange
ät z
ari as
▁r yn
▁conten ido
ó na
▁l ää
▁wi ele
ñ as
▁ora ș
hn u
s igt
▁eg yszer
por to
▁jaut ā
te x
▁r ende
ál ta
wo ści
9 8
▁ierak stī
▁ain m
vær k
á is
▁publ icación
▁europ ä
▁kar akter
▁tra itement
▁kap ac
os os
▁va iz
ð s
iss ens
gra de
▁ne at
pr áv
▁leg end
▁ku chy
▁ε β
▁guest house
el er
▁te ag
id ores
▁ση μαν
▁op hold
ç u
е те
j ede
▁des ta
▁ke er
▁т вър
▁oz na
▁pic tures
▁b oli
▁ad ott
f und
int as
▁г и
▁saf ety
▁luc r
ra ithe
▁pä ät
ка р
ta ment
f am
▁č ek
6 1
▁cre a
▁rev olu
▁re dz
▁br is
ib lí
▁au près
▁vý ro
αι ρε
eni u
▁prag ue
εί ας
▁port land
▁st ata
▁еле кт
▁vien s
▁stab bil
l ub
▁l ume
▁conver ter
▁ty to
▁ca use
▁ap saug
▁hu v
eli ų
▁le ið
▁forsk olin
ρε ύ
ώ ρα
▁vac anze
ch ia
▁muk avu
μά δα
▁yr ity
▁wsp ół
▁v lie
s an
▁at bal
▁se ja
ó id
▁h gh
▁d vo
▁che f
▁po ch
▁zm ě
▁a ru
y j
ut y
▁nød vend
he kk
▁lo od
zo ek
pl us
ħaj r
▁mu z
▁log ici
▁d ong
▁esta mos
á genes
br ie
▁w ide
▁univers itet
▁b ella
m ě
▁differ enti
▁spe zi
▁ku hin
▁f urt
▁sk ill
▁viet ā
z ás
▁comp añ
▁m entre
▁tem el
▁τιμ ών
▁confi anza
▁situ é
άν τηση
▁k ą
▁ie pr
▁nost ru
▁much os
ri ig
▁al arm
▁contra ct
ūd ens
▁mas k
▁v red
ü tt
▁zag reb
▁с ла
ri ú
▁ex hib
▁aant al
w ür
oh jel
▁medic in
▁utiliz ator
▁mod ell
ib a
▁excell ent
▁ofert y
▁k ola
▁z man
og ħol
▁t iden
m ia
▁col lab
▁in št
og ne
▁sam tid
▁pob yt
▁k ast
▁t ug
r h
▁w p
▁spoloč nosti
▁δια δικ
▁pos izione
b und
ur ă
▁spec jal
▁teg el
▁qu este
▁vieš but
▁guest s
▁cir cu
ex e
▁tip os
▁l ige
▁на ма
sto ff
▁á it
ра ди
icz ne
▁facil iteter
▁portug u
на н
▁by la
▁van couver
▁vil ket
▁miejs c
▁съ от
▁itali ano
▁külön bö
al and
5 7
▁к ла
▁do p
▁9 8
▁с ти
c zenia
▁komp uter
▁δεδο μένων
▁le ie
с ква
▁hac ia
▁ευ ρώ
▁vis us
▁at ta
▁ub icación
euro pe
h rad
▁t ých
▁до стъп
it ika
▁access ible
▁p éri
▁cam in
▁import antes
▁log isti
▁wel come
m ac
s y
▁uż yw
▁min imal
▁stor y
▁ap ós
▁t ato
▁tom u
▁kr al
ā lo
▁gr á
▁fich ier
▁dob ili
▁εύ κο
▁im ágenes
▁dat or
on u
▁mani ère
▁cal le
▁säh kö
▁en am
▁sp rac
▁cho ice
▁wal k
▁för s
▁pon ude
▁mod elo
ec a
▁προσ τα
▁par co
an ças
s at
zt at
▁αερο δρό
▁sv i
▁š į
▁użytkow nika
▁συ λ
▁h inter
▁γρήγο ρα
fer a
▁direc ción
τη γο
▁p ăr
▁desc ub
▁var ētu
▁en ne
▁til legg
z ija
▁aan b
▁aplik ace
and us
d l
▁kam era
we it
sp unkt
▁t ü
▁at rod
▁žem ė
▁европе йски
se p
▁by lo
▁tek nis
t ina
ó rt
is elt
ats iooni
▁roman ia
▁comm iss
ra jte
et zt
▁su chen
▁fer ry
▁tar j
τ ία
▁c ut
l ysninger
▁rest ore
▁qu inta
▁sa una
▁p ă
ни м
▁w inst
▁tilg æn
▁lot y
▁ming ħajr
▁ir on
▁b red
▁gj ør
un al
▁î mp
▁česk á
▁m t
▁util iser
et ud
▁mes es
▁vik tig
▁su or
▁па р
▁fok us
▁pr ona
▁ré tt
▁most ra
▁s ede
r itt
▁soggior no
mas ter
▁tur n
ad ora
▁prin ce
it ele
▁klimat iz
▁seg undo
s pe
▁συ μ
▁man ip
▁čas u
▁s ní
б ра
▁ha w
▁ver kt
ni us
▁ag li
▁corpor ation
▁accord ing
▁č et
▁pri mar
▁m ug
n ö
ol ar
▁k ín
ad amente
▁var iet
▁aast al
▁leb ens
▁dh á
▁bes kri
▁int é
in ed
zel f
λε γ
▁mün chen
om in
▁od d
μ μ
itiv os
ar ele
▁d s
▁m ely
ρη ση
▁cl asse
▁qu elle
em ente
et ek
▁v pl
▁v ključ
» ,
▁an a
▁v ij
r est
mar ket
jen ih
▁latv ijas
▁la u
▁met eor
▁1 10
▁em ple
" )
▁phot ograph
▁безпла тни
▁pág inas
aly se
▁ink lu
ла н
▁f igur
▁svo jo
▁sé jour
bi or
ss on
er os
▁alex ander
▁investi ga
v ang
im ine
éri ence
▁sie ki
▁prom oc
▁doma ine
▁pra cy
▁embar go
▁su pl
f j
▁g eta
▁о сигу
▁her z
▁ar ena
kün fte
ņ oj
yt hing
▁fl yt
▁tre at
▁mj esto
▁ill et
ικο ινων
to bre
▁od nos
▁ka ufen
ru gg
▁nu ot
▁ö pp
▁př íslu
▁tenn is
ля т
▁køben havn
▁mod a
▁ind ones
▁dis ney
ra w
▁coment ários
▁тър го
▁g ó
ení m
ī tu
▁mit gl
* ,
▁σ α
usta da
▁18 0
▁spir itu
▁er st
▁μ ή
pi ť
▁experien cia
ativ as
ită ți
▁rú m
άρκε ια
▁føl gende
▁su om
▁g ek
▁an imal
▁pl ane
▁ag osto
▁b hr
ed as
▁kä sit
▁sc or
▁παιχνίδ ια
▁ва шия
ri an
▁an ze
▁sl ot
▁ré alis
▁spa us
▁nie z
ming ham
▁car l
ö z
▁kos ke
▁at te
ţ ion
▁ту к
▁ser vis
▁s ust
ī ts
▁siste mi
em en
ka ż
▁sam az
▁are as
▁esc rit
) )
re ż
▁поли ти
▁róż nych
▁ras ti
ri as
▁op ini
▁no ci
f c
▁merced es
eg t
as ut
▁tom to
▁am pli
r ate
▁un de
▁ver kk
st on
▁orlo f
▁jo š
▁relacion ados
▁á b
▁met ų
же те
▁v ice
▁liet u
й на
6 2
▁liv ello
ви си
▁ac esta
▁prov ided
val d
▁c adr
▁c v
▁in ver
▁d riv
kse en
▁mé di
▁dub rov
▁cr í
v esti
in ka
▁opin iones
▁poz or
] ,
led ge
eg gi
▁inter i
▁br one
▁izmantoj ot
▁osob y
▁в ръз
▁de el
▁π ί
st ā
y ki
▁at ve
ici i
▁indust rie
▁cre ative
▁g níomh
▁ма лко
▁sast āv
r än
па д
w od
▁l ento
6 3
▁ist o
▁po hod
▁institu te
▁her ram
▁o ak
▁com ité
▁es empio
koh ta
▁expl or
▁s ql
ut om
▁fl ow
▁map e
iv anja
же ние
n on
▁pak et
▁съот вет
▁t eng
▁er f
▁net inu
bil tà
▁ko ht
τό ς
▁kenn ile
▁б ър
▁ce isteanna
inā šanas
▁na ha
▁ ίδ
с на
▁r ond
▁kas v
om men
▁cód igo
▁inst it
▁install ations
ργ ο
er ende
▁iż da
▁re cl
▁form ato
▁ih mis
z ir
▁sa atav
▁пу бли
éro port
▁strukt ur
▁car ro
▁regist re
ti p
▁chu ir
▁ek ran
kv æ
▁liet ot
éd ia
▁bu iten
▁b oston
ön t
k ant
▁bu ena
res ta
▁ha f
am ist
▁pr ům
▁datab ase
ard z
▁годи на
▁sier ra
▁k var
▁ri j
▁тър се
ell as
kö zi
▁0 5
r asta
am ai
▁mar ine
▁tilb age
▁be aut
tu a
▁is ra
▁miejs ce
ati i
2 000
▁kap it
ite z
▁п ът
▁αν έ
▁mid del
▁e ind
▁an wend
▁érdek ében
▁oc cas
▁tab l
▁ně m
▁conte ú
▁kl enbuterol
▁pos ame
▁pl ā
▁nav eg
▁tem pl
▁pronun cia
▁amerik os
b ane
▁pré c
▁uten ti
▁decl ar
▁stað ir
▁š kol
mi ento
▁adat ok
▁stran e
k g
▁din ing
▁en nen
▁tw in
▁x p
▁zd ie
▁lux us
▁tu kaj
fer ð
▁dies en
▁h ü
▁nar od
▁dere cho
i ę
▁infrast rukt
▁halu at
▁econom ic
▁pas ūt
▁b ede
pol n
▁r ät
▁jet cost
ku š
gu es
▁op zioni
▁jos é
▁b aj
▁or ch
▁flyg plats
pa is
▁възмож но
ug u
▁engel sk
ox id
▁st up
▁rū p
▁inf ek
▁hu a
▁n ope
▁ast ronom
н да
▁ierakstī jis
▁tö itä
▁ho of
▁ ře
▁w on
sh ip
▁j este
▁pri kaz
▁κα τηγο
▁поз во
▁dod áv
jer ne
▁liv er
▁os o
ien ce
▁hu om
▁í oc
dr ž
▁zn ak
▁vý hled
int es
▁res urs
▁we ers
isu uden
▁se iner
▁relev ant
▁is mer
ec ción
▁iepr iekš
в ните
▁gjen opp
il li
ow ą
p ir
▁mes ure
ap s
▁é conom
sc ore
▁câ t
ier no
▁α ι
▁f ier
▁to y
fic os
▁ci ò
▁er n
▁let z
▁b ili
▁term észet
▁kar ti
kk et
▁δραστη ρι
▁hab il
er mo
▁is lam
▁cor rec
ta ger
os es
á ul
ac es
uv ad
▁zak res
par ti
▁ku će
▁εκ π
▁fem mes
▁suc ces
▁all tid
▁7 00
▁found ation
h ost
▁ab og
ch s
úna ch
uj ących
▁je u
▁prí pade
rad as
j ul
▁γ ερ
▁certa ins
▁co op
ú z
▁про бле
▁mű kö
▁tempor ada
▁czę ści
▁ann ons
▁няко лко
▁cent ru
el et
▁acc ue
▁v og
on de
▁b urg
▁timp ul
▁est r
▁lang t
▁meet ing
▁abs or
ψ ει
▁w et
▁vonatkoz ó
▁analy se
▁tr æ
e ze
ing t
▁vil t
▁libr ary
▁lo unge
▁ret our
▁od gov
δ ει
▁at si
▁fuer on
▁g um
▁s ull
▁ne ut
jum iem
▁pr ywat
▁val u
arbeit ung
▁o ven
▁cat ég
▁għ at
iser ing
▁produkt us
▁bad ek
▁nut ri
▁recom end
▁soci ety
l m
▁ste am
▁γε ν
lä gg
▁associ ation
▁sim bol
ie u
aut or
▁т ран
▁pří stup
b art
vel d
▁rahvus vahel
öl t
dy mo
▁v ag
▁t ela
w ord
▁hin zu
bol jš
at ra
▁viðskip tav
š no
▁съ би
▁l om
gen er
θεί ας
▁ni ż
▁ra j
ut ente
▁najd ete
▁pl o
▁sim pl
▁su gg
▁au jourd
5 3
▁v ode
isk as
▁collab ora
b ase
▁pol ska
▁facebook u
▁categor y
▁transl ation
▁bath room
▁nie ktor
▁des ider
▁tik sl
▁nast an
hé ad
▁tog ether
h le
og i
) ?
▁nun ca
▁int ér
▁о ста
▁δ ου
▁sz ót
▁sp ol
▁stað set
▁jon ka
os l
▁geschä fts
▁z ade
su pp
▁uzt ur
▁pub li
▁vien kār
▁mall orca
▁nä it
▁spis esteder
▁a ward
▁alko hol
▁из бе
▁diam ond
▁ch ann
▁r ä
▁sik re
▁sn abb
▁investi g
r are
▁host al
ent ar
▁unser em
▁jo oks
ке ти
▁jose ph
ги я
▁le ben
▁0 7
á le
▁bek ijk
▁mati ère
▁don ne
▁t āl
▁b une
s ning
▁comm and
ka a
▁ο ργ
▁me h
▁każ d
ċ ina
inn ov
▁дру г
sh irt
▁pl anta
ie me
▁któ ra
▁spé ci
▁cond izioni
▁pre ț
. -
▁bed re
▁rovn ako
с по
λε σμα
b ell
▁form ation
▁o la
▁ná klad
▁tý kaj
▁t ł
f ür
▁descar gar
st ock
▁ασ φαλ
ir ani
▁þjón ustu
▁w ake
ier on
▁dispon ível
▁t rom
▁of fic
▁gra v
ent u
▁lisä ksi
itel ji
▁ ūdens
l use
▁ob er
pi ra
ne v
ac ia
▁trans ak
▁unser en
▁αερο πο
▁in m
ś wiad
▁gra da
▁i ep
í cio
▁tur vall
▁mus s
τ ρέ
en cias
ont as
▁tilgjen gelig
▁lj ub
▁de uts
▁tag asi
▁į ran
▁z áv
▁frábær t
▁iz str
co in
ran ce
▁finn er
▁vyh ľadať
▁h era
200 4
▁př idat
▁bh un
▁з е
▁représ ent
ν ια
ha í
▁e or
skap er
▁kak ov
ú dar
▁h aga
▁g im
▁leag ue
▁th u
▁mið bænum
ok i
▁van n
▁απευ θείας
su ite
▁za št
ed it
á rol
▁ats ilie
▁out ro
▁pra ghas
▁iespēj as
▁inst itut
▁g ent
▁incl uso
▁sa ad
▁г ру
p unk
▁sch op
▁re in
π έ
▁tä ssä
▁am éli
c imiento
▁gj ort
ob ec
▁ œ
▁vr át
та й
aj ící
▁búsqu eda
σ ή
▁προϊόν τα
l ade
▁υπηρε σίες
ow anych
α νο
▁stru ct
ten e
▁viesnī cu
ec ture
▁pi an
ú int
▁w ilt
▁cat alog
ec ast
in forma
ø g
▁θερμο κρα
ar f
▁pal ab
▁ferien wohn
▁tut k
▁διαμο νή
▁m ia
▁org ull
▁pier re
il boð
▁a rom
▁d æ
▁desenvolv imento
k end
g ul
ć enje
▁tr ump
▁gratu ita
▁mul her
▁st řed
▁best and
▁pog ody
▁δι άρκεια
▁sp az
▁m ek
▁ ří
▁podrob nosti
▁per io
▁u usi
▁am ong
▁e ivät
adr esse
▁swo je
yb ę
▁pon to
▁bandarí kin
isi alta
▁ch oc
▁ig az
i ť
▁žemė lap
▁vaš ich
▁elett ron
▁a ider
▁apl icación
▁meille urs
▁š ios
j ubl
▁għ olja
▁re de
od os
▁b rad
▁av ent
▁samo chod
serv ice
▁gru ppo
ier o
▁fran z
▁не за
▁ná isiúnta
▁out door
▁des em
š li
▁em is
▁dar bu
▁επ ικοινων
▁acuer do
▁t iss
φ η
▁w iki
▁č lov
▁αξιο θέ
▁kim ond
▁finanz jar
▁veloc idade
▁le o
ź ć
ál ny
▁n est
▁vr ste
▁bū tu
▁ιστοσε λίδα
▁uts ikt
vi ť
▁pol eg
▁er sten
▁dob av
▁des ch
▁rè gle
де ни
iza ción
▁mi ż
▁po cz
▁us ers
▁per í
▁tik s
▁atsilie p
▁tan ul
▁febru ary
ne w
▁and ers
▁dou ă
▁últim os
▁sh am
▁vers o
indust rie
n us
ģ ijas
▁т ри
ksjon er
▁us ta
▁ency klop
▁fig y
í vat
▁unter kunft
▁annon ce
vaig ž
▁arbe it
▁prat iti
tu al
▁cho ose
▁am pl
▁hab ía
▁compr is
▁å p
▁ktor í
en gen
▁s li
anst alt
▁oc cup
▁tem u
ap pro
h áz
▁fak tor
▁jun to
▁εβ δο
▁ra da
ju ći
▁fic ar
▁b éné
▁naj nov
▁odst ran
ot ās
▁m assa
▁i ce
▁comm on
jd ź
it able
че та
▁log in
▁jeb kur
▁inform āciju
g ow
▁hy per
▁g on
▁al lo
▁biztos ít
▁indiri zzo
▁ty ch
▁amer ika
m d
▁an un
ξε ργ
▁é én
▁għ as
▁ez ek
▁mold ova
▁c c
h eder
ások at
▁sk yd
▁diag nosti
▁pad re
▁ext ension
▁bir mingham
▁je igu
▁m ha
bl ick
▁ném et
▁quar to
▁precis a
▁sc é
▁del eg
er at
▁k ings
▁á f
▁décou v
▁pri prav
is eksi
▁aver age
ā da
it aire
▁b art
▁вла жност
▁199 6
▁õ pp
▁tw or
▁ristor ante
▁pr el
▁liik mes
▁ats ak
▁k ali
▁pur pos
▁σ ω
▁lot nis
▁fl este
▁electrón ico
▁nyel v
ur r
▁kor ist
▁aggi ung
▁f ís
er ade
ε ρι
▁rab atter
▁p and
▁nov embre
ξε τε
▁n ág
▁p ik
▁conf ir
tem ente
▁cib é
▁ot ta
▁pad aryti
▁közel ében
▁hyd ro
ъ ж
▁об у
▁да н
κο λου
▁le arn
▁rich ard
▁hels inki
▁b b
▁par ts
k ę
otts ág
pla cement
▁vir ksomh
▁eff ectu
ust us
▁jungt inės
program m
▁pre ced
á cs
▁tur ismo
▁del ov
▁dat elor
▁ein zel
▁ ’
▁corpor ate
▁pre oc
me ð
▁ λογ
spro gram
▁d ik
né is
7 3
▁mob i
▁econ óm
▁trad ing
ta ć
▁t ens
pa ir
▁pro cent
▁t et
▁re ac
▁he cho
rig ward
▁gy ár
▁cu er
▁на шите
ņ i
▁οικο νομ
▁consenti rti
▁caracter ísticas
▁o tev
pr ü
▁con g
▁у ча
▁iz ol
▁k vin
▁altern ative
▁pou ze
▁grö ß
▁pos it
▁tar p
▁inform at
▁wy pos
el te
pp u
▁8 8
▁sm ith
isch es
ħ or
en ý
▁ni iden
w ich
at om
▁bud ou
▁mennes ker
▁fe w
a x
▁inde x
▁b right
▁vr lo
ond ere
ро и
▁pro č
▁и гри
ev anje
še v
▁el ér
▁εργ ασίας
▁ent rada
un ni
b ør
▁lis boa
▁mest u
in na
▁ent wicklung
▁gle ich
▁car los
▁works hop
▁specif ika
kam ers
el és
▁l ord
▁ji ż
▁er geb
▁baz a
ni ę
ла го
▁ofere ce
▁vý hod
eni x
▁program mi
g eme
o jen
▁johann es
bi ų
▁furt her
▁ut r
▁ad s
▁különbö ző
▁tijd ens
▁he ute
▁er ittäin
об ра
re i
▁pon iż
▁v ār
▁to et
le it
▁umož ňuje
pra va
▁trat tamento
▁rad isson
▁feder al
▁pun ct
▁ver tra
▁ke zd
ik er
ma al
an ak
▁prod uto
▁nå got
▁ve hic
▁0 2
▁no tif
▁систе ма
up ra
▁us p
зи ра
▁et h
▁par i
ύ ρω
▁dro š
▁loc atie
▁γερ μαν
▁tá to
▁kuin ka
▁ok re
tig keit
ē ti
vo ud
▁t êm
▁custom ers
▁ra in
▁entrepr ises
ér er
ti in
γγ ελ
▁s ær
▁ri gu
at ri
▁ êtes
▁t f
▁ki ir
σ υ
▁h ob
▁199 5
▁fam ille
▁is iku
▁wir k
b io
▁il ust
? "
▁wię ks
▁ ξ
dor f
▁ak ik
▁г е
▁mon ument
▁aggi orn
ní ct
č il
▁kor isti
▁naud oti
▁vakanti ew
▁с ър
ch em
▁tra mite
▁prime iro
ovan á
▁l ider
n ads
▁immag ini
▁u ff
▁viņ š
▁gr unn
▁lö yd
▁and are
▁għ ad
▁auk št
▁ser ont
▁val le
▁z r
▁ved no
▁b ast
▁lo om
▁6 6
▁r ate
av y
vi ä
ž dy
▁bud ú
▁appro pri
▁tule b
▁informa zzjoni
▁δημο φι
▁i em
▁πο λυ
ha is
ν ση
▁αν ε
▁nasta v
▁ώ στε
▁est ate
▁edin burgh
▁behand ling
▁geme ins
▁permett re
▁her ren
▁συν έ
β ε
▁b una
ic ia
ní omha
▁de bian
▁tom ar
▁άλ λες
▁ne id
▁apparta mento
▁jäl keen
▁é ife
▁gă si
oss ág
▁cu cina
▁ke uk
enn en
▁hav ing
▁ap i
is é
ied y
olog i
▁по след
ł em
▁proces u
z dič
ste d
▁speci aliz
▁á iti
c ita
▁ber gen
▁k jer
ed ores
iss ent
▁a ige
ov ina
▁stud ios
▁rap ide
á irt
▁ü he
▁ф о
ighde án
▁pod ró
▁są ly
▁tri m
▁d il
ol t
▁imag ens
θη καν
▁sig ui
▁braz il
▁i ed
▁ve ć
▁loc ations
▁mol ti
▁c ass
▁fil es
▁ho y
jon al
ibil ity
▁fr ü
öð um
▁ap oi
▁p ick
▁zí ska
▁wł as
▁fran cus
aj ām
sch ließ
icion ado
▁innov ation
▁επι λέ
▁bad kamer
▁cand id
v ál
▁taħ t
▁p f
ska it
▁feidh m
▁про г
μο ρ
ber o
m eg
▁nd éan
ick ého
t elt
π τω
▁män nisk
▁autom obili
▁n udi
▁zo over
ksi ä
um ul
▁sadr ž
4 00
χ ρι
fre e
▁potreb no
▁qu arti
▁dom y
г на
▁integ rat
▁ljós mynd
▁bel ow
▁f aj
▁c otta
▁kval ite
▁valsti jos
▁α στ
▁kori šten
▁μ ουσ
pal vel
▁nevo ie
▁web u
▁ad van
▁dis cipl
im he
▁bamb ini
▁sol d
ū tu
ied ades
▁af ac
▁pol ice
▁nemzet közi
ill on
bu ch
▁div ul
▁v stup
▁ob del
▁bhfe idhm
enn t
▁zaht jev
▁d ług
▁φ α
▁dé cis
▁import anti
▁bon ne
▁bag grund
šč a
▁sl jede
ú jt
uk et
▁vu oden
ic ano
ā ku
p he
▁á gua
▁c ím
ale j
▁cl in
▁bewert ungen
ann ia
tid ad
▁no astre
▁komun ika
▁pool t
▁minim um
▁di rig
st one
▁ru im
j ö
▁dé fin
▁učink ovit
▁r h
▁σχ έ
ħ abba
▁ce i
ij ama
▁μα ζ
▁techn ical
▁fej l
▁ком па
с фе
▁h ade
▁kit ų
▁pon uja
▁il man
▁mö chten
▁πόλη ς
ž it
v ět
▁cadr ul
▁wypos aż
▁r uk
c zenie
▁z alo
▁mu ka
▁k ína
ν ές
ito are
▁v ino
tav ia
▁tě ch
▁dettag li
▁camb io
ār t
▁to b
ú in
▁фи нан
▁tied ot
▁re y
▁sí os
▁as ocia
▁je ux
▁el la
n elle
▁jed na
▁ö rugg
il ing
▁ва с
▁hver t
▁t árs
▁jog o
▁is su
▁zem l
ovan í
” )
f y
▁sw iss
ort en
▁pos l
▁av ulla
ν ία
▁visu alizz
▁doc tor
▁públ ico
▁ek sk
▁con ect
x ima
▁austr ali
▁er kl
▁w ynd
is el
▁fre isin
9 6
sk ou
ag u
ach ais
ρό ς
▁r d
▁bli zu
▁cond iv
▁κρι τική
d ur
▁lle gar
▁е с
▁ik unu
áil te
▁z ost
8 1
▁ö ster
anta ge
▁clu iche
▁kilom eter
▁activ idades
▁i ran
▁camp us
▁ver l
▁t ém
▁m oney
▁champ ion
▁strat ég
▁vy kon
▁por ów
▁pl och
цио н
▁univer z
▁ob iec
▁po š
▁aik ana
▁szer int
▁seg ún
av an
▁atl anta
▁lot nic
▁i con
n ement
зе р
r and
p ill
va id
9 1
ar der
▁b ęd
▁w ür
ţ in
ő ség
▁j ik
▁orgull oso
ithe amh
por uč
▁col on
ki ų
▁ďal šie
▁la ad
å k
ic are
pe v
ond ers
er tura
▁δια ν
▁koupel na
▁dé j
▁dire ction
▁( -
▁flo ors
éir í
▁foc us
▁risult ati
▁prz es
▁konfer en
▁ná kup
▁m imo
ze ńst
por ter
▁do ivent
▁a im
▁wynd ham
▁lá ithre
z du
ste in
ere i
▁kapcsol at
▁go ede
▁за гу
ț ile
▁pri por
▁ste j
vi ų
od da
▁brit an
ist ol
w anie
är s
st op
▁ren ov
▁smješ ta
yty y
▁nale ży
cij ą
hot ell
▁princip ales
▁for di
▁sä il
▁mul ig
▁host els
▁199 4
▁pr ů
g ura
▁bro wn
ād īt
▁b ás
▁inclu indo
ð an
▁αποτε λέ
▁produ zione
vaj al
v ī
▁conc ent
▁su jet
▁cor te
▁sp er
▁k rat
▁dipl om
▁iz vr
▁βοηθή σει
▁f ai
ni er
▁sa ate
▁vo iture
▁objet ivo
â ne
▁wol f
er ida
▁k ie
n ija
▁r ett
k ách
▁njih ov
▁upp lýsingar
σ σα
коно ми
com p
▁sp lo
▁t ang
▁c zech
▁pril jubl
▁an geb
▁pal av
ow ią
▁vo ivat
▁pon ad
▁proble me
▁kuri os
▁prá ce
ag t
▁ket on
▁tit le
m use
▁in izi
▁par edz
▁temper atuur
▁e zen
▁beg in
ro y
b ad
▁v rt
ране то
ügy i
▁i di
ec ts
š et
r æ
▁categor ies
▁pom aga
▁alum inium
▁mill ions
▁kap ital
ate a
s ie
▁via ggi
▁tv rt
▁údar ás
▁g av
при мер
▁ing les
▁materi als
▁ser tif
r ą
▁f c
riet is
▁mor ate
▁jooks ul
▁egy ütt
▁resulta do
νο ι
▁as h
σ αν
ien ie
▁bere its
▁apres enta
▁ku ulu
▁харак тер
▁som mes
á bb
▁πο λ
on adh
▁reg en
▁inn s
▁cry stal
▁znale źć
▁l ind
▁б ли
b d
▁schn ell
▁ov aj
▁p p
▁intern ett
el de
▁dre i
▁gener ale
▁migli ore
▁merc ato
▁slov ak
▁τ ώρα
▁valst is
▁kun de
▁γ ρά
▁fil ms
▁pro sp
η τή
▁spoloč nosť
eld orf
▁dru ga
▁kos met
▁f da
▁njeg ov
▁kar l
ál u
▁með al
▁cu ideachta
▁sú čas
▁ant wort
▁nov ē
▁bet yd
▁τ ύ
▁č r
▁konf igur
▁raz isk
reich en
ρε ια
▁го ля
▁uzy sk
▁z mi
▁b ali
▁ji ž
9 2
ý r
с ни
ers i
▁sl ike
▁coun cil
▁ir eland
▁č es
▁p enn
▁ráp ido
▁gro ße
ar ing
á iste
▁did el
▁let iště
▁pom ag
isi ų
eg ur
▁us ado
▁bru x
l ight
in ą
▁electr onic
▁eks empel
▁incor por
▁хо тел
▁tele viz
▁dé l
▁in vi
▁fil ip
▁en hver
▁t enden
po jen
▁perf il
ib e
▁12 5
r un
▁t avo
▁víde o
τε ι
▁pren ot
▁kom me
▁sz ob
▁ro ce
▁ren seign
▁se j
▁περισσότε ρες
▁exem plo
▁miejs ca
▁ind em
▁to od
pro te
isse z
ня ва
▁ont ario
▁plas tic
▁zaj ed
▁bis og
l ij
▁gard ens
▁bl anc
▁f rig
▁bu ti
el ine
yl l
▁kom mission
▁ne pos
▁przypad ku
an ach
ik es
▁der for
▁биз нес
ás z
▁ва ж
▁f m
re ach
▁su ih
▁computa dor
▁var ious
▁my gtu
▁happ y
anmeld elser
▁tu taj
я ва
▁μπ άν
iem bre
▁no e
▁wh y
▁ed itor
▁î m
ποί ηση
▁const ant
▁lux e
g li
▁та кова
▁societ à
▁prav il
▁cam er
▁е к
▁apro pi
▁surf ace
ie ť
pro f
▁bílale igub
▁ingred i
▁ro c
ad ir
▁μη ν
▁съ в
▁b ieden
▁kimond ója
8 2
▁w ardro
m ere
τε υ
ih en
▁u gy
nah me
▁η μέ
▁roz wiąz
▁j une
se x
▁wardro be
art il
▁vers lo
▁econom y
▁до ри
▁stør r
▁che art
▁svoj im
▁maxim um
▁z ullen
▁pre ci
▁str anden
▁j ut
▁viņ a
isto ire
▁am ikor
ven e
▁klima an
▁ö vers
▁pos i
▁verenig de
▁ob ie
с ла
î tre
el mä
▁ri ik
j no
p ia
j ol
▁prijs ver
ť až
▁atra šanās
ή σει
l den
▁b ull
▁ph uket
d ist
▁colom bia
▁lenn uja
▁let ter
az zo
▁dar k
fl ug
▁ar bet
▁ημε ρο
▁bh fo
▁га ран
fi ð
▁ein ige
▁získa ť
▁f im
▁έ ως
▁cor az
▁6 3
▁am o
▁ad vert
▁pripor oč
k og
ä ch
▁εν ώ
ħ da
▁kér dés
▁zbor uri
an či
▁υπάρ χει
▁pu tem
ény ek
▁comm una
▁ex tr
▁alquil eres
▁va ata
▁apro xim
itā ti
▁k áv
▁lar go
▁er far
▁pot vr
▁to te
κ αι
▁gru ppe
▁og gi
▁cl as
▁fab ri
▁drž avi
▁f um
end ørs
▁pos ti
▁du al
▁pe w
é hez
x in
▁τα χύ
▁cal itate
mar kt
▁кон тро
d own
▁sch on
▁hor m
▁me ħtieġ
ise z
zą dz
▁v ou
▁υ γ
med io
ț ele
▁ai he
▁arb ets
rie b
▁vē rt
▁zap ew
▁saj át
▁elem enti
d rit
▁al ates
up er
▁provin cia
▁kateg ori
▁sop ra
unk we
▁princi pi
▁b rid
ent y
▁e arth
с ле
λ ική
▁mar que
▁sc egli
de z
▁pää ssä
▁europe a
ostav no
▁sever al
▁till b
▁pom oč
▁μέ χρι
▁gjenopp rett
▁ste det
le ver
né m
▁nä htä
▁ма тери
m än
▁zosta ł
▁zagot ov
▁ap ost
▁g emaakt
▁p ram
éri que
al b
▁p ís
ligh et
ā ti
p age
▁wel che
▁know ledge
χ ι
▁osob ní
▁ac ess
▁usu arios
lig g
▁real mente
▁sv æði
▁acord o
▁cu ra
▁f ia
▁sov ell
▁d ort
den e
if a
▁com une
▁така ва
▁g ama
▁p m
▁c ien
▁jako ści
ens o
р на
▁r inne
▁f uld
▁val ent
ons es
▁spos ob
▁od ab
▁lé ir
▁π άρ
▁vene zu
ig es
nik om
re ady
▁forret nings
▁man h
α π
ują ce
▁vēr ā
▁m enej
▁lent ok
it tu
▁vi ime
▁χρησιμοποι εί
▁th é
▁p ô
▁z en
▁ва лежи
ī vu
ħ ob
▁anmeld else
▁изи сква
▁es ate
▁ri co
ž ení
hto e
is is
inter net
b ri
▁sve čių
▁host ing
▁αεροδρό μιο
▁б ро
p ö
▁при чи
ik ai
▁în cep
▁in i
▁е нер
▁ķ er
▁iar ratas
▁court yard
▁ин стру
xx a
in et
▁προσφέρ ει
izz azione
▁τι μή
en vir
en k
▁prijsver gelijking
er tif
▁mno ho
▁p ele
▁tar k
▁pav y
nú ť
ire d
▁déj à
▁ans atte
_ _
▁sp ia
▁ord ú
▁f ă
▁sle chts
▁t ād
á ře
äl len
enz hen
▁depart ment
▁péld ául
aj es
▁pro wad
▁feed back
▁fe h
▁aizs ardz
ė ms
▁at it
▁v ždy
aliza ción
▁има т
im t
▁nett les
▁κ λεί
end ab
▁el iz
ust atud
▁program mes
vo je
▁for v
ol iko
▁dre am
▁å b
▁ren cont
▁sv ilu
▁supp lé
ti eto
▁ú nico
d rive
d ida
▁r ut
▁ма зни
▁hó telt
▁hótelt ilboð
▁g yd
y den
▁mach ines
▁l ú
num mer
▁o ud
s í
d re
▁val id
▁nov ý
▁ev ento
ind et
▁at rac
đ en
λέ ον
2 50
le ges
▁ve i
▁jer usal
λογ ία
hot o
▁δω ματί
men o
ar ning
▁bo ur
▁ex cep
▁veng ono
▁pomoc í
▁επι χει
▁služ ba
▁π ι
▁rec over
μ ες
▁iz p
▁need s
ed ija
▁ лю
▁č inn
ra č
▁πρόσ βα
▁αρι θ
á hoz
▁ex erc
▁произво д
▁pas o
▁i x
▁mujer es
▁popul ation
re kt
▁car s
o e
▁t ī
▁t ür
▁t ada
ā de
l ist
c ad
▁et ap
is eks
é di
▁g all
▁ab rir
▁dra g
▁conten u
ak u
▁kor ke
ied r
ra ul
τ σ
ίζ ει
▁použit í
▁ ás
pla ats
▁jul y
ή στε
▁dispon ibili
▁б я
▁le ader
▁mj esta
oz em
▁stor itev
▁rép onses
ini u
▁ger al
ib el
▁merc ure
▁fly v
▁di al
▁из клю
▁k inn
un ts
▁fil er
▁αυ τά
▁ηλεκ τρο
▁kok ku
c op
o ud
▁ċ ina
il and
▁a ine
да та
▁categor ie
ри ка
▁rel ater
jum ā
▁r ile
w l
▁im pr
λλο ν
▁pros ím
▁gio chi
ми ни
▁про ме
▁kön ny
▁m re
▁na kt
▁před pově
é quip
▁kontak tu
▁projec ts
i ff
▁ne uro
▁se is
▁me ans
ap pl
éf ono
▁an teriores
øl ge
▁ga an
it ekt
▁kli enti
ran a
▁ma š
▁big li
ym ą
g ja
ond o
ator y
▁produk tion
▁pak k
▁cor so
č ko
▁τ ρο
▁r ád
▁ra ck
έ ργ
▁conjun to
▁ε λλη
▁κάν τε
▁š ioje
▁b ott
▁sub ject
▁en fer
▁0 3
▁по се
▁vu elo
▁v ět
▁f ett
▁u u
ytt ää
ljen a
pro g
š anje
▁forbind else
ó c
▁v lad
▁sun te
▁il yen
ist us
% )
▁om an
p osti
▁en de
▁le x
θε ση
▁n ép
▁k h
▁pre ço
ka w
9 7
m ek
▁μετα ξύ
▁stud y
j ük
▁unter künfte
▁c ere
▁skin uli
▁sn ad
▁sø ker
▁ś wie
m ie
ční ch
āk ās
▁en emmän
sh ús
▁utilizz are
ob ile
▁nat ür
vo ja
▁î mb
▁exter ior
ρο ι
▁mig uel
▁esta bl
att form
▁zjednoc zone
▁sex y
im ente
▁mond ial
▁moder na
▁ov lád
ar p
▁v istas
▁sele zion
▁svilu ppo
▁przy ja
▁άρ θ
▁ra ce
at ic
ī ti
▁es a
▁si amo
д на
▁del hi
▁br et
▁ap sk
▁m ier
▁bus c
▁d ha
ni ð
n els
▁var s
▁rése au
l ă
▁t ika
ateľ ov
▁по ле
▁ay udar
te j
▁tel éfono
▁n ations
▁температура та
▁si è
▁orlof shús
▁c ala
▁m ert
c la
▁εξ αιρε
ann en
▁sp ille
▁κ λι
▁contrô le
▁sam i
▁е кс
▁dos e
g å
ill et
▁camb ridge
▁k ív
sti ge
▁god ina
▁ne uv
lj ivo
▁vel ja
n ader
or it
▁mo j
ett ing
▁g hn
▁re iz
er w
ιν ό
▁i cel
н та
rove ň
form at
▁s eng
ė mis
▁st res
▁ku iten
▁at lik
лно то
▁mo eten
▁nego cios
ent ă
▁w sz
fs le
▁e jer
mo č
ati iv
▁on a
▁fond o
ł ec
▁hund red
▁kod u
s ub
y ez
▁in ch
▁rob ot
æt te
▁oc en
▁i pp
▁st ær
bard ziej
▁ver m
d isk
▁pomoc ou
ik kel
▁vies u
▁a meer
▁szám ít
ek ti
ó idh
▁at las
ol le
▁hos pod
▁tillb aka
▁lig a
ut to
▁ba ño
▁as et
▁επε ξεργ
▁la ur
▁r ating
▁enqu anto
ul p
▁com ida
▁cl ock
it ur
ís tica
▁ci ą
▁ingl ês
▁pov rš
▁6 7
▁ond erste
▁qu ale
d ok
▁ann at
b ros
▁wir eless
▁vý voj
▁z un
▁kwal unkwe
icz nych
▁pren os
▁č ist
▁med e
est ar
▁lucht haven
▁tjen ester
▁kylpy huone
š enie
▁app are
▁god e
▁car men
▁overnat nings
▁me il
▁съ ще
▁aut h
▁sam band
τη σης
▁tér min
▁ro und
eg d
e ign
jer os
▁willi am
▁fj ern
▁arbe jde
▁bez plat
▁zel f
▁θέ λετε
▁ver ke
v ier
il j
▁p t
▁colum bia
▁v éri
▁fr jál
ven i
▁car b
ita ção
▁un ul
▁confi ance
y endo
an ý
▁ant woord
▁ü les
r ero
ich ts
▁прог но
s nit
▁f iche
zy w
▁nim et
nie gt
xim os
▁πα ρό
▁eb ben
▁pas āk
▁destin ation
um enta
▁wys ok
▁all og
▁άν ε
▁bílaleigub íl
iv an
as tic
cra ft
bl ok
▁kr ás
ij el
▁of rec
ir ano
jär jest
ja w
▁col e
φω νο
▁lux em
▁spē les
з ъ
▁hvor for
▁ġener ali
ħ u
ycz nych
▁ge ï
▁ré pond
gyvend inimo
ros sa
▁miner al
▁prov ides
▁det ali
▁n äh
c p
kon g
▁m im
op ort
▁an ima
▁świ at
▁naj bardziej
ana í
éas áin
▁vidé o
▁raz v
ism us
▁mont h
▁pār ba
um mer
τή ρια
men e
▁s ce
▁montre al
és p
ut ers
▁éta bl
▁fr ente
▁os ób
▁ko ul
▁si ū
бо р
▁sem pl
for sk
un er
▁ér int
▁ch oi
▁ná rod
ab en
▁di eta
b iet
▁pak kum
▁hel st
w all
▁lo ft
▁nél kül
itet en
▁se kt
▁insta gram
▁part es
▁izg ub
π ους
▁sv ara
▁gra fik
▁pr it
▁sk on
▁j ib
▁majo itus
▁on i
▁int ro
▁μπο ρού
▁отно сно
ικό ς
b yt
▁ко ми
drit tijiet
9 3
ti mi
▁coc ina
▁ion ad
▁v ente
▁mā jas
▁cr isti
▁v pn
▁lat in
βο λή
▁prá va
▁her itage
▁ισ παν
▁od loč
ok ite
▁ma cht
▁el les
▁p au
ā ko
▁inter medi
▁pan ama
h ard
▁smješ taja
▁sko ða
▁кли ен
▁az ok
itu ra
▁te ż
ve j
▁gra cias
na ch
▁interna zionale
▁lij st
ts ioon
▁î na
▁num ai
▁fü gg
▁ва шите
▁sin u
▁job b
tam ment
▁sk apa
om es
ir u
▁s ne
▁ł at
artic le
▁s eni
▁co ordin
▁ned bør
érie ure
▁bro j
▁my e
▁anglič tina
▁addition al
▁ob č
▁pl ano
▁svo ju
▁parad ise
▁á reas
ç ar
▁dol go
▁czł on
f tig
▁distribu tion
▁sor te
▁tre ści
▁kategor ija
▁om geving
▁toal eta
▁rac ing
▁compag nie
▁clos et
▁v lo
▁de ci
▁— (
▁ma est
▁l inen
▁osp iti
▁met ri
▁verd ade
▁dzie ci
on ces
▁r í
▁sh enzhen
▁ ци
▁conf irm
▁belig genhet
▁priv ire
▁pro men
in ia
▁už ív
id del
p är
на ро
▁пред ви
▁el ast
sz ego
▁sky pe
▁käyttäj ältä
▁6 8
▁κα ρ
▁aerop ort
▁kinder en
l ob
▁c ov
20 20
▁back up
▁komment are
▁h ins
▁t l
▁zap e
▁sign al
▁mater ij
▁от кри
▁f isc
▁nä ch
▁ko op
re iz
end ing
▁zv uk
▁engine ering
▁sz ín
▁decl ara
c les
s gál
▁d ice
geg evens
emb ad
▁k emm
▁sin ulle
ž vel
▁k ill
var ing
▁v ör
▁те гло
▁hol de
▁recom mand
но логи
▁ann an
▁st ora
с ло
▁arch ivos
▁14 0
▁cré er
c ler
▁gru pos
▁stát y
▁son dern
hl t
▁και ρού
▁διαν υκ
σ κο
▁gyak or
▁téc nic
μό τητα
▁9 6
s is
ä der
▁s inn
▁j koll
▁kr ä
tek int
▁tok yo
eg na
šan ja
▁kol ek
▁ist or
▁an tiv
ra cht
áin te
ajú ce
or no
▁vä der
▁a vere
▁rapp res
пре ки
▁realiz ar
▁3 50
▁stor britannien
wn ia
▁αποτελέ σματα
γ ές
▁de jav
p ite
▁g ere
▁n h
n ju
ве ни
ri ð
▁и кономи
▁am igos
ith i
▁p ami
▁κο ρυ
s f
▁diction ary
▁sz ere
o ż
9 4
▁oc tober
▁ne var
▁biz ottság
▁conteú do
▁verwend et
hu is
▁ajo uter
fic ie
▁telef ono
iz ado
▁mo hli
▁h í
v t
im port
ľa h
▁ban co
ч ко
▁g ele
м ври
▁prá c
ies e
ro le
▁bli z
▁cij ene
▁super i
▁experi ência
ž iai
▁oif ig
▁on gel
ot he
▁společ nost
▁sym pt
ativ i
▁χα μη
ba irt
▁respu estas
▁men n
▁bede ut
▁partic uli
▁satell ite
y tu
k ta
▁proy ecto
eil ge
▁g dzie
ec tive
▁ex tern
▁ex pres
▁j ämför
▁b æ
▁h ir
▁u ključ
s d
▁τ ρα
▁t and
l ēt
▁febru ari
▁an née
▁die u
urt à
▁demok rat
▁hol ly
s w
▁oc c
ul at
äl ler
co ok
▁stjör nu
▁cs al
▁différ ents
ľ ú
α τα
▁ris c
m art
▁ed ge
kla us
▁comp le
asil iteter
▁ch ir
▁obsah uje
▁aj udar
▁kategor ii
ω σης
▁ž ele
▁sig u
σ ου
▁ ●
▁bh f
▁9 00
▁до ста
▁sk yl
im ui
press ion
ni enie
▁té arma
▁о п
▁тъ й
š it
▁σύνδε ση
▁6 2
▁za uj
sh op
ag ing
av ia
▁russ ia
í do
▁tot ale
▁j ordan
▁liver pool
▁inter ne
▁par fa
▁efter som
▁mu itas
▁lentok ent
kl ass
▁tu k
▁εισ ι
▁urm ăto
▁us lu
▁иска те
▁pri ka
lež ité
▁est ud
▁dubrov nik
▁méd ia
▁ad ress
▁pat og
▁lietuv os
▁ψ υ
τρο π
▁про сто
▁ma ak
▁clim ate
ch ter
▁ευρώ πη
▁end ast
áb ól
▁kesk ust
ec ko
isten cia
▁к ръ
λευ τα
▁hjemmes ide
z ug
▁ca f
▁įvai ri
▁še it
вър ш
n ă
▁předpově ď
▁náz ov
▁tr á
p ani
▁upp dater
▁res ol
▁δικ αι
po č
▁drž ava
ot is
▁čer ven
in ten
▁pro fi
▁рабо та
ir anja
▁hotelle ja
▁fab rik
va ť
▁nouve aux
a ide
▁expl ic
▁trad icional
▁töö t
ít ulo
ag ar
ņem t
▁poskytu je
fo is
η ς
ch tige
▁bal ance
▁ut vik
al om
ú ir
▁caz are
▁p este
▁le ic
▁favor ite
▁hitt ar
▁nav n
▁abog ados
ec om
▁til gang
▁restaur ar
▁hled at
▁εν δια
▁forbed re
▁grand i
▁bun ă
ta għ
▁hver nig
▁num ăr
▁gd je
▁vend ég
č ia
▁categor ía
▁tem ple
▁prob abil
▁ktor ým
▁rezerv irati
zion ali
χ ής
wer ken
an ă
▁б лаго
▁verblij f
▁εν ός
ст ите
▁jeż eli
pre zz
▁nást roj
un ii
▁turisti cké
s ent
▁ma ť
▁seirbhís í
▁ro de
iv ia
▁kr on
▁напра ви
ali es
▁mar ie
cz ne
▁för b
stjern ers
▁zod at
as ca
▁for ecast
▁vär lden
▁date i
ätt ning
▁užtik r
▁ameer ika
▁da zu
ită ții
▁tur ėtų
▁ráp ida
▁im plic
hl ás
▁n ies
▁bes cher
τικό τητα
▁άλ λα
▁фа й
▁do prav
▁επι π
▁suih ku
itta d
▁met tre
▁t isk
▁n ytt
▁tre oir
um es
▁vál toz
▁nal azi
▁tier ra
▁ka ffe
▁cie ľ
▁acqu ist
zn ak
ar l
▁program met
▁de als
end as
▁пред ста
án u
▁konf lik
▁hj ál
▁sw oj
▁kr ās
▁ú rov
ad ás
▁ex er
▁ljósmynd um
▁mu itos
▁mukavu udet
▁ma asta
▁pre zen
▁peri odo
un ti
▁ελλη ν
▁gel eden
▁pró ximos
▁из пра
▁car pet
▁εργ αλ
▁necess ario
▁sv ilupp
▁mā ks
▁cor ps
▁εκ εί
st rat
▁til boð
▁renseign ements
▁g over
▁c ach
▁pog oda
▁mont hs
▁kun na
▁esz köz
ich í
▁wir ts
▁n enh
▁t k
meld ing
usi ų
▁δ ρό
▁me io
▁hel pen
▁nd áil
▁jun ior
▁temper at
▁szükség es
von den
bra ć
▁εγ γραφ
ý v
200 3
os as
▁hotel tilbud
▁b ond
d í
▁for mer
▁mygtu ką
χο ς
ap olis
ain väl
▁eleg ante
▁forsk ning
▁p ys
к то
▁cas os
▁produkt ów
▁no tamment
▁vä č
▁lib ro
ni re
▁kirj eld
▁et si
g ol
▁com od
▁r ätt
▁folg enden
▁anbe f
▁hera us
▁to ep
resta ur
▁instruk cji
▁spo łec
▁dir itto
▁p si
▁odp ově
ek e
▁magaz ine
d ale
at al
▁въ преки
u cher
▁a eg
▁про да
▁kon ven
ú ra
č ných
ic ante
▁с па
z ona
▁τε λευτα
▁câ te
āl ās
av al
iz er
▁t ome
▁solát hra
▁pat h
▁ade qu
▁c is
all inen
λ ίου
▁een voud
▁poss ível
▁z it
▁roz wią
▁orlo fsle
▁c ig
▁un na
▁bes z
▁im ate
▁sijaitse e
▁person alizz
▁ste ph
ycz ny
▁badek ar
▁d lí
▁asia kka
чи та
ob al
▁συμ με
▁po zy
▁na am
δ ί
▁ide e
ö ss
▁orlofsle iga
▁r ę
▁pus lap
▁du bb
λι ών
▁meille ur
vi ent
s ite
▁εί στε
▁al ready
▁av ion
yk ke
▁verw enden
▁an ún
▁h ed
▁int ég
▁p ů
▁sk ład
jen ti
čet ně
▁az ul
▁ό λο
▁tan k
▁panor ama
▁leg ge
▁znajdu je
f ass
▁ka as
est in
▁ме ди
▁ni ž
▁č ak
χ ου
δο ση
▁zariad ení
áv ka
▁egyszer ű
▁u cz
h all
f ia
um er
▁alla h
ni ć
▁9 3
▁lejligh ed
▁ab ra
▁ad min
▁toeg ang
▁za što
enste in
▁en ligt
▁ανθ ρώ
▁aħ na
▁hom bre
▁pro ud
▁l g
isti gh
▁besch reibung
c re
ist ra
▁voor zien
▁col oc
▁który ch
δ ό
▁ü lik
▁pla c
▁fej leszt
▁pat ik
tik as
t ól
▁vor u
▁v inn
f ru
eb en
▁zariad enia
▁πάν ω
▁dev ice
▁me z
▁repl ica
▁o vo
s ida
▁af ric
her en
▁car bon
▁fond s
▁at ât
kk ing
▁b ung
▁promo tion
▁ap vien
ri ff
▁fó gra
▁на ля
▁hotelltilbud et
▁glob ale
▁os nov
▁la y
▁cons ulta
▁szab ály
▁swe et
en ger
▁ge h
ver w
▁ce ad
esso us
▁fran ça
▁egy pt
▁mag ic
πτω ση
ēj iet
▁ri z
▁b av
▁k te
▁steroid ov
▁mat k
w ier
▁ka utta
фи ка
ριο ς
▁vyn ik
▁sa y
▁själ v
▁any ag
▁kans ainväl
▁ne ve
▁cel ui
me ņa
▁prist up
▁cam pa
▁mo je
▁b olog
in ot
▁standard s
▁gy ors
▁ú pl
á ga
i ere
un as
ec o
▁for sch
▁strán ka
▁program mer
▁otev ř
▁απ αι
▁põh j
▁pe aks
▁d olo
▁ud ob
z v
▁st any
ход я
▁и де
▁ud tale
ę t
▁μ αλ
▁dro g
land i
ö ffent
▁k iedy
▁z da
▁str ong
▁w ine
κ υ
▁îna inte
am es
▁wich tig
ke zel
▁между наро
▁из то
inn an
▁cent ury
▁6 1
▁ange bote
▁fabb rika
▁t esto
▁stud enti
▁ `
γ ου
k owe
kom un
mul igheder
õ ig
hot eller
ži us
our ce
с ен
▁γ ύρω
ру д
▁sw ój
▁luxem bourg
ar ii
▁k ore
▁can c
▁kte ří
▁hav de
us p
er ede
▁ob ter
▁aplika cije
t ran
▁dat ele
in oma
θ ο
▁perí odo
▁mba ineann
▁glas gow
▁ξενοδοχεί ου
▁с ним
pr as
▁supl iment
▁ki el
▁upo zor
c ap
z ī
▁re vel
▁rela ção
▁as iat
▁inform ací
▁g ens
▁ver bergen
vis e
▁terra ce
▁anze igen
▁syst èmes
▁ta ot
ik ke
▁he a
▁ba ð
▁sch imb
▁gi ard
▁char acter
u ve
▁pad r
▁l ær
iv ed
▁ef ectu
▁dta gra
ck ých
ø mm
ę tr
▁stat ele
▁β ελ
riig id
гле жда
ak si
▁i kk
m ē
▁nom in
▁f t
ша ване
▁under stand
mas to
▁seb asti
▁ro st
▁ ş
▁доб ре
on ie
▁pavy zd
▁yks ity
▁v oda
▁com hairle
▁rek rea
▁blan co
▁la un
▁tren ger
▁mov ie
▁sent rum
ā kaj
minist rat
aj i
▁v ital
in om
▁kir ál
▁tra iner
▁th a
bo utin
▁sch ne
▁foot ball
▁gh lac
▁ακό μα
▁to ote
en á
▁qual ität
und i
▁mi ra
ari at
bu ild
▁sw im
▁предо ставя
▁εμπ ει
ole va
r és
▁elő re
▁spaus kite
▁sk ol
▁nov e
▁é ags
▁de ber
▁199 2
▁mo o
iz ation
▁u pon
▁ox ford
. ).
▁t ällä
▁przy kład
▁szeret né
▁to hto
▁bli ž
lí ben
▁lu is
▁ut án
mis el
▁об работ
f ers
▁σε λίδα
▁за щото
▁advan ced
▁aument ar
▁tai wan
▁k b
ter en
▁bo j
▁za šč
ina ción
▁con clus
▁» ,
▁körny ez
▁f ro
pt ăm
▁případ ě
▁c ikk
▁s ään
▁emplo ye
che z
pro v
▁ž i
▁hy öd
▁sü d
▁пе р
▁a ang
▁academ y
▁l īg
▁są jung
ht ud
▁kemp ing
▁ma akt
▁kwal iteit
▁pok o
ora ción
▁temp érat
▁mil ij
▁ră sp
▁techni ques
j ąc
▁e e
▁form as
vre mea
▁sid ste
▁rec ensioner
▁h ide
ver o
▁iev ē
t an
ost ęp
▁pra š
y ks
os zt
j m
▁weer geven
▁do ck
▁fl era
то п
▁mat ka
▁on ce
▁ć ete
li fe
й ни
he its
▁pou voir
▁рабо ти
πο ύ
▁dtagra ítear
▁loc alização
s yste
▁mar in
▁úč ely
▁min der
ē taj
im es
▁έ τσι
▁z lep
▁m ír
▁μο ι
▁ag u
▁pr äs
▁sp ons
em er
▁об ра
bol ag
▁opp hold
siste ma
e ins
▁partik olari
▁fin der
and et
▁n āk
▁vý bor
ul ier
▁фун к
▁indust ria
▁nas z
ovan ju
s il
... ”
▁dotycz ące
ap ar
ital ia
▁ver zi
▁tex to
m ers
zor szág
▁стра на
ist ess
!! !
▁защи та
▁min ħabba
▁p anta
▁di fic
▁er fahr
▁i a
▁human os
▁se an
g ht
ли на
▁mos k
hd ot
▁cas i
▁ja zz
▁l ans
▁stud ies
ig an
▁kar al
▁off icial
▁l ý
▁συ νο
ald s
▁σ ή
▁pos jet
▁ty per
▁sekun der
▁dec emb
t rat
▁b omb
ř i
▁post el
▁bruss els
▁acc ès
▁segíts ég
▁s ann
at ten
á ja
▁bec ome
▁nav eden
μα το
▁cre ar
άζ εται
▁по со
je č
▁b ola
▁bes timm
▁la istigh
ста но
▁gr éasáin
brit annia
āk ā
▁t ard
zen iem
ål la
▁lin na
▁h äl
▁g t
▁ver ður
▁pia zza
ex p
▁automat isk
▁tur ite
du ra
▁au ð
all as
▁stj ór
rom ad
▁pov r
▁înt â
▁bal con
úbl ica
áir ítear
▁m ate
le velse
lad en
▁plat z
▁rela ción
▁spir it
▁ταχύ τητα
▁charl otte
▁k ids
f is
▁toe vo
▁komple ks
▁rak st
▁tr ä
▁9 7
ov ým
▁bulgar ia
ь о
▁ra dy
▁h rá
▁vol ks
▁kon c
▁sú vis
▁famil ien
▁tras fer
ens en
▁us ługi
iv amente
▁προ ο
▁pho enix
st öð
щи я
ra ient
▁βα θ
▁h ou
▁stor age
▁wa ħda
ско то
▁cre ated
▁car ri
▁vi im
▁un til
▁zabez peč
▁ur laub
... )
▁zak up
c ó
▁h la
▁chom hairle
▁уве ли
ut os
▁ch iesa
im y
▁p ajji
▁to hoto
▁pant alla
▁συ μφ
▁produ ce
š ť
▁sigu iente
▁maj ú
reg istr
▁par du
h eng
ing ham
jon er
▁komple x
av es
▁bef indet
▁n ø
▁s ino
▁fra is
▁št áty
klju čno
▁προσ φορές
▁gro ßen
▁вси чко
▁ska i
▁reserv ation
sk il
ė te
um ine
y der
▁př ij
▁stor itve
▁at la
ū ru
ia ľ
▁ně kter
▁lí der
▁b ov
▁funk tioner
▁fir enze
▁kl ju
▁nin cs
rí bh
▁použ íva
8 00
▁gestion e
▁kn j
n ame
▁rie bal
▁ju ur
▁fl ysel
s pr
▁informáci ók
▁mes ures
▁tra c
h id
▁aloj amiento
▁h es
▁till f
▁ilma inen
▁só rt
200 5
▁z bo
▁agric ul
▁живо т
▁h æ
š ia
όμε νο
▁9 4
▁st opp
v ist
▁16 0
▁popular es
▁tom ēr
▁sens or
▁så som
зо ва
л ния
▁sec teur
▁fac tor
νε ια
▁kontrol ler
lik u
ard en
▁bh re
▁pos ted
▁necess ary
▁min ä
▁tru e
▁ab ord
▁ap str
▁repre zent
ta il
▁dispon íveis
▁om oguć
akt ar
ale ż
di um
ś l
ni ch
▁köz vet
▁st ructure
▁uit ge
ik ä
▁d rop
▁p eng
▁parten aire
▁clu ichí
▁sof ia
▁inf in
▁wä hlen
▁ak ár
▁restor an
▁bade værelse
▁pu hel
▁stran ice
▁hal f
▁che ann
▁f ás
▁pro jets
ific ation
▁comp ra
▁kül asta
▁mak ing
▁δου λει
▁c ade
▁pu ud
äm me
ald us
ίν εται
▁ġej jin
jen za
rad ar
▁biz ony
▁κάν ετε
▁cli en
w u
▁zá vis
▁nõ u
▁belang rij
et len
▁ga at
▁pap il
▁h vers
sz ak
▁vir kel
kl us
τε ύ
fac il
▁об о
▁raggi ung
▁hu ésp
▁ras kt
ori os
▁str eng
▁resp ond
▁ex empel
▁z ud
▁st ruk
▁matri mon
▁prés ente
▁piemē ro
▁prime ira
am an
▁nombre ux
▁qu em
e y
c ri
▁ änder
▁μπάν ιο
▁nar oč
▁especial mente
▁со ф
▁j ad
▁frank rijk
al ue
e it
▁b ith
h ow
▁adres e
▁toal ett
▁at st
▁que ens
it si
λ αι
▁ba ile
▁до ма
æ ki
▁pogled ajte
ät ta
▁j ár
▁con ce
▁sa ú
▁ε λέγ
▁his z
▁h ov
▁ва шата
▁vis ar
▁ste p
▁vis itar
ρα σ
ter dam
▁nav št
▁er r
▁diz ajn
▁val ik
me e
re zz
fen se
▁un ije
▁strán ke
▁iet ek
▁av ea
é tel
▁s all
h yd
▁savien otās
rag ende
▁hv ort
▁bas ket
i amo
f øre
▁počíta č
▁egy éb
▁cuer po
▁manu el
▁tar v
▁ντ ους
▁ди за
▁gro und
b ler
▁vale ur
▁péri ode
al os
▁neg li
l ock
▁ko pp
▁gen et
e h
▁ve ikt
▁gi à
▁c un
▁ε μπο
π λισ
r ī
iza ção
▁l ady
▁stream ing
▁ό σο
▁bre yt
▁kaupung in
▁f ól
▁treb ate
ing ungen
▁sam þ
▁z az
▁four nisse
▁h ivat
▁ve zi
▁me han
▁tre e
ist on
▁vis ų
ва ния
z ed
▁exem plu
▁show er
▁satelit ní
▁tar pe
▁ed if
▁z omb
▁german ia
z dy
▁proble mi
▁r s
sk yl
▁l assen
od ob
▁aus ge
▁k ün
▁map ě
χ εται
▁expl ore
he iro
▁aplik ácie
le z
▁fant asti
▁per mis
▁st of
▁k ut
▁tele w
▁icel and
▁oper ator
▁sus tav
▁pro cur
▁ball st
iz ia
▁ponú ka
▁analys is
▁k aks
▁compr end
▁sø n
▁g iven
▁venezu ela
▁ress ources
v ää
ét és
g ă
▁бе ше
▁vost ra
▁spi ele
▁pro met
ми ра
ist ent
▁ ύ
▁ered mény
ir ge
es n
▁kon e
▁co ach
▁bos ch
w id
▁lehető vé
▁un ite
▁propos e
▁administ ration
▁има те
ļ iem
▁m ittel
▁link ed
▁naš im
lik šķ
▁fr ied
▁k á
μ ισ
s tig
▁le ven
hl iain
▁mu ra
g lich
▁ve ilig
▁er t
▁pov ol
π ά
▁can cer
ter er
at us
no ta
▁op r
▁termék ek
ho o
▁web cam
να ς
▁er ő
▁ra ison
▁koment ar
▁mar zo
▁obie kt
▁ie ħor
ab ad
▁schla f
▁te e
▁соф ту
▁kl icken
▁gen ie
▁ge ar
▁ser wer
▁kon d
ā ri
я ване
▁vac ation
hé id
р но
▁sie viet
re ġ
▁camping pl
nic y
p d
šķ ir
l ings
▁ ţ
▁тя лото
in ys
▁lic z
▁web ové
är en
ρί ων
▁poniż ej
f ej
▁παρέ χει
▁require d
▁men et
▁kl anten
▁h ig
▁st utt
itt elu
▁těch to
▁vu os
ét at
ck ý
▁ver kl
ž ne
b he
▁sü ste
lev ard
▁prés ident
▁kola či
▁mos c
an čių
▁p ēt
ś nie
▁ad ri
▁bel ieb
▁toalet ní
▁trat amiento
▁dos top
▁tag áll
ze z
▁gar anter
▁sout hern
▁idő járás
▁her unter
▁fich iers
▁ch air
▁ide as
land a
emb urg
▁justi ce
▁docum ento
man i
▁déan far
▁ηλεκτρο ν
▁panor am
a im
▁ch au
imi entos
óri os
▁r ates
▁mašč obe
na qq
g id
▁un es
▁franc úz
▁attiec ībā
▁k utat
▁otten ere
ät ze
σι ών
fol io
▁naj ít
oks en
ak ti
▁а кти
▁al co
▁ab ove
an zi
re ci
▁arbe jd
▁stor ia
ell ow
μ ία
▁επιλογ ή
▁dise ñ
▁пре поръ
▁w ach
se y
▁f ase
▁tip i
γ α
▁pou v
dr itt
▁dr ink
▁n owe
ш ни
▁nok likšķ
▁τοποθε σία
ic ky
▁αν τα
▁zn ám
▁n eden
▁unter sch
ij s
▁stero idi
▁sieki ant
v ement
▁μαζ ί
st eller
▁cl ima
el ia
▁cor p
cl ub
▁j ą
▁condi ções
▁sag lab
▁m ast
▁gu atem
ra ke
▁се бе
▁ris petto
▁markk ino
▁nut zen
▁bor de
▁de ath
γνω ση
▁wyś wiet
▁c ier
▁се га
▁tro uv
k ad
▁b ike
f ull
k ata
min i
▁esp ír
▁про фе
▁ent onces
▁ima jo
en em
▁j otta
n ere
▁twitter u
▁pa ese
elle en
▁s æ
▁coun ter
▁s ħ
▁r eta
▁rep ública
▁c ion
▁pro pre
än de
aj al
▁ma an
▁pri č
▁kl icka
▁amer ické
nic t
▁eur ó
▁szer ző
▁ter mos
▁létre hoz
▁ge vonden
▁yhdys vall
▁tjän ster
u oja
m ha
▁pieg ādāt
▁maj í
▁t ă
▁w onder
▁much as
▁t kan
p oved
fr utar
▁9 2
▁min un
l uss
▁smješta ji
▁b ub
▁tour ist
▁висо ко
ą t
▁hon or
▁ingred ien
▁janu ar
▁dru h
m ás
▁pret raž
a er
▁design ed
fil m
▁proble em
je va
▁stand art
ν ισ
μού ς
▁b ald
▁пър во
ši ť
▁om fatt
▁помо щ
▁st oj
▁σημεί ο
ē šanu
▁κο ι
▁teis ės
▁tak ich
▁sex u
▁erm ög
▁să ptăm
▁eliz abeth
▁o sk
▁mynd ir
▁vyt vor
▁omogoč a
▁συ γκ
▁vis e
k lu
f est
ow ana
▁αμε ρικής
▁and er
▁on ge
end id
žen é
le ms
▁ре зер
itu ks
ri va
▁es e
m lu
wer king
▁inform ācija
▁re š
čen o
▁st en
▁то п
▁dall as
al li
▁no ć
6 00
▁mon ter
▁s illä
▁comun idad
c ore
▁g usta
▁rec ente
▁t ama
▁le e
ών τας
▁о фи
▁du it
▁sz int
в ки
un ătă
▁pr íslu
▁t ár
▁nog en
en se
to u
▁проду кт
▁ig les
▁van a
▁erbjud anden
▁s ena
▁καλύτε ρη
ле ни
▁du as
▁inv ester
▁δραστηρι ότητες
▁o ibre
▁bra vo
▁siti os
isti ques
▁c ock
▁s ott
▁le er
▁dien sten
d je
▁ημερο μη
▁janu ary
▁naw et
▁za hr
▁has tighet
ij ek
▁dec ât
an ih
▁е зи
as ág
▁s lav
čen je
▁tra ff
ljen i
▁b alt
ul ation
▁koh d
▁δια φο
m ier
▁tr ês
▁hab e
▁preto že
im mat
ρ ίας
▁l umi
s ens
ol át
▁ponu ky
▁δια κοπ
▁od kaz
▁he ures
▁vy ž
għ aż
▁diz aj
il te
▁netts ted
▁h õ
▁sv orio
φ άν
▁téléchar ger
▁um et
ti ment
▁th ai
▁mi š
▁del ic
▁zo znam
▁atsi žvel
▁kú piť
▁bil de
▁vic tor
ol ta
▁ro ta
▁old al
χ νο
▁fotogra fi
▁sal z
▁id é
ди я
▁gy erm
fl ä
sam mans
▁lennuja am
▁κου ζ
č ku
▁lou boutin
тел ни
▁7 7
▁zape wnia
▁soll ten
områ de
ljiv ost
▁α ύ
▁cri ar
▁long ue
▁in ova
ør ende
▁gjester om
le vel
▁del en
▁reci bir
isti che
▁roz ší
▁mo od
▁ho uston
es o
▁στι γ
▁land et
st ars
unt os
▁et was
▁rec enzi
▁επιλογ ές
▁seas on
▁наля гане
▁wł os
▁7 8
at tiv
το ύν
ë l
' ,
▁d ól
▁me an
a irt
▁ενη με
▁ty god
▁kur as
ț ei
v em
▁sv al
c ams
жите л
▁а з
ле но
▁nor ite
σ ί
ells chaft
▁smještaj nom
▁pak ub
▁wys zuki
▁prog etto
▁po jed
▁choi x
▁iz bor
▁l yn
▁á rak
▁ro bi
▁ke el
▁parte cip
▁obráz ky
θε ια
▁artíc ulo
▁získ ajte
ú d
ra p
▁perfek ta
ú st
▁č ás
▁vend ita
erim ine
tig heter
ish ing
▁fa x
▁den n
▁μ ει
▁мал ки
fe ira
▁tot almente
▁né hány
▁kl im
▁királ yság
▁imper ial
▁bed room
▁am et
p j
▁kan cel
▁из ве
menta ire
▁а л
▁e cht
end us
▁clique z
▁opro gram
y to
n un
▁add ed
▁vene zia
▁bo a
▁ar ma
▁kom en
▁med narod
end t
▁t uba
▁fram leið
▁pa esi
фи я
▁usl uga
inter es
▁pra ia
red i
f ie
het her
▁apm ekl
for um
▁l ög
▁lä bi
ã os
▁el é
rij ving
▁huésp edes
▁υπο λογισ
n ent
▁s are
▁dom ingo
ск ви
▁h ún
forta bel
▁mun ka
▁îmb unătă
ν τα
ня ване
▁b hliain
▁georg ia
▁όπ ου
v ania
▁rac col
▁tu ar
▁cor r
re iser
▁sou krom
▁sp ania
is ert
▁mec an
▁σχ ό
▁n att
ic í
▁profess or
▁had de
ö lj
riv ning
▁comm ons
▁res olu
▁po jav
▁се ме
▁la gh
y ä
ig li
k ve
▁av anz
▁anal og
▁st off
▁n ät
▁rich iesta
k j
▁соб стве
geb ung
λι ά
▁rezult ati
d c
ask ine
▁guar ante
▁kes kk
áz at
▁nam est
l ong
▁z im
án os
▁kop en
▁depar tamento
▁zus ätz
σ ιο
▁pre ko
▁geb en
▁nuest ras
▁ko ju
▁cl en
▁pra vo
▁och ron
▁pr ane
▁hjæl p
▁an ul
▁process ing
▁zn am
▁o to
▁dí ky
▁tých to
▁ex plo
▁bó kun
g un
де но
▁ní vel
▁repres enta
▁f ór
▁tor n
ew ġ
▁oseb nih
▁στοιχεί α
št vo
ge z
▁199 3
▁επί πε
▁ein kun
▁se ul
▁на циона
▁y h
▁sj ál
qu elle
▁as upra
▁app ly
kk al
w elt
▁par mi
▁προ β
f ier
ä inen
▁t ätä
▁op isk
▁gl uten
▁kett le
emb ru
pa a
▁it ems
inter no
▁control lo
▁zem ě
▁fra gen
▁mem or
w and
▁ú nica
▁till sammans
▁na cion
▁str et
▁difer ite
▁необходи мо
ar us
▁f ad
ť ou
▁regist ri
▁ac tions
▁ple in
▁is la
ua is
šan ā
▁ä hn
st āk
▁l up
▁podat ki
▁th or
▁techn ische
▁počas ie
▁örugg lega
▁perman ent
f ont
▁u c
▁εξο πλισ
▁gru pp
▁pomô že
▁es em
▁vi ņu
▁tik rai
▁m ight
▁vybran é
h ill
▁między narod
▁via jes
▁ch im
▁polit ica
▁agen cy
▁în ch
▁déan faidh
▁tar ptaut
▁võ ivad
▁d ní
▁mog oče
▁projek ta
č nega
▁a ére
▁f ach
▁ei endom
▁ver öffent
ī va
▁al icante
▁> >
▁line a
▁tecnolog ía
▁cons ente
▁it em
▁paie ška
▁bere ich
▁le ath
▁dokum enta
l ok
▁l us
chu í
▁europ car
▁v inter
aj iem
▁an taa
▁į vert
it ore
▁допъл ните
▁cop enh
il der
▁σχε δια
ment os
▁har bour
▁fin s
▁z ip
▁paci fic
▁saú de
nen ie
▁kor zys
▁тех нологи
í da
▁la iku
▁år s
iaus iai
щ у
▁prij zen
▁vytvo ř
or ra
▁t ung
▁människ or
▁arv ost
▁toep ass
▁f usion
g ate
▁bek ijken
γη σης
ua y
▁h áló
▁il masto
▁r å
ā ks
▁mark ed
▁dl ou
▁va ja
▁tar de
par áid
áci ós
▁ви д
▁be arta
ili ú
▁privac idad
▁str ate
▁j į
▁ly on
▁friend s
▁pow iet
▁des per
c ular
▁cons er
▁pro va
ā ts
ī nas
▁zdie ľ
▁pel íc
īb ai
▁arbe its
▁cin co
▁asp ek
▁e cu
▁dispon ibbli
▁c áil
▁sal g
▁v ektor
▁bes o
▁b oc
▁am hla
▁ho je
â te
▁egész ség
we is
▁kl ok
ți ilor
▁lenn ot
▁c ene
▁ku ra
ør et
▁bý ður
мо сфе
i une
▁pol ity
▁potre bu
▁pril ag
▁eff ect
▁februar ie
▁rev olution
▁keuk en
▁h var
▁ erste
it osti
▁we ight
▁t osc
▁pro medio
ag li
▁amhla idh
ē ri
▁на ли
▁maail ma
▁ат мосфе
▁off line
y ku
▁ap ă
tiv es
š tev
▁najlep ší
λ ί
▁fe el
▁któ rzy
zy n
▁gem ak
▁char m
▁kup iti
ram ente
▁dra gon
jet à
▁energ ije
▁su re
▁identif ik
j ack
▁an gi
▁συμπ ερι
med iat
▁conne x
▁palvel u
γγελ μα
ord on
▁mó vil
▁de ar
fil er
▁sar anno
▁op ti
▁tr hu
▁око ло
ic on
spre ch
▁negó cios
ít mény
se b
▁δ ιο
▁d áil
la i
▁nécess aire
b ile
▁let o
għ an
▁pä ev
▁ε ξε
▁z men
▁kval itātes
z ek
▁mh í
▁incre ase
▁inc ont
és ének
▁da je
▁son g
▁cri anças
▁selec cion
ug ht
▁comp re
j ern
▁wi elu
▁взе ме
▁k ald
▁iz ba
▁poseb ne
▁auc un
▁ver kauf
▁br ing
ā c
as em
▁cr íocha
▁sa in
ци ите
▁cont rac
n å
▁parl amenta
▁dies el
k is
▁α ί
▁konkur en
com mer
▁verð s
ó ð
tu u
▁služ eb
▁zagotav lja
▁εμφ άνιση
▁f jar
▁nuev os
де ля
▁su kur
us et
▁ter itor
▁enter tain
▁novē rt
▁splet ne
▁stud ie
▁partic olare
▁viešbu čius
▁jur is
werk ers
si ę
▁cn c
▁med ida
▁l una
▁stað num
ö st
▁u air
▁éags úla
▁sý na
tu uri
δο ς
▁m ili
▁w issen
▁pad id
▁conc lu
▁d ori
▁brat isla
y on
ški h
▁člán ku
▁pa int
▁ofer uje
ven o
п я
▁he el
ov is
θ ετε
▁mat emat
▁gebruik ers
▁свърза ни
▁c f
▁bedrij f
ar ska
yt tö
▁maail man
▁ț ară
▁i ete
▁αυτοκ ινή
μα στε
r k
ντ ων
w ych
▁s iete
▁t ithe
▁pos e
▁compat ible
eg al
▁sve ik
▁al ong
▁ġ ew
st att
▁gaz das
▁ab aix
n aden
▁prá zd
▁mot o
ne b
nej šie
ia ce
▁pe v
țion ale
▁pers ön
▁aut os
pr end
gg ia
▁gi ovan
▁belig gen
▁h ru
▁mo on
ov ati
▁υπο στη
ше ния
▁vi š
ajn una
▁х ра
▁må de
▁protec ción
▁tit an
▁hy att
▁im porta
▁nabíd ky
spra che
▁ná jd
▁horiz ont
▁h ekk
▁an pass
▁član ice
▁pel os
▁hu id
▁tā pēc
▁coim isiún
▁c ert
▁ol isi
sch nitt
▁mar gar
▁wer ken
▁s är
ту а
' .
ov ní
we i
▁priv ado
▁stud ents
ти ра
h ua
▁pag amento
ab on
▁gab ri
b ung
▁ein n
▁jed in
▁κρά τηση
▁jot en
▁cab e
āt ā
▁raz um
▁mj ög
▁nähtä vy
▁mayor ía
it ada
▁σ αν
f atter
▁it se
na ire
▁m ental
▁nor s
▁gos te
▁proble mer
æ ða
ple x
ie waż
▁r ück
ts p
▁w ers
pos tav
▁hjæl per
▁inter face
▁vi is
í ð
▁pro hlí
ir me
▁m ente
▁span ish
▁tiet ok
▁це л
ie għ
an iem
▁book s
qu in
▁hong kong
hod e
šk ot
▁d yr
▁dire ito
hr éir
▁te av
▁im agen
▁gr øn
▁vede a
▁hat é
▁ме се
▁sl ad
▁13 0
▁resultat en
▁lead ers
▁sastāv da
▁anbe fal
να δ
▁dom eni
▁optim al
ret en
▁tick et
▁prv ní
▁sam ma
gl as
▁net to
pro ċed
▁pre zz
▁situ ado
nie ku
wa hl
▁s ól
▁termin i
▁pils ētas
▁pil n
▁κο ινων
▁mi el
és ét
▁med ie
▁belgi um
▁a se
s ín
gel se
▁e pis
m ic
έρ ων
гра ни
▁he ure
sn itt
▁qu ien
▁maj ą
▁tu oi
▁o em
▁bä st
de a
▁δωματί ων
ino is
b ūt
ett el
▁t ess
ar v
▁тех ни
▁ties ības
▁art ist
g art
▁vaš em
par agra
lich keit
▁pron áj
c ere
▁verfüg ung
▁ch oin
je b
u ke
▁l ép
▁ra ff
▁g in
any ol
▁dra ug
üü d
▁vat ten
▁kali for
▁er ila
▁spør gs
▁pot enci
x ogħol
▁tek int
▁a te
st vu
dz iał
▁pop uli
▁väh em
ov ala
k le
▁av iv
▁m ál
▁b attle
g ų
▁sa ison
ü m
ic let
b ruk
▁zap lat
▁19 80
▁gast ronom
▁as igur
▁pos ter
▁tur yst
mi ú
▁fam iglia
ūt as
▁ λογισ
é id
▁w hether
▁n ike
рия та
ón y
▁do ta
st ø
führ t
▁s ib
▁zar ządz
▁str umenti
▁met ros
▁при ложе
▁brux elles
▁βασ ί
▁lä genhet
▁ro ss
▁на ча
▁οργ αν
▁municip al
val o
ri i
▁съ гла
▁le ia
▁hat te
▁pro dej
ρίζ εται
▁pol ar
for ce
▁cas h
3 65
▁pont os
n agy
é ch
ac s
n ale
▁un os
▁елект ро
▁k ines
ше то
▁jed och
ko ht
▁ole ma
g ement
▁guatem ala
▁skre vet
▁bli ana
▁upp f
▁noklikšķ iniet
▁se inen
enn ent
g is
▁me idän
▁ev angel
▁ble vet
▁pun ti
▁noc í
▁dobb elt
chta í
▁esta ba
w ied
▁la bu
▁sus tain
▁vit amin
▁ví z
ni os
▁vel ge
organ isation
acc ès
▁п ъл
▁lan ka
▁bha int
ing rossa
▁sc and
▁trou ve
isti r
▁πα ρου
▁p ü
og rá
▁set tem
l ose
aut o
▁ком фор
▁vi h
▁neg ativ
▁electron ics
▁δυνατό τητα
▁ofer ec
▁τ ρί
▁so ċjali
tele fon
▁winst rol
▁independ ent
▁web ových
г ен
νο νται
▁хо тели
▁r ø
šk as
▁fun da
▁ε γγ
▁hvil ke
k ama
▁á g
h åll
▁mont ré
▁š io
min ister
▁ot hers
bere ich
▁köz ül
▁po te
▁obten ir
d b
ch ron
▁че сто
▁дока то
▁ â
▁av g
ig ra
▁mill ones
▁commer ce
▁bro ok
saħħ a
▁bou levard
▁θέ ση
▁βά ση
1 50
▁ste ht
▁stat istics
▁ad am
▁kjø kken
▁σύ στημα
▁lu onn
▁osob ních
▁чове к
in ud
▁ud al
▁encont rados
▁bo is
▁priem on
▁bach elor
▁su f
▁d ang
▁сте рои
▁bet ro
▁ein sta
▁ex po
í ž
b ot
f ø
▁sta mp
▁i ba
▁k är
▁te vé
▁använd s
▁sab iedr
▁управ ление
▁vu ok
▁mul igt
▁mat ul
▁β ιο
▁vakantiew oningen
▁ped ig
▁čas to
▁é lec
▁al att
ít ani
▁sk u
▁priv é
▁ind kvar
μο ι
▁īpa ši
т ра
▁inner halb
▁ко ле
▁bl ick
▁ef e
ρ το
▁bliz ini
än ger
▁alg umas
▁c elle
▁od lu
▁re uni
200 1
▁lat est
applic ation
▁bo ut
▁sher aton
▁font os
▁ro uge
▁proiz vajal
ien i
▁meg old
▁pali el
▁n ano
▁üzlet i
▁sz ól
▁méd ic
xx u
▁sw itch
ös en
▁kont in
▁eor pa
▁investiga ción
▁sk ick
▁lond ra
▁redu ce
▁télé phone
din ni
ks te
kuns id
▁arqu ivos
í cii
▁mal ware
▁tevé ken
▁tall inn
▁al tijd
▁f izi
▁ob moč
▁eg ip
issens chaft
▁itali ë
▁t ħ
▁gl os
▁beso ins
▁star ptaut
▁199 1
a ġ
ová no
т ък
g ist
j or
▁pe ab
▁n esta
▁lis aks
▁uporab lj
▁qué bec
▁é lect
▁comp artil
▁kontak ta
▁met r
▁kol m
k unt
n jak
▁sv art
▁m eks
▁pré par
st il
▁pom á
ujú ce
pan ija
ł ych
▁possibil ità
▁sk lep
▁beaut y
▁m øn
▁omd at
▁ко лко
▁iespēj ams
χ ισ
▁bezpośred nio
▁in tra
▁zw embad
▁ →
▁ex ig
▁ré v
čen é
ita ires
▁възмож ност
▁αποτε λεί
▁stan ov
valu ation
▁ag at
▁m ega
d essous
▁nem en
an alyse
▁ent sche
▁ch ance
▁c ose
▁her o
ν ων
ra ment
▁potreb né
▁av anta
▁prev ádz
▁un or
▁a umento
▁vor m
▁uprav lj
hal ta
▁kir jo
▁ε νε
▁þ ró
p ubl
▁опи т
ů l
cha in
ar lo
! "
▁whats chat
▁minist re
k oli
▁ra cc
▁till verk
▁poz ic
▁princi pais
▁pon ieważ
f øl
k st
▁д ви
▁f ive
tam me
▁v četně
▁sim pt
qu ent
▁dire itos
▁loka ciji
▁map s
▁de ad
ri ik
▁u ans
▁alm ac
▁εικό νες
▁divis ion
lu x
p id
▁прогно за
▁sou vis
▁do świad
▁ties ību
ala inen
▁o ct
gest ellt
▁ανά πτυ
▁mad war
er ad
os ios
▁naveg ador
▁cri min
▁proizv oda
г лед
▁bezpeč nost
▁ar ran
š el
▁verz am
es ed
▁nie der
▁kr át
▁będ ą
ust ele
et í
ря ва
▁ob av
▁di cht
▁gy v
▁kommunik ation
▁f osta
era ção
▁stan ice
▁dostęp ne
▁leil ighet
al de
▁ ști
▁list op
ä kö
▁a unque
▁sk vel
▁το π
p ār
▁pén z
▁% .
▁kín ál
ol adh
▁projek ti
р ма
▁fr üh
▁jazy ku
▁λεπ το
▁et ik
pro of
не т
▁x x
▁e val
▁il o
▁d át
▁služ ieb
▁nu cle
▁sat elli
ats ch
▁и сто
s es
▁van nak
kt ar
▁lihts alt
▁jard in
▁ne ben
▁въз ра
▁g ö
iec zeńst
ry d
▁kro ppen
▁ut mär
in j
▁med lems
▁ра м
▁moder no
▁ex ception
▁pok y
▁w ales
▁vad ov
▁le j
l æ
ā kais
g ast
▁į reng
▁r ural
▁proxim idades
μ ων
▁ist nie
▁b ia
▁illet ve
s eg
▁ty y
n il
po zn
▁де йност
r ist
f ot
▁prov ed
▁h ert
▁d ara
op ol
a ħħ
▁tren o
any ag
▁l ån
▁l ätt
▁pot encial
▁artíc ulos
▁b olo
▁j ol
▁bolog na
φέ ρετε
▁nap rav
▁bo ði
to ut
▁sta zione
▁hyvä ks
▁vere inig
▁italien sk
▁mil jo
al tern
urs u
▁innovat ive
▁твър де
▁conte x
т вър
▁hvil ket
▁um í
p te
its et
▁man ier
▁rialach áin
▁h åll
▁plik ów
▁leg ali
ill y
▁ge omet
н ки
▁en la
▁πρόσβα ση
- /
▁сай т
achta ch
▁f rok
▁ref riger
▁dia bet
▁r ans
▁suma ž
▁g iv
ν έ
▁é lev
▁ens ure
▁potreb be
▁va ad
▁co zin
в ната
▁pa is
c enter
▁curs o
▁cre are
▁reg l
▁kuiten kin
▁an ad
ł ów
▁pre ver
ύθυ νση
jer ner
▁σ τό
ien ta
and ard
▁pozi om
▁naj pop
▁sp oj
▁dispos itivos
▁mar ka
▁iom lán
▁vyhľad ávanie
▁sh ell
▁pri rod
▁ind ik
▁perso ane
▁imp ac
▁est es
▁projet o
in ski
▁gadījum ā
▁različ nih
▁áh ug
it vi
▁осно ва
č ně
ru žen
▁tit re
▁adres u
▁hy gg
▁i kon
▁uživat ele
c ode
▁préc éd
▁posled ní
▁fak ult
▁re ally
▁κάν ει
▁person lig
υ τό
▁dr ie
▁the atre
▁re produc
▁vaš a
▁respons ible
▁tes zi
and s
▁elem ente
vis ions
▁por e
ó ż
▁ar en
▁inv ers
▁í r
▁av tom
▁st rom
é ireann
▁e ag
▁7 6
▁for ex
▁ré fér
▁rezerva cije
▁u plat
▁gy ne
▁koh tu
▁ ρο
▁po us
pe š
▁ле кар
▁ok res
▁ge hör
▁pe ars
τού με
▁vyt v
▁h op
▁h inta
▁fo x
▁o ireachta
▁toevo egen
▁tr ust
▁по сти
h ur
▁st ål
▁si in
▁на шата
▁r il
j ut
▁oireachta is
▁cos met
á me
▁määr ä
κ ες
▁verschieden en
▁ath ens
▁för st
▁gam ing
z al
arg ent
▁μεγ α
un ile
▁spi elen
▁vrát ane
ku je
▁kom er
▁zb og
χ ων
š ej
ovat el
he iten
▁198 9
▁hlu ti
▁παρο χές
▁spr cha
▁на пример
m ica
va h
▁températ ure
tim ana
st el
▁pakalpo jumu
▁mo tivo
ми на
▁ка те
iż vilupp
▁doll ars
▁con osc
ces z
▁p aj
▁gu id
ρυ θ
▁mag gior
▁wa hr
val a
▁f and
▁le ib
at io
▁sim ili
▁segu enti
▁conf lic
▁pred p
▁ ши
▁ ~
▁dag li
▁μπ αν
gar anti
o it
▁bet a
▁éta ient
▁iom chuí
por ed
▁apartm ány
da ja
▁dog od
▁mie ux
▁hi usten
at in
▁szab ad
öv ő
▁gob ierno
▁pi škot
▁d t
▁prote zione
κ ών
ion y
▁algun as
ob s
ap i
ī du
▁comp act
▁gr as
▁produc ción
▁aj ud
▁χ ο
▁rece ive
▁ob ve
▁than ks
▁kön ig
▁επα γγελμα
▁for h
▁mus i
▁bung al
▁kal or
▁pove ik
før t
h ne
▁dom en
▁ark itekt
▁voz id
▁ap gyvendinimo
▁canad ian
ál ie
▁of ten
▁об ще
▁kn own
в ъ
▁játék ok
л ка
▁paslaug ų
▁ro le
ut ate
ov no
▁x xx
▁tilb ake
▁déta ils
▁s elles
ast ro
▁den en
▁sigui entes
▁vra gen
▁i eft
kon omi
ri ġ
▁vac anza
▁i ra
▁h áz
▁φ ύ
▁as mens
▁ad ol
mo uth
▁näit eks
▁informa cijos
▁im en
▁hoof d
ič aj
▁nas zej
om on
í os
▁daž ād
▁raž otā
éta bl
▁re h
u che
ne o
▁gen au
▁š ir
▁do z
▁c ip
▁m ít
▁exc urs
▁altern ativa
▁nas lov
▁lø pet
or et
▁zna jdź
▁al ban
▁följ ande
▁at bild
▁progra me
▁ta uku
id ere
▁ön nur
c ons
▁fé rias
ni u
▁keh itt
de fin
▁p ink
▁trans it
▁hand els
usi as
▁nok ia
▁» .
is pe
▁geb ied
▁ré f
▁pron on
▁set tore
▁r íomh
▁darb ības
acy jne
▁qu ella
▁num mer
▁h yb
en ing
ku uta
▁ro ber
▁ny újt
▁εί τε
▁col ore
raz it
ро б
etta va
▁d ø
▁гра д
▁we il
▁mod ule
j għ
▁ukra ine
▁las te
▁h emos
▁ke ha
▁solid ar
▁atrak cje
d oc
▁of t
▁f él
▁kun a
č nost
▁ch cesz
▁cons omm
▁d oda
▁δ εί
▁tra g
▁у доб
▁kon ink
▁nov os
cha fts
▁mul tif
▁ko ordin
qu oi
▁vä ärt
▁w art
f ab
▁sil itys
ala í
▁vás árol
▁biztons ág
▁qu oti
▁ex ac
▁prov oc
van ju
▁descri zione
▁ře šení
▁automat iz
▁as ian
▁l ien
▁esim erk
▁kol or
id ents
ur ch
▁fi ind
▁cons umo
▁glav ni
▁ger ä
▁web old
▁h end
▁keres zt
р ното
▁com menti
▁el abor
▁sp esi
us k
▁metrop olit
▁interess ante
▁pl iku
▁or le
▁tion sc
▁tij ekom
θ α
▁in com
los s
▁pred met
ro ck
▁uslu ge
▁hog e
er ba
▁sh ows
▁os taa
ри и
▁ast ă
▁ig ény
▁бли зо
pe i
▁austral ien
▁ob ras
▁sub jek
▁manif est
▁ens emble
▁zak áz
vær d
▁sess ion
elt ä
▁nuot rauk
rake ch
▁па дне
▁nuev as
▁у ни
▁certific ado
τη κε
▁a hol
▁chi ang
▁rend re
▁hod in
▁términ os
pl ika
ljen o
▁mod èle
▁deliver y
▁man j
γρά μ
a ust
vis a
▁apparta menti
▁7 9
▁εγγραφ είτε
ul in
▁st are
▁ges am
ér é
▁fil t
▁okvir u
▁produk ts
util is
▁at rás
h ome
γ ει
m ik
▁red es
▁κ λικ
▁af ri
▁m â
▁alap ján
▁jama is
▁popr zez
▁prop iedad
▁viņ i
съ к
▁sem i
and rol
▁utvec kl
li x
▁λεπ τά
▁me zinárod
▁maj d
▁kre ativ
▁me đu
hn ithe
ά λα
ми я
j ac
▁ha upt
es is
▁volled ig
▁dor m
▁atrod as
▁už sak
▁sec ure
ti da
▁h mot
▁teh nič
▁sz oft
▁sou vent
la š
▁διαφο ρε
ci endo
▁not ran
▁l ata
▁komp akt
▁tiet oja
än ä
waard en
▁v eldig
▁er as
▁visu aliz
fic ation
▁skat īt
ta dt
▁nõ uk
▁utiliz area
▁се д
▁ob st
ko ztat
▁ka u
▁ма й
▁læ s
▁l à
bl og
kār t
▁s aks
▁cor ret
▁oc up
▁hlav ní
▁kra ju
▁il m
t ok
▁verant wort
▁ever ything
▁de ireadh
▁hist ória
▁en o
jeg y
▁esc ri
ru ct
▁nem a
▁ass ic
ėd ami
▁najbolj še
▁gesti ón
d ores
al ach
▁t x
▁fil me
▁bezo ek
▁net z
▁all geme
▁γ νώ
os ci
la ga
▁lo op
met ros
▁konink rijk
▁stør re
▁ke in
▁pię k
▁lung o
in in
▁treat ment
f he
ra um
▁j om
t her
▁vol te
▁ap raš
î t
ži ui
▁unter neh
▁apr īko
! ”
▁uk raj
▁diss o
▁y u
▁τρό πο
▁c ô
▁c ôt
▁des te
▁tele p
c reen
▁sloven ia
um os
▁iz vaj
▁aliment os
▁pad ar
▁sł ow
▁supp ly
ic lop
▁fre der
▁p ö
▁ιτα λία
▁fun zion
ek ben
▁ban c
▁fé ny
▁у строй
▁automobili ų
▁съ стоя
est atud
▁ud ostęp
▁fl ores
▁läh edal
ят но
▁kre vet
▁m été
▁mid dle
▁bør n
▁loka cija
šan os
▁re pos
▁прое кти
l ys
š tu
▁a chta
▁super ficie
ill ing
▁mer ħba
▁sol e
▁wel ke
▁sc an
▁ab ril
▁sz u
igh eten
▁ent ra
il ton
s le
▁mede werkers
▁év én
▁ur b
▁huv ud
▁p eli
▁esta cion
▁ob i
av anja
k wal
g ada
▁s ard
▁app el
▁sch ö
em pl
▁усло вия
▁mas a
▁це на
qu is
end et
п ен
▁kri min
▁é ch
ling ton
▁ier ī
▁v ot
▁polí ticas
▁h ell
▁se zon
▁19 70
leist ungen
▁od pad
▁lis bon
ł od
▁int elle
w ej
▁gef unden
š ā
▁dé termin
▁intro duc
ú j
ec tor
▁der iv
ő t
▁nepos red
▁y tter
tal er
▁ag rad
▁su ple
▁vær kt
н т
▁gr ind
▁holly wood
ri but
▁n ami
▁σ ώ
▁δ υ
▁ad ul
kon na
▁gn ó
▁miem bros
▁od red
▁sh on
▁bl od
▁vis ok
▁su is
▁uff ici
c n
▁utilis ateurs
лко ва
▁auf ent
ille urs
▁beg yn
cl ick
o il
▁te a
▁līdz ek
▁energ ía
▁la iks
▁ar tif
▁ch allen
▁ż mien
▁mož no
▁käes oleva
▁μεί νετε
▁c iti
▁a ma
▁men tion
▁l äng
▁r ust
▁ze e
urs o
aut re
▁la us
▁politi ques
▁projek te
w ide
▁pos itiv
est r
▁mak es
▁tr áth
▁spør sm
▁konkr ét
▁bě hem
▁agre ement
▁hånd kl
l om
μ ια
▁st elle
kol lu
b ak
▁sal īdz
ur inn
ω να
▁her under
ł yw
l ado
tech nolog
▁ref le
с ят
▁pož ad
rif ten
▁dia gram
▁ev iden
▁cel ý
▁set timana
▁ka he
ps on
or na
π ων
▁ob itelj
▁mul ighed
▁εφαρμο γή
▁ ικ
▁imag em
em ia
▁vz hľad
▁mí stě
▁стра ната
▁vo ľ
▁in icio
ste der
▁fog y
▁l ate
▁li idu
▁mõ ju
▁профе си
▁pak istan
▁pass ion
v irt
ė ja
▁but ton
▁mater jal
ric os
▁inf ra
▁gcom hréir
v am
est os
bre v
▁spørgs mål
▁výrob ky
▁by ło
▁j opa
ner gie
ður inn
200 2
▁κατα λύ
▁vy ro
▁euro s
itu al
ruc tura
▁kompon ent
▁bisog no
▁lat ina
▁hom em
▁me ine
▁frok ost
▁un ge
▁le jn
▁c ale
f os
▁mater iaal
▁ot taa
▁le asa
ön g
um ise
▁jipp rov
▁μέ ρη
▁ans wers
▁famili ar
▁st rip
▁žaid imas
per i
▁áf rica
▁zauj ímav
f adh
▁fly reiser
▁ú til
ēj as
ör er
▁f ag
▁gover no
! )
▁sp in
▁eesmär k
ex t
et ele
▁które j
▁cam ino
▁ta ille
χ ώ
ζ ι
▁σχ ο
▁nort hern
▁vai htoe
▁hand el
es l
jó ð
▁за бе
▁gcom paráid
t tu
▁europé enne
▁st vari
▁vse buje
▁κα λή
▁bal ti
▁ge ograf
▁din am
führ ung
▁αυ τές
▁am m
ir á
in ist
ep rav
▁prze j
▁kro pp
▁ste in
▁k uts
▁d nes
▁we iß
▁ve fs
b ara
▁ε να
▁al red
▁t ari
▁pur ch
▁αντ ί
informa zzjoni
▁milj ø
ori us
▁so zi
▁sempl ice
▁caract ér
▁ma a
▁s ma
▁9 1
▁z esta
κ ής
▁ob nov
▁σχό λια
on ych
▁mil itar
▁hand ling
▁раз би
of ar
▁porów n
ant as
c kl
▁pr elu
men n
ń ski
▁oper ation
фи ци
▁ta ċ
▁μεγα λύτε
ate ľa
ни к
▁cons ci
▁p í
▁pour quoi
▁de im
▁pró ximo
▁ob r
▁ka ina
▁ol lut
▁partici pa
▁d nia
▁izg led
▁conf identi
ło ść
▁sor án
▁ked y
▁l leg
▁ter cer
▁pla ge
▁com enz
▁roinn t
▁vi elen
▁rot terdam
▁col d
ern en
▁vurder ing
▁list y
▁sp anyol
▁χώ ρα
ności ą
▁personen bez
▁al bert
ě z
sl ut
▁εξ ω
▁ka al
▁for a
▁mö jligh
wür dig
▁g ross
▁p ova
▁пра кти
▁де те
▁grow th
▁pot rav
▁w ett
▁sn iedz
á že
▁produ ção
▁kör per
bl ik
▁bu ilt
▁qu atre
▁c uba
ná ní
▁su ht
g ge
▁disp one
▁t üü
▁h ond
vé del
j át
entre prise
▁call ed
▁l ines
▁κορυ φα
▁n ämä
▁fá b
▁sven ska
▁rele ase
▁s ist
▁sol i
▁l ze
▁entertain ment
▁r unt
▁og ran
▁во да
▁reģ istr
▁sur round
▁ö ffent
li š
▁tr ži
λυ μα
▁l iz
▁λό γο
▁pisc ine
ė jas
▁mar rakech
▁ser wis
▁ko z
ieb ie
▁konta kte
zés ek
▁kien u
▁er ror
▁þín um
▁tra di
▁y et
▁be ar
▁comm itte
▁inklud ert
▁z eker
т ка
▁upd ates
itu ksen
▁ně kol
▁c iebie
ch inen
s ar
▁ka ikk
▁m alt
▁min ha
▁kuchy ň
▁publ ished
▁ost rov
▁espa cio
ni ų
▁nog et
▁σύ μφ
ra b
▁ ша
a q
▁pre ky
un ă
▁ol as
ut ul
▁kon cep
▁co che
▁verschieden e
▁vše obec
▁ter ce
▁stro kov
▁str ona
der t
▁recom and
▁l omb
▁dab ar
▁zprac ování
ach áin
ber ite
▁dispoz ícii
og h
▁techni que
v iv
ip a
▁szám os
▁περι λαμβάν
og e
▁ats auks
ál ně
ov ima
hr á
▁ver der
▁bo ot
if en
▁dokum enti
▁tartal maz
▁techn ológ
▁b j
t um
▁за па
▁fon te
an á
▁belgi ë
▁fre k
▁neg ro
▁vec es
▁pet ite
▁gran ada
▁nach ádza
▁probl èmes
π ρο
hand ling
▁reg ler
ia idh
▁органи за
▁ver te
▁bien ven
▁w ert
▁différ entes
ovi ť
▁stran ica
▁hon um
▁köz pont
▁fabric ante
▁a ina
f är
φάν εια
ör ter
▁prog res
▁mon aco
▁p all
▁señ or
▁no che
▁ge ven
▁drug im
▁sch warz
▁ad icional
ist ische
▁bard ziej
▁j ing
yt as
▁g are
▁ay ant
▁john son
▁καθ α
▁atmos fer
w c
ért ék
▁tak ie
▁dé but
iz m
▁využ ív
γω γή
wer kt
▁elé ct
▁med idas
▁a juta
▁συγκεκρι μένη
▁sc u
▁кон су
ē jumu
cha ir
▁β ρα
fi x
k ová
▁frank reich
▁gu ð
am ata
▁reykjav ik
▁f eld
▁el o
▁su isse
▁s tik
ří klad
▁red ig
▁osob ných
▁pri hod
▁g ift
▁x l
c ity
κ ύ
▁aten ción
▁wszyst ko
▁nov otel
az e
im kien
ol et
▁8 4
▁l ost
▁g un
▁la ve
▁ché ile
a am
λέ τα
▁ver tr
▁visit antes
▁dig ita
im ise
▁v ár
▁pass word
zn ego
▁f lag
▁bre ytt
ed y
ic im
▁de ep
▁pros ent
▁lu ego
▁7 3
▁nál ægt
▁ö l
▁kur z
fol k
▁k eli
▁ins ieme
▁rekom end
▁f eme
▁mane ira
▁sa adav
▁lufttemperatur en
▁ole ks
▁sav as
an née
▁sem aine
ēj ās
▁εμφ αν
int ä
▁wyn iki
▁mus ique
er y
▁st ile
▁com hla
▁ā tr
▁reas on
ens emble
-- --
▁eorpa igh
all is
ás ára
▁ri fer
▁ef ni
▁g ym
▁cy ber
▁v ivi
▁ll c
▁s ra
έ λ
ak in
it ai
▁vand værk
▁has on
ir í
▁pri mi
▁gr ün
yt ų
forder ungen
▁про ве
▁m ivel
▁arch ives
▁ktor ých
▁ca ur
ho od
▁intern asjon
▁parte a
al in
▁ap stāk
▁aj uda
e ig
▁λογισ μ
▁u aire
▁communic ations
φ υ
▁sammenlig ne
▁w prowad
▁det alles
ed om
ama an
▁zas eb
▁pal azzo
▁bes lut
is jon
d iv
▁ci elo
▁hist óri
▁nek oliko
n iem
▁случа й
▁he idän
си ята
▁than k
vī rietis
▁vie ws
▁p ull
í d
▁lu ach
ž eme
▁garanti r
mu ž
▁pre uz
▁finan zi
▁í bú
▁arv io
▁с м
▁то лкова
▁sch oon
æ ld
▁organiz ation
▁vý znam
▁rej se
▁fu era
▁trat a
▁každ ých
▁táv ols
uille z
▁dan i
▁fab rica
не ния
▁acqu is
▁od s
с пе
▁cre ș
w ach
óg ép
▁p ane
▁t ig
виси мо
▁pre b
▁ö ð
▁aplic aciones
▁k yn
▁kr iter
▁7 50
▁ο ρισ
▁materi ali
▁lo ad
▁veeb ile
▁di ch
▁stav eb
▁v arten
▁ny ky
▁ko jima
▁of te
▁relev ante
▁jes ús
▁pa ig
▁f éd
▁rád io
▁hund re
ž o
▁со циа
▁ins urance
li us
▁wym ag
m å
zn ek
▁at tu
ij ai
▁tek nik
▁er ic
▁jo y
▁b â
▁pro ts
▁m ör
▁tu al
▁κατά λλη
▁ne em
en ni
▁kö pa
▁b ole
▁he at
ust es
▁p ół
▁ju ž
▁pesso a
▁inclus iv
▁neden for
▁mõ ned
ti ques
▁rans om
че ска
▁при лага
ча ване
▁nu ove
▁ž al
li ġi
▁speci ali
iaus ia
▁õ pil
ek ļa
▁sex ual
▁pueb lo
bo j
f eb
ár ní
▁in forme
▁ro lex
▁š ie
us ch
yv ät
▁p eg
▁advent ure
▁szu kaj
▁за ку
▁v ody
ţie i
▁ev itar
▁hozzá fér
se id
▁ste g
▁ot ok
▁ap us
в ле
▁rek ister
но ва
oló gi
▁ре а
je zd
▁col abor
▁ос вен
▁хора та
▁á st
κρι β
▁κ ερ
▁pre ţ
▁nu ovi
▁azon ban
▁mob ili
▁zman jš
▁le es
▁let ali
▁с вет
▁direc tement
▁enc iclop
▁zd ruž
▁abaix o
▁recover y
ő en
c ka
▁wid ok
ific io
▁det s
lich es
▁favor iet
p ere
▁7 1
▁car ne
▁ne vy
▁element os
▁ta ux
▁zdję cia
▁h ors
▁hos sz
▁γ υ
▁teat ro
▁fam ília
▁v ých
▁tr ud
na cht
▁primer u
▁there fore
▁poz w
▁stra da
▁sen hor
▁gu itar
▁sk all
▁singap ur
▁el ite
▁mater iał
▁pl ă
ta an
▁defin ition
r isk
k ry
▁añ adir
▁mas se
▁br istol
▁cap az
▁bezp ieczeńst
eff ectu
▁θ υ
ur ing
ací ch
ć ih
▁now y
▁probl ème
▁úč inn
▁cotta ge
át tur
è ve
it ul
rá ž
k tion
▁nam lu
▁ra jon
▁chang es
▁pe ace
▁utilis é
▁il leg
im ar
na am
▁n ero
▁ar r
▁gyerm ek
i unea
▁diffic ult
▁sd í
w ing
▁certa ines
▁c ed
▁ris iko
ν ής
▁chin ese
mo z
▁najbol jih
▁ob le
▁naj več
▁vic in
▁h ú
▁l ima
still ing
▁ra ad
b be
▁öster reich
ś ród
ire amh
bil ity
inform ations
▁hol and
c od
r ied
▁blí z
▁direc teur
ate au
▁ple as
te ile
os z
č ná
▁ό χι
▁nego cio
▁du gg
▁podjet ja
í u
к тор
▁πρό γνωση
▁igen om
v and
▁v ard
▁cro w
▁сво бо
▁ко ли
ist enti
νο ντας
ä re
í ti
▁z więks
▁же ла
▁zu id
▁ju in
ch ádz
d ě
▁km et
с ку
▁direct ly
▁tõ hus
▁tam pa
▁objed n
▁guang zhou
▁ch en
r ise
▁conf idence
▁áb har
же ния
▁ozna č
hers age
cl ass
▁tehn ika
▁к ри
in ama
▁velik ost
▁a cep
▁toilet artik
ov ern
▁vé hic
▁réserv ations
▁uporab e
▁võt ta
▁toy ota
▁var för
▁aħ jar
▁úl timo
k ie
im isiún
lu v
▁peržiūr ėkite
▁в нима
ás sal
v oll
▁ни во
▁orle ans
▁f uk
▁pra va
▁un gar
▁garanti e
pr it
▁accesso ires
▁riebal ų
ta h
▁8 7
▁aff ili
hed s
▁a ria
▁art isti
▁достав чи
▁πο λλά
▁s ikk
▁dob ra
▁con for
u os
ti et
γ ια
▁cons ent
κ αλ
▁serv idor
▁n ivå
ļ ā
▁conne ction
ht ne
▁ut valg
ī nu
am ų
▁cerc et
nah men
▁ro kov
δ ω
▁capac idad
▁t j
m und
tiv os
θ ρω
▁ú lo
wo ść
▁en v
▁re ġ
▁p elle
l un
ab o
se arch
ho uden
itet tu
▁rel ative
▁z ero
▁lab el
▁bar s
▁mar cas
its em
pi uter
▁com fortable
▁ferienwohn ungen
▁pir kti
nu tie
▁ud sigt
▁ev olution
▁es qu
▁ram ada
p ros
στε ς
▁for álacha
▁pne umat
▁off res
▁por oč
▁nie kt
ā du
is cono
▁pr ís
▁κ ρε
▁aug ment
▁v ários
▁7 4
▁ø je
▁m āj
к тура
▁otr zy
▁b í
▁βασί λειο
▁ö ff
▁odgov ar
wind igkeit
▁ots ing
▁viel ä
▁ve uillez
▁kom men
▁om ina
ţ e
nagy obb
▁gen era
▁tr åd
▁con vert
▁arg ument
abh áil
▁port folio
▁ps č
▁gratu ite
è de
m ies
r g
▁koris nici
▁εξ α
▁е сте
▁ús áide
▁ku uka
▁f ér
▁n ég
▁aust in
is ar
▁gir l
▁du ż
▁szálláshely ek
r ando
▁nor ma
▁spē le
▁živ ota
▁žaid imai
▁carpet ed
b ől
št va
ap ä
umb ai
▁re mar
▁κατασκευ ασ
▁sp ä
y ou
▁sep ti
▁manu als
äm p
▁virgin ia
▁па ра
▁pří spě
▁jäsen val
▁conf ér
▁st ations
hu ur
▁mar it
▁pre čo
and ra
▁par tager
▁2 20
irg í
å g
æ der
ic ni
▁effic ace
tu p
▁le arning
▁ar rang
le gi
▁wa ż
▁€ €
ala is
ρ κ
▁връз ка
▁gu ida
▁leon ardo
де те
it an
pr us
▁ł az
▁del o
▁под кре
▁д ре
e ż
▁letz ten
ru ithe
▁br yt
▁vē st
aj ących
▁resp ectiv
▁μεγά λη
▁aanb ied
▁pon te
ri os
▁art yku
▁relig ion
▁ieg ādā
ej n
▁lí on
aħ jar
z ka
▁sa ud
▁полу чите
▁iz ved
▁tut tavia
ven tion
▁min or
▁baz én
▁tar vit
ard ia
▁př ek
▁l ám
▁nas ze
▁testoster on
▁ital ija
▁kuri ų
es ar
▁reservations muligheder
▁via jeros
▁pir ma
▁som m
f ig
▁splet ni
▁beh ag
▁mě sto
ръ т
▁frå gor
▁raz log
▁dugg punkt
▁избе рете
▁im b
ac le
▁maks im
āj am
▁gad ā
▁о па
▁vz du
▁ka ug
it ra
um ėte
▁fres h
σι μότητα
▁komb ina
▁σ τά
z ése
▁co isas
▁at rast
alt ung
▁dato te
▁plata forma
aix a
▁ü t
om ag
is mer
ts z
á ticos
▁føl ge
▁fu ß
▁în ce
▁antiv irus
ens er
▁n t
▁g ust
em ar
▁deim hnithe
im pl
▁bl ow
▁gener ation
▁ab stra
▁ach eter
os p
▁con țin
ī go
b ridge
▁ter vez
▁g and
▁natur ali
co urs
▁dh í
▁ci alla
▁vers ione
▁n jema
k rit
▁od rž
▁stutt gart
▁va hel
▁se attle
▁tener ife
▁интер нет
▁naš a
arbe iter
▁verkk os
▁no ord
ec u
▁fa ut
con ne
▁pesso ais
int os
▁yhte isty
▁medic ina
▁group s
▁ξε κ
use id
d igheter
▁yout h
▁za ud
▁pien i
▁interna zzjonali
то ва
▁8 6
▁inf he
▁αυ τού
o ġġ
kl in
r ée
▁κ ίνα
ab hl
it ali
▁no in
▁svet u
жа ва
▁vé del
▁tr ád
▁beskri velse
ibil ità
▁r ul
▁dien as
▁f ert
▁friend ly
izz azzjoni
▁air ways
▁ay ud
▁univers idad
is tem
ens es
▁loc ales
▁de ja
▁cialla íonn
í klad
... "
▁lo ž
▁c yk
▁ympär istö
▁kom piuter
▁kre p
▁elect ro
▁veiks m
▁cast ell
▁popul ära
▁po bl
▁dif íc
▁pod ría
▁sv ě
υ μα
▁ba ins
▁christ mas
ζ α
▁į sta
j ski
hom me
qu ant
z icht
▁а па
▁viešbut is
▁rel ation
▁vil ka
▁cum pl
▁le ve
▁pri bli
ú ry
ê ts
▁swim ming
▁bes uch
▁χαρα κτη
▁φωτογραφ ίες
▁τε χνο
▁cu ore
▁out ra
▁p um
ar ies
olla cha
▁wallpap ers
ríbh inn
produ kter
▁sz é
ν ι
rie ben
up s
▁bað herbergi
▁sag t
ре ни
▁kom ma
m ur
yn ie
▁social es
▁a it
pri m
▁fru it
▁σύμφ ωνα
▁ef ektiv
▁cann es
▁sch ul
▁ci ent
▁távols ág
▁najpop ular
▁g om
▁includ ed
▁h l
ţi ile
ph ones
▁logici el
▁tr wa
ys s
▁kon kre
▁ver ona
че те
ov ka
▁sta ge
▁g né
▁ha ft
▁ven ice
λίδ ες
ar in
▁c ities
▁prze ci
ran no
▁pro tiv
▁trat ta
▁transpar ent
tre e
▁conver ti
▁napr íklad
▁hit ro
▁lát hair
ig et
▁catég orie
▁pom eni
es ch
▁nettles er
ra is
est ens
▁κατά λυμα
▁g ine
n ande
▁dal y
▁запо ч
▁kas utat
▁activ ity
▁8 1
ør ing
ov n
▁zast os
▁pa qu
ξει ς
▁rel igi
▁u h
▁car olina
▁mich el
▁nu ola
se j
▁ri con
▁fa o
▁съ ю
▁ent de
▁sti a
▁leg nagyobb
oks et
▁bas il
▁pil ot
νο μα
ic ally
▁chir urg
níct vom
esz cze
▁vlie g
să rit
▁įmon ės
▁b att
▁kart an
▁pu hul
▁gesch ikt
▁sw eden
▁cu v
▁av st
let es
▁tablet es
ku iva
▁szoft ver
▁l ingu
▁cl aro
dd iem
▁ass ess
ø mme
▁c itu
▁dok tor
▁va ši
▁kal b
int on
st ück
вя ване
▁collabor ation
▁inf ec
▁ilmasto inti
и н
▁meille ure
▁сигу рност
▁stá le
▁histor ie
▁spolu pr
oks ia
▁p izz
▁for del
▁produ cer
▁мазни ни
▁peters burg
▁ma ß
▁ud valg
▁derni ère
la k
▁aj an
▁r ete
le ika
▁conti ene
▁opro ep
▁търсе не
▁st red
e ven
▁krij g
▁cin ema
ită țile
▁la quelle
▁b pra
▁að eins
▁загу ба
il ja
▁lic ence
r ès
▁бър зо
ljiv osti
▁м ре
▁vý z
ря ване
▁stør ste
▁ä ri
▁ле сно
▁hur tig
īv as
▁bed ømm
ron o
▁la ud
▁mun ich
▁l ia
▁f í
▁πα ί
▁cast el
▁d üss
зо па
▁кате го
▁be ve
te a
▁i ċ
▁ro bo
▁из след
▁so ovit
▁diretta mente
oni que
▁ale m
▁čís lo
▁уеб са
▁ka ž
▁t īm
▁č in
▁vr h
▁afsl ætti
▁soll te
▁person s
▁tä ps
▁d jel
å t
▁system u
cul os
g é
▁mal é
▁vse b
▁internet owej
▁cons ili
▁pré cis
zob razit
▁de in
▁sc ott
▁progno ze
▁să u
▁izve id
▁k ara
ni čka
ittad ini
za ć
▁sh olát
▁yhdysvall at
▁sti ck
▁os n
ren o
ann on
▁gi ov
vo er
a ud
▁stá it
itz erland
▁lū dz
▁f ug
bil der
é cu
▁χ ει
▁verenig d
▁а нали
▁be vor
▁au ft
▁комп ю
ed in
▁elekt rom
▁lu ce
▁su ž
▁prote ct
▁med del
ig ung
▁sci ences
▁w od
▁man žel
f ika
▁a ki
▁encu ent
va ž
во д
y hti
▁arbe iten
k ú
▁g ån
▁sö ker
▁pievien ot
▁méd ico
▁trib unal
▁v are
▁vzd ál
af rika
▁y ö
er ie
▁val ida
wer pen
v d
▁met ode
▁diff eren
▁kval ity
▁αν τικ
ák at
▁program s
▁mo č
▁sle ep
ej m
š iem
pend ant
▁ac onte
▁el i
▁προ γράμ
am et
▁stand arta
? ”
▁el u
▁com pres
▁overnatt ing
▁origin ale
l ass
▁ov dje
▁sp ek
▁ges und
▁mai oria
ν ει
š ir
m ér
▁valst ybės
ny tt
▁ub ic
▁szer vezet
▁low er
▁du its
la ik
▁ud rž
▁ й
▁mac china
▁opisk el
▁tá irgí
b ass
▁activ iteiten
▁α νο
▁prz em
d it
▁s b
λε ύ
▁enc ou
▁фи л
j ub
▁rest ri
▁ī sten
▁áiti úil
▁tä it
▁fl ux
▁ib iza
▁techn ika
▁mar se
▁prostred níctvom
▁st ov
▁ro gh
▁zel fs
▁inform ācijas
▁výslov nosti
▁tr g
сто й
▁canad ien
ari ð
j ata
▁tak en
m ēr
ient as
▁aff ich
▁cen o
▁pl ás
▁model os
ло жи
▁gu te
▁not kun
u ð
▁pra ćenje
▁сед ми
ku ra
▁úč et
▁wars za
▁fre i
▁se iten
▁f ih
▁kor zyst
▁ce z
r enn
▁c ult
▁n íl
▁ ιν
▁pre pre
▁tv or
abhl óid
▁násled ující
▁ασ φά
▁u lo
▁państ wa
c et
▁fó rum
g abe
▁recenz je
▁επι τροπ
▁ch ose
h anda
▁in hal
α να
▁min uta
at tu
▁n iger
vo đa
με ρα
: )
▁ter men
▁org án
▁ε θν
▁pre ise
▁st ö
▁standa ard
▁em pre
▁pay ment
▁ave ți
▁qu anti
▁acc or
▁vri end
▁pl ass
▁l er
▁map ie
▁bpra ghas
ver te
m edia
▁je unes
▁mil yen
▁tlač ít
reb be
b iz
▁vo ord
pe z
á jem
▁ar men
▁ju hul
c olo
ub lique
▁aktu elle
▁pos itive
▁a ún
▁повече то
▁раз де
y ba
c ulo
▁attra ctions
▁apart ma
▁vel kommen
▁ця ло
ne et
▁ne hmen
▁fac t
▁se hens
▁pol en
▁gl en
ik om
▁en a
▁remo te
τή ρας
▁four nir
▁bor n
▁pap a
▁im mun
▁wh ole
▁z ināt
▁nut zung
▁te htä
▁mož nosť
▁de ine
. ),
▁w oman
usi ón
▁kir ja
▁ενοικ ία
▁ æt
ε ύ
▁ker esk
▁la uk
▁( $
lat ies
ew ropa
▁σπ ί
▁kle ur
os of
ob ila
▁sn abba
▁szolgáltat ások
▁i da
▁ok oli
▁об а
▁archit ecture
▁ус пе
▁aus sprache
▁propri été
▁lin col
▁k id
▁ra is
▁e hit
▁últim as
▁kak si
▁vu otta
▁spia ggia
het i
▁ви на
ith er
▁bud u
μ ών
▁ponud ba
▁giovan ni
▁sc re
▁pul s
bur go
▁per cor
ar as
▁ade cu
▁k iss
▁lu ka
▁roz sa
at lan
▁require ments
▁v nú
▁къде то
▁zgod nie
bor o
pos ition
ol ek
▁popul aire
▁aére as
▁spørsm ål
▁cam pan
emb ur
е та
▁meg hat
▁mind ig
▁fjar læg
▁ve ja
c li
ní ollacha
▁br ill
▁er gon
▁zve zi
▁τ υ
▁fr ie
▁pro ss
pper met
▁for nire
av imas
▁ph arm
▁( „
▁hva ð
▁hiusten kuiva
▁er forder
▁до ку
í me
▁adap ta
▁va ikka
▁vasta an
▁ε λ
i ções
▁izvē lē
ul ik
▁świ ad
▁kys ym
▁informacij ą
▁κα το
▁sag ði
ţ ional
▁bu en
ieg ész
▁zagot ovo
▁me ira
▁st ůl
▁mus íte
▁sta g
fr itt
▁væl ge
▁γρα φ
▁em iss
▁tel ecom
▁la bi
▁koh ald
▁e ye
▁perman ente
ζ όμε
w iek
▁œ uvre
▁impro ve
ij ung
▁евро па
ás ra
▁pracov ní
▁използва те
▁public ation
ш но
▁pra wd
▁ab i
▁mu estra
ál nych
▁t ack
g end
▁sa uv
▁vist else
▁lä gen
▁bratisla va
▁pasūt īt
▁опи са
▁piè ces
jen ja
▁nemzet i
▁bet on
▁europä ischen
▁pri pra
▁gist ingu
▁acquist are
gi ð
og hi
▁kur ā
▁m ici
pla at
▁comun icación
ш ен
le jte
▁zo o
▁γρά φ
▁dar m
o em
▁na bij
▁ki inn
▁transm isión
▁asp ect
av g
al to
▁προ φέρετε
▁пе рио
▁t els
▁dus j
v änd
▁m iet
▁τό σο
ord ú
ät ter
▁strán ce
▁entre prise
bes ch
▁ploch ou
▁rah men
ise id
▁includ es
▁sim on
▁j eszcze
ik ov
▁rile v
▁secon da
▁ap d
▁gistista ðir
ec imento
▁pl ans
ít ja
▁få tt
▁anab oli
▁bed ien
▁art es
▁vybav ení
▁e il
āj iet
▁v esz
▁made ira
▁ga y
▁vaš ih
ka art
go ed
▁mik rob
d ong
án t
▁pal jud
▁sl áinte
il h
v ēr
▁mo tion
▁orienta čný
c amp
▁na zionale
▁industri es
▁mer ket
% -
▁d le
▁sveta inėje
▁tre m
man e
k amp
▁s û
▁n ud
▁is e
▁sø ger
▁t ény
▁pow in
) (
fi ques
▁blo od
▁hels ing
commer ce
▁gl ad
γκ ό
▁t ē
ter ra
▁c ater
▁pie ņem
ē to
äl j
fr æ
▁or ă
in sp
▁barb ie
ва ни
▁nahr ávky
ne z
w art
▁ľud í
▁invest ment
ů j
▁klient ów
▁а н
▁monar óirí
▁europ æ
▁sp ok
▁ta up
part ner
▁възду х
si an
▁t vo
▁при я
▁f inger
as p
▁go ing
g ue
▁ο λο
▁tie ši
▁at let
▁engl isch
▁auc une
ithe oir
▁jed nom
▁meg lio
▁mus ica
▁éife acht
▁enti re
▁su fic
ori ť
▁žmon ių
l um
▁ch ac
▁ho f
▁leg isla
▁de imh
▁proto col
ur b
▁зат я
▁segu ito
los sen
▁kjø pe
▁kam pan
зи я
fic as
ab l
▁document os
ca o
▁end ere
▁ka ub
сти ту
▁as ja
▁ime achta
mit ys
▁har ris
ver a
▁s ider
es tic
▁e ben
▁mok sl
▁pour rait
ü cks
▁t ast
ks om
▁par anta
▁tar get
▁pr esse
ham pton
ļ am
▁to pl
▁prac tice
▁ljubl jana
▁él é
▁tam an
▁tiešsa istes
▁e ú
▁un utar
▁tuar asc
▁blå ser
▁z ul
▁parti do
▁pre h
p é
▁zod poved
▁δ ίκ
▁bere it
iv as
ál lap
▁gam ma
▁mor al
▁unes co
▁j övő
▁r ör
▁mí sto
jel zés
k ént
▁verd ad
▁conc ord
▁ju illet
▁z vol
et és
ρι ών
ind iri
ci í
▁sus p
▁vy d
▁impress ion
el igt
r inger
m én
▁sh ran
▁spr åk
▁ ρα
▁бълга рски
▁propri a
▁män gu
le o
▁utiliz ando
▁sl obod
▁jerusal em
▁vál asz
▁committe e
▁j or
▁mot oc
kar te
▁í oca
▁le icht
▁even ti
▁jed nym
▁for ces
▁satis fac
▁w ollen
▁ра сте
▁os igur
▁cit as
▁naš u
mas k
us est
▁sp anje
effectu er
ēj iem
▁apartman i
▁κουζ ίνα
▁u ch
i ċ
▁gr ă
▁und ir
ric as
▁économ ique
▁szczeg ól
τε ρα
ad minist
▁l amin
▁l ith
▁sta dium
▁pos te
▁al ert
▁de ben
mä ß
schließ lich
υ ση
▁é abhlóid
▁galer ie
▁sistē mas
▁w iz
▁bras ile
rit ur
ρι ά
▁produ z
ins on
▁дан ните
▁beispi el
▁hen ry
▁m q
att an
▁ob sz
▁af beeld
ли за
▁k rom
c one
▁rial acha
▁exper ts
▁emer gen
▁d b
kri zzjoni
▁mitgl ied
▁wohn ung
▁app ear
▁dat ensch
▁no astră
▁as ta
▁prob able
▁използ ват
▁kil ka
▁st år
▁mu od
▁ergeb nisse
д ър
▁pol and
▁ransom ware
▁var ios
▁þann ig
▁br us
скви тки
pro ble
▁обла ците
ális is
▁wz gl
ā cij
iment os
сти на
▁décis ion
▁irland a
▁ap rak
awtor itajiet
ч ване
▁no ir
▁ch od
▁ear ly
▁vaš u
▁kat ed
▁zdrav ot
ċ er
úch án
▁redu z
▁innen for
et zung
ak k
▁ann ab
▁εκ τός
▁fre agra
▁sv r
▁ø st
▁t ic
▁b ă
▁v aba
▁poz osta
θ ος
δ ας
et je
ti den
p rac
▁sú hlas
▁z ł
▁σ κο
▁règle ment
č ov
▁viss za
▁re mon
▁nä ytä
w orth
▁wik im
χ ρο
ī vo
▁maz āk
▁mov imento
▁m d
▁fem me
▁kol iko
▁fra k
▁parl amento
▁and et
▁δωμάτ ια
▁di ġ
▁derni er
▁su ger
an om
▁въпро си
▁o de
▁cou leur
ant ys
▁mė nes
vor hersage
▁pom óc
▁na fn
▁inneh åller
▁testoster ona
▁ti x
▁regi ón
▁fran co
aħħ ar
▁plan ning
▁poł ąc
▁es press
▁itali ana
▁esp ir
c loud
▁anse hen
to o
▁amb ass
▁pak iet
▁( +
▁fre und
▁í nd
▁osob nih
▁kü che
▁sus tava
w ed
ίν τε
▁у ме
▁la aj
▁alternativ er
▁nie koľ
▁ty ön
▁log ħba
s tem
▁br user
ρω ση
γ ων
▁polit ical
▁j il
▁lob by
▁о цен
▁os v
no us
▁institu tion
▁ση μα
ou w
▁hom mes
▁can tidad
▁m umbai
▁προο ρισ
▁cs at
▁fin ale
em as
▁drept ul
ener ġija
▁h ina
▁al an
▁sikk ert
▁lon go
al ist
▁tem as
▁síð an
▁ent rar
▁prim ul
▁це ли
hn ut
ra zione
ven a
il ist
▁помо гне
▁д ве
▁forne ced
if ika
▁cam pos
▁wię c
▁bi od
ff el
▁cli p
▁n iso
▁ning ún
ol go
▁prezen ta
▁zaplat íte
▁t aller
▁z ü
γ ι
▁ris inā
▁sko ðu
▁klu kk
y bių
▁vla k
▁tut ta
▁borav ak
▁w es
ed an
▁mus kel
▁sell est
▁ingles e
▁g rij
te xt
▁kro at
▁περι ε
hu izen
ċ ità
s aj
▁comp eten
▁iz boljš
▁leg isl
wn ętr
▁ka it
▁pl ante
ele e
▁latv ijā
▁cum h
▁seg ment
▁ker am
ato ire
▁pag ine
▁elim inar
▁nastaven í
▁ten is
▁sz oba
▁j ess
▁septem bre
j eli
acht ing
▁port s
▁ue fa
▁t este
▁k orea
▁ηνω μένο
▁prav id
▁viesnī ca
s ena
h nout
▁kind lasti
▁ham ilton
▁fa ċ
ον τας
▁noc leg
▁ok am
▁с ра
▁t oga
▁ins ide
▁proper ties
▁ch ia
▁prenot are
▁kom a
▁cal or
j ist
▁επι χεί
▁lle var
▁hur tige
▁k elle
▁antwort en
▁ech te
▁δεδο μένα
g au
iti h
bb ili
▁съ м
asjon en
▁α έρα
mal ige
▁g äller
ů že
▁lign ende
▁nov as
▁detal hes
em an
▁read ing
pä rane
▁coll ins
▁cro atia
▁inclu yendo
▁f iks
▁cré ation
▁hav et
▁ka inos
▁d ēļ
uta da
up an
▁ку л
s yl
▁zam ěst
▁к ре
▁at ja
▁ch ó
ръ ж
пу ля
▁par y
▁deb ido
▁amb as
▁ch ip
▁ισ τό
▁sv æð
v angen
▁lu e
kon to
zelf de
▁niz ozem
▁m úl
is ol
▁h ire
▁tal ent
▁sp es
uz zi
▁świe cie
▁tu in
oare ce
v ard
▁enor me
▁an th
▁produc ent
▁cen ám
▁m utat
ну то
if er
▁hel fen
▁pass o
▁leas ú
▁по ви
▁x v
▁łaz ien
▁pap rasta
▁fer m
▁dom á
▁con ecta
▁затя нуто
▁bus s
▁st unden
ť ah
ek kel
▁schn elle
▁å ret
▁f rat
▁19 60
▁igles ia
▁rezerv ovat
▁um gebung
μαν ση
▁fl imkien
▁inter ak
▁α κριβ
ular es
▁ie ško
▁be at
sk al
▁genie ßen
em bl
▁rezerv ace
▁sl ow
l és
▁diffic ile
▁iek ār
▁u hr
▁maggi ore
el ho
▁t isti
▁μα κρι
ti ja
jó ða
▁dí reach
▁д ва
y i
p ath
▁in ga
▁düss eldorf
▁inv it
vod u
λα νδ
▁să n
ram os
▁restaurant anmeldelser
in ami
▁pal ermo
▁propriet à
▁usu ários
▁an ál
▁tut kim
▁ed asi
▁tul aj
▁iek š
▁resort s
▁re un
▁taj ným
т ру
▁pot riv
▁ce pendant
za am
▁writ ing
▁apl ink
fra ge
▁sc ript
▁imple menta
▁fa q
▁pit ää
▁giard ino
▁dan sk
▁ráp idas
▁ser ia
▁kok ybės
▁po iblí
ħ du
▁garanti ja
▁n ig
▁tem os
ník ů
▁υπηρε σία
ają ce
är er
▁ac ab
v imo
▁mies zk
▁kan al
▁z il
▁comm it
olog ical
▁bes ök
▁benut zer
▁kompat ibil
▁tí pus
at l
eg ist
▁pov z
▁ind ip
▁bene fic
▁m él
▁auf ge
▁trans mission
▁д ни
áb bi
▁στ ρα
▁afac eri
▁b s
ar ijiet
▁ih res
▁vys lov
▁dz iała
▁ir á
▁br ut
▁alc une
asta v
ρια σ
▁eng le
▁back ground
▁w ish
ot on
eg ovina
▁p ing
ā ka
ó ireacht
▁b ik
▁по чи
▁оби к
▁a ku
▁ <
ár ól
có mo
▁д ър
æ ss
▁internet a
▁nombre uses
▁v iber
έ χει
▁d ès
▁позво лява
d ot
▁prin cess
▁los s
▁ob ține
▁ne od
▁8 3
▁kontro li
▁környez et
▁s yl
el b
▁polic ies
▁ви де
▁förb ät
▁де ца
▁od blok
▁k ent
ic ama
▁sehens würdig
▁χ ι
▁vo im
▁o ks
▁h ack
▁löyt ää
▁r t
▁reg ula
▁communa uté
ż onn
▁car ga
х ме
▁stran a
▁vär ld
▁li htne
▁ap t
▁w yt
▁съ став
ți al
▁ustan ov
omo ści
▁z práv
χο νται
du b
▁p iso
▁aan ge
ograf ia
▁izdel kov
fér fi
▁at lan
ff ie
▁gr ond
▁sie ci
áva ť
▁stör sta
▁control l
▁esimerk iksi
▁us es
▁vyž ad
▁pad ėti
▁c ám
en ça
tu otte
▁envir onnement
▁κλι ματισ
▁proble ms
▁informa ţii
▁tin kl
▁znamen itosti
rament as
▁συν δε
▁przet warz
▁bad rum
▁sw itzerland
▁tä ys
▁ļ auj
▁περι ή
▁dec ir
▁următo arele
▁somet hing
▁stø ttes
▁supp lement
▁opp os
▁ex amin
▁conex ión
▁gä st
▁z ac
▁не що
▁esta bel
▁comm ande
ab s
ij at
ra de
▁czas ie
▁telef one
▁dest ru
ti ger
▁de jan
▁skup ina
šk od
▁var nost
▁de oarece
hand el
▁ve řej
▁obs ług
▁z entrum
▁zdieľ ajte
▁o va
▁dest ino
▁riv iera
▁o y
ż el
▁rem ove
▁juur de
▁fer r
▁att end
ujú cich
▁st íl
▁os all
y ens
▁sec und
▁z ā
▁kr ál
fol y
ph áirt
▁poł ud
▁bit coin
▁télé vision
cio us
▁administrat or
λο ν
▁gir ls
▁be pa
▁is p
ies ti
▁verbind ung
▁dei x
▁pc b
▁zá kon
amer ika
▁pre hli
▁ki ire
ý n
▁cons olid
▁c og
▁ста нда
▁instrum ents
n olo
▁aus gest
▁atmos ph
wia ją
▁siht kohas
▁viz u
▁d hl
▁gad u
▁manufactur ing
▁le ida
dag en
▁hiustenkuiva aja
▁czę sto
θ αν
be i
p ons
▁τη λέ
▁in é
” ).
▁usu ário
▁pavyzd žiui
ove ď
▁ec c
▁znamen á
▁gro ve
▁propr iedade
ля ване
us u
▁prop ag
skar andi
▁mar av
▁r ene
b j
▁fi ș
▁enk ele
▁conc ert
úr skarandi
▁choc ol
rij as
▁vý bě
▁sprem em
▁t rid
ic t
▁dir itti
▁best år
▁ve iting
ép end
▁k att
▁z ent
▁tý den
▁r ī
▁z vyš
▁star ted
▁domeni ul
▁t æk
▁ma ħ
ica ções
▁ri ż
▁rec enze
▁ce art
▁διαθέ σι
▁prac tic
▁p ats
▁untersch ied
ori as
jek k
▁περί πτωση
ust el
▁dist ância
▁seni or
ė m
▁sod i
▁div er
▁tan ács
▁ob last
än tö
▁χρό νο
▁gosti ju
ra idh
▁su pre
▁on n
a ci
▁naha ja
▁3 000
▁foly amat
▁hav en
zen i
▁op dater
▁h ope
el ä
▁по ръ
▁d ār
ws ze
z am
▁pav ad
▁skoðu ðu
▁et ich
us ele
▁e va
▁kl ikk
▁a umenta
get to
▁respu esta
emm ija
▁medi um
▁ser bia
g ers
paragra fu
▁al er
▁за дъл
▁χ ρώ
ij ski
▁la itte
b lu
▁h k
▁s tig
▁k æ
som rå
▁под ходя
ou x
▁proxim ité
gam es
▁att ē
▁har bor
▁dan es
▁t ih
ós ito
m ill
▁terr ito
▁particip ation
▁pack age
kow y
▁en nek
▁pra wa
▁zahte v
▁zn anst
an im
σω τε
cz nie
ιο ς
▁rú mi
i ðu
▁kob iet
▁obrazov kou
du re
▁vy pl
▁dopl n
▁ro ot
▁pat ent
▁aloj amientos
▁cloth es
▁sou čas
w ords
▁v ključno
▁u isce
cl ud
▁sp agna
▁εξω τε
▁g ui
▁sz k
tick ets
▁reg no
▁lan z
рт н
▁un ele
va iz
t rans
▁dovol en
óm hair
▁j ikk
▁ма ши
▁ontw ikkel
▁mad re
▁mess ages
▁be y
▁g ista
int ă
ien a
▁tra il
▁exhib ition
▁nodroš ina
▁o ide
▁od leg
▁gest ão
▁artik ler
▁kou pit
ž ena
▁a ic
a ise
▁stran ici
▁hom bres
ποιο ύν
▁simil ares
▁cons équ
o od
▁atten tion
▁person ales
▁particip ants
ве сти
▁ras k
▁dar über
▁ét udi
▁pre pro
▁ε λα
rat or
▁bic iclet
▁har ry
▁meg tekint
▁brit án
▁swo ich
▁prote ger
▁proiz vođa
▁võim aldab
š ky
▁la kes
▁barb ara
▁maks as
▁phili pp
▁af gel
▁mu ž
▁zakres ie
▁sin ulla
▁liet otā
▁noz īm
pla yer
c ro
▁z bir
p ti
▁ro imhe
is ég
fa í
▁b am
▁over view
ē šanās
▁h äm
▁wsp ól
▁s ots
re at
s ág
ва ме
envir onnement
f äh
am eni
▁lever and
▁pohod l
▁saadav al
ξ ι
▁in val
ci es
upp gifter
ut ch
▁v enn
▁ad ă
▁prote in
▁est udio
▁te acht
▁furn iz
▁täyd ellisen
ún as
r ition
▁mar sh
sa w
hol de
ut ter
▁prac ow
σα με
▁ok rem
▁da ß
still inger
▁reg ione
nú mer
▁l iss
▁ga eilge
. »
facil iteter
▁př id
▁schlaf zimmer
rá niť
▁ne ap
po ġġ
▁vir š
ik l
▁h agy
▁w ald
▁é d
▁herram ientas
▁tevéken ység
▁συμφ ων
▁μαλ λιών
ān ija
* .
▁områ der
▁par ag
▁k ät
▁ ρυθ
▁kup aon
▁ка м
▁kapcsol atos
▁n de
▁j ede
▁zaj ímav
▁f ans
▁va ak
▁ob air
▁tal es
he jiang
▁ά το
el v
▁od m
us ia
rat ie
sta dt
▁ré pon
▁amer icas
▁pra chtige
▁nyel ven
▁ent anto
▁inclu ye
ige ach
▁ochran y
▁aller ede
▁hjel p
▁umí stě
▁ś red
▁v issa
▁fáb rica
il ised
ie der
ają cy
▁sc rit
▁ühend riigid
▁y or
▁lis a
raz ioni
▁k ód
ti ga
▁sistem os
il en
z ut
z ęd
▁бе зопа
mer k
ta ithe
▁montré al
▁fer ramentas
▁par ole
▁vers ión
▁meg sz
▁атмосфе рното
▁enfer med
▁su porte
▁drott inn
▁g arten
cel a
▁auc kland
kon nas
▁partic ulier
▁podpor a
м но
▁b é
at ív
ad óirí
▁tvíbre iðu
▁δουλει ές
▁špan ěl
▁επι φάνεια
p ac
▁colle ct
▁odgovar aju
▁g co
▁разви тие
▁je ště
м ни
τε ρεύ
▁al ma
▁is a
▁nas c
▁στιγ μή
▁τ αι
kl ade
’ ,
▁sis se
▁g ia
▁inv ent
▁съ ве
▁e ċċ
▁dur ée
elő tt
▁uporab a
ós tico
▁re ale
zk od
▁νέ ο
▁ob líben
ven í
▁ġ odda
▁poseb no
▁buff et
▁į sig
▁tru ck
▁ste f
▁tol er
adr ess
▁του α
▁mon cler
h ta
▁l ego
▁ang ol
▁con forme
▁συλ λογ
▁за ко
βά στε
▁fram úrskarandi
ck á
▁p isa
▁št át
▁g w
tie f
or ig
▁εταιρεί ες
ten eg
▁flyv ninger
▁sim plu
yt on
r za
vär d
ri en
▁br ind
▁billig aste
▁p ér
▁coraz ón
arbe iten
▁б ра
ne adh
on ym
▁mejor ar
▁um jet
▁pronunci ation
▁protec ted
▁vier ail
▁n erv
▁ré gi
y al
▁ri acht
▁ver anstalt
œ ur
▁issu es
▁for eign
▁conf iden
▁tilf ø
▁įmon ių
ρισ μα
τή ριο
ta ł
▁czas u
▁rapid amente
▁hotell rum
▁lincol n
▁num éro
▁espa ço
▁tr eni
ár ne
η θεί
ger icht
▁под държа
▁jan vier
ög n
▁exp ect
▁k ih
▁dha oine
▁dien u
kl āt
▁ε σωτε
▁ole mas
quet as
š s
ov ar
▁8 2
▁na he
k ert
πα ίδ
▁ra ha
▁lõ pet
▁sub jekt
▁ri dic
▁vo j
▁con to
▁cor ner
▁pils ētā
▁oc ult
▁ny ní
▁καταλύ ματα
j iv
▁más od
▁ge hen
▁þ inn
b ang
▁ekst rak
▁χ ρει
зъ м
▁вся ко
▁сре щу
▁iz rael
vide o
▁zak water
▁net oli
▁ru h
▁ju os
▁öll um
ed és
ar id
v äm
▁é ireann
▁sus hi
▁spaz io
f at
sh ire
▁num ele
yst ä
▁gar age
▁ka ap
▁esta va
c f
taj te
▁neces ario
▁mit arbeiter
▁al fa
▁b ande
▁r ur
▁sar ak
▁tietok one
fer n
▁ale ge
á no
▁zá b
▁y l
▁jin é
▁sigur anță
▁sv izz
om ini
άν δ
a ika
▁prane š
▁y ellow
▁desem pen
▁använd ning
▁capac ité
▁j uba
▁χρό νια
▁cent ar
▁kör ül
▁st är
▁av an
ob i
▁a ja
▁sp rav
▁skup ine
▁bew eg
▁déc embre
▁moo ie
▁par all
adel ph
▁u kl
▁par and
▁conte xt
▁pesso al
ύ χ
▁vis oko
▁при ема
atie ve
μο ς
▁vaj alik
▁over een
c tu
▁s lab
ibil idad
▁re ady
▁ver ksam
in ink
▁па ртн
▁wink el
z h
▁10 1
nego z
▁ieg ūt
▁isiku and
▁чу в
▁sem inar
▁ну жда
ít ási
▁exp érience
aj at
ir kt
us ter
▁may o
▁l iten
pr ist
▁gj est
ill os
▁need ed
▁le ast
щ ност
▁sprzeda ż
▁ma and
mater ial
▁tä iel
▁t ine
▁vhod né
o is
▁ky se
▁ole mme
▁poz itiv
▁lä b
għ at
▁naj bli
▁jah res
▁persoon lijke
▁co ches
▁probl ē
▁li has
по тре
▁ting im
▁ko ord
▁gä ste
▁conf ron
ž ite
▁εγκα τα
▁v ân
▁bár m
▁cont ato
▁trans mit
pajji żi
▁visi škai
▁re ch
ven ir
▁kons ult
en osti
▁wetter vorhersage
έργ εια
▁σχεδια σ
▁hvil ken
á tu
▁bi om
▁ενδια φέ
τικό ς
▁des krizzjoni
▁naš ih
voor beeld
▁don na
tem ber
sz oba
▁θ έρ
▁h ægt
▁kol me
vis ning
▁frame work
▁tak es
▁tap et
▁läm mitys
▁λό γω
▁вклю чително
▁f ua
é ten
ol ás
quil ib
▁про фи
▁not te
▁em oc
▁вклю чва
▁automat isch
sz ą
▁eng ag
ū n
▁przy got
▁h re
haus en
▁pou co
▁møn ster
▁eff etti
▁sp ara
▁m ina
od ge
úr th
d ess
▁princip almente
▁λογ α
▁fot ky
▁pr ü
▁vær t
▁men ny
▁4 50
▁европе й
▁fl ori
▁par ch
▁τε χν
▁qu att
▁tol iau
p ää
ł ę
▁val ores
▁dé part
ka zy
b g
pol itika
▁kv inn
▁am it
▁račun al
el ok
▁kien et
▁fy z
▁ ænd
▁sub s
▁direc tamente
▁prin ċip
j iem
▁mod ello
ro da
▁guer re
▁blan ca
▁пъ ту
ig us
▁streng th
со бе
" ).
f ram
▁nek ater
▁фи зи
▁διε ύθυνση
▁the ater
▁e ina
▁m ons
▁medic ine
▁č ást
▁la is
▁ori ental
ku šen
▁parlament u
▁frem ragende
▁car a
▁europe o
▁apr ender
w ith
▁opp dater
че ство
▁comm uni
mog elijk
▁kl í
▁l ēm
▁ust rez
▁p ě
▁lu oghi
▁størr else
▁ту ри
▁aj utor
fü gen
▁mo i
õ h
▁moyen ne
▁mor te
▁aut oc
▁exp ected
ær ing
ser ver
▁ter vis
▁des cu
▁leg yen
▁nas h
ši u
▁szyb ko
▁c yt
ύ τε
▁veget ar
▁entre ga
▁ε πο
▁er reichen
▁materi ales
▁ontw ikk
▁ha wn
id et
▁apro ape
f ile
▁vel ika
άζ ει
▁kat al
▁į raš
imenta zzjoni
▁gesch ichte
▁š ių
▁g níomha
v ice
ka isu
▁pu erta
am us
▁sh u
▁an um
▁dos ia
▁gar anz
att ing
▁pá irt
▁komis jon
▁за пи
▁gam me
пъл но
ö ff
▁ε ίδ
▁chr is
▁συ στή
▁pr ati
▁lin ie
▁asp ekt
▁мо ля
▁hår t
▁at om
▁ra f
▁me este
▁i van
yl or
▁f ómhair
▁kiv ál
▁υπ ε
▁náv ště
▁saatav illa
▁týkaj ú
▁λογα ριασ
▁zá ru
cook ies
▁erbjud ande
▁b als
▁fiș ier
▁all ows
▁oraș ul
▁dur ata
▁tú l
▁ez ért
▁akti iv
u us
k urs
▁vaše ho
▁lotnis ko
▁marse ille
▁auth enti
itā te
▁poz ad
n att
si ú
▁to c
ăt uri
kos sa
ω μα
▁stam pa
stö ður
▁nam n
kont roll
▁d age
▁kø be
▁no ite
▁μο ρ
▁k ran
▁grand s
ī n
▁prázd nin
up art
▁dalībval st
▁po tem
ipp ed
▁situ ato
θ ό
▁ποι ότητας
og y
ра ти
▁δι ευ
стве но
▁vers ão
▁perso ons
ag ent
▁s ons
▁σ ει
▁þ ó
▁krij gen
an es
in ai
acion al
▁ow ner
▁res a
▁aud it
w it
▁οπο ιο
▁w is
▁transport s
▁um oż
▁neder lands
▁repülő tér
ħ ata
▁spra wd
▁fil osof
▁mod al
στ ρα
▁by r
▁ballst áit
▁an led
▁log ħob
▁bre ve
sta m
▁t æt
▁t ão
▁i ber
▁забе ле
▁sp ise
▁prim jer
▁umoż li
▁u zn
▁jo int
▁o ameni
▁mit arbeit
▁nas zym
ok k
▁má ximo
▁f ik
▁apr end
▁all män
▁σχε δ
м я
▁ro ya
▁élec tr
▁v enda
▁min st
εί με
▁pat io
▁st att
▁bot an
ro te
▁kép es
wa qt
▁ful ly
ie de
▁за да
se ende
▁can aria
▁β ό
lo unge
c kt
▁ind ire
▁tag ad
▁qu ddiem
▁μακρι ά
▁v ek
lä ss
▁vo ice
er it
▁fe adh
▁exp and
▁le ír
▁вземе те
▁ü m
est on
▁el ä
▁sch reib
▁здра ве
▁of eri
ί κα
ți uni
▁par kov
▁put ern
▁sh in
▁da ļa
▁fö re
▁inclus ive
ре ние
στά σεις
▁meg állap
acha int
▁av ril
▁pro vo
▁car go
em ark
ament ul
▁sch l
▁leic tre
ol er
ova č
▁st essa
▁du cha
▁α λ
n iji
▁ ľah
▁pok ój
▁т ру
▁at ual
▁su pr
▁καλύτε ρες
▁sou tien
▁palab ras
▁vasta valt
▁π έ
▁co û
▁onder zoek
▁ch um
▁pol ski
▁ex igen
▁ho ur
ст ран
m oc
▁th ema
▁да ли
ж ба
μ ει
▁mu id
▁adat kezel
▁st ille
ι έρα
▁aktiv itäten
▁kr á
▁nost re
cl os
▁skup iny
▁ve h
▁podró ż
▁intelig ent
▁ang le
▁î l
cí ch
о ни
▁min őség
ell os
š ak
▁програ ма
▁sa inte
▁intern ete
▁princip ali
▁l ion
ė jai
▁hal v
▁bigli etti
yk ite
▁τουα λέτα
la ch
ver ture
pl os
▁d te
▁wła ści
▁an álisis
ot or
▁en suite
▁dost ar
▁prot ok
κ ου
b ella
anna ch
▁há rom
▁( “
ą ż
tig os
▁tid spunkt
▁sch utz
ri chten
▁tu e
▁soláthra ithe
▁k ub
▁ban ho
▁og ól
d rag
▁произво дите
▁mă s
▁consig li
▁po plat
▁tal k
▁εβδο μάδα
▁nav r
▁integr ation
ůž kový
▁kiekvien as
▁j uste
d ere
▁ми ни
▁indust rij
▁dobr é
▁ νομ
▁imm obil
τώ σεις
z are
▁ho ud
▁ä ra
n ow
serv izzi
▁érint ett
▁indones ia
▁dat as
▁ka udu
▁o e
šč ina
▁bid et
▁č asti
▁land ing
ál ogo
▁klimatiz ace
го т
▁strán ek
▁soft war
▁уебса й
lin ie
ic ie
áci í
ta de
▁wyn ik
▁okt at
▁descri ção
▁urs pr
éta it
▁m ihin
▁ka iną
▁corre ct
▁proced ure
▁въ тре
▁aut ó
ang o
▁nieu ws
▁y es
▁prek ės
ig lie
▁ανά γκ
▁kap s
s ninger
▁свър жете
▁št ít
▁photos hop
▁challen ge
p eg
▁kaup a
▁kats o
▁prilag od
on as
tie ve
▁paslaug os
▁tradition al
▁ha on
▁þ inni
▁acom oda
ud essa
▁he f
▁caratter istiche
ö ssä
▁do el
üss el
al p
▁ди а
ār s
▁akt yw
▁vr sta
tal ál
ri ga
▁că utare
ons in
▁pog o
▁cer am
▁fun ción
▁γράφ τηκε
▁lo is
de el
▁mi ši
▁p ann
▁sub sc
▁mod els
▁használ at
▁adap ter
▁ghlac adh
▁wym owa
▁καθ ισ
▁d n
х ите
▁ember ek
▁în cer
▁ λύ
es ia
▁canad iens
▁cro issance
de al
he er
▁ro of
h ung
▁ris que
pl as
▁sob ie
▁prav ila
▁separ at
▁group es
itel ja
▁opre ma
▁t itel
tu b
▁s lo
▁pre hran
▁atbil st
▁serv izzi
d ade
▁u rad
údar ás
▁puhel in
▁sł u
▁κα λ
▁gam le
▁сво ите
▁k kunsid
▁fotograf ii
▁dat es
m ov
▁kategor in
▁div ent
yw ania
la gt
▁by ly
▁mu u
▁ri ga
▁al tid
▁z ru
▁reikal av
íc ulos
kat egor
▁scé im
▁mo use
▁n iss
▁pie aug
regist re
d ann
yt h
▁ ρού
▁jedn ego
▁str as
▁uprav ljanje
▁loc k
▁ba hn
▁ep ä
u ot
▁tur qu
▁σ ο
▁auß er
▁οπο ια
pre j
▁k oks
▁h ib
▁s nieg
▁compan ii
au en
▁tre i
av is
▁vyt vá
▁μ υ
▁cz erw
▁b anda
▁uporablja jo
w ill
▁s endo
▁av ald
uj emo
vers ion
▁projekt y
▁z in
aszt al
▁current ly
▁ben ö
bar en
enn us
ele id
j ett
▁la gre
▁θερμοκρα σία
iv é
▁sc elta
1 000
▁special ist
▁eff ekt
▁с ло
▁mark eds
led es
▁a itab
▁yh den
▁in con
▁ras va
um ist
▁ni č
▁refer ence
▁saņem s
▁rép ublique
yb es
ing i
▁ai ut
tig ung
▁gew eld
k ü
din ja
▁test s
ari ų
▁ка рта
▁kok ona
▁со фия
▁гра да
▁prot é
▁os ap
▁ent end
ó far
▁compar tir
▁ме та
am bi
▁ent sprech
h ões
ri ere
▁loc ais
▁вина ги
▁ja fn
▁спо ред
va ir
▁ac id
at r
▁sv ært
▁bū v
▁sid an
mas ti
and ro
▁color ado
aire acht
▁stro je
▁suure pärane
n ő
▁san kt
δρο μ
▁b ät
üü s
▁ob b
▁he inä
▁t ón
▁van lig
la uf
▁pati ents
▁għand ek
▁po ti
▁li osta
▁mik si
▁d áv
▁għal hekk
ö tä
▁scegli ere
▁nar ed
▁juh tim
▁prat ite
▁ed ull
he en
▁seirbh íse
λη ση
▁od pr
rt ha
▁g it
▁vir k
▁elő tt
▁es pos
▁ma at
▁finan c
▁rô le
▁svo jih
▁ingredien ser
▁διε θν
▁g ill
▁pri im
r alt
zeich net
▁čás ti
▁suc c
▁k iegész
▁szczeg ół
f ær
з ване
ri min
▁nap říklad
▁sub stan
▁hua wei
▁pl upart
▁tí ma
▁se pt
▁bian co
с ва
▁par ks
▁úč ast
▁5 000
▁az ure
end s
▁public ado
▁vrij ed
▁niekt ó
ει ες
ir ja
▁don ner
▁ol ete
▁aast at
▁pra k
iss ements
▁aff id
ī vi
▁nájd ete
▁въ н
as u
▁t ruc
d io
▁an ime
ie ma
▁t ere
▁podmien ky
▁обик нове
f are
▁ag ritur
ok kal
dra cht
is ks
▁cos to
▁gre y
acion ales
▁előre jelzés
▁las ci
h ada
▁d ět
▁tilgæn gelige
ol y
▁do ug
▁tek ur
▁paslaug as
▁zem i
tag on
▁var mista
▁sal va
ho e
▁mal ad
▁þ r
▁registr ere
vē rt
▁ning una
lä ge
▁pie pras
adav ky
▁z lož
▁be int
▁hyd raul
▁conform itate
▁sce ideal
ter m
▁kom uni
altern ativ
▁br īv
▁sz tu
▁обо руд
in ě
▁kõr ge
▁comp anie
▁navšt ív
int ér
▁fu erte
▁упра ж
▁tv eg
▁mainten ance
▁se be
att et
▁exp ans
ότε ρα
▁ald rig
▁εισι τήρια
▁pot en
▁ch ain
ú a
k und
yn ek
▁par dav
▁о грани
▁ha ya
β ι
▁van tag
▁ga ulle
▁st öd
▁histor ical
▁pom i
▁atit ink
▁sl ots
▁cas es
ad t
▁baz en
▁hund rat
▁man ila
▁le or
▁ob isk
ed ig
w ald
▁β ε
▁αστ έρων
▁kö ny
▁ste hen
▁sk ab
▁veget ari
hod es
▁dist ancia
▁develop ed
▁inn hold
▁internet o
▁h las
ira j
▁feb rero
▁za wsze
πο ιού
▁beliggen hed
g ets
▁fr onte
▁επιπ λέον
▁væ g
▁eigen en
hlí onadh
▁físe án
▁gistista ði
▁ve ida
▁exter ne
▁pe arl
▁u lož
▁uv ijek
▁ne js
▁comp éten
те г
etti in
▁kom and
▁pok rač
▁zadar mo
▁sem anas
▁difíc il
▁senti r
im ist
▁selec tion
▁meg oszt
h ub
▁ont werp
ει δή
il iste
▁privac idade
▁виде о
ell et
▁indip end
in ak
▁integ ral
▁prika ži
▁използ ването
▁af b
▁e je
▁po zd
▁difer ente
▁bru ges
▁ext ended
▁iz kuš
▁hus et
▁sehenswürdig keiten
▁mis ma
▁impos s
▁program ul
p ier
▁int l
▁p ale
te de
▁πο ύ
▁el ements
н ди
▁pot p
z ze
ow el
▁ofer te
▁tali an
▁or iente
ό ντων
▁kit aj
▁kü ps
▁appro ach
ob jet
▁aqu a
▁organis ations
▁све та
▁rů zn
▁v si
▁bät tre
ή σεις
▁is egi
▁α λλα
▁senti do
▁lu k
▁utiliz za
▁necess ário
▁organ ism
▁seo ul
▁administ r
▁tel ekom
▁kr v
▁s ender
▁r ješ
ε μφ
▁ut ile
▁gr ant
▁mil ieu
li ers
▁vē laties
▁élé ments
▁ot t
bor n
▁am ministrat
▁ig nor
▁to x
▁skup aj
ov ú
▁hon da
ang i
▁op rem
esk us
▁koost is
к ви
▁t jed
▁gd pr
▁me isten
v ý
▁j iss
▁d ns
▁contin ental
z ny
▁def ini
▁15 00
▁използ ване
κει μένου
▁selle ks
▁manip ul
ма лко
▁dosta w
h j
off erta
▁mulher es
▁għ ar
▁deuts che
▁aus wahl
▁ed ward
▁laat ste
▁zah val
m öglich
▁t are
▁cient í
▁ska id
▁предви д
kl asse
▁sod dis
▁διανυκ τερεύ
▁p ump
▁dos kona
▁st jerner
ever y
▁exclus ive
▁z ieg
▁sch ed
▁sam h
▁dumne ze
▁sc ore
▁rec ords
▁cann ab
▁dura ble
sk t
▁decis ion
▁en se
vo egd
▁especi fic
▁vég re
et us
▁roz szer
▁jou w
▁proy ectos
itu kseen
▁lad da
i est
▁z es
▁europ ene
▁s ke
á ma
▁w issenschaft
▁com es
uste ga
▁t aca
▁jagħ mlu
▁urč ite
▁hom es
ļ au
▁gj ald
ši ų
ik ud
▁nav ega
s ign
▁som os
▁bran ch
χ εια
▁a ș
▁vind t
▁l ét
▁do poln
▁všet ko
▁rá ð
▁contac ter
m ost
▁verd ens
▁físe áin
▁ισπαν ία
ty pe
š ina
▁kan a
▁out let
▁ba ja
▁k cal
▁og led
▁mot s
▁ekstra kt
b lo
▁μπ αρ
kov ých
▁ol iv
l ied
▁bi ro
▁mark ets
▁tä ytyy
ē ķ
▁gu vern
▁ne ch
ran te
▁côt é
▁ab on
▁ca ja
un ce
w iki
▁obten ez
▁sąjung os
▁ima ju
or ted
▁о пера
▁predstav lja
▁sis ält
▁ker ül
▁ak tive
▁cons iste
▁nor ėdami
▁μο ντ
▁kir k
▁th ug
▁ge ht
skait ant
jen u
▁dė mes
▁syste em
▁pare ce
po o
man if
▁fjöl skyl
▁gre ece
▁construc ción
▁veloc idad
▁chal et
τη ρή
lj ed
▁ch ce
▁че р
▁lat en
ca im
▁ugy an
▁χρησιμοποι είτε
▁nö vek
▁comp orta
▁af la
ku u
" :
▁mar ino
▁vil ken
▁teil en
▁cé anna
kom en
▁der en
▁im un
▁ja ħ
▁h ens
▁möglich keit
ν ός
it ou
▁th erm
▁phil adelph
▁log oti
kan aler
▁ox androl
▁gu y
ow aniu
▁по не
▁žád né
zz ja
▁super f
ien cia
▁term ine
▁vyro ben
▁vyslov it
l īdz
an ých
▁kohte esta
▁conten uti
▁r al
▁obchod ní
▁bek annt
av aju
ve er
any a
▁c eb
▁e di
▁den mark
▁ψ ά
acqu a
▁má me
▁papil du
s ing
▁ra ch
▁commer ci
▁gu ía
▁perf etta
▁συν δέ
▁frjál sa
ie da
è rent
▁app li
▁vis iem
▁gew icht
▁ou v
▁gesch windigkeit
▁zo eken
▁ka asa
o idh
▁kün st
▁bravo fly
▁hundrat als
▁vys l
▁verkt yg
▁ne by
ch sel
r ud
ώ σει
▁dv ě
n ä
▁re b
al na
▁vlast nosti
m este
▁d na
▁sk ond
v õt
▁mid dag
▁n je
či u
▁sek ret
▁pra ga
▁pred aj
ле ми
▁unterneh mens
▁πραγμα τοποι
▁docum enta
▁effec ts
▁u te
l yn
niec ība
▁dev em
ran ia
util izz
▁acqu a
▁ ψη
▁ch ol
▁penn syl
▁m héid
▁priv ata
▁br y
p io
кт но
ic kej
▁okt ó
od is
▁ak é
▁fr iss
▁meg talál
▁emp fe
▁tama ño
è ge
ien iu
▁търго в
mc g
▁capac ità
nut ím
▁sicher heit
▁möj ligt
▁s én
▁vol ont
▁rum un
▁environment al
▁obb lig
eb da
▁slaap kamers
ρη ς
▁bo at
▁ιστό το
▁ofre cer
▁d ys
▁pod staw
vé tel
▁ασφά λεια
h ad
▁chann el
▁organiza ción
▁her man
▁naj em
▁v em
k år
ith ic
▁elér hető
l änd
▁prote g
▁especi ally
▁ст ро
▁l he
▁ple k
x is
▁tillgäng liga
▁διά φο
▁sol eil
▁ār st
▁αυτή ν
▁quel que
ījum s
▁mašč ob
p å
▁connex ion
▁sour ces
ci ć
▁waar om
▁köz öss
▁spe ak
m ula
isin éirí
▁savien ības
ita an
▁κα λό
design s
▁visit ors
▁isk ust
▁rece ber
▁ver arbeitung
▁bo y
unt ar
ba h
▁amo unt
▁be vat
▁gar an
▁red us
z ony
▁lun ch
▁persoons gegevens
ръ ща
▁cre ator
▁περι βά
▁f iber
▁kylpy amme
▁an ten
▁pr ä
▁blo que
▁kategor ien
der a
▁at sp
▁între b
▁ки тай
d ä
▁skill s
▁dostup né
▁wind ow
▁ώ ρα
▁mo oi
▁fö ld
ро то
▁ko ń
š ne
ăt ate
▁k ern
▁fu ente
▁ασφαλ είας
▁su uri
▁tavo itte
é nergie
▁pod í
▁leib hé
▁med zinárod
▁arch ive
ī l
▁w śród
▁v anda
he in
▁zieg ler
▁nä stan
▁prie ži
▁fe cha
▁democ rat
▁lin ha
ro se
▁bu ona
▁majutus asut
▁на стоя
pani el
▁jul io
▁kr ā
▁beg inn
▁jed es
▁strateg ie
▁offent lig
▁hol der
▁st und
ak te
▁p ace
▁zd aj
▁l ump
▁encont re
▁t oks
▁tak ket
υνα ίκα
▁před stav
on den
ro sk
▁który m
la us
▁przed się
ó gra
▁άν θρω
▁n üüd
▁compl ète
▁dru k
▁gru pa
▁ten emos
▁w lan
▁φ υ
oper azzjoni
' '
h istoire
▁τ ά
▁ν ύχ
hnu ť
▁reis ende
ich i
▁artik li
á ba
▁he ights
▁virkel ig
▁od b
▁cha î
wi ż
μένο ς
▁ин вести
ran ge
▁o amen
▁g ép
▁p itä
▁iegādā ties
eff ic
▁naj więks
log ħba
j ās
is ée
g ti
▁anad rol
то ве
▁l ire
ίδ α
▁acep ta
▁voor malige
ści ą
on da
▁софту ер
▁tex te
ē jums
▁b ază
▁dis frutar
zen é
▁l ång
iss ons
isti ca
e ik
▁mant ener
▁certif ik
▁mol te
▁европейски я
ja us
▁al gu
▁τ ρέ
▁fil o
zz el
▁form ål
▁ni itä
▁m orda
▁wikim edia
▁κατηγο ρία
▁rec ogn
▁te ik
▁sev illa
▁et wa
го ля
▁β ρέ
vol le
▁α κολου
▁įran ga
w ane
▁nõuk ogu
▁λεπτο μέ
prote zzjoni
ti eni
▁prof iter
▁vand ens
re ven
ont ú
ss ystem
ar ra
▁opl oss
▁anal ý
▁c ánach
▁verblij ven
▁cé u
it ás
s as
n ug
atsch app
▁upp gifter
f öra
▁viesnī c
▁bibliote ca
▁po inte
▁poko ju
▁let al
ks ta
▁παι διά
▁sloven iji
▁dag er
▁ú tv
▁por sche
▁iz sk
▁s va
▁löyd ät
▁κα νο
▁g ara
▁získ ate
▁tagħ mel
▁eset ben
▁anún cio
▁pog osto
▁gy ű
▁ma ja
▁pārba ud
▁de vez
▁ve ľa
▁not es
de ċiżjoni
▁kateg óri
де й
▁permet te
ποί η
▁gj orde
▁borav ili
ín io
▁n ick
▁tu gev
m are
▁opre me
cij ski
▁jo ita
▁e ux
é ter
▁h iv
ør sel
c za
▁φ ί
▁cor n
▁el v
▁u ps
pa y
▁dok az
st or
▁conver tir
f aj
inn ar
ement en
▁e itt
▁m ama
ь ор
▁a ks
▁kann st
▁word s
▁atlan tic
▁sou hlas
▁qu elli
▁vol do
id us
▁naš ej
▁tra iler
▁k je
fræ ðir
ia o
as elt
mun ita
▁środ ow
▁cost s
se z
▁μπαν ιέρα
▁pri va
▁ph ase
ξ ουν
▁ķer meņa
▁cast ello
▁yhd ist
ege ven
▁hundre vis
εμφ άνιση
▁géné rale
▁punt os
▁i ktar
▁u god
▁qual c
▁transp orto
▁ac ross
ti vel
▁příslu šen
er u
ert os
▁so ud
▁ob ičaj
ля не
▁pří mo
▁198 8
▁l ane
▁institu tions
▁cil j
▁sk ir
▁an ch
▁por table
▁he er
▁ga us
ese hen
ēja is
▁о собе
▁wallpap er
im se
üste em
▁é to
▁ent sp
zés i
▁e igin
▁e šte
▁p ond
▁dij el
l ika
▁proto že
▁guard a
ier to
▁czę ść
in der
▁oc tobre
▁ce ang
gr ond
del ig
▁v lož
▁prostřed í
▁access ories
ar ni
▁fre cu
▁con ception
▁almac en
ту ри
▁kü sim
▁obsta ja
ne a
▁hel ppo
if icación
▁two je
pajji ż
ro ad
▁rezer vi
▁sis ään
▁afgel open
... -
teri ori
с лу
ň te
κ ές
ok an
▁ka ard
▁ch lad
▁p ai
▁s ün
▁moz illa
ljen je
▁capac idade
▁k nih
▁mig r
▁aff aires
▁ho uden
▁s ze
▁uzysk aj
▁pic ture
ov án
▁ст ру
▁vær elses
ho ek
▁flex ible
att ur
oj umu
▁ka ff
▁r ith
ograph y
ko je
▁ass ocia
▁mik s
▁špan jol
▁réserv ation
ia k
jer m
▁map y
▁past āv
▁ist itu
▁zi ņoj
ab et
ari amente
▁ne pr
▁számít ógép
m else
▁verb ess
le gen
s ø
▁uveden é
▁aufent halt
cel er
bl äs
▁al fræðir
▁ras ke
sk ær
▁techn ológi
▁di p
è les
l he
▁tillg ång
▁ered mények
▁ek olog
▁c ina
bor ough
▁de mo
▁gam into
▁el t
▁je zik
un tu
▁ )
▁z hejiang
ab y
sch ap
▁im pre
▁ho uses
ag og
▁sad arb
▁за е
▁bes onders
▁pr isen
▁stø tte
z te
fran ce
wi ć
▁so ient
▁där för
▁ch art
▁l oma
▁rav int
▁ø konom
▁χαρακτη ρισ
ile anna
▁tra m
▁compl ic
ød t
▁înc ât
uk seen
▁hodnot ení
ļ us
▁hor n
▁roz w
▁po łoż
▁pov inn
és ére
▁th under
▁angi el
ori ent
▁în vă
▁lä ge
▁w eten
▁lim ba
w ise
op era
▁r enta
in ou
▁sis äl
▁se værd
▁ νη
▁tanul mány
▁ме то
cent rum
s he
iv it
prod otti
▁vyhled ávání
▁f ell
▁j ól
▁безпла тно
al ności
▁sty les
▁strateg y
▁pouv ons
▁bro ws
▁но щ
▁gez ond
▁pal est
▁ин ста
ė k
ová ny
▁al es
▁and a
euro pa
▁б ри
▁zesta w
è que
an ime
▁αρχεί ο
▁inim esed
▁k ó
▁niektor é
f la
▁dr um
▁do bu
▁bes ö
▁kakov ost
▁tá irge
▁ilust ra
▁star k
▁γ λώ
▁kor rekt
▁отно шение
▁gre ater
▁dé anta
▁r ække
▁dí ol
▁val ore
it in
▁je ff
▁liv s
▁ok to
▁cl ara
▁pla č
▁f us
▁k ard
▁veg ar
▁ein zig
г е
▁tu š
a qu
▁eas tern
▁s ot
▁wi ad
▁consig lio
▁rom met
▁cu atro
▁hon om
▁ag enda
▁történ ő
ден ти
▁ar n
▁фор ма
▁за що
▁olul ine
▁atve ju
e ch
▁gard a
▁zna čaj
▁appartement en
▁bar ato
▁al ati
▁nu it
▁lä het
▁d tu
▁št ý
ījum i
▁ņem ot
▁oper ativ
▁vær else
ex tra
▁198 6
▁roya ume
ţ ilor
▁kõ ig
ter oid
▁fer ries
oc o
ū st
▁lors qu
▁ευ χα
▁st wor
▁f öl
tra uk
▁τηλέ φωνο
▁ped ido
▁educa ción
ok ing
▁ko š
▁ostat né
tieto ja
▁ri zik
▁ion caim
▁otáz ky
▁eff orts
▁sz ív
▁localiz ado
ér ől
▁š paniel
▁pack ages
▁et her
▁m eld
▁esta ción
▁samtid ig
▁kro z
▁quarti er
▁síð ustu
▁pu eda
ai rim
▁sr ity
tv ím
▁lah end
▁ru ční
▁tud omány
▁s ella
▁kosten lose
▁dh abi
▁deux i
▁þess u
▁σ ί
cz ego
idh me
j ska
▁от де
▁val itse
▁at ualiz
▁jo ta
▁saņems iet
▁mass age
▁de w
▁zn al
▁tu ote
▁câte va
▁matéri el
▁al ger
▁þess ari
▁tur pm
it ets
▁tra jekt
▁vezet ő
▁shi pping
▁eenvoud ig
om me
▁promoc ji
▁y der
▁m ów
ot ājiem
▁w sk
um an
▁h lut
▁rug ăm
▁atsauks mes
▁volks wagen
g är
▁д нес
ent ää
▁fu ori
▁ин ститу
▁žemėlap yje
itä ts
▁suos itu
▁εργαλ εία
nie ks
▁αξιοθέ ατα
[...]
