<T> 0
<U> 0
<BT> 0
▁ 35270518203
e 22795941272
a 15281940649
i 13678201274
n 13353438843
t 13090440106
o 12549005965
r 11965069897
s 11846371396
l 8139663017
d 7225710704
u 6266318195
c 6065792704
m 4976459074
h 4648668569
p 4374022303
g 3358612968
f 2935576809
b 2610556522
v 2610409444
, 1978081105
k 1908343360
y 1834882888
. 1759108980
w 1651909416
z 1114991860
j 841741528
▁the 840871571
▁de 752049445
é 708613769
- 585100145
0 561645062
▁a 510258332
1 493722169
q 488824848
▁of 452030575
▁in 432658961
▁and 418883636
x 396201310
2 395258141
▁to 390153612
á 333559762
▁la 290065894
ä 276414064
) 271096078
( 265912446
▁en 251703681
▁( 247089957
í 242881785
: 228898781
ó 209866082
3 201462175
5 200446504
▁for 191926369
' 182259983
α 177341337
▁- 175939426
▁is 174276837
4 174197936
ü 167404187
9 154649942
ö 153006817
’ 148295653
6 142477291
τ 139915173
ο 137824797
8 137500304
а 136821106
ε 132878729
▁un 131600218
7 130486036
▁on 128371384
▁i 127018867
▁y 126954982
ι 125573121
▁que 124410855
▁with 122808978
▁die 121071725
▁el 120892650
ing 119676110
▁l 117190695
▁et 115265907
à 114172596
▁le 113816901
▁e 112220530
▁und 111019710
ν 108741819
и 107345963
▁des 106945558
▁you 106062753
е 104193403
ed 103201978
▁der 102044161
▁that 100336423
о 100200071
/ 98504857
es 92967075
▁d 91276936
т 91132878
å 90563126
" 88602234
▁as 88232892
▁les 87577822
▁o 87511136
σ 87489917
▁à 87033648
è 86021417
▁be 84013195
ρ 82890511
▁se 82117690
▁para 81856441
н 81705299
▁by 80849079
▁or 80312048
▁an 80104294
? 79880656
▁los 77176425
▁du 76781448
▁di 75893474
▁at 75175760
π 74865288
▁are 74453771
▁it 73965245
▁from 72932046
▁this 71623738
š 71056166
▁del 70754324
▁sie 70652868
▁your 69507041
▁con 68694757
en 66863782
κ 66568924
η 63912853
μ 63579761
ς 62019609
ž 60348629
; 59323946
ú 57609488
ç 57453188
č 57451727
▁no 56275098
р 55971751
▁1 55906133
с 55598425
▁we 55402436
υ 55030766
▁es 54734337
▁il 53857598
▁von 53458821
ar 53185271
▁do 53179928
в 52483008
ã 51688027
! 51165961
▁all 51023335
▁will 50707194
ă 49991604
er 49851014
▁can 49459452
▁den 48988436
al 48875771
▁zu 48851095
▁una 48802387
▁not 48311134
▁van 48077597
▁pour 47663587
λ 47261321
ation 47053399
▁las 46899557
os 46270101
▁2 46123690
in 45654081
ers 45600230
▁mit 44665776
as 44551935
▁na 44396344
▁per 44396276
an 43989755
▁was 43817320
▁" 43250673
▁have 43137061
ί 42838750
ê 42727046
▁s 42026214
▁al 41927648
▁das 41038120
▁por 40714986
▁v 40541662
▁su 40433189
▁hotel 40187906
▁für 40009745
▁our 39904454
ý 39814125
te 39204481
▁3 39047846
▁w 38319677
д 38145374
ā 37997415
). 37668629
“ 37581940
com 37361019
▁sur 37285655
– 37210383
et 37152871
ą 37103051
ě 36738933
▁er 36461278
к 36310785
▁auf 36242025
▁da 36085706
ό 35874786
it 35768969
▁um 35690742
л 35349792
▁c 35340078
on 35088921
ate 35074358
ά 34929239
▁ist 34877942
▁si 34869364
▁dans 34775434
▁– 34691476
is 34306590
” 34261681
ly 34163063
▁has 33740585
▁est 33116542
▁m 32610914
п 32552046
ñ 32537030
▁par 32467543
ł 32450929
el 32418289
έ 32172898
▁une 32040347
δ 31936823
▁je 31901634
ø 31835936
▁het 31830181
▁which 31791887
γ 31431492
▁more 31245312
% 30991381
▁og 30851775
us 30805460
... 30792854
▁z 30461936
▁new 30357035
ř 30320072
▁ein 29964507
▁4 29945174
▁em 29845330
▁“ 29845139
▁te 29794368
& 29423397
), 29356048
▁if 29329886
est 29225104
ent 29172556
ic 29019198
re 28815319
з 28584529
▁5 28522177
▁een 28454970
▁u 28358664
▁ou 28308410
or 28226222
ch 28216386
at 27824249
ę 27760914
ß 27424865
▁their 27291577
ant 27120367
▁op 26896378
▁its 26817626
▁vous 26762173
ie 26734234
ung 26676421
æ 26676137
▁one 26601290
ή 26541216
▁på 26536389
▁also 26498899
▁he 26334923
ż 26272146
м 26260355
▁au 26190932
▁ver 26177409
ω 26087637
▁p 26086241
▁im 26014012
▁so 25995454
▁n 25908289
▁b 25891043
▁& 25057594
il 24839824
▁eine 24779359
ted 24666481
▁10 24652462
▁re 24531417
▁g 24432091
▁hotels 24400452
le 24397456
▁med 24306669
▁om 24090822
ia 24026010
▁til 23861757
st 23847500
▁but 23774317
ten 23750309
▁f 23648643
▁they 23572702
ne 23423587
ado 23281881
▁av 23113065
▁information 23100080
▁other 23081164
î 23038119
▁qui 22748017
▁más 22683100
▁t 22628946
▁find 22604461
▁che 22578676
▁time 22453066
▁oder 22386959
ő 22337185
un 22297008
▁us 21966239
χ 21925299
▁h 21719674
se 21645374
▁como 21608300
▁k 21573244
ô 21572636
▁avec 21456154
▁plus 21454025
▁aus 21421667
õ 21389338
▁am 21351479
em 21265057
ur 21232215
ated 21223058
▁over 21141028
▁och 21094631
▁use 21094098
are 20923225
▁ja 20823361
▁ne 20809238
ta 20694615
▁pas 20646712
de 20620328
| 20581576
ts 20577192
ī 20563969
▁about 20527245
ul 20497470
▁pro 20396018
▁| 20294158
▁dem 20233291
▁any 20233160
ity 20139953
▁/ 20084947
▁met 20076420
▁6 19959244
▁é 19800734
ations 19666627
ra 19599227
▁there 19592360
▁r 19577655
▁com 19508179
ć 19481720
▁out 19456865
ge 19425512
és 19334609
я 19222207
▁som 19206991
▁ab 19095941
▁may 19038299
▁lo 19034186
ir 18865710
▁os 18812415
▁best 18794898
am 18733196
θ 18626775
▁his 18612001
ción 18601912
▁non 18511196
▁when 18489028
ś 18476649
▁voor 18333601
▁als 18326099
▁ce 18197536
▁8 17994216
ad 17989414
▁nicht 17972826
ter 17951590
▁è 17951223
▁7 17941269
ens 17937833
▁up 17924844
ъ 17912524
ύ 17845419
▁ha 17831424
▁son 17821998
▁über 17754641
▁werden 17751987
▁sich 17704070
▁who 17606892
[ 17576636
▁car 17554977
] 17545118
ț 17539567
ē 17454505
ce 17439443
able 17383864
▁att 17267452
ine 17209890
▁sa 17104365
▁x 17023109
▁me 17020529
▁det 16969498
ro 16937878
▁online 16935472
to 16920416
ies 16896688
▁kan 16889276
▁af 16853911
▁these 16774438
ů 16751398
ée 16632734
б 16609771
▁nach 16572163
um 16545194
ig 16522497
▁qu 16429130
▁alle 16417238
▁ar 16390478
00 16355921
▁data 16290852
â 16288131
▁j 16255669
▁been 16252803
▁most 16235845
ver 16195310
ment 16150724
ada 16122369
▁service 15939456
ados 15878466
▁under 15867396
ere 15783389
▁este 15712562
la 15507507
▁för 15485797
end 15437565
▁my 15394083
▁free 15360830
ato 15295036
ite 15276470
▁first 15276234
▁canada 15275128
▁20 15270622
na 15233104
▁wir 15209468
▁services 15157640
у 14941664
ti 14931307
▁how 14914442
г 14858952
φ 14846613
ou 14834088
be 14791377
io 14732007
▁what 14694637
ut 14686902
▁internet 14647823
▁sind 14643393
ol 14635982
▁az 14620401
ally 14616985
th 14605457
om 14580859
ings 14560950
▁only 14546449
▁web 14538634
id 14523793
▁man 14426272
▁nous 14379433
ale 14252480
▁her 14224402
▁were 14156731
▁tu 14128571
▁work 14091365
ч 14081837
» 14073094
ot 14069771
ins 14069716
ons 14023299
ungen 14010259
ac 13990463
▁ir 13969273
▁system 13945699
+ 13862528
▁than 13838967
▁st 13837874
▁such 13821171
▁har 13784920
▁world 13766765
▁können 13744987
ary 13644549
▁. 13641932
▁them 13596880
▁km 13556890
▁9 13518136
▁votre 13501825
▁ro 13470728
▁wenn 13465797
ando 13436737
ist 13410870
▁after 13348395
▁15 13331199
ion 13313004
▁site 13290738
ų 13285979
ci 13284675
▁sobre 13187741
▁ad 13152870
▁ser 13129839
▁ch 13102095
▁people 13092000
ve 13090862
▁driver 13067232
▁mais 13000061
▁co 12892774
▁po 12881166
ώ 12869256
10 12863315
▁into 12848573
▁és 12810717
▁ge 12805921
▁sont 12787639
▁well 12727773
▁[ 12658045
▁на 12645824
ja 12608520
▁18 12608460
les 12585020
im 12539400
▁sus 12488143
ė 12488052
▁city 12382685
▁where 12357506
▁dass 12339880
tion 12322727
me 12321171
▁san 12295315
▁used 12274562
ely 12272096
▁get 12248551
ans 12200089
▁two 12154865
▁wird 12130752
▁ma 12093454
ek 12035720
▁dis 12023380
▁vor 12003799
ales 12000615
co 11946374
▁part 11914232
▁very 11867984
« 11852640
▁website 11796408
▁sch 11783196
que 11777757
ire 11760332
ù 11758869
▁uma 11753730
he 11745832
▁ac 11738591
ende 11735896
▁fra 11707932
▁till 11692279
▁had 11687348
▁see 11669998
ier 11642957
ien 11608714
β 11583894
une 11572506
age 11564974
▁30 11527958
els 11511403
▁12 11507074
▁some 11506602
▁software 11491284
ť 11478873
ina 11474842
▁aux 11472722
▁windows 11455152
▁della 11449591
▁bei 11448831
▁wie 11430904
ante 11426895
▁should 11417775
▁would 11415037
▁100 11351024
ū 11350162
▁entre 11315977
▁high 11253488
▁make 11213008
$ 11190434
▁einer 11176840
op 11175470
▁years 11153428
je 11139428
▁eller 11126976
▁vi 11125468
oc 11093747
▁cu 11092311
ks 11088196
elle 11079999
ca 11056341
▁sp 11048444
ue 11037707
▁between 11003985
ð 10993158
▁« 10974562
▁în 10940658
ke 10937870
gen 10907783
ri 10907389
ata 10895525
▁available 10888189
▁einen 10876505
▁come 10856697
ise 10849186
▁pre 10839076
▁esta 10831217
▁computer 10799483
▁está 10798276
▁mar 10785409
ș 10777423
▁like 10711131
▁και 10705716
ec 10695150
▁din 10688160
▁ex 10665336
der 10664799
▁public 10663480
▁access 10637642
▁through 10620716
▁bar 10613713
▁sin 10584062
ido 10569490
▁auch 10565926
ap 10565599
ene 10560764
▁international 10558904
▁help 10499047
▁home 10476011
ze 10472197
▁now 10440098
▁sh 10426266
ag 10410174
▁search 10404727
▁year 10383804
che 10383738
▁order 10383231
▁air 10379649
▁support 10375438
ors 10372438
▁dos 10354563
ées 10351035
▁place 10337378
ma 10317144
als 10306790
ys 10304524
▁manual 10290764
and 10270756
ning 10223178
ak 10217425
▁flights 10207182
res 10201168
fi 10150764
▁go 10143978
▁file 10138321
▁day 10095202
000 10094260
▁todos 10058383
* 10057042
▁od 10052056
▁puede 10011821
qu 9992985
one 9973433
▁personal 9971520
ab 9960305
den 9949353
ete 9947908
▁form 9947107
ni 9946270
da 9929663
no 9915135
ance 9907120
▁many 9879804
ess 9876205
▁pe 9872545
▁pass 9871462
ité 9867300
▁war 9838594
▁products 9810135
▁download 9801308
ell 9793362
ati 9780918
▁0 9776619
▁men 9773163
ik 9771689
ieren 9771431
adas 9765565
▁end 9754544
▁2017 9751086
▁24 9748477
ure 9736099
▁product 9735856
▁contact 9726465
▁einem 9725296
▁ihre 9722891
▁haben 9699882
ai 9699404
▁nos 9678189
▁zijn 9659292
do 9649866
▁za 9646865
▁inter 9626268
ano 9617253
▁made 9601606
au 9601456
ern 9600945
▁você 9565690
▁water 9526365
ile 9519320
ele 9517668
▁dat 9513505
▁design 9482141
ok 9466486
▁business 9447330
▁trip 9422383
— 9418688
▁vol 9418610
▁each 9413943
li 9403833
„ 9393548
ha 9365316
▁must 9357082
ence 9346253
▁durch 9326709
▁book 9324917
▁real 9294467
its 9279382
▁view 9243205
up 9213077
ger 9174656
▁vuelos 9155680
ard 9142308
ka 9126375
▁take 9123326
od 9106415
▁then 9094408
▁är 9086026
▁control 9066555
ments 9065355
ica 9042997
30 9036256
▁room 9033384
▁„ 9030941
▁program 9019788
▁app 9013097
▁cookies 8989754
eg 8985886
▁during 8969510
▁just 8969206
▁ent 8962117
¿ 8942291
20 8929150
ische 8922186
▁need 8903342
▁aan 8876521
▁ra 8848103
ud 8843518
pe 8826441
▁care 8806659
ants 8788716
▁number 8772047
12 8764536
▁add 8749390
▁zum 8740076
▁14 8736846
ces 8717255
€ 8700791
ied 8697888
▁να 8683378
her 8680032
ali 8676426
▁ob 8666088
ж 8642545
▁16 8639949
▁plan 8632504
▁set 8622395
urs 8606142
era 8592921
ction 8585273
lo 8578449
▁zur 8574518
▁diese 8562443
ph 8552619
▁ag 8548070
▁uw 8547907
▁¿ 8525028
▁tv 8508954
▁hand 8496569
ken 8491343
idad 8490241
ates 8458692
▁here 8449606
▁kann 8439314
▁person 8438369
▁house 8425891
ement 8413998
ide 8410624
▁national 8404959
ert 8400569
▁ich 8377862
tions 8377010
▁eu 8376097
iz 8360114
ets 8359111
ov 8352292
▁tra 8350452
ines 8330894
▁50 8330674
za 8322339
▁art 8321631
▁cost 8319272
av 8318750
▁и 8317416
ana 8313459
▁tre 8307344
▁good 8297806
_ 8291950
▁não 8288406
▁long 8278911
ade 8254018
▁before 8248474
lich 8244770
▁11 8239536
19 8193418
▁top 8187815
men 8186936
ga 8183592
ities 8180439
▁parte 8171740
▁way 8158177
▁even 8147796
▁ta 8135299
ção 8118723
▁17 8101056
ating 8068811
ţ 8064080
▁sc 8058939
▁france 8057425
▁group 8056542
▁low 8052283
▁$ 8026462
▁sol 8020595
▁life 8016127
▁development 8006926
▁ri 8005363
ente 7993911
▁last 7972989
▁without 7954392
né 7946933
int 7941573
▁area 7934378
ita 7927049
▁mi 7905971
▁información 7889267
▁right 7888269
use 7888203
▁ed 7886631
▁open 7879747
▁cette 7877994
ps 7870496
▁25 7863632
ungs 7858812
▁mon 7857813
ach 7853215
ige 7826905
▁también 7804932
igen 7802710
▁don 7798218
▁important 7790816
▁social 7785543
va 7775639
▁hat 7771637
▁dan 7754714
ía 7744177
▁show 7743521
ξ 7738794
▁nu 7738465
▁power 7729992
enden 7726942
▁dei 7721853
▁health 7715618
▁ihnen 7705944
▁company 7696366
ischen 7690206
▁centre 7682806
▁within 7671888
▁great 7668763
▁general 7664502
ц 7659732
▁vers 7644539
15 7625303
▁finden 7617040
▁pentru 7613672
▁google 7613462
ida 7608958
▁via 7607412
▁ont 7595494
▁using 7572685
▁19 7565140
▁più 7561750
ct 7557013
▁she 7551488
▁process 7551265
11 7548155
▁+ 7535131
ff 7529752
ry 7528106
ble 7520893
ben 7507213
▁want 7506569
ents 7495182
▁management 7489879
pl 7470470
▁video 7463733
ler 7458371
▁2016 7452406
▁mai 7448047
▁while 7446292
▁desde 7442339
50 7436271
▁those 7430136
▁including 7412514
lichen 7404641
▁different 7397004
sp 7392752
▁local 7392312
▁var 7380664
▁mo 7367351
▁ihren 7365629
▁user 7361977
mer 7361341
▁sono 7357327
▁land 7355152
ow 7349847
ang 7346837
if 7345254
▁flight 7336039
ador 7319360
> 7318345
▁jetcost 7311273
▁page 7303628
▁quality 7301697
ba 7299759
▁same 7285372
ner 7258808
▁dé 7250732
▁pl 7241412
▁être 7236077
▁back 7227869
ive 7221850
chen 7211508
▁å 7207964
▁2018 7200853
sk 7197818
▁tr 7183956
▁13 7172397
▁door 7163306
ib 7162103
▁solo 7130369
ingen 7130121
art 7122429
▁bo 7117868
▁dell 7114502
▁unter 7105150
▁ihr 7103620
ru 7078379
entes 7072228
ats 7071536
▁park 7044017
▁provide 7038311
ho 7028617
ck 7028016
▁да 7021980
▁red 7020672
▁because 7020270
▁sk 7019112
▁wi 7006764
pa 6998132
▁know 6988836
▁το 6988630
▁standard 6977249
for 6975748
▁airport 6965654
mi 6962869
og 6946148
ino 6937868
▁br 6933445
mo 6932729
ice 6932107
▁sein 6928332
▁inc 6924738
▁possible 6899088
▁ca 6883911
we 6880926
the 6878192
ico 6877695
▁th 6875108
tor 6873243
ill 6868338
amente 6862864
® 6862510
▁nie 6862400
sa 6862287
▁fl 6857890
▁motor 6849970
▁base 6848905
▁ve 6848453
▁could 6818851
▁nel 6816963
zione 6812229
▁sub 6784356
▁mal 6780048
sch 6767762
▁days 6759800
▁device 6756107
▁alla 6755939
▁за 6754426
▁near 6748969
▁' 6740385
man 6720166
ges 6709728
▁far 6703694
per 6685594
ane 6677703
liche 6676248
fe 6669784
red 6667969
zen 6656633
# 6651007
ions 6639948
▁full 6637715
tu 6636900
▁bien 6636533
▁every 6634484
ced 6628693
▁dr 6620530
ito 6612838
▁» 6611844
▁country 6610797
ş 6591377
▁été 6589771
▁și 6586436
▁— 6570715
▁research 6566427
▁type 6557545
▁problem 6556428
▁team 6555824
▁encontrar 6553974
net 6546635
iert 6546373
án 6544578
ux 6543823
▁mer 6542658
▁project 6537492
▁nur 6535952
▁€ 6518506
▁paris 6517069
ker 6516930
▁god 6502706
16 6495719
▁human 6492503
ical 6491676
▁uns 6487716
▁durante 6482033
щ 6476341
▁own 6473375
▁offer 6462462
▁case 6449556
cy 6447808
▁fe 6446074
all 6443943
mail 6443882
▁notre 6437643
▁sal 6435326
▁beach 6427140
ore 6415163
▁col 6408832
▁name 6403241
ase 6396104
▁tal 6389869
▁fin 6386192
▁price 6366430
▁both 6362031
▁comme 6349582
18 6346004
▁government 6344274
• 6336444
▁offers 6335699
▁read 6332762
cher 6325663
▁• 6301560
▁off 6298355
si 6292773
▁sua 6284579
й 6282149
iv 6274360
ip 6273787
▁inform 6265008
▁cre 6260326
▁inn 6249336
▁european 6241616
▁special 6234413
ven 6230322
▁family 6230173
▁being 6229628
▁gratis 6209112
▁since 6206254
▁dit 6203991
į 6200337
25 6195656
▁res 6183073
▁bed 6181482
▁french 6179915
▁sea 6178730
▁cada 6169031
ista 6168494
24 6157399
eren 6156293
▁second 6147845
▁ap 6138278
ness 6131987
▁va 6126838
▁shall 6124889
▁children 6123336
▁2015 6122268
ms 6120813
ón 6118830
▁pod 6116990
▁todo 6114826
▁tout 6110830
vi 6109545
ľ 6108158
▁han 6108043
▁list 6101269
ques 6099303
bar 6097789
▁conditions 6081250
ub 6059563
▁naar 6057440
▁three 6056303
13 6049449
▁located 6043428
▁hoteles 6041657
▁min 6029226
▁comp 6025427
▁point 6025042
▁port 6024666
14 6018433
▁datos 6001161
antes 6000735
▁main 5998245
▁him 5993689
▁gran 5979245
40 5978257
ás 5976622
▁live 5973564
▁cor 5971141
▁date 5967030
elt 5966029
▁ces 5961984
ass 5959471
▁small 5955092
▁dec 5953104
▁ré 5941478
ku 5925458
▁21 5925206
ny 5924467
amos 5917684
° 5906765
▁light 5904192
ft 5903474
▁seu 5894859
ste 5882596
▁post 5877274
▁bus 5873199
▁black 5864809
▁large 5850605
▁bas 5850584
▁ze 5841053
▁experience 5833593
ements 5822703
ics 5815795
▁said 5814796
ber 5808980
▁super 5806981
ère 5803145
▁worden 5800634
▁bis 5799766
▁deze 5796756
▁40 5796439
х 5792983
▁please 5787653
▁για 5780993
▁change 5778374
cht 5773680
▁map 5773414
▁val 5760089
ari 5749407
▁informationen 5748459
▁dar 5742787
▁beste 5740550
▁does 5732795
▁vos 5720258
▁peut 5712212
advisor 5709292
▁private 5707840
▁europe 5707620
▁material 5706988
▁dig 5704529
▁cas 5703066
▁в 5699233
▁united 5693814
▁ses 5689746
▁2019 5688326
car 5688287
ros 5687350
▁mehr 5683957
aire 5683858
▁niet 5682881
ast 5672717
vo 5671028
▁ind 5668154
▁tour 5663995
▁tous 5663898
60 5660959
mente 5657003
▁total 5656402
▁daten 5652888
▁22 5649602
▁mas 5644068
▁share 5632977
cer 5630497
isch 5628866
▁saint 5618488
▁around 5616772
▁women 5616727
▁gu 5614091
und 5610440
▁# 5606201
▁stay 5598229
fer 5589659
ex 5588999
con 5578517
▁vis 5578371
▁andere 5574014
▁states 5550803
▁found 5549890
▁cap 5546880
▁prices 5546732
▁ter 5544727
ille 5543020
kt 5536205
sten 5523647
▁fr 5519599
▁pr 5511494
pp 5509106
▁mac 5508029
▁casa 5502164
ob 5500454
▁60 5496392
ative 5495063
▁sistema 5493934
▁protection 5488655
▁sem 5481760
▁act 5479814
▁click 5478484
ki 5477042
▁account 5463355
): 5458410
zi 5446185
▁commission 5440810
▁following 5427281
▁hier 5424787
▁however 5423242
go 5413974
ils 5413309
ars 5412199
ont 5410058
ind 5404823
pi 5402411
▁mm 5401846
▁> 5401080
ose 5396665
aciones 5396604
▁unsere 5393772
▁indic 5381483
ò 5373662
▁dieser 5370592
ich 5368474
▁market 5363832
ζ 5361769
▁security 5360179
ition 5358113
▁application 5355850
▁pero 5352266
▁rights 5352262
tive 5349610
▁pol 5346857
ë 5345068
▁forma 5339800
ible 5334526
▁flyrejser 5330919
▁location 5325340
ky 5322949
▁cuando 5318401
led 5314148
ator 5313022
ann 5308863
▁reg 5307520
▁cal 5303691
▁2014 5303680
▁ste 5300851
▁led 5300376
ili 5299428
ko 5296001
po 5286481
land 5284457
▁mis 5279316
.” 5276464
▁state 5276189
▁address 5273590
▁grand 5272094
▁την 5270908
ici 5269358
▁pa 5267392
▁, 5266379
▁rec 5265210
., 5264123
▁ao 5258366
▁working 5257024
ura 5253348
▁let 5250691
ya 5243357
ust 5239193
▁period 5229741
80 5228322
▁tus 5227566
▁* 5224574
hl 5224441
▁q 5220782
▁gen 5220423
▁2012 5219453
pro 5194668
▁bij 5180291
bl 5173744
▁still 5172140
▁digital 5167689
▁card 5166446
▁meg 5165535
az 5159180
hr 5159009
▁countries 5156082
▁essere 5153698
▁food 5142632
ric 5138605
▁bet 5128906
▁dispositivo 5128891
▁activities 5128784
▁four 5107496
ini 5098150
▁nuestro 5094412
▁play 5094363
▁against 5093819
▁leur 5093770
▁gl 5090785
▁pc 5089040
▁ti 5086440
wa 5085180
▁pla 5080145
▁gel 5079940
▁regular 5076732
▁start 5075312
▁gli 5073995
▁global 5064232
▁grande 5062038
▁cm 5058193
ena 5057682
▁του 5050744
ters 5047776
▁ho 5045593
▁able 5035641
▁aber 5034038
cia 5024976
par 5021000
▁did 5020634
▁pode 5017076
▁visit 5014596
ires 5014435
▁fil 5013914
▁etc 5010474
▁members 5005593
▁level 5002689
▁natural 4996840
▁model 4994140
endo 4994116
▁cheap 4993680
▁region 4992694
▁pdf 4992239
pr 4991561
▁tri 4991360
▁2013 4984392
▁travel 4979807
▁mor 4978637
ão 4977332
▁acc 4964099
▁cam 4956287
▁sam 4955852
▁specific 4952316
by 4947107
▁policy 4945366
▁law 4944200
▁mejor 4942837
▁leg 4941698
▁tur 4941072
▁ci 4938477
▁based 4938397
▁flug 4937328
▁ref 4931754
▁check 4930783
▁tot 4929994
enti 4927595
▁canadian 4925576
▁minutes 4924911
▁dal 4924066
▁office 4923226
ches 4921133
▁oper 4920599
ized 4915205
▁apartment 4910407
▁sl 4899224
▁23 4892923
ami 4892631
▁media 4890330
▁hogy 4889509
ures 4886622
▁english 4883146
▁next 4879974
▁email 4877358
ń 4876517
▁με 4876443
▁details 4869486
▁ten 4863850
▁delle 4861962
▁results 4861715
▁tiempo 4860867
▁station 4852149
▁să 4851510
▁tiene 4851275
iss 4846313
▁ins 4844893
▁report 4838280
ét 4836127
▁community 4833208
idos 4832498
▁mejores 4830618
▁jo 4829813
▁ges 4828166
▁uso 4827660
ara 4827655
▁gra 4826163
▁restaurants 4818630
ní 4809455
▁vo 4807412
ér 4806973
▁game 4806742
▁inf 4805879
▁star 4805289
▁weather 4805135
▁się 4801350
▁today 4799752
▁της 4795558
@ 4794034
▁install 4792016
tr 4786464
▁modo 4780798
▁questo 4779719
eb 4779577
17 4778732
▁present 4778082
▁south 4771447
▁production 4768448
ful 4767324
▁partner 4765454
▁sale 4765290
iti 4762896
▁look 4762479
bo 4759536
ciones 4754492
70 4746595
▁anti 4744159
ord 4742507
▁ikke 4742011
emos 4740336
▁bl 4722692
▁china 4720956
▁ret 4720603
▁much 4716994
". 4715827
▁buy 4708937
▁document 4706108
▁result 4693455
▁down 4691942
rat 4681743
▁energy 4680281
▁log 4679500
én 4673926
▁zeit 4670957
▁property 4670092
▁pueden 4669374
▁wurde 4650741
du 4648801
▁jest 4647769
▁music 4641712
." 4640876
▁ass 4639738
ħ 4639076
▁pay 4638716
▁close 4638684
▁villa 4634566
▁todas 4630813
▁από 4630344
▁question 4627804
▁color 4625790
val 4623637
▁rooms 4623248
▁version 4616695
▁fre 4616662
pt 4615547
mar 4607783
ora 4604964
▁less 4603842
▁easy 4602756
▁central 4602367
▁uit 4596136
▁engine 4595525
illa 4593941
▁mu 4593152
▁uno 4592407
▁love 4591952
mm 4591100
▁center 4587672
▁ni 4583525
hen 4582629
▁another 4575181
ți 4573914
▁pres 4573060
tic 4571001
▁от 4570035
ala 4562039
▁usted 4559830
▁several 4559528
ites 4553672
▁restaurant 4549396
fl 4548072
▁nem 4540305
▁sector 4537984
▁member 4535671
▁pat 4534528
ences 4529872
bb 4527206
▁från 4524169
ш 4523482
▁performance 4522060
▁old 4521472
▁systems 4519363
▁film 4516561
gt 4512862
ette 4510869
ism 4509894
▁consider 4507397
ish 4489306
▁bi 4487277
ów 4487199
", 4482645
▁ak 4482289
▁pri 4479588
ras 4479286
ará 4478112
▁hay 4474322
▁ett 4471972
▁test 4465383
‘ 4462484
▁transport 4462443
▁pool 4457347
▁28 4454074
▁ai 4453574
▁modern 4452542
▁são 4450733
▁compare 4450003
▁vom 4449875
▁се 4449700
fen 4448576
ett 4442769
▁white 4429617
▁vez 4424433
iden 4424405
▁content 4424014
▁gener 4423757
▁link 4422513
▁due 4421971
▁sm 4420300
22 4418975
jo 4413760
min 4413155
so 4411958
▁ke 4401541
▁network 4400855
▁head 4400835
▁sta 4400706
▁sul 4400516
▁technology 4398036
ande 4395941
▁% 4392294
▁η 4388622
▁further 4383720
▁according 4372541
azione 4368782
▁exp 4365572
▁dra 4357667
▁bu 4351754
▁send 4349903
▁euro 4349356
▁instrucciones 4348302
aux 4347776
▁board 4346132
▁provided 4344876
▁: 4341002
ella 4340342
▁cons 4337051
▁perfect 4335646
cs 4324340
▁body 4323459
▁ut 4322147
ran 4319936
▁create 4318055
▁ben 4316805
▁few 4311477
▁ger 4310484
fr 4304891
▁ber 4300217
▁ihrer 4294226
▁pays 4293125
ves 4291450
ero 4289285
▁ba 4288197
▁cualquier 4285455
▁bil 4281183
our 4278645
ign 4277737
▁26 4275974
▁give 4273497
ez 4265300
▁ol 4265120
ous 4263001
▁inv 4261644
▁mundo 4260144
▁moment 4259566
▁tom 4253644
▁always 4248414
cl 4248323
▁cl 4243828
▁review 4243538
ellen 4241937
▁lu 4231893
ug 4230847
lig 4229665
▁gr 4227901
▁class 4226729
ira 4221262
þ 4219495
▁jak 4219065
▁direct 4215154
alt 4212528
▁2011 4209757
▁original 4209293
▁enjoy 4206160
ola 4202544
▁mobile 4201497
ists 4201140
vis 4200388
dos 4197601
nie 4195226
▁users 4188274
ores 4182762
line 4181416
ering 4179801
▁pu 4178824
ű 4173263
amento 4172749
ban 4170500
▁include 4169546
met 4168891
ario 4164839
zt 4161387
▁heart 4154683
▁installation 4154597
▁west 4154294
▁minister 4144443
▁ki 4142200
▁ans 4140340
▁ideal 4139813
▁á 4138337
▁north 4137928
90 4135075
▁training 4132484
br 4127772
▁asus 4125408
ela 4121712
tig 4119647
▁bel 4119472
▁σε 4118838
”. 4118524
▁27 4115728
▁prix 4114654
▁marketing 4105101
▁transfer 4101825
ione 4101677
eng 4098956
▁programme 4093690
▁rem 4089771
ņ 4089354
uri 4088636
ender 4082931
ost 4082478
ole 4080026
▁range 4079298
▁otros 4075126
▁auto 4073351
▁tai 4071734
▁third 4071017
sh 4067603
▁2010 4065786
ania 4061224
▁bra 4060776
▁week 4057709
▁action 4057585
▁noch 4057574
▁li 4056992
▁below 4056245
▁island 4053385
▁financial 4053057
▁anche 4051567
itions 4050492
ono 4045696
▁learn 4040272
sc 4039267
▁environment 4038437
▁ensure 4038238
inen 4037716
▁final 4036232
▁series 4035568
▁era 4034222
▁books 4031137
ll 4030973
▁position 4030024
▁express 4029128
▁section 4026612
▁server 4026001
▁problems 4025197
▁ip 4020553
▁archivo 4017482
▁tipo 4014400
▁short 4014378
ize 4014376
▁hotell 4013414
▁features 4007731
▁muy 4006779
▁industry 4006249
▁questions 4003386
▁among 4000102
▁char 3994466
▁required 3992027
▁vil 3987513
▁past 3984906
▁sans 3983878
ede 3982829
ame 3975217
▁sens 3970864
▁related 3967857
▁return 3966736
▁hacer 3960081
amo 3960051
▁faire 3957158
▁vida 3955070
▁code 3953540
▁90 3950689
cha 3949177
▁τα 3946459
▁centro 3944177
▁tem 3943988
ort 3943564
▁så 3941740
▁risk 3939514
▁spa 3935943
ese 3931764
▁school 3931432
▁key 3931010
elles 3927850
▁needs 3927290
ión 3926456
yer 3926328
ii 3923059
let 3922831
▁rest 3921008
▁better 3920152
▁hours 3915326
ň 3906961
ties 3905039
▁green 3901278
▁usa 3900015
▁aby 3899393
▁así 3897721
▁choose 3897690
▁gas 3895347
gs 3892380
aj 3889682
▁cel 3887228
▁bre 3887162
adores 3884970
att 3884150
▁times 3880899
arse 3880036
▁terms 3879250
▁reviews 3877447
▁29 3877042
ani 3874559
iste 3874160
▁fait 3872256
▁ved 3871340
▁pos 3869922
▁deux 3868335
▁cuenta 3857942
tes 3857935
▁hard 3857839
▁ihrem 3855537
tem 3855052
”, 3853712
▁common 3852938
▁ale 3852709
▁ru 3851936
▁id 3849295
▁little 3844815
▁lim 3841474
▁sport 3840105
▁call 3839351
aria 3839315
di 3837892
ron 3836571
▁fi 3833542
▁tro 3833129
▁conf 3832307
▁egy 3830544
▁press 3830207
100 3828823
oli 3828743
ages 3827976
▁areas 3827826
▁big 3826928
▁net 3826650
ités 3826539
▁precios 3824602
▁bes 3819829
▁‘ 3819729
▁kind 3816384
uk 3809458
▁hasta 3808799
▁meer 3808296
▁mil 3803896
▁nebo 3802636
ised 3802457
▁current 3800901
zu 3797846
▁popular 3797159
▁future 3794933
▁ainsi 3794746
▁cat 3792862
▁nature 3792697
▁mag 3791619
ona 3791593
ren 3791290
▁event 3790353
▁companies 3789473
▁cr 3789290
▁article 3788753
▁particular 3786308
▁whether 3786152
iones 3784715
▁bez 3781983
▁fer 3781659
▁cookie 3781327
▁keine 3781077
▁radio 3780864
yt 3780376
med 3780253
▁hp 3779984
▁autor 3779640
▁fast 3779500
▁oil 3778347
▁line 3775810
ij 3773068
fa 3770207
▁même 3767836
▁living 3767367
ables 3766970
▁once 3765848
nes 3764673
▁ya 3762526
28 3762189
23 3759546
▁holiday 3759253
▁example 3750227
▁sites 3745603
ф 3743592
bre 3741898
▁economic 3735540
▁building 3734065
▁solutions 3732733
▁nuestra 3731755
▁beautiful 3731528
▁extra 3728909
▁history 3728370
▁news 3727379
uje 3727362
▁35 3726975
▁request 3725209
▁ko 3725167
▁table 3722544
▁language 3719434
▁cómo 3719398
▁που 3717324
▁inte 3717227
▁caso 3716401
▁propos 3715886
▁course 3715674
▁eines 3714079
▁manu 3713893
▁beg 3710508
▁allow 3708004
erd 3707829
▁legal 3707714
û 3705835
▁pal 3703000
99 3701957
▁nombre 3700646
▁facebook 3699625
ori 3696729
▁discover 3695066
▁sitio 3694487
▁train 3693408
▁double 3692491
cing 3692326
▁fac 3691676
▁brand 3684830
75 3683302
▁note 3682145
▁encuentra 3677350
▁ph 3677184
▁mod 3676304
▁young 3676278
▁night 3675955
ju 3674564
▁games 3673577
iche 3672018
▁2009 3670664
▁option 3669696
▁rent 3666149
bu 3665969
▁necessary 3661735
▁aussi 3661722
ited 3660797
heit 3660338
ļ 3656857
▁vista 3656115
▁données 3653521
▁technical 3653477
▁quando 3653375
▁tax 3653054
ht 3647197
▁files 3646441
▁size 3645725
tm 3645516
ém 3645075
▁sig 3642776
32 3641910
eta 3641375
35 3641241
▁également 3636397
▁trans 3636229
▁space 3633405
ides 3629322
▁е 3629148
▁página 3628972
▁sony 3628533
45 3628401
ster 3626298
▁keep 3624089
lu 3622565
▁sav 3622490
▁mat 3620463
▁sign 3617883
▁stat 3612356
bi 3610409
▁gew 3609772
▁box 3608200
gel 3607566
▁union 3603459
▁meeting 3601234
eld 3600030
ères 3599961
rer 3595899
▁together 3595889
▁div 3592375
▁très 3591025
▁respect 3588485
▁booking 3588462
▁europa 3587114
▁bank 3586719
phone 3586124
▁sor 3586093
▁şi 3585909
▁favor 3585453
▁geb 3585272
▁equipment 3584706
▁safety 3578703
▁nella 3573974
▁200 3573800
▁santa 3572522
▁partners 3571793
ville 3571321
▁means 3568963
▁select 3566810
ian 3566118
▁pra 3561799
▁ka 3561068
over 3558640
▁front 3557200
▁ur 3555412
▁addition 3553984
▁value 3549626
yl 3548508
▁sowie 3542664
▁million 3539622
▁complete 3538163
▁photos 3536124
get 3535774
▁party 3535579
▁museum 3531601
▁store 3528317
▁ga 3527527
▁professional 3526615
▁temps 3520277
▁cur 3517460
▁optim 3516331
▁september 3513100
▁unique 3510992
vel 3510896
▁stock 3507679
▁customer 3507613
▁why 3507202
▁making 3506708
gu 3501558
nos 3497791
▁already 3494112
▁ang 3492221
▁onze 3489126
uss 3486649
▁είναι 3484574
▁elle 3484561
▁resort 3481758
▁university 3480952
▁productos 3479685
▁bon 3477343
▁clients 3475174
osa 3474993
▁away 3474234
▁documents 3472848
▁erhalten 3470815
▁lub 3469782
▁cou 3469441
▁dist 3463933
▁looking 3463022
▁problema 3461537
▁servicios 3460141
▁bill 3459928
▁vie 3458116
▁tag 3455746
yn 3455580
▁bad 3454496
▁dom 3450906
▁casino 3450498
▁sehr 3449861
▁similar 3446774
pad 3444366
▁lugar 3440354
▁ven 3437872
▁side 3437391
▁pot 3435888
▁various 3433422
▁text 3432876
▁gar 3431322
▁style 3430631
sta 3427394
▁tak 3427327
ular 3426307
anti 3421968
ss 3420679
▁street 3420309
▁baratos 3420296
▁micro 3417608
ului 3417006
ture 3413829
pre 3412727
▁anderen 3412170
▁education 3412160
▁hot 3411964
ily 3410029
▁produits 3408235
ento 3407090
▁events 3405801
▁están 3405078
▁31 3404660
▁clic 3402084
▁provides 3401494
▁paper 3400299
wer 3399581
▁sent 3399139
isten 3397574
ym 3397099
▁often 3396569
▁fort 3395945
enta 3395914
mos 3395876
▁director 3394446
gi 3390259
▁staff 3389694
▁servicio 3383424
▁capital 3380703
▁loc 3379983
▁designed 3374678
▁success 3373322
ude 3371630
▁produkt 3369834
▁until 3367323
encia 3366023
kl 3365768
▁dieses 3365759
▁gerät 3363347
eli 3363341
▁become 3362330
▁york 3361581
esta 3359197
▁sen 3357948
▁club 3357382
ong 3353893
▁få 3352991
▁tuo 3350756
▁description 3349804
▁fo 3349538
▁display 3348971
▁informazioni 3348964
ual 3346911
▁rel 3345697
▁hin 3344479
▁wordt 3343698
▁že 3340154
of 3339722
arios 3339186
▁bou 3337165
▁nutzen 3333126
▁council 3330471
ierung 3330389
▁alta 3330373
▁road 3330106
▁ο 3329634
▁fall 3327895
▁pages 3327083
▁lui 3325146
▁él 3323916
anie 3323106
▁prior 3321399
▁besten 3316350
▁ud 3315439
▁usb 3313420
▁pouvez 3311522
▁customers 3311512
▁tempo 3310335
rar 3309612
▁? 3307120
▁ook 3304955
▁disc 3303986
▁put 3303440
▁simple 3302676
▁mont 3302435
▁situation 3301479
▁ii 3301348
▁των 3297611
sz 3296769
▁africa 3296565
▁studio 3293015
▁2008 3291060
▁tutti 3290529
▁serv 3285351
▁produc 3282333
▁tan 3276419
▁continue 3275956
▁esc 3273419
▁machine 3273390
ais 3273124
▁enter 3272870
▁garden 3271814
leitung 3271633
iet 3271524
▁given 3269394
uses 3269203
aten 3266969
▁meet 3265293
▁jour 3262740
▁committee 3262636
▁above 3257833
▁parties 3255771
pu 3254808
▁never 3253357
▁int 3251117
▁tools 3250169
21 3249060
▁dann 3248865
ità 3248850
▁suite 3247091
▁où 3246445
▁antes 3245731
▁gibt 3243568
▁blue 3240629
des 3239930
ila 3238898
▁comment 3238872
▁besch 3238027
▁acerca 3237791
▁2007 3235023
▁cro 3232651
ious 3232536
▁receive 3232469
ged 3232391
▁town 3230966
▁added 3230472
▁multi 3228410
nen 3227558
ram 3227143
los 3226806
▁individual 3223738
▁après 3222687
▁toutes 3222525
▁80 3221015
▁audio 3217357
▁nuestros 3211844
▁lot 3210308
▁points 3210210
esse 3209569
ink 3206007
ateur 3203887
▁child 3203427
ctions 3203362
ï 3203117
▁sun 3203091
▁role 3202348
▁face 3200769
bit 3199546
ret 3198803
▁momento 3197261
▁projects 3196641
zy 3194952
▁tas 3194055
▁problemas 3193044
inter 3191313
▁parts 3191208
▁regul 3191147
▁sud 3191040
▁privacy 3186818
▁teil 3185817
▁ei 3185398
chi 3183460
▁certain 3180927
▁fa 3179235
▁court 3178823
27 3175925
▁wo 3174147
▁sau 3171048
isk 3170412
ds 3169388
▁bedien 3168806
ep 3168420
ases 3167559
▁500 3165947
▁works 3163059
▁partir 3159879
▁pan 3156817
▁nom 3155791
▁solution 3155255
▁años 3152315
▁mus 3150880
▁watch 3149877
▁può 3147547
vers 3147348
▁mind 3147287
▁single 3145307
▁hôtels 3144185
iten 3142845
▁kon 3142474
▁london 3140034
▁voli 3139492
isation 3139370
01 3137567
▁collection 3136394
iser 3135451
▁things 3134781
▁major 3134401
át 3133048
▁months 3132635
zo 3131523
elen 3131202
itt 3130838
▁sous 3130734
ume 3130604
▁personas 3126774
asi 3125005
idas 3123288
ares 3122824
▁guide 3117558
▁kar 3116376
▁efter 3113986
ight 3113689
▁wh 3112604
nis 3111281
▁trade 3111218
▁zoom 3108757
iter 3105996
▁pris 3104592
▁options 3103599
▁recherche 3101333
▁word 3097764
▁ren 3096290
icht 3096228
▁heeft 3093795
▁cerca 3092712
▁importante 3091584
▁sn 3090821
▁israel 3090445
▁ec 3089173
▁intel 3089140
▁subject 3087849
▁category 3086917
▁contra 3086262
jen 3085039
ple 3079731
▁touch 3079698
▁leurs 3078976
ved 3078723
ität 3077635
▁с 3077371
▁format 3077205
▁june 3076940
▁ciudad 3075748
▁additional 3075430
▁ban 3073996
▁image 3073960
cu 3072469
▁gold 3070927
sl 3070749
len 3070261
▁think 3065698
26 3065037
▁eur 3064375
▁android 3063897
bed 3063026
pla 3061514
iner 3060278
▁chat 3059841
ula 3059656
▁64 3059571
ater 3059030
▁ju 3057513
▁apple 3055634
▁apply 3055121
isen 3054944
▁kunnen 3052249
▁speed 3051143
ima 3050183
▁einfach 3048097
hip 3046311
▁sé 3044934
▁tel 3044403
▁mot 3042824
row 3042084
▁links 3041394
▁places 3041047
▁tar 3040984
▁mini 3037197
ções 3035944
pool 3035670
ling 3035456
out 3034197
▁nas 3032535
ál 3030301
▁lista 3028413
▁mes 3027181
▁construction 3024855
▁cover 3024802
icos 3022032
▁precio 3021994
▁imp 3021821
▁agreement 3020104
▁informations 3019961
iva 3017108
ré 3016779
▁resources 3009644
way 3009473
▁others 3007968
▁record 3006896
▁fel 3004898
▁wind 3004274
▁march 3003687
▁april 3003176
▁clear 3003156
por 3002119
tv 3000463
▁kitchen 2996386
▁basis 2995581
tek 2994690
▁client 2994222
ama 2993632
ungsan 2991148
▁día 2990784
▁study 2990727
▁depuis 2990386
ute 2988628
▁november 2984581
▁producto 2983587
▁sz 2983581
▁president 2982056
▁knowledge 2980494
▁damit 2974806
ně 2974541
ws 2974246
▁utiliza 2972100
tie 2971700
▁immer 2971529
gar 2971507
ime 2970259
ving 2968869
▁contribu 2965048
▁source 2963906
▁microsoft 2963120
▁created 2961432
▁breakfast 2961112
ades 2958141
ances 2956263
ying 2954720
▁cross 2954330
▁left 2953578
▁hd 2952891
▁cab 2952116
▁nov 2950898
eller 2950081
än 2949729
▁cer 2947649
▁fire 2947418
ott 2946501
▁gesch 2945452
▁después 2944846
reg 2943392
▁decision 2942905
▁rece 2941351
ators 2940673
▁kas 2940168
▁während 2938922
ues 2938731
▁therefore 2937766
bes 2937251
istas 2935485
▁ever 2934765
▁fund 2934025
▁having 2931581
▁barcelona 2931257
▁concern 2930112
▁será 2929990
▁hu 2925705
▁bay 2923643
▁ask 2923624
▁dies 2921498
▁average 2920591
▁tool 2920127
▁approach 2919415
mes 2916437
▁vores 2914926
▁menu 2914180
ua 2913796
▁again 2910981
él 2908782
▁lake 2907791
ty 2907716
tif 2905028
▁bur 2904735
▁peuvent 2904364
uto 2904296
ads 2902957
▁too 2901440
▁jud 2897164
▁limit 2895817
▁ster 2894880
mu 2892910
mon 2892121
▁pet 2891667
▁applications 2888097
▁august 2887207
▁hor 2887035
▁determin 2884448
▁divers 2884090
king 2883544
qué 2880495
ser 2876728
las 2876411
▁browser 2874952
▁gro 2867440
▁rate 2866052
▁hon 2865568
▁july 2862475
▁equ 2862419
▁pré 2860416
ji 2860118
ones 2859689
▁camera 2858692
▁sound 2858611
▁month 2858288
▁rental 2856560
78 2856390
▁mr 2853723
▁sw 2853161
▁village 2852854
▁impact 2852728
iber 2852238
▁monde 2852206
▁alt 2852021
var 2851972
29 2849478
pos 2846917
▁strong 2846910
area 2846268
▁45 2845645
▁drive 2845053
▁ext 2844759
cc 2844003
▁types 2843576
▁sab 2842663
▁guests 2842474
uter 2841791
su 2841100
▁kl 2840319
▁garanti 2837949
▁70 2837631
cie 2836526
▁ty 2835597
▁requirements 2835564
▁decor 2833550
▁esto 2832930
▁route 2832852
▁2000 2826730
▁refer 2826575
▁regional 2824678
▁vy 2823797
▁directly 2822803
▁author 2821626
▁vagy 2819800
▁cause 2818997
ational 2815566
inn 2814866
▁afin 2814013
eter 2812522
▁zwischen 2811307
.) 2809686
ond 2809179
▁prefer 2809007
▁wel 2808757
▁programa 2806870
▁budget 2805932
ath 2805303
atie 2803614
▁sy 2803520
▁grund 2803025
ult 2802262
▁pen 2801252
▁liv 2800913
ace 2800427
▁seite 2800062
▁quali 2799613
▁ils 2798077
▁december 2797050
▁по 2796294
▁samsung 2794372
gy 2793219
▁mass 2793195
▁preis 2791592
▁allows 2790188
▁amount 2789850
▁stand 2787967
▁bag 2786631
ye 2786370
unk 2784230
▁unserer 2783948
▁programs 2783260
imo 2782744
rom 2782163
▁cop 2781805
ial 2781212
▁develop 2780786
mat 2780325
¡ 2778107
▁issues 2776873
▁least 2776357
autres 2775560
bs 2774285
gr 2773684
▁pil 2772683
▁images 2772633
▁proper 2771021
▁field 2768738
▁cent 2768139
▁forum 2767355
▁increase 2766402
▁info 2765721
table 2762649
▁along 2761476
ined 2759600
isi 2755146
▁age 2754391
sen 2753659
▁lit 2752538
▁tim 2751978
▁known 2751223
jet 2751035
iem 2750920
▁tor 2750282
tors 2749794
65 2749727
▁ele 2748847
▁follow 2748146
33 2747642
pri 2746745
vor 2746692
tiv 2745149
▁quick 2744439
▁observ 2741540
▁bor 2741258
▁mark 2740901
▁win 2740502
▁cart 2740022
▁usar 2739435
▁mov 2739013
▁american 2737248
▁culture 2736720
▁lan 2736115
▁aff 2732833
ises 2732537
▁lang 2732221
▁vai 2731498
▁neue 2731464
▁diesem 2731182
▁instal 2730433
▁toute 2730031
▁master 2727471
▁stop 2727453
▁questa 2727018
nik 2725766
▁bietet 2724410
oso 2723748
fs 2722987
▁previous 2721368
hi 2720235
▁seine 2719898
▁kunt 2717834
▁nord 2715601
ished 2715550
▁estos 2714013
▁conven 2713589
▁autres 2713289
▁tab 2708867
▁fue 2708822
▁bathroom 2708759
ique 2708584
▁mc 2708366
kom 2707619
aps 2706411
▁platform 2705391
af 2704169
▁puedes 2703875
▁utilizar 2703600
teur 2700329
atory 2700324
▁lin 2700032
▁reason 2698602
▁students 2698581
▁facilities 2698166
eten 2697541
ucht 2695912
ony 2695699
uts 2694986
ider 2694443
olog 2694157
▁ik 2691354
pen 2690940
▁mode 2690371
▁accommodation 2688714
▁jsou 2688293
▁opp 2687441
▁hotéis 2684117
▁spain 2683690
ám 2683580
▁function 2682957
▁might 2682742
any 2682274
▁upon 2680495
▁clientes 2680206
▁smart 2678440
▁say 2678207
▁parti 2676446
▁job 2672620
▁mission 2671121
igt 2669777
▁sil 2669408
rag 2667330
▁welt 2667220
▁deb 2666778
▁kor 2666377
star 2664448
▁manufacturer 2662841
ired 2661888
quer 2660655
▁nähe 2660491
het 2659627
▁temperature 2659191
fre 2658070
▁iz 2656334
▁taken 2655178
▁arm 2651966
idade 2651605
œ 2648881
▁origin 2648659
▁menos 2648187
mt 2648014
hn 2647660
▁calidad 2647604
▁photo 2647524
▁materials 2645740
usta 2644991
ots 2644825
▁chaque 2644185
▁interest 2643342
▁usuarios 2641562
hu 2641322
▁across 2640653
▁manuals 2639351
▁ligne 2636886
ota 2635565
▁gre 2635562
aba 2635210
app 2635193
▁screen 2634933
icas 2633084
▁aut 2632724
ory 2631285
ui 2631055
▁dev 2629354
enn 2628856
▁vu 2627073
▁bedste 2626713
▁nuevo 2623593
▁five 2623208
▁2006 2623187
▁manera 2623072
▁delivery 2622915
rad 2622727
▁bro 2620722
▁ville 2619684
▁ach 2618972
▁steel 2617805
▁destin 2616866
▁active 2616520
mp 2616030
▁eng 2615232
port 2615077
▁recogn 2614865
▁ohne 2613611
▁hab 2613422
▁impro 2612042
▁included 2612014
▁reach 2611877
▁tras 2611117
esti 2609278
rá 2609120
ums 2609098
▁golf 2608807
ät 2607744
form 2607361
▁enc 2606944
oms 2606040
uch 2605671
▁kun 2605459
▁force 2604896
▁run 2604531
▁também 2602018
▁demand 2601912
lin 2600824
48 2599944
▁jesus 2599806
ection 2598110
▁número 2595427
▁held 2590549
time 2589110
▁communication 2588889
▁east 2588758
itu 2588538
▁stra 2588027
eln 2588001
tel 2587348
ín 2586903
▁hall 2585405
▁bring 2585217
▁save 2584753
▁october 2584729
▁six 2583976
uso 2583062
▁treatment 2582881
▁cannot 2579933
▁cd 2579704
▁usuario 2579061
▁¡ 2578296
▁later 2577700
▁try 2574918
▁línea 2574865
▁ton 2574772
▁tanto 2573880
▁ris 2573690
▁bal 2573065
▁pens 2572646
▁dati 2572310
▁pi 2571834
▁300 2571672
▁viol 2571629
▁vend 2571628
▁plant 2570461
lies 2570143
ows 2568898
▁message 2566794
▁compet 2566670
▁sure 2566567
▁sou 2564601
ock 2562510
▁sex 2561498
▁invest 2560535
▁changes 2559460
tern 2559022
▁ali 2558712
▁sim 2557212
bel 2556722
▁avant 2556441
▁ev 2556119
▁improve 2555694
▁groups 2555587
55 2554792
ring 2552999
▁band 2552998
▁church 2549145
▁hos 2549071
ď 2547379
▁adop 2547337
▁pers 2546336
can 2544112
▁organiz 2543365
▁thanks 2543294
org 2541542
▁germany 2541407
▁univers 2540851
▁liste 2540431
▁kr 2540345
heet 2539953
▁update 2539670
▁σας 2539271
▁maintain 2538935
▁nice 2538842
▁apartments 2538453
▁charge 2536686
▁january 2536570
press 2536418
▁remain 2536129
ards 2534460
▁basic 2534390
▁elec 2533641
▁estar 2531564
less 2531282
bil 2531038
▁! 2527328
▁fotos 2526737
▁wer 2526688
▁continu 2526446
▁debe 2525898
▁sel 2525669
ías 2524033
▁phone 2523326
▁rés 2522876
200 2521891
vous 2521248
vol 2521111
▁trabajo 2520480
ging 2520017
▁condition 2520006
▁deve 2519845
▁wa 2519354
▁sugg 2519120
▁king 2518952
▁called 2518204
▁madrid 2517213
▁insp 2515477
▁miss 2513470
▁tempor 2513093
ration 2511649
ev 2510635
ih 2510193
▁gebruik 2510121
▁upp 2509095
har 2508298
▁distribu 2507802
▁limited 2506902
▁benutzer 2506534
▁lie 2500636
enz 2500301
ör 2499633
rac 2498591
▁hvis 2496451
ton 2495549
▁floor 2495388
inger 2494298
berg 2493849
▁normal 2492872
▁growth 2491311
▁zo 2490701
▁chi 2489693
▁τη 2489120
▁activ 2488194
ister 2488003
▁money 2487685
▁montreal 2487349
enen 2487291
▁nor 2486509
▁realiz 2485617
▁priser 2485196
uta 2483703
tigen 2480753
cas 2480549
▁qué 2480371
▁personnes 2479972
▁voos 2478872
▁país 2478278
▁manager 2478001
▁moins 2477996
▁sulla 2477989
▁prom 2477408
▁river 2476505
▁nostro 2475442
▁society 2474750
▁political 2473961
▁kn 2473927
▁yet 2472429
ology 2470927
▁datas 2469845
,” 2468014
tra 2467617
▁wor 2467447
bles 2467088
▁automat 2466739
▁müssen 2466692
▁lib 2463858
▁ή 2461652
▁porque 2461411
▁cet 2459971
▁feel 2459398
ick 2459345
rol 2458144
used 2456616
▁ground 2455536
ön 2454510
▁costs 2450837
▁glass 2450654
▁issue 2449892
▁acqu 2449083
▁cultural 2449072
▁pur 2448956
▁seg 2448820
▁fois 2448818
col 2447938
▁gest 2447322
▁disponibles 2446985
▁dla 2446037
▁significant 2443547
hand 2442729
▁quebec 2442393
▁ski 2441576
▁received 2441305
▁wat 2441193
▁aquí 2441005
▁voir 2439993
alla 2439834
▁developed 2437518
▁cui 2437477
ismo 2436524
▁videos 2436478
▁responsible 2436435
▁supp 2433920
▁vari 2433455
isti 2432749
▁soit 2431747
▁department 2430572
▁tw 2428966
▁mobil 2428920
itet 2428709
36 2428410
▁commercial 2426771
▁principal 2425427
▁hebben 2424760
▁maison 2424095
▁estado 2423804
ining 2423496
▁cloud 2422151
▁really 2420962
back 2420598
▁includes 2420336
▁population 2420129
bet 2419844
leit 2419745
▁loro 2419310
▁john 2418934
gl 2418508
ψ 2417267
▁dios 2415833
▁través 2415135
▁tips 2414537
ár 2413541
▁plat 2413523
▁000 2411418
iger 2410632
▁zimmer 2410447
▁wish 2409184
▁donde 2407381
▁wall 2406946
▁fact 2406690
▁connection 2406054
▁represent 2405499
▁comfort 2405163
itar 2404519
▁travail 2403509
▁sales 2400362
iga 2400327
▁système 2399537
▁rates 2398779
▁strength 2398006
▁safe 2396514
bra 2393987
▁hal 2393302
▁sito 2392191
▁dette 2392016
▁ahora 2391304
▁devices 2391304
▁mand 2390718
▁cases 2390160
▁celeb 2390128
▁permite 2389798
▁deg 2389390
este 2388380
cm 2388050
.... 2387910
cr 2387193
▁bio 2386915
ové 2386828
95 2386289
▁partie 2385870
▁aqu 2384623
ids 2384533
issa 2383158
▁poder 2382932
▁países 2382043
▁civil 2381012
▁medical 2378516
▁makes 2377947
▁seguridad 2377869
mas 2375768
▁mismo 2374625
▁consum 2374463
▁federal 2372448
▁western 2372366
▁currently 2371196
▁def 2368319
▁complex 2367410
▁activity 2367119
▁host 2366351
ket 2365687
▁kunden 2365009
▁farm 2364093
ición 2363858
▁denne 2363699
▁forecast 2363366
▁pap 2362929
▁dont 2361290
▁whole 2359299
▁abs 2358987
fic 2358636
▁shop 2357616
▁fat 2357546
▁conten 2357499
▁uz 2356473
▁nueva 2355186
house 2354079
van 2353814
▁vel 2353606
▁diferentes 2353491
▁climate 2352937
= 2352396
▁hold 2352047
▁built 2351301
oll 2350735
▁everything 2350502
fo 2349471
▁mapa 2346432
38 2346153
▁informatie 2346142
bare 2345766
▁guest 2345639
▁documento 2345423
▁deal 2345200
itation 2344506
▁fine 2344280
ization 2342965
irs 2342568
▁status 2342423
▁sports 2341127
äl 2339714
rop 2338947
pan 2338764
ź 2338620
ateurs 2337571
▁strip 2337524
zer 2336799
ome 2336475
▁distance 2336408
▁calcul 2335882
▁technologies 2335196
point 2333901
ices 2331094
▁syn 2329746
▁filter 2329479
kk 2329462
▁flüge 2327653
ný 2327427
ley 2325335
▁sv 2324990
▁cont 2321105
▁thus 2321044
▁fully 2320962
▁parking 2318232
▁datei 2318068
▁easily 2317881
▁season 2317471
▁edition 2317138
▁dag 2316484
▁term 2316381
▁electronic 2315309
igh 2315291
zeit 2313575
▁termin 2312927
▁además 2312621
▁protect 2312367
▁lord 2312146
▁kur 2310898
alen 2310512
▁obtain 2309945
ect 2308598
▁maar 2307766
▁-- 2306391
ít 2306332
▁fly 2306030
cent 2304748
▁poss 2304346
▁php 2304156
▁rev 2303704
heid 2303288
▁monitor 2303218
▁philips 2302771
▁pon 2302392
▁capacity 2300459
▁complet 2300416
ovat 2300313
éd 2298917
utilisation 2298848
mal 2298337
ria 2297175
▁payment 2296931
▁nouveau 2295837
▁suff 2295703
▁32 2295538
▁prof 2294687
▁fun 2292656
▁panel 2290628
▁gestion 2290446
▁trad 2289781
else 2288852
ija 2287109
▁prima 2286472
▁natur 2285280
▁operating 2285090
▁america 2285082
▁metal 2284517
▁не 2284487
ham 2284277
cio 2284091
▁suchen 2284020
▁lat 2282993
▁conference 2282771
▁rich 2281644
assen 2281497
▁maximum 2281266
▁peace 2279340
hy 2279290
▁aller 2278763
▁skal 2278215
▁ons 2278027
alis 2277888
▁solve 2277041
▁días 2275783
▁berlin 2275507
▁especially 2274567
▁wij 2273849
▁że 2273766
▁organization 2273019
nu 2272744
▁muss 2272374
arte 2271007
▁understand 2269761
▁kontakt 2268800
▁2005 2267949
▁nations 2267433
▁sido 2267082
ries 2266685
▁analysis 2266486
▁exchange 2266400
▁sand 2265595
▁selbst 2265415
▁eing 2263313
▁credit 2263069
▁cours 2262011
▁compos 2261301
▁industrial 2261071
▁flash 2261049
▁wieder 2258676
▁consult 2257621
▁cable 2256488
▁estim 2256058
▁ogni 2255961
▁possono 2255523
gan 2255074
▁produit 2254352
▁tam 2253690
▁spe 2252955
▁ball 2252814
adi 2251188
▁estados 2250495
▁going 2250250
▁ofrece 2249777
▁standards 2249071
▁early 2248641
▁nar 2248091
ener 2247310
ika 2246318
▁reci 2245771
uer 2244997
aden 2244653
▁ens 2244387
ader 2244000
gg 2243561
▁agency 2243190
46 2242260
▁avez 2241918
▁rep 2240892
sm 2240872
ester 2240713
oth 2240483
olo 2240471
▁camp 2239974
▁í 2239717
▁premier 2238810
▁gegen 2237607
▁italy 2237497
▁vac 2237208
bility 2236612
unden 2235858
▁wy 2235633
▁friends 2234164
▁airlines 2234069
▁jours 2233195
▁conc 2233178
▁hun 2232522
▁step 2232414
ns 2232131
tura 2231435
▁environmental 2231163
▁effect 2230886
▁winter 2230589
▁año 2229490
▁wide 2229398
▁zwei 2228182
▁są 2227667
iles 2227395
▁focus 2226165
▁progress 2225632
ule 2225354
▁identif 2225213
▁seus 2223702
▁conta 2223564
▁groupe 2222170
▁foto 2221913
▁measures 2221607
▁nad 2220622
▁bit 2220468
▁mp 2220200
▁θα 2218894
▁costa 2218827
▁summer 2218753
▁viel 2218366
▁operation 2218188
▁choice 2218145
▁direkt 2218009
▁carte 2217139
uf 2217109
▁recht 2216880
una 2216150
tag 2215863
▁stellen 2213663
gesch 2213257
▁supply 2212207
▁max 2212145
▁produ 2210358
34 2210052
▁zal 2209088
▁vin 2208783
▁exc 2208683
▁surface 2207763
▁wood 2207364
ţi 2207240
▁conduc 2206275
▁secret 2206135
▁neu 2205456
book 2205141
▁fest 2204266
ello 2204138
tica 2203998
▁electronics 2202941
▁accept 2202335
▁2020 2202016
ically 2201933
▁premium 2201505
▁était 2200095
▁levels 2198474
hat 2198435
▁relations 2198256
▁forest 2197547
▁hum 2197140
▁στην 2197140
amiento 2196483
,... 2195940
▁kat 2195194
▁turn 2194119
▁convers 2194027
▁suites 2193894
▁amsterdam 2193317
▁self 2192443
char 2192105
▁century 2192101
▁archivos 2192077
▁bol 2192002
▁gal 2191929
▁recommend 2191919
▁otro 2189552
▁simply 2189283
▁february 2189037
▁qualité 2188635
▁acceso 2188557
▁subse 2188548
▁effective 2188226
▁electric 2188001
ald 2187817
ality 2186981
▁offre 2186481
▁sera 2186205
▁ontario 2186139
▁taking 2185413
▁150 2184885
▁autre 2182899
▁relax 2182515
oni 2182382
▁throughout 2180873
▁skin 2180779
är 2180432
▁kit 2179296
▁tend 2177911
▁player 2177595
▁outside 2177580
05 2176790
▁clean 2175339
hot 2174829
▁official 2174525
31 2174338
▁persona 2174223
cle 2173939
▁οι 2172396
ibles 2171899
ody 2171365
dll 2170464
▁accep 2169312
▁hostel 2169039
▁sell 2166849
64 2166706
▁accessories 2166611
▁signal 2166139
▁mid 2165298
ì 2164909
zz 2164272
▁contacto 2163639
vere 2163488
idades 2163485
▁cela 2163254
▁gerä 2163082
▁clos 2162329
nej 2160347
▁province 2159932
▁dam 2158687
ples 2158250
▁pred 2157325
wi 2156809
▁rentalcars 2155548
▁projet 2153337
▁expos 2152190
▁doit 2151639
▁ham 2150934
▁nav 2149128
▁στο 2147964
▁investig 2147773
▁contract 2146079
pack 2145248
uma 2144585
▁str 2144510
▁jos 2144338
▁encore 2143461
▁dados 2142755
▁nosso 2142656
▁toronto 2142269
▁dvd 2141992
▁pack 2140483
▁mir 2139727
ith 2139242
▁hora 2138298
▁purchase 2137811
▁govern 2137346
▁hol 2137053
ams 2136430
▁something 2135836
▁investment 2132385
etta 2131482
▁excellent 2130809
anda 2130058
tivo 2128248
▁flat 2127778
▁association 2127277
▁jean 2126907
▁pad 2126746
▁tickets 2125920
37 2125096
▁method 2123234
.. 2122542
▁connected 2121244
▁blog 2121134
▁convention 2120562
▁walk 2119952
fel 2119875
chten 2119655
▁welcome 2118098
▁schw 2117432
▁bem 2117157
▁foreign 2116742
ega 2116568
▁difficult 2116004
▁science 2115068
▁estas 2114607
▁hong 2114026
▁kommer 2113555
▁kom 2113492
▁done 2113139
aliz 2113133
hol 2112451
▁cour 2111873
▁register 2111090
vat 2111079
▁möglich 2110788
has 2109745
▁ep 2108623
▁pendant 2106348
ability 2105408
▁rom 2105382
kon 2103995
▁disponible 2099402
▁weiter 2098224
lag 2097706
▁notice 2097655
atic 2097147
▁launch 2097047
▁mayor 2096627
▁prin 2096050
wn 2095952
▁require 2095923
▁unternehmen 2094364
▁death 2093656
▁opportunity 2093206
▁zona 2091854
▁jako 2091455
▁pelo 2090667
▁republic 2090476
▁dir 2089599
▁permit 2089050
▁camping 2089013
▁finan 2088282
▁otras 2087618
▁fu 2086209
▁hoteller 2085531
▁zusammen 2085303
day 2085080
▁toda 2084842
▁concerning 2084637
▁sicher 2084387
▁appropriate 2084235
▁chair 2082907
asta 2082474
▁sac 2081495
ury 2081139
▁weight 2080205
enza 2079835
ül 2079816
burg 2079685
tige 2078540
▁daily 2077920
▁quant 2077532
▁fix 2075880
▁aim 2074468
see 2073773
▁almost 2073157
▁ny 2072288
▁profil 2071348
rit 2070463
lier 2069573
▁mel 2067519
▁guard 2067289
▁deals 2067126
▁studies 2065866
▁employees 2065770
▁plans 2065711
02 2064890
assa 2064828
▁allen 2064385
▁interior 2064226
▁neces 2064010
cement 2062715
itate 2062154
▁ago 2062002
ég 2061233
▁ok 2060942
ivo 2060451
▁benefits 2060118
dy 2059971
elling 2059371
▁round 2059278
▁33 2059227
▁2004 2058638
itz 2058301
▁menschen 2057585
▁storage 2057564
▁viele 2056168
▁published 2056039
▁fair 2055990
▁resp 2055781
eni 2053574
ierte 2053392
▁took 2053279
▁... 2053231
▁bios 2052851
▁potential 2048665
▁sec 2048583
▁sar 2048184
gh 2046453
▁perform 2045907
▁ot 2045280
▁prov 2044664
ope 2043650
▁coast 2043636
erv 2042374
▁τις 2041305
▁selection 2040961
ode 2038453
tives 2037475
▁36 2037385
▁bitte 2036925
▁build 2035921
▁jusqu 2035150
▁superior 2033951
▁match 2033354
▁wurden 2032304
▁compara 2032148
▁indem 2031975
ná 2031172
▁avion 2030920
aut 2030605
ident 2030503
▁processing 2030306
▁machen 2030275
▁longer 2029711
▁billige 2028859
ral 2028358
▁agua 2027227
lie 2027181
ias 2026372
▁expect 2026085
▁vision 2025286
▁rad 2025023
▁fácil 2023799
▁bonus 2023540
▁either 2023468
erse 2023140
date 2022214
▁ord 2021297
▁custom 2020360
my 2019563
▁recent 2019143
▁aj 2018084
▁iso 2018004
▁latest 2016597
▁aplicación 2014808
▁rock 2014535
▁rapport 2014101
▁unit 2013946
istic 2013810
▁rules 2011884
itude 2010776
▁verfügung 2010714
08 2010527
oke 2009674
dr 2009068
atori 2008905
▁τους 2008061
▁comes 2007828
ência 2006786
aks 2006641
▁equipo 2006452
▁développement 2005566
▁demande 2005228
▁lead 2005187
▁comprar 2004157
être 2004110
▁fonction 2004030
teurs 2003497
▁onder 2003051
› 2002752
▁jedoch 2002253
▁tun 2001600
▁valid 2001041
rid 2000133
ġ 1999484
▁tradition 1998750
cion 1997798
▁nosotros 1997681
ür 1997671
▁reduce 1997471
▁purposes 1997336
▁zone 1996961
▁equipped 1995788
▁möchten 1995775
▁empresa 1995760
▁alles 1994997
▁typ 1994530
▁establish 1993003
yd 1992694
ých 1991990
here 1991514
▁kap 1991368
ék 1991333
▁leave 1991269
▁button 1990940
▁ide 1990400
▁esp 1989870
▁funktion 1989373
▁compl 1989248
▁stadt 1988766
06 1987742
▁extension 1987632
04 1987529
▁které 1987183
▁verwenden 1986597
▁oc 1986471
▁error 1986018
▁viv 1985812
▁contre 1985222
▁mail 1983840
▁parliament 1983432
▁hôtel 1983263
stand 1981572
▁tap 1981152
iting 1980969
▁wid 1979585
▁400 1978878
ake 1977682
▁foot 1977448
▁foi 1976809
▁pagina 1976049
hes 1976036
mis 1974957
▁grandes 1974776
▁half 1974696
▁compr 1974377
▁lg 1974372
▁twitter 1974155
▁dia 1974077
▁christ 1973170
▁element 1972953
ningen 1972009
owe 1971887
otes 1971514
500 1971065
▁mad 1969535
hor 1968323
▁print 1968110
▁festival 1967276
zioni 1966936
inas 1966104
essa 1965549
▁roz 1963948
itter 1963923
▁luxury 1962732
ming 1960233
▁sécurité 1959856
▁constitu 1958090
▁regulations 1957372
▁zug 1957362
▁avoir 1956752
▁fit 1955890
ided 1955686
uti 1955356
ationen 1953816
▁cities 1952575
▁respond 1951730
▁views 1951208
▁mur 1950274
▁75 1949855
hd 1948957
▁cum 1948801
ological 1948055
essen 1947710
nings 1945697
▁actual 1945102
▁import 1944971
han 1944740
▁ltd 1944487
▁gi 1944326
iny 1943581
▁radi 1943350
▁cliente 1943279
▁niveau 1941334
ování 1940438
▁į 1940240
▁vid 1939478
leg 1938813
rig 1938481
▁avons 1938456
weise 1938236
rel 1937419
rav 1937254
▁τον 1935649
fin 1935536
▁structure 1935111
▁independent 1935057
mod 1934802
quent 1934326
▁ml 1934093
▁baby 1933970
▁sollte 1933894
▁nouvelle 1933639
usi 1933285
▁reserva 1933130
▁mix 1932596
hold 1932317
ios 1930355
▁correspond 1930095
ward 1929840
▁ps 1928638
▁chambre 1927574
▁punto 1927191
ení 1926757
▁prepar 1926603
▁organis 1925744
▁santé 1925520
act 1925417
▁posible 1923842
▁š 1923828
▁48 1923631
▁að 1923432
▁speak 1923430
▁gem 1923156
▁asia 1922804
rem 1922615
▁compte 1921661
▁bästa 1921422
▁hitta 1921180
▁plusieurs 1920621
▁soon 1919973
▁royal 1919209
fully 1918390
▁symbol 1918344
▁waren 1917420
set 1916876
pc 1916135
▁purpose 1916075
▁kong 1915780
isa 1914322
▁square 1914202
ented 1913218
▁arch 1911365
ím 1911192
▁communities 1910976
place 1910916
▁vill 1910460
▁mechan 1909772
▁reserve 1909470
▁providing 1909124
illo 1908535
oma 1907040
datei 1906568
▁stato 1906525
▁models 1905154
ilo 1905055
▁sum 1903872
▁uses 1903827
▁jahr 1903296
▁hotely 1902979
nych 1902916
ml 1901650
aron 1900678
07 1899587
▁kg 1898905
▁när 1898539
▁jeg 1898339
▁hel 1898147
▁puerto 1898118
▁considered 1897131
▁degli 1897061
iska 1896826
uv 1896386
▁artikel 1895461
▁steps 1894747
▁troub 1893690
▁fail 1893547
▁takes 1892617
ium 1891642
hm 1891547
ioni 1891166
unt 1890936
▁thre 1890552
ova 1890369
▁geen 1890321
▁distribution 1889916
▁organ 1887761
tir 1887552
▁hom 1887186
▁came 1886943
▁sollten 1886755
▁award 1886743
▁mountain 1886642
▁siempre 1885721
▁true 1885684
▁38 1885503
ending 1885450
▁minutos 1884844
ison 1884491
39 1884106
▁2003 1883643
▁traditional 1882789
▁° 1882681
▁emp 1882352
▁dispos 1881719
abil 1880715
▁persons 1879975
▁adapt 1879339
▁haus 1878824
▁anal 1878798
▁beginning 1877685
▁strategy 1877445
ilor 1876868
▁iš 1876808
▁recommended 1875472
▁pin 1874964
ased 1874863
▁nam 1874849
▁ef 1874761
▁suas 1874570
▁annual 1873764
▁canon 1873022
▁vue 1872915
ogen 1871984
▁alebo 1871697
▁jetzt 1870187
anta 1869147
▁dokument 1868365
tico 1867292
▁export 1867217
▁déc 1865624
▁comfortable 1864753
▁established 1864516
iens 1863945
▁produkte 1863658
▁higher 1863598
▁enough 1863559
rez 1862604
▁ole 1862502
old 1862203
▁species 1862005
▁neuen 1861883
▁kostenlos 1861148
itas 1860060
68 1859972
ules 1858545
▁reserv 1858389
▁innovation 1858372
iente 1857870
ões 1857819
▁quickly 1857013
eri 1857010
▁effects 1855249
tical 1854552
▁compar 1854255
88 1853848
▁ort 1853614
licher 1853232
▁websites 1852998
gang 1852327
iro 1851410
halten 1850851
▁vier 1850637
▁kal 1850552
mento 1850011
▁ant 1849673
▁earth 1849409
ints 1848417
▁sky 1848207
▁desarrollo 1847429
85 1847134
▁character 1846957
ných 1846130
▁visa 1846111
▁cup 1846021
nak 1845710
board 1845473
ticos 1844322
▁medio 1844167
▁fla 1844006
▁although 1842676
▁hil 1842501
▁przez 1842493
▁articles 1842217
▁lors 1842155
▁français 1841808
uring 1841667
▁weitere 1840983
ować 1840906
▁regard 1840811
▁ov 1840339
▁geben 1840264
▁logo 1839975
▁vir 1839482
▁porto 1839444
▁uk 1839291
ajes 1839253
oting 1839031
▁particip 1838722
▁stabil 1838632
▁personaliz 1838206
teil 1837747
▁prijs 1837550
▁len 1836627
wo 1836532
▁session 1836176
esi 1835828
▁kad 1835397
▁idea 1835204
▁comments 1835076
▁actions 1834474
44 1833518
▁beim 1832589
▁cad 1831733
▁grupo 1831681
▁reference 1831424
▁ku 1830949
▁essential 1829735
▁wine 1828047
▁δεν 1827832
aste 1827606
ilt 1826921
uten 1826659
▁appe 1826450
▁shows 1826293
▁items 1826204
▁polit 1826045
▁kingdom 1825837
illes 1824163
▁kinder 1824001
▁exist 1823955
▁falls 1823256
pon 1823232
▁yourself 1822421
▁lig 1821923
▁aere 1821757
▁québec 1820875
fil 1820194
▁elimin 1819970
▁answers 1819681
▁ear 1819642
▁yra 1818647
▁diesen 1818444
uste 1818260
▁direction 1817827
ising 1817789
▁ofertas 1817296
▁maintenance 1817207
▁svar 1816961
▁shower 1816664
▁connect 1816479
▁ms 1816476
room 1814869
▁abrir 1813375
▁være 1812162
ain 1811998
▁busc 1810717
▁andre 1810536
03 1809941
▁nivel 1808978
▁entfernt 1808631
▁implementation 1807605
09 1805645
anz 1805076
▁regarding 1804865
▁tener 1804783
hal 1804123
▁practice 1802696
hren 1802600
▁measure 1801912
▁techn 1801621
▁operations 1801262
anza 1799253
▁legisl 1798450
▁economy 1798402
ün 1798249
▁fond 1797752
μα 1797616
pal 1797484
▁towards 1797352
▁paul 1797298
rip 1796936
▁lab 1796859
ffer 1796613
▁urban 1796242
lad 1796166
· 1795595
▁quer 1795554
▁father 1794821
▁kam 1794230
uj 1793557
eda 1793522
iller 1793234
ettes 1793050
cos 1792851
ça 1791604
das 1791345
ska 1791183
▁implement 1791065
▁stre 1790925
▁roma 1790247
itos 1790215
tively 1790004
▁prop 1789890
▁informações 1788352
▁automatic 1788296
▁occup 1787871
▁hanno 1787496
▁över 1786920
chas 1786611
▁haut 1786543
rich 1786080
wood 1785880
eder 1785642
▁itself 1784973
cker 1784287
▁ess 1783974
47 1783825
▁response 1783735
▁gratuit 1782750
▁david 1782650
▁qualquer 1782568
▁relevant 1782549
▁defin 1781905
▁organizations 1781766
▁altri 1781734
▁institutions 1781636
▁aud 1781535
cial 1781415
▁associated 1781105
▁justice 1779197
▁wasser 1779175
▁avis 1778139
▁automatically 1777695
▁› 1777694
▁cell 1776703
▁fol 1776464
isse 1775527
▁aktiv 1775464
▁importantes 1775280
▁depend 1774931
▁restaurantes 1774628
▁feature 1773363
cor 1772909
▁juego 1772706
▁bath 1772673
▁hatte 1772302
hotel 1772125
▁bord 1771969
▁horas 1771770
dom 1771712
▁spirit 1771625
gra 1771406
iver 1769526
τα 1769093
▁correct 1769091
▁valor 1768238
▁podem 1767360
cz 1766961
); 1766624
▁nutzung 1766608
▁tienen 1766353
▁mol 1766326
▁written 1766326
action 1765091
▁sustainable 1764882
▁shopping 1764655
▁ill 1763333
▁cond 1762875
▁bieten 1761909
▁mb 1761431
▁correc 1761314
▁dalla 1761090
▁sold 1760949
▁weg 1760544
▁melhor 1760448
box 1758978
kin 1758964
▁trouver 1758694
▁playa 1758612
inst 1758538
▁permet 1757811
uc 1757808
▁remove 1757490
▁german 1756720
ives 1756713
▁warm 1755034
▁comb 1754813
▁fitness 1754791
illas 1754705
▁otra 1754553
▁firm 1753983
▁kol 1753841
iera 1753832
idi 1752874
▁heritage 1752501
▁disse 1752166
▁target 1752076
imento 1752034
▁rend 1751792
▁bluetooth 1750359
▁pop 1750038
67 1749892
▁pressure 1749890
istes 1749572
▁droit 1749569
▁fabric 1749480
▁manuale 1748769
▁hace 1748700
richt 1748670
▁dentro 1748623
▁individu 1748460
▁assist 1747622
▁stor 1746953
▁mult 1745733
▁combin 1745094
enter 1744288
igkeit 1744151
▁broad 1743052
▁gut 1743039
▁rome 1741809
▁police 1741535
ová 1741167
▁exception 1740119
▁secure 1739899
▁chez 1739387
▁derechos 1739385
▁profile 1739170
▁leading 1738674
▁programm 1738015
▁hair 1737990
▁mois 1737355
eme 1736843
▁minor 1736806
▁appear 1736039
42 1735872
▁declar 1735293
mark 1735167
▁mill 1735028
▁necess 1734991
ava 1734666
▁efforts 1734128
▁former 1733927
▁reports 1733783
cin 1733016
▁ready 1732604
▁though 1732593
▁serie 1732354
69 1731747
▁34 1731269
▁unseren 1731132
▁telefon 1730714
▁pag 1730204
▁inst 1729411
▁première 1728870
enda 1728778
▁ihn 1728711
▁cool 1728342
▁variety 1728210
2017 1727819
▁chem 1727497
ación 1727341
fort 1726762
▁prevent 1726658
tar 1725895
▁libre 1725772
del 1725405
usa 1724962
▁selon 1724623
sel 1724078
▁rot 1721970
▁satellite 1721754
▁2002 1721215
ċ 1720656
▁ejemplo 1720583
pat 1720548
▁cra 1720209
▁cut 1720019
▁selected 1719314
▁instructions 1719008
▁ayuda 1718975
▁goods 1718793
tt 1718342
▁phys 1718295
▁particularly 1718085
▁completely 1717376
oz 1716529
▁residence 1715382
▁sunt 1714518
▁zap 1714071
azioni 1713977
▁charter 1713547
information 1713204
bal 1712683
▁title 1712372
▁japan 1712330
▁pul 1712005
▁loss 1711063
▁separ 1710318
▁zboruri 1709509
▁collect 1709455
▁installed 1708411
▁disp 1707746
▁gegevens 1707385
bol 1705989
ah 1705581
▁dro 1705579
▁lower 1705529
▁precis 1705263
▁zw 1704965
▁aire 1703840
▁ax 1703364
eno 1702587
▁zurück 1702281
▁words 1702110
77 1701620
▁planning 1701228
▁listen 1701178
▁embargo 1701126
▁experiencia 1699786
300 1699186
▁miles 1699164
▁database 1699133
▁ako 1698542
▁ellos 1697959
based 1697856
▁utiliz 1697839
▁firmware 1697796
▁functions 1697724
▁release 1697636
ange 1696243
▁ange 1695731
▁cher 1695691
▁loi 1695462
▁pie 1695216
▁rat 1694517
▁accordance 1693972
cd 1693763
aries 1692314
eu 1692052
ли 1692032
▁utilizzare 1691987
dern 1691951
för 1690347
tech 1689696
▁lev 1689350
▁sehen 1689203
▁expected 1688620
eau 1687872
▁enfants 1687765
▁existing 1687698
bor 1687567
▁amb 1687241
fied 1687210
▁believe 1687176
▁pak 1687089
▁podemos 1687001
▁molto 1686850
▁tegen 1686588
▁primer 1686560
▁greater 1686500
▁ú 1685977
erde 1685944
ła 1685721
eks 1685406
ischer 1685356
▁hem 1684160
▁minuten 1683647
▁break 1683234
dra 1682012
oto 1681839
▁wlan 1680806
▁answer 1680502
▁dés 1680500
▁alors 1680294
▁journal 1680280
▁pain 1680245
▁chambres 1680011
▁volume 1679766
bus 1679556
zenia 1679443
▁terrace 1678930
▁verwendet 1678757
▁nei 1678676
ým 1678547
▁ul 1678294
▁nr 1678075
▁authorities 1677223
rie 1677040
▁arts 1676970
nd 1676733
inti 1676367
▁cs 1675869
▁verw 1675369
▁deben 1675025
tage 1674967
jon 1673722
▁policies 1673405
▁dress 1673034
▁forward 1672310
▁interpret 1671961
▁mess 1671813
▁needed 1671357
▁mos 1670918
▁fazer 1670389
▁neg 1670235
▁sap 1670126
▁waar 1669976
▁når 1668940
▁conseil 1668851
▁vehicle 1668292
▁attention 1667916
geb 1667539
▁solu 1666774
▁got 1666757
▁ez 1665912
▁voi 1665559
▁gan 1665428
49 1665331
ush 1664771
▁2001 1664126
▁société 1663936
▁started 1663816
äm 1663232
▁expla 1662758
▁hur 1662435
▁presente 1662009
eden 1661890
▁personnel 1661533
isme 1661462
▁beh 1660740
▁innov 1660187
▁qual 1660084
▁nostru 1659982
▁werk 1658501
▁integr 1658462
▁introdu 1658357
▁bin 1658314
osta 1657869
▁quelques 1657317
▁minimum 1657127
▁mention 1656514
▁pic 1656107
▁peu 1655278
▁hoch 1655047
▁transform 1654288
▁situ 1653798
▁cla 1653720
▁mercado 1653202
vin 1652707
▁tit 1652675
▁façon 1652058
▁mientras 1651715
▁nutzer 1651449
igu 1650295
▁matter 1649668
▁bedrooms 1649603
▁graphics 1649562
▁techniques 1649541
vet 1649502
▁appro 1649381
ibility 1648266
▁poly 1647173
esten 1647051
▁entire 1646368
▁trois 1646297
▁completo 1646185
▁ways 1646121
▁seen 1645222
▁forces 1645076
▁kayak 1644892
sto 1644415
▁facil 1644334
▁jag 1642745
cis 1641677
▁strateg 1640880
▁internacional 1640462
ни 1640429
▁ker 1640345
▁remote 1639368
▁programas 1638131
▁portugal 1637549
▁bek 1637475
▁carry 1637389
▁ditt 1636894
▁seulement 1636745
▁că 1636660
▁vols 1636503
▁toujours 1636327
▁immediately 1636257
▁invol 1635797
▁applic 1635365
▁manufac 1635348
▁37 1635218
▁offered 1633630
amp 1631857
▁move 1631285
▁benefit 1631247
yo 1631043
▁sempre 1630255
▁offering 1629986
ák 1629882
▁vegas 1629693
▁candid 1629477
▁participants 1628512
▁tant 1628426
на 1628339
tique 1627694
rage 1627548
ativa 1626388
▁effec 1626203
▁track 1625551
▁ayud 1625190
off 1625107
▁virtu 1624675
ellement 1624364
äng 1624257
▁avoid 1623186
▁coun 1622616
▁ottawa 1622565
uro 1621419
▁airbnb 1621348
▁luz 1621106
▁stehen 1620943
▁stage 1620896
▁military 1620841
cho 1620723
▁outdoor 1619988
ave 1619747
▁noi 1619449
▁alto 1619213
▁angeles 1619101
▁salle 1618860
nek 1617535
▁privat 1617138
cel 1616569
pdf 1616569
▁command 1615741
▁mise 1615727
▁inside 1615449
▁nog 1614703
far 1614673
▁campo 1614671
▁framework 1614601
▁hardware 1614496
▁kop 1613879
▁wit 1613780
▁minute 1613700
▁learning 1612366
js 1612167
▁dopo 1611169
▁bedroom 1610905
eth 1610707
rado 1610514
▁ici 1610435
▁conv 1610371
▁connec 1609625
▁α 1609398
▁vas 1609336
▁ability 1608452
iling 1607370
etul 1607105
▁política 1606970
▁også 1606830
▁cast 1606572
▁dine 1606334
▁properties 1606241
▁families 1606196
tier 1605962
osti 1605623
▁personne 1605594
sur 1605159
▁item 1604869
▁australia 1604819
tre 1604251
▁lég 1603649
▁senza 1603244
▁middle 1603026
▁outros 1602284
▁muito 1602062
ema 1602036
▁welche 1601866
▁ple 1601764
▁seiner 1601474
▁num 1601471
▁derecho 1600950
▁discuss 1600536
▁tablet 1600096
▁vý 1599716
éri 1599629
mel 1599522
▁chron 1599331
bro 1598960
▁aver 1598894
▁algunos 1598454
▁condiciones 1597913
▁dry 1597878
▁insurance 1595939
▁lorsque 1595585
▁psych 1595057
▁famous 1594696
acht 1594373
▁cru 1593913
inos 1593371
▁desc 1592920
▁bell 1592216
esso 1592102
emp 1592016
▁intens 1591532
▁elements 1591335
▁hai 1591043
▁terra 1590240
ef 1590085
▁jou 1589523
▁involved 1589522
ager 1589379
uno 1588958
▁worth 1588805
ßen 1588547
▁referred 1588107
▁bew 1588050
▁skills 1587987
▁liegt 1587595
▁unser 1587567
iske 1587299
▁likely 1587256
▁fish 1586905
rir 1585932
bas 1585736
▁niños 1585682
▁liber 1584561
cles 1584560
▁adap 1584275
ysel 1584145
▁stress 1584010
▁mother 1583218
▁foundation 1583092
▁ultra 1582835
chaft 1582646
▁reven 1582638
▁surf 1582363
▁että 1582274
lage 1581907
mb 1581891
▁usually 1581777
▁occur 1581770
▁cuisine 1580743
arch 1579965
itor 1579767
▁increased 1579697
ierten 1579464
▁prodotto 1578883
orn 1578561
str 1577855
▁physical 1577406
▁italia 1576414
▁vancouver 1576305
zes 1576035
▁analy 1575777
▁incluso 1575394
▁hij 1575145
inte 1575100
▁advanced 1574302
▁blood 1572942
jas 1572833
yr 1572787
▁regel 1572512
▁250 1572409
▁mig 1571653
erte 1571388
▁muchos 1571312
▁rég 1571054
▁won 1570451
▁whose 1569915
omen 1569774
▁deliver 1569727
haus 1569335
▁components 1568922
▁damage 1568892
eras 1568366
▁priv 1568173
▁empresas 1568073
▁assistance 1567239
▁index 1567217
rä 1566583
▁δια 1566580
▁oraz 1566555
▁55 1566294
▁innovative 1565972
▁india 1565406
▁appar 1564530
▁obtener 1564373
▁revis 1564194
▁jeu 1563889
▁tres 1563666
▁bajo 1563533
▁repar 1563442
▁rang 1563430
▁opening 1563314
▁applicable 1562628
▁xp 1562079
▁length 1562074
oss 1562059
▁droits 1561444
▁arriv 1560678
▁practices 1560578
▁verif 1560336
▁nation 1560218
▁membres 1560093
▁authority 1559633
▁vergleich 1559617
etti 1559597
▁dedicated 1559268
ove 1558793
▁lav 1558476
▁descargar 1558085
▁présent 1557545
▁processes 1557427
▁dess 1557259
▁spécial 1557169
▁coffee 1557103
▁wireless 1556875
yb 1555476
sti 1554804
plan 1554417
▁path 1554384
▁си 1554131
ю 1553431
▁serve 1553411
▁prezzo 1553175
▁switzerland 1552981
▁roman 1552497
▁communications 1552433
tim 1551802
▁detta 1551459
▁increasing 1551414
▁sle 1551051
▁organisation 1550418
hel 1550371
▁hy 1549728
▁viaje 1549555
▁versch 1549542
ativo 1549268
▁animal 1548805
▁pel 1548731
▁bangkok 1548149
▁gebra 1547940
▁lam 1547921
▁happy 1547598
▁vit 1547222
▁găsi 1546991
▁personen 1546932
uras 1545912
olu 1545310
▁err 1545081
oda 1545041
▁assessment 1544783
ση 1544693
▁ast 1544467
▁fichier 1544175
▁values 1543968
▁tell 1543840
liga 1543403
ware 1543305
▁visitors 1543299
gre 1543089
▁tutto 1542974
▁promotion 1542911
▁oss 1542821
▁ly 1541371
▁produce 1541338
▁gives 1541219
▁presented 1541047
▁creation 1540910
▁movement 1540785
▁jobs 1540611
ffe 1540105
▁solar 1539637
band 1538431
▁ayudar 1538336
▁listed 1537929
το 1537337
▁région 1537269
▁themselves 1537145
▁silver 1537112
▁destination 1536025
▁hope 1535693
▁utility 1535590
▁claim 1535507
▁contrac 1535307
rum 1535218
almente 1535067
▁dirección 1534711
ox 1534676
nic 1534360
ght 1534210
▁entry 1532318
▁zich 1532039
vu 1531897
eto 1531345
▁story 1531097
ls 1531020
▁constru 1531020
▁technique 1530508
▁activités 1530396
▁cosa 1530371
▁sala 1530283
▁executive 1529844
▁genom 1529553
▁lieu 1529362
ild 1529328
pol 1528956
▁grâce 1528659
▁traktor 1528474
▁concept 1527702
▁jeder 1526644
nosti 1526274
▁mich 1526144
angen 1525138
aring 1525105
▁fare 1525047
kar 1524446
▁patients 1524412
▁leben 1523450
▁balance 1522936
▁universal 1522874
▁youth 1522282
aro 1522198
▁toshiba 1521997
▁repair 1521950
▁bla 1521866
," 1521702
play 1521622
war 1521621
▁gaz 1521384
ris 1521344
ips 1521165
▁cos 1521061
lem 1520804
ected 1520662
ishing 1519655
▁ner 1519506
▁ska 1519209
▁says 1518636
▁pom 1518411
▁ideas 1518347
nit 1518122
▁leader 1517729
▁richtig 1517308
▁sú 1517160
▁joint 1516410
▁buchen 1515880
ix 1515298
uns 1515273
▁familiar 1515098
care 1514999
▁primera 1514960
▁block 1514724
▁heb 1514378
▁einige 1514349
vez 1514177
▁drivers 1514021
buch 1512882
▁vast 1512163
▁weeks 1512156
▁rene 1511341
▁maken 1511131
▁technologie 1510546
ña 1510477
onn 1510205
▁pela 1509940
▁recon 1509591
lt 1509385
▁trat 1506926
jes 1506571
tement 1505878
▁finally 1505485
▁suo 1504854
ack 1504685
▁hospital 1504430
▁incorpor 1504079
▁lai 1503944
▁rue 1503680
▁wählen 1503521
▁workers 1503356
▁francisco 1503272
atz 1502835
cont 1502781
▁initi 1502376
nost 1501988
▁collaboration 1501696
▁dur 1501695
vent 1501412
nia 1501117
▁fight 1500950
▁multiple 1500599
▁tid 1499301
inar 1499295
eti 1499247
▁energie 1499050
▁industri 1498573
▁glob 1498483
▁mg 1498347
▁petit 1498059
enten 1498040
elo 1497776
ural 1497641
▁evalu 1497630
▁haz 1497544
▁ost 1497492
66 1497287
ford 1497268
▁proceso 1497240
▁heraus 1497082
oved 1496717
▁subsc 1496693
▁proposed 1495896
urt 1495663
▁opportunities 1494998
▁jahren 1494512
▁może 1494106
▁rather 1493871
ej 1493717
▁chance 1493334
▁yes 1493217
▁sd 1493178
lagen 1492723
iding 1492526
ativ 1492403
▁positive 1492164
▁habitaciones 1491615
▁vita 1491135
▁commun 1491038
▁diseño 1490993
tionen 1490016
▁dep 1489754
idents 1489708
ání 1489426
tamente 1489270
▁= 1489130
▁probleme 1489082
under 1489018
▁medic 1488526
▁thank 1488511
ních 1488188
▁bat 1487999
lä 1487678
▁appartement 1487226
▁lack 1487078
▁liefer 1487013
pass 1486604
▁dor 1486513
▁stud 1486487
▁hän 1486386
ash 1486181
▁manage 1485921
▁developing 1485917
▁folosi 1485520
acy 1484891
▁reise 1484439
▁explore 1484101
▁dort 1483928
imi 1482810
▁registration 1481603
▁klicken 1481563
▁sí 1481411
▁experts 1481288
▁constant 1480788
▁tua 1480650
▁bureau 1480424
▁swiss 1480409
det 1480019
▁cub 1479826
ube 1479291
▁fresh 1479213
▁según 1478784
▁ras 1478741
ital 1478685
▁fran 1478673
▁detailed 1478468
▁eigen 1478412
▁vår 1478192
▁renov 1478071
▁schnell 1477451
▁seit 1477015
ops 1476964
▁или 1476396
▁agus 1476143
▁signific 1476068
inf 1475074
▁fan 1474034
▁contains 1473954
▁compla 1473935
▁valley 1473859
more 1473690
▁sometimes 1473634
▁soft 1473489
▁prime 1473487
▁rum 1473258
elijke 1473211
▁ros 1473010
head 1472668
▁vám 1471892
▁markets 1471864
▁mort 1471800
air 1471771
▁trac 1471742
▁rentals 1471406
▁př 1471145
▁join 1470933
▁cul 1470795
▁internationale 1470606
▁ticket 1470482
σης 1470234
▁pov 1470062
▁gebruikt 1469844
▁lid 1469516
imos 1469408
▁goed 1469251
▁reform 1469144
▁fal 1468786
▁corret 1468679
hs 1468480
▁phen 1468130
▁sources 1467915
▁120 1467609
pas 1467452
vid 1467231
lan 1466743
uren 1466711
eds 1466676
▁mano 1466631
▁alternativ 1465741
▁domain 1465596
▁british 1465168
▁dre 1464538
▁cadre 1464520
▁má 1464397
▁registered 1464379
iri 1463841
askine 1463232
▁1000 1462905
▁setting 1462808
▁meilleur 1462802
▁ged 1461991
▁shipping 1461965
yst 1461922
jan 1461449
▁căutare 1460917
▁programmes 1460741
work 1460703
▁label 1460603
▁estate 1459951
änd 1459747
▁spiel 1459590
▁hub 1459314
zent 1458826
pper 1458229
▁util 1458162
▁ram 1458008
emb 1457909
tics 1456428
▁african 1456190
▁dov 1456055
▁oblig 1455734
▁swimming 1455640
rän 1455617
▁pokud 1454661
▁gouvernement 1454633
wlett 1454543
ва 1454492
▁regulation 1454401
▁courses 1454365
▁institution 1454173
▁formato 1454034
tur 1453861
▁monitoring 1453750
▁plastic 1453639
▁cha 1453479
▁dabei 1452943
▁65 1452377
ories 1452342
jar 1450922
▁fill 1450629
▁notebook 1450394
▁kosten 1449726
▁colour 1449635
▁vib 1449565
▁impos 1449305
▁finance 1449212
▁venta 1449030
▁firefox 1448642
▁highly 1448389
▁locations 1448316
▁campaign 1448256
▁student 1448098
nika 1448083
pie 1447842
werk 1447794
▁norm 1447465
▁ένα 1447316
uld 1446869
▁contenido 1446730
cam 1446679
pm 1446450
isches 1445495
▁reasons 1445222
▁tex 1444955
cur 1444698
▁cooperation 1444093
▁migliori 1443634
▁happen 1443164
▁prodotti 1442470
▁alternative 1442153
▁consent 1441990
▁went 1441665
▁availability 1440540
▁quand 1440452
▁monte 1440085
▁minim 1439748
kov 1439196
nou 1439103
osi 1439048
▁starting 1438776
▁roll 1438492
▁hour 1438337
▁vara 1438259
▁années 1438192
▁toilet 1438143
internet 1437851
▁copy 1437846
▁ocean 1437117
▁savoir 1437009
atos 1436875
▁lines 1436856
hos 1436697
elijk 1436681
entre 1436597
▁formation 1436496
▁rose 1436489
▁drink 1436482
▁rein 1436394
ché 1436302
▁café 1436299
▁assess 1436276
▁participation 1436239
▁beaucoup 1436163
▁jeden 1435843
▁frequ 1435250
ked 1435117
hui 1435044
▁voyage 1434935
▁deleg 1434404
▁hoy 1434281
▁collabor 1433888
▁potrivit 1433135
▁ná 1433033
▁са 1432496
mit 1432088
▁influ 1431719
▁ann 1431533
vision 1431295
ulation 1431261
▁largest 1431159
ată 1430973
fu 1430872
▁dates 1430607
▁actu 1430481
▁maria 1429790
▁woman 1429559
▁domin 1429442
▁hacia 1428813
▁verd 1428223
▁mucho 1427863
▁clar 1427538
▁servizio 1427510
duc 1427251
▁heat 1427045
▁corporation 1426662
▁états 1426138
▁lives 1425963
▁unidos 1425731
anos 1424416
äd 1424193
ects 1423733
▁ricerca 1423695
▁visual 1423350
tigt 1423178
oj 1422498
▁spring 1422439
▁résultats 1421714
▁became 1421267
▁thing 1420523
▁fashion 1420163
▁dazu 1420127
kes 1419883
▁finde 1419535
▁här 1419527
isto 1419521
▁satis 1419425
▁district 1419402
▁dina 1419183
▁mediante 1418927
ário 1418665
▁jahre 1418075
▁cars 1417989
hed 1417685
▁repres 1417335
▁søgem 1417240
▁terror 1417038
▁coming 1416902
▁donc 1416658
▁kaufen 1416371
▁realizar 1416369
▁które 1416367
▁arbeit 1416227
izar 1416026
▁sia 1415830
▁mé 1415464
▁crear 1415431
fall 1415214
▁před 1415165
▁lyon 1414962
▁nap 1414354
▁resultados 1414296
▁passion 1413956
▁perf 1413692
43 1413127
▁responsibility 1413086
▁everyone 1412672
▁pictures 1412621
ray 1412539
▁flu 1412504
km 1412130
▁yo 1411817
▁internal 1411610
▁foc 1411536
lar 1411298
ruc 1411084
▁nell 1410924
▁explorer 1410835
▁languages 1410569
rock 1410431
▁challenges 1410410
ape 1410389
ifs 1410355
▁laser 1410109
▁tutte 1409114
▁manière 1409071
▁bild 1408906
▁individuals 1407942
atur 1407639
▁oh 1407322
▁avait 1407134
anten 1406865
▁dark 1406705
▁39 1406116
▁kill 1405954
▁lesen 1405426
▁nome 1405131
ää 1404972
rate 1404793
cep 1404355
▁lost 1403778
▁manuel 1403566
▁gab 1403330
▁zahl 1402804
▁eleg 1402743
▁classic 1402192
alo 1402025
▁cho 1401658
▁panasonic 1401245
uli 1401205
▁expl 1401056
▁confir 1400769
aient 1400509
▁formul 1400394
▁scientific 1400157
▁external 1399688
▁cit 1399512
mont 1399281
▁servizi 1399279
▁proces 1399106
▁correo 1399040
▁permanent 1398846
▁especial 1398509
▁snow 1398484
▁lov 1398125
▁sla 1397979
▁instant 1397336
zd 1397124
nih 1396801
▁strand 1396737
arian 1396604
▁salud 1396362
▁sed 1395931
▁serious 1394959
üt 1394830
▁cri 1394781
▁ambiente 1394562
kan 1393948
▁piscina 1393774
▁infrastructure 1393748
aus 1393238
▁accessible 1393123
▁lar 1392936
bere 1392745
▁gig 1392201
fte 1391872
icient 1391497
cess 1391285
▁violence 1391016
ppe 1390876
▁hi 1390843
▁agent 1390342
▁ped 1390035
▁ned 1389903
▁nothing 1389581
▁sistemas 1389579
cias 1389260
▁ön 1388836
▁jede 1388484
▁mart 1388339
▁genau 1388296
hlen 1388243
▁guarantee 1388140
istä 1387470
▁vip 1386703
▁bot 1385593
arlo 1385267
▁expertise 1384391
▁players 1384153
encias 1384071
▁hus 1383999
▁linked 1383825
▁plaza 1383779
ience 1382730
▁core 1382277
rs 1382022
▁allowed 1381961
▁besoin 1380793
with 1380727
▁fabricante 1380644
▁chrome 1380604
▁rio 1380545
▁amend 1380413
▁gift 1380400
pod 1380308
▁houses 1379808
▁detail 1379410
▁presence 1379393
▁context 1379294
▁semana 1379255
▁electrónico 1378888
41 1378717
▁agree 1378684
▁bud 1378665
pel 1378405
uni 1378267
ych 1377480
▁há 1377410
lic 1377329
light 1377223
▁forms 1377108
▁denen 1376933
stellung 1376883
▁beyond 1376825
▁politique 1376743
▁rare 1376464
free 1376342
▁nós 1375677
▁lcd 1375648
ific 1375580
▁solid 1375202
tores 1375027
▁viene 1374959
▁aid 1374915
▁monta 1374851
▁sat 1374831
τη 1374180
▁ihres 1374003
rov 1373818
▁crisis 1373264
▁porta 1373097
▁administration 1372586
▁ó 1372457
▁près 1372331
▁faith 1372327
▁switch 1372021
▁suitable 1371706
ème 1371596
▁gmb 1371232
▁examin 1370968
▁vaše 1370938
▁soll 1370921
▁quiet 1370692
▁usd 1370663
arg 1370572
▁newsletter 1370268
öl 1369755
▁partnership 1369697
▁tip 1369328
ól 1368962
▁sett 1368753
© 1368695
▁born 1368509
▁spanish 1368023
▁nej 1367815
▁girls 1367273
eket 1366943
▁lux 1366375
▁entonces 1366371
ка 1366214
inner 1365666
▁veget 1365366
▁owner 1365315
▁connecting 1365154
▁morning 1364355
▁rod 1364135
▁funciones 1364026
▁ue 1364000
aller 1363934
▁letter 1363832
▁600 1363381
▁große 1363220
▁caus 1362851
issen 1362760
ého 1362409
▁password 1362323
izes 1362240
▁arquivo 1362099
zimmer 1361929
rec 1361866
▁contents 1361851
▁apenas 1361676
▁phase 1361663
term 1361450
▁mars 1360805
та 1360397
▁recursos 1359818
▁raz 1359619
▁cré 1359565
▁deine 1359546
▁battery 1359475
urile 1359279
▁assembly 1358978
▁nova 1358943
▁boutique 1358286
▁funding 1357890
▁statement 1357830
▁nacional 1357322
inal 1356747
▁darüber 1356296
▁ring 1356218
▁asked 1356055
uls 1356010
▁isol 1355371
▁impossible 1355291
▁methods 1354879
▁hecho 1354602
tec 1354440
▁orient 1354058
▁aos 1353888
ification 1353847
▁trust 1353260
]. 1352336
▁registro 1352086
▁parents 1351823
raum 1351526
▁lif 1351437
▁late 1351225
▁biolog 1350800
▁income 1350396
▁integrated 1350285
▁sexual 1349941
cji 1349763
▁profit 1349763
▁associ 1349211
▁paz 1349120
▁evidence 1349107
anden 1348932
▁objetivo 1348789
▁photograph 1348699
▁contain 1348597
▁billig 1348596
▁vă 1348559
▁dich 1348406
▁ersten 1348404
▁vacation 1347991
▁adobe 1347968
▁klik 1347846
▁millions 1347769
▁denna 1347623
▁soul 1347261
▁package 1347157
▁ts 1347099
▁birth 1347091
▁suppliers 1346830
▁analytics 1346814
ável 1346772
▁protección 1346529
▁frankfurt 1346323
▁kell 1346157
egen 1346086
▁manufacturers 1345656
▁italien 1345626
▁flow 1344782
lige 1344769
▁pick 1344543
▁nieuwe 1344366
▁aplic 1344344
▁historical 1343279
▁competition 1343129
▁dot 1342743
▁marché 1342328
unis 1342120
▁hotele 1341718
▁inten 1341355
▁dog 1340651
ffen 1340509
▁vluchten 1340313
agen 1340240
▁vídeo 1340223
▁anim 1339894
▁navig 1339348
iza 1339262
▁wanneer 1339212
▁42 1339073
▁recovery 1339054
▁hands 1338406
oper 1338202
▁porte 1338185
▁peso 1338064
▁confer 1337873
▁documentos 1337777
▁getting 1337586
▁proud 1337265
▁concernant 1337189
▁revolution 1337118
▁1999 1337057
enses 1336403
platz 1335668
▁livre 1335655
▁comm 1335325
▁beauty 1335055
eff 1334974
▁ще 1334780
▁mens 1334746
▁puis 1334734
née 1334253
▁pun 1334234
yw 1333781
eur 1333565
▁buenos 1333208
▁prote 1332893
iek 1332049
▁carried 1331985
▁vent 1331952
▁paid 1331697
wh 1331590
▁laws 1331457
▁mak 1331420
▁quite 1331106
enne 1330693
▁nut 1330595
▁mach 1330543
atore 1330523
ók 1330496
▁generation 1330435
hips 1330412
▁importance 1330271
▁produtos 1330259
▁goal 1330041
ended 1329977
▁preg 1329876
▁inclu 1329802
gest 1329695
▁télécharger 1328159
▁citizens 1328147
▁creating 1327707
▁quel 1327143
▁č 1326677
▁gla 1326549
ķ 1326290
▁maintenant 1326201
▁iron 1325850
▁dead 1325389
ull 1325219
▁prés 1324649
▁ing 1324597
▁anzeigen 1324539
▁wild 1324527
▁spot 1324333
sw 1323807
▁mount 1323474
▁understanding 1323440
▁possibile 1323129
▁processus 1322486
▁initiative 1322483
▁aider 1322464
zug 1322156
▁sit 1322018
▁brussels 1321817
▁tage 1321773
ró 1321652
▁това 1321611
-, 1321534
▁tipos 1321140
▁notif 1320594
iques 1320582
nahme 1320373
%. 1319938
▁arrival 1319667
‐ 1319433
▁moet 1318960
▁ads 1318540
halt 1318427
▁mundial 1318419
▁ganz 1318372
▁rechts 1318311
▁че 1317972
:: 1317944
▁alquiler 1317377
▁interested 1317293
ei 1317255
top 1317084
▁emer 1317056
▁ceux 1316594
▁prendre 1316419
▁futuro 1316222
▁być 1316055
▁behind 1315957
▁· 1315171
▁staat 1313045
▁shared 1312627
activ 1312547
▁bun 1312535
aka 1312427
▁μια 1312324
▁ü 1311936
▁compat 1311831
▁respons 1311762
▁conform 1311736
▁produto 1311554
uda 1311335
▁mut 1311274
▁journey 1311227
iment 1311218
▁1998 1311129
ee 1310376
ει 1310061
▁situated 1309973
▁apps 1309603
▁bom 1309574
jer 1309408
ugh 1309191
▁energía 1309165
ego 1309048
pf 1309032
▁pří 1308988
eding 1308244
▁piece 1308202
▁markt 1307651
▁depending 1307564
iteit 1307498
▁rapid 1307484
iez 1307434
onne 1307325
▁notes 1307247
▁background 1307236
▁juegos 1307149
▁machines 1306919
▁ora 1306792
▁existe 1306397
▁acuerdo 1305651
▁zoals 1305592
▁overall 1305042
chte 1304996
▁produced 1304811
▁iii 1304451
▁até 1304078
▁recently 1303945
anas 1303913
▁compatible 1303617
▁creative 1303179
▁algo 1303097
▁conserv 1302746
log 1302699
esp 1302410
▁hoe 1302374
▁geld 1302052
▁tours 1301915
▁employment 1301552
▁leer 1301139
▁öffnen 1300816
fol 1300813
zie 1300412
▁emb 1300319
▁uv 1300015
ρο 1299964
▁doing 1299583
quet 1299081
▁helfen 1298944
rent 1298916
▁varios 1298826
flug 1298658
▁pok 1298605
▁puoi 1298385
▁faq 1298325
▁completa 1298248
▁const 1298207
` 1297645
▁montréal 1296780
▁deep 1296311
▁ken 1295857
▁acer 1295526
pes 1295513
▁nuestras 1295157
▁actividades 1295057
esen 1295044
kel 1295030
▁reprodu 1294626
▁volta 1294494
ski 1294357
how 1294149
via 1294005
▁rain 1293952
▁efficient 1292395
́ 1291235
plattform 1291123
dor 1291097
▁apartamento 1290740
lia 1290675
uen 1290543
▁agoda 1290069
▁hen 1290028
gn 1289963
wal 1289893
ike 1289627
▁friend 1289300
▁mean 1289161
▁daß 1289048
own 1288800
▁herunter 1288797
▁diverse 1288771
▁ship 1288755
▁tags 1288732
▁hit 1288731
▁obten 1288487
▁́ 1288341
▁plane 1288254
▁window 1287932
89 1287803
▁nouvelles 1287390
cionar 1287004
▁tec 1286686
▁race 1285869
▁przy 1285798
iai 1285523
yk 1285461
▁virus 1285458
▁diss 1285404
▁karte 1285204
▁800 1284712
▁nun 1284639
▁mesure 1283941
▁instruments 1283906
▁miembros 1283866
▁bau 1283630
▁buscando 1283245
▁ovat 1283114
те 1282971
▁objec 1282787
xt 1282590
▁domaine 1282180
▁billion 1282021
▁ice 1281608
▁voit 1281300
▁trouvez 1281043
▁paragraph 1280674
post 1280671
asse 1280636
▁quanto 1280131
nt 1280105
▁enviar 1280041
▁doc 1279920
▁città 1279713
▁už 1278598
▁qualsiasi 1278584
oph 1278519
▁shown 1278336
▁automatisch 1278046
▁españa 1277933
ote 1277635
rim 1277221
▁requires 1277080
mus 1276849
▁disco 1276636
▁cycle 1276509
▁finns 1275690
▁running 1275624
▁sti 1275369
▁naj 1274984
atique 1274594
hôtel 1274488
▁nat 1273821
▁mujeres 1273561
▁lebens 1273128
▁teams 1272913
▁useful 1272111
cken 1272090
▁gradu 1271751
abled 1271285
▁contrat 1271235
▁smartphone 1271149
▁interven 1271069
či 1270859
ра 1270514
▁doctor 1270099
▁wil 1270080
▁relationship 1269824
▁pierre 1269443
▁sob 1269164
▁protected 1269158
▁heute 1269120
▁lösung 1269038
▁teilen 1268951
exe 1267465
bon 1266877
atura 1266539
▁interess 1266373
hood 1266106
arias 1265672
▁instrument 1265550
▁promote 1265456
lé 1265299
▁departure 1265069
itel 1264598
▁rig 1264591
▁regist 1264262
▁herr 1263975
▁surround 1263701
▁denn 1263521
▁fut 1263245
▁befindet 1263120
nas 1262985
gas 1261912
▁territ 1261900
▁insc 1261886
▁utiliser 1261830
ös 1261779
▁metro 1261398
anne 1261320
▁sydney 1261214
▁cabo 1261147
▁visita 1261086
rd 1260596
▁xbox 1260475
▁versions 1260102
ización 1259601
▁profession 1259451
aty 1259272
▁integration 1258667
▁italian 1258324
▁engineering 1258107
ви 1257958
esa 1257705
▁eth 1257458
87 1257124
▁tub 1256903
▁mare 1256849
issement 1256265
▁marca 1256190
▁stars 1256056
ested 1255898
▁vertra 1255671
▁mexico 1255490
▁flor 1255016
▁expedia 1254890
part 1254564
cies 1254030
fy 1253768
▁cancer 1253747
agem 1253231
▁responsable 1253059
▁expand 1252706
ného 1252703
▁stati 1252592
aff 1252191
▁lage 1251944
water 1251940
▁né 1251798
▁isso 1251729
▁haute 1251703
win 1251548
▁recommendations 1251450
zus 1251327
▁hill 1251312
ło 1251114
▁applied 1251026
▁cocina 1250667
▁jūs 1250241
▁sujet 1250154
▁forme 1250061
▁islands 1249916
▁ét 1249781
▁stad 1249611
▁freedom 1249573
aby 1249320
▁palace 1249176
▁corporate 1248977
cat 1248781
▁kunst 1248765
▁drei 1248434
▁films 1248216
new 1248202
enty 1248131
▁identify 1247987
▁moderne 1247750
ional 1247370
▁networks 1247255
oder 1247067
▁remains 1246927
▁voc 1246521
▁miami 1246453
ép 1245481
▁pill 1245350
2016 1245292
mission 1244819
▁bereit 1244633
▁necesario 1244272
▁pes 1244193
▁bac 1243916
▁dvs 1243707
force 1243523
▁gracias 1243369
ifen 1243283
▁mayoría 1242931
▁amd 1242792
ld 1242566
▁nostri 1242517
▁vehicles 1242453
▁© 1242333
▁verk 1242271
▁friendly 1242134
▁μας 1242130
▁conjunto 1241146
▁partes 1240704
▁procedure 1240592
pet 1240453
▁bab 1240343
▁můžete 1240000
ām 1239974
▁nes 1239787
rier 1239464
▁etwas 1239384
▁waste 1239167
fac 1238968
▁spr 1238822
▁attend 1238794
anc 1238554
▁strategic 1238387
▁andra 1238331
▁garant 1238308
▁compliance 1238144
▁fle 1238063
▁belgium 1238030
▁pm 1237861
▁challenge 1237400
▁aires 1237277
▁christian 1237234
cul 1236648
▁programma 1236411
ress 1236244
▁technolog 1236170
▁cold 1235310
▁capac 1235292
▁hire 1235280
nym 1235269
▁installieren 1235265
▁lassen 1235238
▁offici 1234939
▁rub 1234902
▁jedes 1234491
▁stran 1234211
▁europäischen 1233957
abile 1233636
▁trova 1233500
tere 1233196
fm 1233003
▁messages 1232868
▁financi 1232783
▁transporte 1232024
bn 1231979
▁highest 1231092
▁anni 1230959
year 1230575
▁licence 1230044
▁explo 1229463
▁separate 1228423
tia 1228349
▁conditioning 1228280
ään 1227481
asti 1227293
▁plug 1226855
iable 1226813
▁settings 1226789
▁navigation 1226595
79 1226467
issant 1226340
▁huéspedes 1226267
▁pou 1225904
owych 1225149
▁procedures 1224937
▁ful 1224793
ása 1224747
▁elev 1224701
▁library 1224431
▁proced 1224382
▁sei 1224340
tik 1224276
▁artists 1224116
adresse 1223757
▁heating 1223237
▁completed 1223151
▁sis 1222934
▁nossos 1222630
▁lé 1222486
▁meter 1222470
ähr 1222449
▁nelle 1221824
▁vice 1221775
▁memory 1221284
▁gebruiken 1221281
86 1221138
▁speci 1220764
▁voice 1220393
▁utenti 1220231
▁lösen 1220176
▁flexibil 1219801
▁travers 1219666
▁hilfe 1219634
iko 1219577
view 1219469
▁minden 1219220
▁institute 1219038
▁nä 1218843
▁év 1218624
▁mondo 1218275
▁gleich 1218164
▁feed 1217487
▁ancora 1217264
▁analys 1217178
▁bloc 1216952
elser 1216706
ovo 1216620
▁remember 1216459
aga 1216342
▁television 1216278
▁perm 1216065
▁frame 1215915
▁fruit 1215819
▁causa 1215513
son 1215500
▁pension 1215450
▁achieve 1215177
eros 1215136
▁pure 1215017
agne 1214944
▁temperatur 1214871
▁bere 1214748
▁visite 1214659
▁situé 1214302
▁begin 1213481
▁palma 1213425
umes 1213408
▁comité 1213353
▁cy 1212905
▁gott 1212610
zn 1212423
▁erst 1211851
▁dank 1211656
▁95 1211393
▁stone 1211353
▁verfügbar 1211336
atta 1211051
▁из 1210969
▁requ 1210813
▁eco 1210725
ρα 1210518
▁compra 1209986
▁autom 1209713
▁verde 1209663
▁gallery 1209537
▁problèmes 1209317
ϊ 1208774
▁femmes 1208750
tube 1208676
ės 1208640
bc 1207955
ête 1207291
▁thought 1207018
▁kategorie 1206839
web 1206358
kr 1206319
▁cin 1205877
▁mog 1205852
ends 1205731
nor 1205401
▁intended 1205311
usti 1205115
tain 1205017
cen 1204909
▁ž 1204834
weg 1204715
ew 1204435
vy 1204100
▁área 1204068
▁seven 1204039
ieron 1203925
▁converter 1203840
▁circum 1203832
▁aujourd 1203669
61 1203600
rot 1203500
▁expert 1203474
ène 1203346
zet 1203322
rt 1203282
unta 1203011
voir 1202717
kte 1202624
endi 1202544
▁sort 1202508
▁prev 1202393
▁cli 1202345
▁energ 1202169
▁pilo 1201863
ologie 1201578
ennes 1200350
▁chinese 1200079
▁intern 1199983
▁dialog 1199893
▁tests 1199877
eres 1199858
▁sant 1199592
program 1199484
▁erk 1199367
▁arte 1199282
vr 1199030
▁propose 1198773
▁lä 1198500
▁civ 1198029
▁dove 1197950
▁determine 1197847
▁consid 1196763
▁до 1196470
▁centrum 1195668
eless 1195561
▁hebt 1195399
system 1195370
▁preise 1195355
▁specif 1195237
▁tourist 1195064
▁année 1194819
▁lac 1194296
▁reported 1193831
▁essa 1193227
▁certains 1192870
▁pantalla 1192764
okat 1192663
▁disease 1192508
▁fir 1192398
zza 1192295
ekt 1192258
▁font 1191903
note 1191681
▁groß 1191646
zeichnet 1190796
▁exclusive 1190695
▁affect 1190582
× 1189207
▁advantage 1189139
▁hostels 1189133
▁moteur 1189030
▁habitación 1188864
▁resolution 1188676
▁κα 1188637
daten 1188325
▁sho 1188301
▁suc 1187915
▁explor 1187829
▁perd 1187698
▁cambio 1187535
▁wifi 1187329
▁warrant 1187072
▁cosas 1186881
▁serviços 1186721
▁conduct 1186636
56 1186588
▁familia 1186481
▁poco 1186360
▁aug 1186000
nem 1185939
▁unterkunft 1185911
▁exemple 1185902
▁module 1185864
ās 1185794
aa 1185651
▁brought 1185438
vement 1185344
▁cultur 1185164
ient 1185025
sko 1184996
▁gelegen 1184915
▁bru 1184905
▁bak 1184898
tez 1184683
mented 1184389
izing 1183803
ikt 1183731
▁amor 1183716
itte 1183555
▁plants 1183505
lat 1183503
▁estable 1183464
▁lis 1183435
link 1183382
liches 1183292
▁treat 1182241
▁kre 1181951
▁familie 1181889
▁sleep 1181529
▁sense 1181397
elsen 1181297
▁eso 1181261
▁pé 1181055
stellen 1181006
▁merc 1180760
ibile 1180713
▁ihm 1180631
▁rural 1180481
▁ones 1180446
▁poker 1180431
▁supports 1180409
▁tomar 1180407
▁mesmo 1180364
esk 1180333
▁veel 1179983
▁virtual 1179967
▁advice 1179874
tiva 1179862
tab 1179706
▁sondern 1179501
▁otherwise 1179069
amen 1178991
▁tä 1178953
▁kids 1178533
▁tir 1178483
▁organic 1178482
▁mein 1178415
▁fur 1177287
▁bude 1177183
▁meilleurs 1176903
▁commitment 1176649
▁dura 1176632
indo 1176462
▁edit 1176405
▁categories 1176403
▁traitement 1176393
59 1176338
▁else 1176260
oin 1176056
▁trovare 1175754
▁dispositivos 1175691
▁cual 1175507
▁approximately 1175453
ční 1175347
ligt 1175329
tid 1175173
▁colle 1175014
▁cruz 1174819
fahr 1173593
▁russia 1173519
tured 1173071
▁tijd 1172896
▁hans 1172832
▁brief 1172650
▁gratuito 1172573
▁salt 1172540
▁convert 1172051
▁vente 1171756
▁famille 1171552
▁kauf 1171412
▁percent 1171377
▁porn 1171085
▁compared 1170884
skaber 1170625
▁telephone 1170583
▁object 1170435
▁began 1170422
zung 1170390
▁medi 1170354
nom 1170010
ea 1170003
▁αυτό 1169889
ου 1169875
ned 1169718
anto 1169638
▁ε 1169208
▁dese 1168755
▁estão 1168709
▁bent 1168707
▁coordin 1168493
▁helps 1168489
▁esper 1168480
▁série 1168465
не 1168428
▁sequ 1168154
▁baño 1168040
▁agre 1167816
ων 1167762
endre 1167543
▁ministry 1167111
▁bilder 1166844
opp 1166759
auf 1166330
▁records 1166174
ske 1166092
▁στη 1166077
▁architecture 1165858
▁occasion 1165808
▁vs 1165568
user 1165143
ograph 1165031
▁orden 1164263
να 1164209
▁meses 1163484
info 1163434
ief 1162973
ől 1162874
▁jog 1162865
▁wal 1162838
▁saw 1162741
▁powerful 1162669
onia 1162443
ppen 1162228
▁submitted 1162224
▁cod 1161946
▁namen 1161923
ney 1161827
cal 1161683
▁vad 1161459
▁vien 1161409
▁francia 1161305
▁ende 1160955
aties 1160897
▁officer 1159934
▁47 1159811
▁seinen 1159711
▁99 1159682
egu 1159153
▁nuevos 1158916
▁copyright 1158818
▁growing 1158764
▁sino 1158549
▁bereits 1158534
▁environ 1158467
▁dio 1158367
▁ble 1158327
▁boat 1157954
▁motiv 1157855
▁había 1157259
▁harmon 1157186
inc 1156862
▁efficiency 1156522
▁marine 1155981
▁enterprise 1155769
▁diet 1155359
▁units 1155214
identi 1154948
▁vlucht 1154845
aler 1154465
▁44 1154419
▁vacances 1154411
▁personale 1154272
▁entreprises 1154269
keit 1153496
▁refuge 1153475
▁dieu 1153469
▁wissen 1153166
▁dc 1152400
▁», 1152131
▁vic 1151547
▁lik 1151454
λα 1151322
▁corre 1151238
▁cash 1151217
▁evaluation 1150999
▁iv 1150847
▁worldwide 1150029
▁eye 1150025
enc 1149997
▁advance 1149890
▁decided 1149890
▁provisions 1148929
riv 1148686
▁apar 1148470
▁sui 1148419
▁personales 1148191
▁grado 1148162
stell 1148076
alle 1148012
▁fri 1147999
not 1147698
▁despite 1147686
▁regions 1147631
mé 1147535
▁posted 1147483
itive 1147472
▁instead 1147433
hab 1147029
imientos 1146678
▁write 1146650
▁seront 1146374
▁relativ 1146056
arm 1145923
400 1145713
▁innerhalb 1145670
unter 1145353
▁committed 1145190
oura 1145139
rica 1145099
ovi 1144864
▁sommes 1144454
▁mere 1144320
▁guidelines 1143992
▁ric 1143942
▁inser 1143623
▁exercise 1143459
▁sciences 1143105
▁contribution 1142940
▁projekt 1142903
▁flexible 1142648
▁evening 1142335
ften 1142209
oti 1142004
▁verschiedenen 1141808
▁audi 1141700
▁teléfono 1141548
▁dim 1141465
▁medium 1141270
▁pattern 1140950
▁handle 1140810
~ 1140612
xx 1140518
▁jug 1140389
▁nutz 1140328
▁euros 1140320
▁lift 1140218
inu 1140114
kat 1139949
▁mental 1139936
▁audit 1139788
▁gast 1139759
▁а 1139163
▁victim 1138413
osos 1137793
▁animals 1137559
▁owners 1137422
station 1137176
▁tierra 1137099
enes 1137094
▁großen 1136972
▁energia 1136966
72 1136840
▁ότι 1136833
▁dens 1136047
▁homes 1135954
▁problemi 1135591
▁ran 1135222
▁mitglied 1134994
appro 1134958
▁supported 1134844
rieben 1134766
▁vostro 1134630
rated 1134611
▁wichtig 1134485
hé 1134406
rob 1134278
▁artist 1134244
udi 1134187
▁melhores 1134153
▁essenti 1134083
▁numero 1133936
▁haga 1133935
▁enable 1133635
▁kleine 1133551
▁dream 1133459
ís 1133288
kor 1133182
▁evitar 1132863
▁ox 1132769
2015 1132641
▁matière 1132406
▁attach 1132275
▁като 1132255
▁haar 1132241
▁jeux 1132203
▁covered 1132057
£ 1131489
▁behand 1131359
nées 1131265
amb 1131223
▁interests 1131149
▁finger 1131031
▁alert 1130927
▁chain 1130816
ihin 1130791
▁fees 1130764
▁angel 1130610
oh 1130592
ès 1130590
▁dic 1130372
▁ajouter 1128937
▁happ 1128751
▁businesses 1128644
▁zij 1128421
anno 1128367
ían 1128122
▁tourism 1127670
▁sas 1127499
▁lic 1127245
▁budapest 1127057
▁deutschland 1127004
▁geschäfts 1126984
liv 1126732
▁exhibition 1126605
με 1126250
▁specializ 1125457
elli 1125409
▁jaar 1124964
▁fog 1124901
▁fern 1124537
▁northern 1124392
alty 1124069
▁shops 1123996
▁euch 1123783
▁gek 1123651
▁lamp 1123507
▁mettre 1123504
▁tratamiento 1123427
▁nearby 1123254
▁seguro 1123183
▁imm 1122936
▁46 1122923
▁louis 1122807
▁confidence 1122320
acc 1122255
ught 1122171
▁erw 1122155
▁icon 1122060
▁incre 1121816
▁provincial 1121752
ните 1120843
▁comun 1120723
▁frage 1120295
▁richt 1120124
▁ala 1120053
▁persone 1119828
hon 1119800
▁arbeits 1119558
▁compris 1119320
▁collected 1119297
▁vide 1118935
▁talk 1118799
▁holy 1118727
▁numerous 1118510
▁econom 1118396
öt 1117927
▁tym 1117681
▁déjà 1117608
▁konto 1117590
▁annu 1117513
▁camps 1117410
▁49 1117384
▁anteriores 1117355
▁cristo 1117277
ography 1117191
▁meetings 1117067
▁cards 1117005
76 1116986
▁belie 1116933
hoz 1116692
▁labor 1116668
▁dru 1116338
issent 1116319
▁slow 1115556
▁ley 1115374
äh 1115208
▁veces 1115204
▁tie 1115123
▁páginas 1115122
▁zainstal 1114812
▁queen 1114651
▁rück 1114622
rás 1114594
xi 1114363
▁sympt 1114351
▁reduc 1114252
▁historia 1114002
▁facile 1113993
▁friday 1113968
▁muchas 1113963
▁significa 1113609
▁fram 1113334
▁professionals 1113198
▁weekend 1112877
▁terre 1112771
▁kir 1112432
▁cust 1112243
▁equip 1112199
▁gam 1112163
▁ziel 1112101
▁verl 1111843
▁papel 1111791
nung 1111772
▁weil 1111708
▁comprom 1111449
cé 1110744
uit 1110673
▁factors 1110419
▁ö 1110327
▁stations 1109841
wie 1109838
▁dall 1109710
▁bekannt 1109586
▁ofrecer 1109550
▁hö 1109517
▁santo 1109512
▁tol 1109204
gues 1109085
▁samt 1108884
▁reve 1108746
▁lugares 1108624
▁himself 1108539
▁prezzi 1108489
▁prim 1108358
▁told 1108075
ários 1107974
▁mint 1107299
▁télé 1107166
▁êtes 1107038
▁reliable 1106744
▁rus 1106744
▁doesn 1106734
2013 1106488
iso 1106314
▁described 1106139
▁ανα 1105892
▁lavoro 1105887
▁español 1105598
▁saf 1105579
▁doivent 1105214
▁entwicklung 1105212
▁år 1105089
▁kā 1104924
▁negoti 1104857
ells 1104841
▁dessa 1104225
▁poor 1104205
tori 1104135
▁lahko 1103829
▁mest 1103780
áz 1103772
▁guarante 1103745
▁communic 1103677
inación 1103592
▁fuel 1103472
▁cooper 1103309
▁jan 1103282
eben 1103263
▁castle 1102939
▁issued 1102863
74 1102798
▁pregunta 1102735
▁licht 1102649
▁gros 1102522
▁pac 1102500
▁direc 1102428
service 1102426
▁presenta 1102126
▁ceny 1102104
umi 1102073
fri 1102060
▁artículo 1101999
oven 1101955
▁viber 1101561
come 1101397
ay 1101219
▁yoga 1101148
▁dining 1100889
ativas 1100787
▁mic 1100656
▁bec 1100286
ģ 1100156
▁temperatura 1099854
▁nostra 1099711
▁marc 1099540
▁carbon 1099450
▁incom 1099390
lang 1099248
▁duration 1098939
▁ingen 1098788
▁chose 1098785
▁labour 1098765
▁leaders 1098765
ño 1098654
▁cheapest 1098570
icher 1098165
▁vidéo 1098073
▁division 1098032
τε 1098025
▁affairs 1097957
▁protocol 1097715
▁numbers 1097713
νο 1097578
▁buch 1097409
▁mostrar 1097308
▁printer 1096738
▁protec 1096658
▁eyes 1096340
▁pier 1096288
▁passe 1096015
▁career 1095819
▁bos 1095718
▁retour 1095680
▁relation 1095595
▁juan 1095269
▁oferta 1095024
▁spo 1094958
▁experiment 1094720
▁schools 1094380
ately 1094233
▁wet 1093926
▁vacaciones 1093879
▁attack 1093408
▁certificate 1093310
pres 1093267
ích 1093136
sec 1092981
▁meisten 1092875
holders 1092608
▁nvidia 1092426
▁tea 1092094
▁séjour 1091986
ço 1091950
▁worked 1091926
▁parc 1091865
ág 1091792
▁bás 1091755
▁dublin 1091632
lichkeit 1091242
▁wart 1090772
▁questi 1090646
▁flughafen 1090401
▁général 1090290
▁liter 1090267
▁washington 1090142
▁islam 1090077
▁tech 1090028
▁served 1089870
stances 1089667
▁lor 1089608
▁weise 1089470
▁algunas 1089432
▁placed 1089340
▁kein 1089208
▁drug 1089040
▁critical 1088999
▁male 1088462
▁85 1088038
▁taste 1087888
▁daran 1087661
tc 1087157
▁sensor 1086871
▁quelle 1086723
▁introduc 1086662
nel 1086515
▁leather 1086296
▁prepared 1086169
▁dv 1085951
ában 1085634
▁packaging 1085442
▁aeropuerto 1085320
▁garantie 1084888
▁municipal 1084826
▁cuerpo 1084328
▁plate 1084253
▁reading 1084148
irt 1084118
▁aspects 1084084
▁minibar 1083796
▁martin 1083743
▁writing 1082999
▁administrative 1082653
▁alg 1081737
▁incl 1081649
▁dol 1081487
▁golden 1081184
▁numer 1081164
▁patient 1081113
▁renseignements 1080992
▁livres 1080983
». 1080929
▁solución 1080795
waren 1080753
▁sammenlign 1080751
▁amazon 1080334
die 1080197
▁sunday 1079981
▁album 1079772
▁impress 1078772
uden 1078743
▁exhib 1078738
▁largo 1078667
aling 1077948
▁ningún 1077897
▁verb 1077435
▁lad 1077239
ander 1077192
▁degree 1077173
▁capacidad 1077135
▁maxim 1077134
▁cong 1077064
▁moder 1077035
liert 1076775
innen 1076443
▁lia 1076241
wan 1075739
▁approved 1075736
▁disk 1075584
heim 1075550
▁vielen 1075293
elor 1074965
▁vivo 1074848
oles 1074637
▁voll 1074523
▁при 1074518
▁whom 1074347
ivi 1074242
▁generally 1074114
▁ktoré 1073897
▁illust 1073859
▁principales 1073820
▁gh 1073423
field 1073385
▁llam 1073250
ają 1073168
▁fab 1073154
▁agencies 1073131
vas 1073129
esto 1072886
zej 1072573
▁blanc 1072494
▁modelo 1072418
▁kra 1072416
▁desk 1072346
feld 1072260
▁factory 1072070
▁interes 1071867
▁conn 1071403
▁europea 1071133
gem 1071048
▁gram 1070820
▁employee 1070666
▁360 1070653
▁visu 1070637
58 1070628
▁interface 1070332
▁funds 1070043
ark 1069740
ły 1069720
▁buildings 1069711
▁risks 1069449
▁bod 1069311
roll 1069139
▁coc 1069117
▁voiture 1068750
lement 1068515
▁wheel 1068350
▁fields 1068332
iset 1068240
▁pessoas 1067899
▁distribut 1067582
▁gang 1067538
▁eles 1067491
▁collec 1067480
▁decisions 1067388
otta 1067340
▁hvor 1067298
ти 1066950
▁trop 1066945
▁suche 1066602
▁problème 1066517
▁cele 1066369
▁zoek 1065985
▁avión 1065785
▁vä 1065742
aide 1065710
▁také 1065697
▁advertising 1065196
▁reis 1065132
▁overview 1064823
▁chief 1064739
▁lever 1064684
vie 1064661
▁elegant 1064474
mann 1064362
▁gps 1064324
▁última 1064096
cut 1064026
▁actually 1063891
▁dubai 1063882
▁alter 1062762
▁shape 1062622
▁ligger 1062451
▁kultur 1061860
▁ante 1061659
▁trav 1061605
▁senti 1061517
rog 1061334
▁utilisé 1061243
ived 1061165
▁sr 1061095
▁cleaning 1060572
▁successful 1060564
▁joka 1060515
▁ay 1060511
▁technische 1060502
icación 1060334
▁cort 1059706
▁criteria 1059562
▁batter 1059516
▁furniture 1059372
▁prob 1059261
▁updates 1059102
▁completamente 1059077
dig 1059015
▁controller 1058913
▁figure 1058763
enci 1058518
▁rápido 1058379
▁könnte 1058356
▁hotellit 1057961
▁desarrol 1057635
hod 1057220
imm 1057211
▁cen 1057204
hotels 1057059
tak 1056984
▁tek 1056872
▁conversion 1056820
▁ford 1056648
ensive 1056625
▁consumption 1056583
vert 1056555
▁initiatives 1056489
gabe 1056274
orte 1055984
▁stimul 1055753
ération 1055743
▁” 1055302
▁erfahren 1055193
cómo 1055191
▁bef 1055127
▁dire 1054734
▁giving 1054486
▁lange 1054438
loc 1054405
▁geg 1054328
ningar 1054326
▁sf 1054256
▁assim 1054110
▁achie 1054082
▁college 1053971
lev 1053951
▁fehler 1053938
áv 1053899
taa 1053898
▁opera 1053795
▁ah 1053700
▁asp 1053463
▁conse 1053252
▁qualität 1053028
▁padre 1052987
\ 1052897
isc 1052711
▁estilo 1052683
▁bars 1052617
▁wichtigsten 1052492
▁doub 1052427
▁backup 1052359
▁piano 1052283
▁dispositif 1052217
▁healthy 1052212
▁jul 1052141
▁belle 1051884
2012 1051873
▁emergency 1051450
▁exclus 1051447
51 1051205
▁prest 1051187
dt 1051163
▁delivered 1051051
▁probable 1050644
ök 1050283
▁chef 1050195
unn 1050049
▁bli 1049999
▁pesquisa 1049562
▁blu 1049356
▁tree 1049275
▁enhan 1049259
▁deber 1049157
cluding 1048928
▁verfügt 1048638
▁rh 1048627
▁nim 1048348
sky 1048320
▁depart 1048056
éra 1048006
▁producción 1047921
itta 1047915
▁consumer 1047561
arten 1047536
▁mittel 1047531
▁gene 1047159
aren 1047053
▁unos 1046969
ñas 1046662
rados 1046454
▁tales 1046318
▁ning 1046165
▁gave 1046067
▁designer 1045975
▁favorite 1045965
enie 1045745
▁või 1045305
▁factor 1045153
▁gather 1045093
▁py 1045003
geschlossen 1044705
▁employ 1044672
▁colors 1044559
fts 1044229
▁confirm 1044047
▁zá 1044037
▁testing 1043942
▁casos 1043748
ordin 1043698
▁kot 1043676
ást 1043602
▁habe 1043559
▁být 1043512
▁siguiente 1043411
owy 1043067
ôt 1042998
▁reporting 1042709
▁arab 1042448
71 1042423
ege 1042113
▁mul 1042069
▁directive 1041491
▁bü 1040921
▁holidays 1040508
▁restri 1040400
tures 1040362
▁primary 1040264
enia 1040069
▁draw 1040053
ße 1040023
▁opened 1039836
pers 1039568
▁tran 1039504
▁heures 1039451
isé 1039290
plus 1039079
▁aw 1038986
▁lado 1038853
imiento 1038744
▁acquis 1038740
▁pip 1038509
▁viagem 1038500
▁rôle 1038354
aster 1038009
wy 1038008
▁così 1037991
▁deposit 1037813
bild 1037735
▁millones 1037667
▁meaning 1037603
arán 1037532
▁dang 1037501
▁furn 1037364
▁traffic 1037351
▁fragen 1037242
▁ampli 1037069
▁announced 1037045
▁bright 1037022
dar 1036876
urg 1036869
▁fisher 1036532
▁elles 1036497
▁nossa 1036227
atte 1035964
▁wanted 1035909
pping 1035841
▁emplo 1035771
▁austria 1035624
etto 1035537
xe 1035483
itis 1035317
▁manufacturing 1034923
eling 1034873
flüge 1034652
▁california 1034533
▁conflict 1034102
▁hombre 1033940
▁kohteessa 1033921
▁tecnología 1033772
icamente 1033676
▁respuestas 1033611
zar 1033548
▁tik 1033445
▁transportation 1033368
▁bridge 1033270
▁bevor 1033178
▁sprzę 1033142
▁gemeins 1033072
▁unless 1032474
▁rid 1032382
▁auft 1032090
▁reac 1032048
▁updated 1031968
▁indeed 1031958
▁junto 1031329
▁ore 1031321
▁période 1031298
▁stainless 1031268
▁identific 1031238
▁amigos 1031222
▁ebenfalls 1030937
▁nationale 1030833
tal 1030810
▁estamos 1030626
▁réseau 1030607
vé 1030332
▁stake 1030184
▁proc 1030142
▁às 1029808
▁historic 1029759
2014 1029674
▁seiten 1029457
▁eb 1029455
▁ordin 1029282
▁sofa 1029279
anger 1029276
▁flyg 1028923
▁opinion 1028769
▁denken 1028539
heiten 1028323
▁meters 1028193
esc 1027918
▁overs 1027446
▁picture 1026534
▁finish 1026509
▁reservation 1026357
▁cantidad 1026108
ří 1026084
iciones 1025867
▁herz 1025781
▁nuovo 1025425
52 1025141
▁maj 1025024
▁stil 1024436
▁koh 1024219
▁dienst 1024132
spe 1024049
änder 1023765
▁organisations 1023622
▁komputer 1023415
▁certific 1023226
hä 1022976
54 1022791
νη 1022439
▁viaggio 1022396
ności 1022323
▁adequ 1022143
▁marina 1022143
▁43 1021922
▁repe 1021819
▁quarter 1021792
▁buurt 1021789
install 1021661
▁playing 1021531
omo 1021396
▁ви 1021007
▁sweet 1020628
lands 1020407
▁adjust 1020242
▁names 1020169
▁auswahl 1019986
gets 1019936
▁hr 1019912
▁contrôle 1019838
▁pueda 1019629
▁equival 1019606
▁chicago 1019438
▁ace 1019249
▁schon 1019059
▁guid 1018695
▁frag 1018686
▁liquid 1018529
▁01 1018112
▁rol 1017971
▁presentation 1017845
▁proyecto 1017789
▁ø 1017626
▁habit 1017614
▁cook 1017519
▁които 1017504
▁aer 1016913
▁released 1016775
anna 1016755
▁gente 1016615
▁stru 1016592
dat 1016557
▁adecu 1016443
?) 1016416
▁macht 1016406
▁grupos 1016059
▁binnen 1015690
▁oft 1015655
▁moyen 1015580
▁recibir 1015529
ία 1015324
đ 1015136
▁orange 1015118
▁nunca 1015098
▁inglés 1015024
▁onde 1014395
▁jeżeli 1014347
▁salon 1014291
aggio 1014264
▁theme 1014217
▁java 1014151
▁frais 1013781
▁cle 1013722
▁fundamental 1013707
▁musik 1013579
▁bonne 1013516
▁relative 1013461
▁podrá 1013137
like 1013019
▁mét 1012891
▁fino 1012736
▁analyse 1012573
article 1012432
imenti 1012266
▁savo 1012216
▁sons 1011702
zenie 1011555
ната 1011175
▁feedback 1011096
▁engag 1010942
▁shanghai 1010363
▁wert 1010299
łącz 1010258
▁wc 1010148
ën 1010024
▁russian 1009919
bau 1009708
▁task 1009501
▁tarife 1009455
▁compens 1009414
erst 1009337
▁alojamiento 1009317
▁contro 1009094
▁elke 1009011
tam 1009010
▁terrasse 1008880
nisse 1008830
▁advisor 1008727
▁accord 1008591
▁unserem 1008582
▁oma 1008556
▁reality 1007832
▁aktualis 1007657
atu 1007441
▁sco 1007320
▁działa 1007288
▁señor 1006883
erer 1006851
▁difference 1006723
▁mijn 1006454
“, 1006369
▁england 1005808
▁ella 1005627
▁possibility 1005625
▁1990 1005322
▁cob 1005110
▁reduced 1005040
▁planet 1004856
▁dus 1004696
▁orders 1004675
▁survey 1004571
▁majority 1004362
▁transmit 1003846
▁bri 1003685
но 1003508
▁sicherheit 1003248
▁américa 1002857
ós 1002585
▁edge 1002365
▁ky 1002123
▁pouvoir 1001900
▁conoc 1001885
gb 1001746
▁απο 1001722
ním 1001468
igung 1001119
▁followed 1001043
clus 1000947
qui 1000316
▁closed 1000223
▁provider 1000186
▁nouveaux 1000150
▁identity 1000070
▁pieces 999775
ži 999598
▁sop 999316
▁charges 999260
▁vietnam 999085
ási 998967
▁lec 998893
▁continued 998434
▁situado 998409
▁@ 998356
▁risol 998273
▁someone 997871
▁einzel 997859
▁recy 997803
▁wand 997739
abe 997686
▁load 997151
ší 997089
▁pir 996701
▁gir 996678
▁publication 996257
▁directamente 996199
▁günstig 996120
▁belong 996001
▁orgas 995954
▁attività 995904
▁meine 995741
▁motion 995255
▁// 994595
▁selec 994575
bt 994479
▁commerce 994426
▁bestand 994214
rin 994025
▁který 993986
vest 993737
▁fü 993424
▁experiences 993264
▁esa 992978
works 992819
▁aún 992729
▁cc 992502
▁ds 992262
▁meas 992117
▁einmal 992089
▁yellow 992019
▁consejos 991924
▁tut 991307
atives 991134
▁hid 991046
▁luxembourg 990780
▁jums 990713
▁vergleichen 990608
▁cav 990346
▁importanti 990296
▁entsp 990230
▁fot 990175
▁played 990160
▁swe 990088
▁excel 990006
zone 989962
▁bosch 989854
▁vulner 989701
dz 989654
▁privado 989501
▁acest 989434
vre 989410
iry 989339
▁principles 989242
▁espacio 989161
▁shoes 989144
▁rapp 989137
▁exac 989066
▁texto 988956
▁industries 988882
was 988544
▁perché 988315
ovať 988165
itä 988162
▁kab 988078
kg 988041
▁goals 987932
▁vital 987596
▁cancel 987567
▁mitt 987497
▁möglichkeit 987497
▁modif 987429
▁hear 987222
▁attractions 987211
▁buscar 987051
usion 986647
▁blo 986620
asa 986424
▁intég 986323
hin 986226
don 985968
▁tento 985593
▁dri 985016
▁créer 984905
62 984738
▁gestión 984688
▁mozilla 984514
▁pav 984173
▁sistem 984105
▁hele 983936
▁modèle 983786
owania 983727
▁prohib 983669
kken 983442
aca 983414
▁». 983357
▁sharing 983019
▁fecha 982786
inge 982780
▁gratuita 982759
▁except 982655
rak 982555
150 982368
urer 981960
▁vinden 981854
▁útil 981816
▁submit 981727
▁celui 981554
arr 981426
zan 981308
edi 981143
tifs 981110
well 981031
▁dod 980991
▁verschiedene 980767
lung 980752
karte 980704
▁victoria 980636
▁sid 980215
▁sag 980210
▁sarà 980106
ystem 979987
hnt 979923
▁tá 979585
▁scale 979522
▁luego 979470
▁wien 979324
▁tru 979085
elf 978992
▁ray 978832
▁buena 978631
▁führ 978541
pression 978532
▁nutrition 978497
▁siguientes 978450
▁signed 978238
▁rob 978178
▁único 978177
▁anno 978097
▁graph 977917
▁counter 977397
▁centres 977314
▁jet 977300
▁período 977211
▁laden 977088
▁agents 977042
▁anos 976748
▁fatto 976664
fra 976609
▁objective 976349
▁vasta 976274
▁prosp 976214
▁bmw 976206
▁97 976000
endes 975922
▁galaxy 975859
▁extre 975584
▁utilisateurs 975577
▁ä 975556
▁tent 975543
industrie 975539
▁imple 975436
▁busca 975400
▁fon 975188
▁religious 975087
▁jeho 974529
▁flo 974475
▁catégorie 974415
ijn 974231
▁kannst 974219
▁marco 974134
▁sha 974043
▁hang 973806
▁legend 973636
▁saber 973457
rio 973287
▁motore 973281
utt 973110
▁sing 972672
▁weiteren 972636
arsi 972628
mittel 972606
▁paint 972496
▁kä 972475
▁felt 972191
bank 972168
▁sauna 972048
▁kö 971783
▁eliminar 971636
fon 971599
ichen 971396
▁especialmente 971211
ingt 970958
▁départ 970736
lio 970686
▁dedic 970662
▁smoking 970658
▁kui 970569
bereich 970361
▁rc 970259
iev 970163
ständ 970156
▁proporcion 970131
▁combination 970063
iness 969999
omi 969966
ům 969657
▁saturday 969505
▁qualità 969387
ibil 969130
ový 968794
▁rule 968598
▁kraft 968595
▁erkl 968433
irá 968319
▁dollars 968058
▁consequ 967936
oi 967901
inta 967803
▁interesting 967738
▁différents 967723
▁fahr 966889
▁pièces 966817
▁jam 966786
▁projets 966740
▁religion 966736
▁bike 966397
▁tema 966391
▁anything 966308
iges 966119
▁walking 965827
▁londres 965824
ným 965816
то 965758
▁σ 965690
▁bestimmten 965560
▁nuevas 965113
▁effort 965066
▁ther 964981
▁housing 964915
▁balls 964683
▁preços 964648
▁prepare 964593
▁workshop 964448
▁medidas 964339
▁consultation 964334
▁ubytování 964264
imas 964123
▁£ 964039
▁retro 963874
▁bordeaux 963833
▁deluxe 963044
▁zus 962845
oten 962607
utta 962479
screen 962372
ände 962182
▁atmosphere 961984
▁erste 961920
▁peter 961679
ywhere 961412
▁código 961237
installation 961139
▁41 960958
▁charles 960953
utz 960810
▁fixed 960728
▁canal 960583
▁corps 960570
800 960468
▁stockholm 960226
▁stu 960164
▁proven 960151
▁sogar 959984
gere 959790
▁utilizando 959585
▁schutz 959453
▁contr 959313
▁norte 958896
ри 958727
▁mogą 958685
▁mang 958610
ád 958599
▁características 958522
▁reduction 958375
▁dise 958207
▁ese 958176
▁interview 958048
▁pago 957996
▁mö 957987
▁aircraft 957828
▁continuación 957808
▁logiciel 957707
▁ideale 957642
▁kost 957602
wel 957384
▁dateien 957363
▁ara 957331
standing 957215
▁faut 956881
▁transmission 956835
▁requested 956729
▁trading 956651
▁frem 956582
shirt 956580
▁netherlands 956472
▁simplemente 956394
▁webseite 955906
nego 955810
▁processo 955440
▁gé 955388
▁notamment 955081
▁integra 954986
▁ry 954870
igo 954735
▁santiago 954614
ichte 954605
ijo 954347
▁county 954323
▁educ 954204
▁sek 954146
▁marque 954098
▁objects 953937
ariat 953724
▁présente 953540
▁géné 953506
▁trend 953348
▁mantener 953342
▁honor 953261
illing 953201
▁ermöglicht 953150
2018 952912
▁influence 952912
▁entrada 952819
▁leadership 952622
53 952544
▁hemos 952516
▁kort 952208
▁gefunden 951943
▁frequent 951928
▁apr 951770
▁somos 951758
▁administrat 951742
plat 951539
▁soc 951187
oca 951144
lav 950949
▁ressources 950883
▁height 950811
▁participate 950782
▁aunque 950631
▁lavpris 950433
▁possa 950424
▁jin 950330
▁compact 950325
▁début 950069
organ 949975
▁búsqueda 949739
▁villas 949700
▁tower 949320
▁chapter 949312
▁sozi 949257
▁lag 948959
▁formula 948958
▁channel 948927
▁conservation 948900
▁thousands 948670
▁telecom 948472
▁appli 948355
▁suis 948304
▁spezi 948033
▁extreme 947629
▁mond 946925
▁manner 946791
nehmen 946623
▁maps 946617
▁domestic 946492
yen 946405
▁imágenes 946356
▁diesel 946154
▁jack 946019
▁coche 945973
▁× 945954
orts 945739
▁unten 945654
▁provision 945429
μο 945283
▁dai 944959
001 944888
▁pret 944690
▁lum 944613
▁clim 944589
▁genießen 944514
ské 944443
▁contemporary 944377
▁pec 944152
▁helpful 944120
▁transition 944120
▁προ 944096
west 944029
ла 943849
▁accès 943598
▁fishing 943587
aged 943550
▁puntos 943468
baar 943451
▁promo 943428
▁hors 943297
▁jotka 942880
▁brazil 942870
▁llegar 942848
▁sad 942705
▁spend 942680
▁spre 942277
▁changed 942166
▁aucun 942163
▁dialogue 942021
▁rápida 941735
▁vall 941577
▁bereich 941569
▁fum 941499
▁verwendung 940515
tera 940503
▁mejorar 940417
▁rail 940394
▁specifications 940071
▁encourage 939806
card 939805
▁arg 939789
▁fans 939601
▁nécessaire 939595
geben 939579
▁spread 939575
▁00 939403
▁zi 939360
▁secteur 939250
▁calls 939232
max 939107
▁mine 939044
▁casi 938622
▁acces 938581
▁retail 938521
▁vet 938462
aco 938041
▁noir 938014
▁medida 938004
▁defined 937891
▁doch 937535
udo 937533
führ 937395
nut 937024
▁reservar 936787
▁opción 936667
▁comparti 936649
▁gt 936569
▁broadcast 936525
▁nota 936464
▁prü 935978
▁contenu 935921
▁execu 935745
▁obligations 935704
▁bois 935646
▁έ 935620
▁fed 935566
coming 935437
▁coll 935251
▁exer 935022
▁zonder 934972
▁nombreux 934945
▁noche 934820
rada 934785
▁fichiers 934766
stat 934719
▁elektron 934678
iku 934477
▁conver 934388
▁personali 934269
▁excelente 933986
och 933911
▁assign 933810
ør 933725
▁aqui 933460
▁paar 933197
▁verdad 932489
▁scar 932396
going 932298
▁ye 932214
▁beau 932114
▁spec 931816
imp 931802
maschine 931410
▁pit 931269
mor 931231
tunes 931085
▁upper 930778
taj 930679
▁directory 930561
miento 930461
▁při 930114
▁quad 930067
▁bran 929931
σει 929798
vä 929732
▁routes 929146
▁hydro 929088
▁titre 928853
ension 928529
▁blan 928409
▁jer 928099
▁systèmes 928084
98 927745
▁terminal 927739
ably 927738
mag 927682
▁explic 927543
ufen 927357
ticas 926992
fran 926750
lock 926646
iros 926361
▁vanaf 926328
▁excep 926191
aggi 926095
▁wohn 925765
▁relación 925688
hem 925670
▁punta 925570
▁alone 925569
▁tens 925289
▁valencia 925271
▁nutri 925237
rea 925139
▁singapore 925108
.[ 925091
600 924994
ność 924827
▁vec 924642
▁besteht 924400
▁dest 924149
änger 924061
▁körper 924035
▁alte 923808
▁convenient 923682
▁donne 923561
nim 923138
vit 922533
▁url 922494
tima 922364
▁resource 922168
▁joy 922134
▁actualiz 922024
ail 921994
▁haya 921775
▁categoría 921765
▁channels 921572
▁drop 921434
▁perc 921404
▁eigenen 921363
▁oppos 921152
▁schön 920882
▁mesures 920638
oro 920585
▁eg 920505
▁alleen 920417
▁beds 920369
rod 920178
▁senator 920142
▁anzahl 920082
▁gama 919947
▁goes 919797
ových 919694
▁grow 919622
▁heil 919252
▁flowers 919228
owa 919196
τά 919190
▁dacă 919082
▁effic 918985
▁monday 918968
▁girl 918892
▁etter 918849
online 918784
ichten 918763
če 918721
▁encontrarás 918596
▁avenue 918573
▁agriculture 918566
▁aplicaciones 918328
ών 918282
▁souvent 918257
▁raison 918237
fun 918144
▁saison 918136
▁scan 918128
▁caused 918108
▁1997 918067
▁αν 917857
ache 917817
▁qualidade 917769
▁opciones 917757
▁informace 917651
▁59 917591
nent 917590
ikk 917544
▁ani 917525
▁preserv 917205
eler 917070
ije 916792
cier 916553
▁solche 916363
▁sod 916345
minute 916262
cou 916256
ód 916205
▁adults 916168
▁anavar 915871
▁appoint 915831
▁becomes 915802
▁fuera 915741
ienne 915737
jem 915719
ují 915609
▁lighting 915574
▁utilizza 915529
tiques 915459
▁bev 915259
raz 915252
▁acciones 915175
▁combined 915089
▁senior 915054
mc 914684
▁supplier 914417
▁reta 914390
▁decide 914280
▁vr 914190
▁arten 914141
▁restaurante 914072
ách 914067
▁må 913992
emo 913579
▁kü 913331
ди 913120
eken 912823
▁sue 912642
sam 912407
chter 912313
asser 912239
▁dw 912221
▁definition 912220
▁funktionen 912153
▁sche 911872
▁anne 911843
▁usando 911783
▁dj 911695
▁máquina 911590
wear 911094
▁tac 911091
▁gif 910876
▁serviço 910838
▁εκ 910736
▁küche 910535
▁registry 910337
▁cord 910315
▁relating 910257
▁deus 910082
▁metres 910049
▁tren 909944
▁choix 909925
umen 909910
▁border 909877
▁totalmente 909772
▁phot 909673
▁consul 909605
▁territory 909538
▁sir 909427
▁hav 909402
▁údaje 909312
ária 909309
nar 909275
▁hast 909267
▁rapide 909176
▁ninguna 909043
▁sociale 909011
▁ll 908889
!! 908862
▁befinden 908581
▁beispiel 908577
▁mun 908451
▁får 908410
▁clearly 908385
gro 908220
▁exter 908165
▁dias 908013
▁adresse 907953
▁portal 907938
▁proceed 907826
ervice 907794
elu 907776
▁sü 907634
▁gb 907459
▁versión 907178
▁taille 907007
▁feet 906976
zahl 906971
▁brown 906940
emed 906777
this 906546
▁invent 906372
vir 906287
▁fem 906212
▁initial 906168
▁offices 906047
▁valeur 905737
▁mieux 905637
▁tribunal 905377
▁besoins 905295
▁incluye 905213
▁ers 905194
onder 904978
▁configuration 904865
ými 904800
▁seems 904744
▁cotton 904651
ären 904554
▁anyone 904532
yan 904481
▁rede 904457
▁mt 904364
iler 903825
▁darauf 903764
▁stránky 903707
▁representative 903623
ursu 903617
ví 903537
oren 903113
aker 903048
▁immig 902946
rup 902916
▁milan 902880
wd 902774
rador 902641
uz 902608
ieden 902477
produ 902365
lik 902293
▁trial 902235
ző 902117
▁rating 902016
▁cama 901657
▁dynamic 901650
▁uni 901599
▁plein 901158
▁altre 901062
▁certification 900920
▁unknown 900866
lauf 900864
seite 900788
▁cau 900787
▁architect 900770
nan 900386
▁requests 900375
▁moving 900343
▁imagen 900231
▁grant 900139
▁heavy 900046
ament 899833
▁laptop 899708
▁agenda 899623
▁opt 899556
▁erstellen 899530
▁representatives 899503
▁informacje 899425
84 899276
▁imag 899261
▁discussion 899239
▁acheter 899054
▁våra 899042
äch 898916
▁parce 898673
▁fonds 898377
▁tat 898336
▁desktop 898333
adora 897961
▁dijo 897815
▁než 897755
▁disfrutar 897392
▁certified 897367
▁platz 897159
▁membre 897086
▁ub 896752
nement 896691
▁marie 896557
▁klein 896415
], 896400
▁verz 896390
▁deres 896269
▁unesco 896227
▁agora 896209
▁incor 896174
▁indi 896152
▁locales 896088
▁guerra 895882
union 895785
▁tamaño 895461
▁wear 895369
▁providers 895351
▁statistics 895126
▁pied 894721
owego 894679
▁lounge 894614
▁editor 894518
▁vat 894407
▁mallorca 894252
stu 893976
ši 893871
lande 893721
clud 893646
ρι 893613
utes 893607
▁palm 893355
▁sets 893351
▁practical 893326
▁bear 893275
") 893191
show 893156
▁extensión 893147
▁taxi 893008
▁nehmen 892985
▁certainly 892697
▁bul 892116
▁quello 892037
▁extremely 892026
▁corazón 892020
▁funk 891909
onic 891885
park 891851
▁orlando 891695
▁sms 891595
nier 891535
▁spor 891480
kö 891139
▁εν 890876
▁brother 890855
▁může 890651
▁condu 890639
▁através 890632
▁deutsch 890520
▁gehen 890397
ουν 890369
▁hyper 890307
▁vé 890235
▁στα 890196
▁viajes 890087
▁christmas 889963
▁affected 889771
57 889459
▁konver 889297
▁princi 888939
▁oli 888822
▁valu 888741
▁biedt 888674
▁kle 888589
▁cancell 888329
▁prot 888305
▁fas 888292
▁dovrebbe 888084
▁permis 888035
▁nacht 887939
tific 887664
side 887530
▁reservations 887515
▁tale 887507
▁dollar 887347
rato 887216
naire 887067
▁jurisdic 886873
▁verschillende 886838
▁sélection 886666
cab 886491
▁podrás 886106
ceed 886065
▁payments 886016
▁reached 885803
▁grün 885729
▁embar 885447
▁turkey 885384
▁nic 885371
▁complic 885361
▁constitution 885310
▁secretary 885207
▁abajo 885200
elto 885034
igne 884609
▁zugang 884527
▁nep 884371
▁stim 884257
▁arbeiten 883951
▁daar 883882
▁kaikki 883786
▁excurs 883514
üglich 883487
esis 883350
▁prison 883249
▁resultado 883119
▁wetter 882991
▁productiv 882888
dag 882866
kal 882205
▁conexión 882046
▁adult 882044
▁carta 881894
▁elig 881481
63 881466
▁spent 881450
▁login 881262
▁continues 881226
▁mondiale 880885
▁lip 880818
▁couple 880789
▁truth 880730
▁trees 880645
▁iden 880398
▁détails 880321
▁greece 880301
▁schedule 880017
▁metros 879983
▁buen 879902
cido 879826
▁taxes 879748
▁varia 879730
▁chosen 879601
▁george 879531
▁jus 879485
ein 879440
▁nejlepší 879358
▁jeśli 879248
▁purch 879210
indre 879184
▁danych 879146
lass 878969
▁outlook 878898
▁resistance 878771
▁priority 878674
▁aluminium 878419
zw 878098
▁song 878024
íl 877988
ensa 877928
üh 877920
amer 877878
▁squ 877767
▁járat 877721
▁podría 877715
▁oz 877402
▁nærheten 877213
▁llevar 877176
▁tank 877106
▁sitios 876998
▁archive 876920
agn 876907
▁navegador 876907
▁rech 876881
▁bottom 876654
▁barn 876521
amine 876502
▁demonstr 876166
▁estrellas 876112
▁relig 876066
▁hyd 876040
▁dein 876005
▁reproduc 875944
▁mí 875932
▁debido 875862
df 875739
▁schweiz 875479
etten 875453
▁seguir 875397
alización 875277
▁leicht 875067
▁tok 875020
▁tilbud 874958
▁nærheden 874937
▁wonderful 874908
▁ig 874896
πο 874746
ship 874689
▁rund 874599
zeich 874490
▁bond 874367
▁interac 874288
▁institu 874161
▁cambiar 874065
▁hiv 874048
▁seconds 873805
hof 873711
▁stream 873458
▁bh 873413
ancia 873035
site 872942
▁ubicación 872786
▁là 872624
acja 872478
▁diagnosti 872444
▁hung 872335
▁gri 872176
kä 872005
▁alc 871957
usch 871843
▁tall 871811
▁mountains 871675
stre 871598
ân 871565
▁paso 871416
▁geneva 871400
▁inclus 871332
▁función 871035
▁ausge 870815
▁comunic 870798
▁specifically 870706
▁ober 870590
▁dual 870507
cional 870344
▁pob 869923
▁currency 869854
▁expres 869762
▁giorno 869733
▁preven 869621
lab 869605
▁spel 869462
▁dou 869442
▁diego 869346
▁wollen 869246
▁visitar 869173
▁capaz 869069
▁términos 868926
▁möchte 868797
▁eastern 868735
▁aware 868516
▁respec 868426
év 868329
ieten 868216
▁doen 868196
▁vote 867997
omet 867991
▁1996 867933
rice 867808
▁inspir 867577
▁managed 867572
py 867535
▁snel 867392
▁verm 867374
▁libro 867203
ower 867170
adh 867024
kou 867003
illon 866974
▁já 866876
france 866593
▁ic 866319
▁summary 866288
atiques 866179
itiv 866147
▁у 865966
▁misma 865956
83 865700
▁attrac 865700
▁convertir 865688
ways 865670
▁count 865574
96 865476
▁parlament 865431
▁proveedores 865326
▁helpen 865235
▁producten 865182
accès 865167
ights 865123
▁deel 865090
▁cambi 865016
▁abbiamo 864902
▁solidar 864856
▁cred 864812
▁soci 864747
▁ride 864713
▁specified 864613
▁vás 864509
▁seek 864328
état 864301
▁muse 864301
bin 864265
▁machinery 864188
tigung 864084
▁changing 863911
▁systém 863875
appare 863764
▁behal 863703
▁asoci 863629
στε 863529
▁engagement 863458
oir 863280
▁[...] 863220
▁portable 863183
année 863119
▁zwe 863110
▁entit 863073
▁steht 862753
ások 862728
▁haupt 862714
▁probably 862584
▁revel 862433
éc 862418
▁gere 862413
▁vert 862280
▁potenti 862269
stoff 862230
▁außerdem 862173
▁verkauf 862134
▁prueba 861923
▁trabaj 861892
ния 861865
ichts 861807
▁toim 861755
▁fax 861751
▁agreed 861733
▁utilize 861678
▁trouve 861628
▁usage 861589
▁jen 861191
▁indien 861179
bour 860960
▁eat 860509
▁ingredients 860502
▁durable 860373
▁pedido 860310
▁southern 859846
▁acceler 859672
autre 859584
▁52 859532
iks 859446
▁envi 859416
▁rahmen 859371
verse 859324
▁roof 859289
▁propiedad 859165
▁funktioniert 858776
▁étaient 858751
wand 858723
▁klass 858713
▁inoltre 858491
▁erfahrung 858376
ival 858318
▁bug 858255
key 858249
▁improved 858129
▁mange 857852
▁exterior 857778
▁ventil 857697
tä 857637
▁pueblo 857591
▁sociales 857441
▁resol 857379
▁comprehensive 857320
▁juli 857192
▁jamais 856906
ního 856883
▁passer 856820
▁corner 856767
▁seat 856630
▁neben 856428
▁wilt 856418
ére 856352
▁huge 856206
▁selv 855458
▁continuous 855431
anje 855380
-- 855222
▁gens 855035
да 855015
▁público 854964
▁betrieb 854895
▁quindi 854803
aki 854690
▁iran 854666
▁operator 854597
iene 854515
▁recru 854308
▁cham 854290
wor 854214
82 854170
▁fif 854156
▁reader 854052
enas 853896
▁också 853849
▁iglesia 853715
▁vig 853630
▁modul 853389
▁deren 853111
▁dafür 853039
itäten 853000
ency 852903
mil 852861
▁centr 852753
▁zak 852426
▁epson 852233
ecer 852122
▁luft 851982
▁franc 851931
▁hundreds 851931
▁disclos 851923
uksen 851803
▁nada 851790
▁pus 851667
ának 851430
▁nodig 851390
▁visible 851336
▁garage 851129
cke 851031
▁sosten 850935
▁comprend 850899
asz 850506
▁stored 850406
cf 850400
▁reino 850272
▁pub 849855
▁linux 849709
▁sched 849663
▁glas 849612
▁paulo 849554
▁necesidades 849315
best 849174
▁boats 849156
▁reflec 849076
▁ferry 849018
meg 848644
▁oslo 848635
▁petite 848630
▁banks 848368
▁110 848299
▁supplement 848199
▁pourquoi 848187
rus 848101
▁organized 848034
▁gender 848024
▁arc 847831
▁unterschied 847823
▁parmi 847794
▁optimal 847790
▁lok 847658
▁kamer 847642
▁coach 847402
▁consistent 847397
▁humanos 847206
urn 846991
hing 846981
amas 846741
▁entertainment 846711
▁museo 846564
▁criminal 846456
▁calgary 846409
▁perfekt 846304
▁após 846118
▁kombin 846064
▁miner 845702
▁infec 845270
dc 845218
▁sole 845181
▁introduction 844990
▁assets 844799
▁benefici 844771
▁springs 844736
you 844611
▁clienti 844608
ře 844423
▁oplysninger 844413
▁reflect 844400
▁ancient 844328
▁colum 844320
fc 844248
▁1994 844208
▁angebot 843992
▁weiß 843845
▁exam 843814
grad 843803
%) 843792
▁cir 843786
▁vuelo 843753
ünk 843745
izz 843673
▁absol 843620
▁propre 843588
▁mainly 843582
ίας 843534
▁forte 843476
▁characteristics 843145
▁inne 843105
dis 842879
▁accom 842853
īt 842826
▁collective 842807
▁μπορεί 842709
▁davon 842554
%, 842442
▁celle 842167
▁dienstleistungen 842110
▁adventure 842000
alta 841986
ése 841885
ért 841612
2019 841582
▁obst 841519
ρη 841499
ech 841474
alité 841431
▁väl 841370
▁exact 841348
▁musique 841126
▁uhr 840848
menti 840576
▁pump 840381
▁ident 840187
▁impl 840091
▁tul 840068
▁streaming 840040
isión 840008
hö 839915
▁prenotare 839743
▁gy 839620
▁bound 839500
▁centrale 839432
▁tussen 839408
▁attribu 839327
▁license 839320
ennen 839288
▁integ 839274
ții 839222
ót 839179
gage 839139
alization 839054
▁verbindung 838985
▁tienes 838941
gie 838808
▁rey 838798
▁reception 838690
▁eff 838689
hez 838629
tiger 838589
itting 838473
▁raw 838468
▁chile 838459
▁cannabis 838378
▁balcony 838226
juk 838197
▁aur 838173
▁vistas 838148
▁flex 838128
▁daher 838075
ured 837958
▁heard 837755
▁etwa 837664
▁football 837400
▁toate 837226
▁convin 837191
▁travelocity 836892
▁ordinateur 836834
utilisateur 836794
▁terme 836697
▁founded 836667
▁lou 836613
tas 836544
▁army 836520
▁tier 836501
cks 836350
▁offres 836131
▁zie 835941
etzen 835789
▁vicino 835759
entar 835717
altung 835679
▁kamp 835625
otte 835540
▁movie 835500
▁cerc 835357
▁manchester 835149
▁brands 834957
▁accounts 834949
μό 834848
▁ruta 834685
ront 834683
down 834612
▁dagli 834549
class 834536
< 834461
ες 834178
▁mantenimiento 834159
▁wellness 834150
urre 834137
▁ensemble 833758
▁classe 833744
▁publications 833504
▁adequado 833495
ago 833487
▁segundo 833460
▁split 833459
▁novembre 833349
nl 833282
▁précis 833213
▁seleccion 833189
itud 832959
abs 832856
▁zdarma 832688
▁chemical 832464
▁président 832458
anja 832419
ické 832342
▁principio 832049
ια 831880
ме 831811
quement 831747
cja 831346
▁herunterladen 831144
▁giorni 831097
▁magic 831079
▁soluciones 831075
base 830989
▁trabalho 830987
oks 830967
▁offic 830940
▁phuket 830844
▁mik 830461
fication 830460
cop 830338
▁appreci 830317
utente 830179
▁adv 830135
▁eight 830091
enze 830057
▁lire 830020
ball 829912
▁sto 829781
▁inqu 829656
▁mediterranean 829649
odo 829645
▁hop 829547
▁driving 829511
▁medicine 829417
▁personenbezogenen 829376
▁hombres 829359
plic 829168
autor 829028
esser 828893
▁apart 828813
▁gef 828757
▁mehrere 828724
erna 828533
▁calle 828522
▁nuclear 828450
▁fins 828418
but 828289
▁éch 828029
▁sexu 827854
▁eig 827843
chat 827737
adamente 827546
▁eventu 827269
▁boek 827053
▁necesita 826896
▁semi 826879
rik 826798
▁konnte 826632
▁altro 826504
ridge 826419
aving 826385
▁rele 826206
▁consecu 826193
1000 826182
▁papier 826175
▁restor 826126
▁showing 826122
▁spaces 826082
▁redu 825769
suchen 825610
▁standing 825587
anter 825476
▁egypt 825432
▁io 825391
eles 825373
▁rac 825183
▁erfül 825111
▁ändern 825003
▁prince 824916
▁kommen 824694
▁privacidad 824684
▁weer 824625
rique 824465
▁gain 824305
▁pleasant 824305
▁analiz 824053
chtig 823957
▁kb 823875
▁ristoranti 823776
▁jew 823714
ativos 823678
ait 823443
▁landscape 823344
ening 823237
▁affili 823166
host 823136
▁osob 823091
▁κατα 822760
ží 822710
▁cidade 822662
▁diamond 822520
73 822492
▁tod 822476
▁recog 822362
isia 822300
application 822226
elő 822213
▁effet 822205
▁consci 822176
▁folgenden 822176
▁ayant 822136
▁competitive 822076
▁beschikbaar 821845
▁vere 821700
▁stunden 821658
▁berg 821155
▁hac 821141
▁lá 821134
íc 820985
▁wis 820748
▁configuración 820638
oba 820565
esh 820352
▁educational 820301
umu 820152
τι 820010
81 819983
▁dirig 819873
▁descri 819819
▁vpn 819746
zin 819634
▁zullen 819402
▁zařízení 819317
ivamente 819293
▁contiene 819087
▁agricultural 819054
▁destru 819026
▁única 818985
▁stan 818902
▁allem 818799
▁poz 818527
▁tort 818380
▁apost 818297
haft 818278
kommen 818133
chang 817923
éis 817923
isce 817692
vise 817666
▁calendar 817562
▁situations 817202
▁cultura 817099
▁modelos 816924
▁trends 816821
▁preparation 816808
▁czas 816673
▁camere 816632
aver 816602
▁grey 816538
▁hydraul 816530
▁megtalál 816490
▁atención 816449
2000 816390
▁secur 816264
tory 816106
▁tes 815639
▁bend 815571
▁priceline 815514
▁accesorios 815374
▁suit 815320
▁histori 815287
▁sexy 815092
ako 815065
▁railway 815010
▁milk 814903
▁battle 814787
▁rise 814662
stra 814616
adr 814615
▁precisa 814469
elas 814422
▁pilot 814422
▁urlaub 814295
▁garantía 814294
bec 814292
že 814287
▁vale 814016
▁mant 813974
▁conce 813869
pth 813759
über 813756
▁oven 813702
▁appropri 813592
▁designs 813562
▁absolut 813283
▁directors 813189
▁accurate 813114
▁grote 813079
omb 813073
cious 812562
oka 812290
▁femme 812014
entreprise 811862
ète 811677
▁stopp 811662
▁ordenador 811632
▁unto 811397
▁mobility 811283
uche 811154
quis 811151
▁estás 810950
zk 810835
wert 810798
gos 810744
▁classes 810650
▁female 810593
▁funcionamiento 810542
▁familien 810435
▁kaip 810416
▁terceros 810153
emi 810105
▁1995 810050
zeug 809954
aktiv 809840
▁bless 809658
kem 809637
oty 809591
▁periodo 809369
lado 809321
▁juin 809318
▁claims 809295
▁redes 809292
σεις 808992
▁fiscal 808908
führt 808821
▁bingo 808768
▁boeken 808694
▁construc 808647
führung 808478
▁casas 808454
nete 808406
▁detalles 808390
▁englisch 808352
▁frei 808339
fit 808220
charge 808164
gew 808101
▁erreichen 808089
▁kw 807911
osten 807901
▁56 807898
blick 807787
▁frente 807786
▁gå 807780
▁aprender 807751
bedingungen 807613
idor 807569
recht 807387
▁pf 807345
▁principale 807246
▁acesso 807221
▁πρέπει 807190
▁bour 807167
år 807128
▁politiques 807101
▁lunch 807088
▁180 807080
▁thomas 806999
ální 806889
▁negative 806870
▁então 806823
▁experienced 806813
reich 806547
▁cuales 806492
▁verarbeitung 806403
▁rápidas 806307
▁hamburg 806293
teen 806215
▁figur 805934
▁mujer 805929
▁decir 805917
▁surveillance 805804
▁firma 805534
prü 805482
▁amazing 805112
▁condizioni 805074
nelle 804832
▁cliquez 804761
ature 804706
▁čas 804666
▁κ 804585
▁enthalten 804480
▁planta 804345
berry 804312
jos 804063
arna 804059
▁evolution 803865
▁mio 803731
▁muestra 803728
▁městě 803675
iki 803406
▁fee 803384
▁añadir 803337
▁(" 803298
▁moi 803183
viv 803144
▁lodge 803020
▁tasks 802969
▁différentes 802957
▁presta 802800
ική 802713
▁souha 802599
▁perman 802583
▁tenemos 802454
▁consists 802426
▁rul 802415
▁gardens 802344
▁recomend 802329
bert 802276
▁entrance 802238
▁jardin 802238
bia 802195
▁beaches 802190
▁700 801955
gestellt 801840
▁wider 801577
▁writ 801355
▁rico 801065
▁trying 800759
▁vind 800539
▁michael 800287
eck 800238
prises 800165
▁prost 799973
ält 799919
▁ciò 799832
▁complement 799626
éré 799582
udes 799553
ulos 799508
▁certaines 799438
ription 799375
▁semaine 799333
▁roku 799222
▁necessario 799171
▁trail 798983
arts 798977
dessous 798948
▁aliment 798865
mg 798864
erea 798849
▁novo 798734
▁devo 798581
rant 798415
▁kart 798369
▁obtenir 798284
other 798283
▁lun 798255
▁fres 798153
▁música 798094
▁estaba 798020
▁bathrooms 797936
▁posizione 797885
▁positions 797838
▁kabel 797730
▁aktivitäten 797675
etas 797630
▁toe 797553
▁hvordan 797486
ieg 797450
▁wszystkie 797020
▁tels 796896
jä 796852
eline 796667
▁pair 796400
▁prevention 796264
λη 796140
▁warum 795946
zia 795764
gd 795762
▁pont 795735
▁teaching 795729
▁dagen 795660
lam 795632
miss 795395
▁jun 795337
▁kontrol 795326
▁jeunes 795193
▁tijdens 794973
▁joseph 794829
sport 794783
▁fm 794712
culos 794641
▁smooth 794636
open 794459
orter 794443
ump 794002
jection 793677
▁quatre 793636
▁functional 793601
▁ciclo 793540
▁poate 793499
lec 793390
▁anwendung 793332
▁suoi 793318
▁digit 793300
▁solic 793291
▁avanz 793280
▁tav 793257
▁diseñ 793188
unts 793055
íte 792971
alia 792790
▁easier 792736
▁fines 792693
▁alb 792617
▁grav 792524
cket 792338
▁piscine 792327
▁sheet 792305
▁amplia 792258
test 792181
ños 792038
▁trouverez 792024
▁varias 791955
▁licen 791829
rou 791725
▁prec 791709
quar 791683
▁nuova 791538
št 791358
▁carri 791305
▁dès 791284
▁modes 791191
▁corpor 791170
▁cream 791160
ść 790887
97 790880
▁proto 790569
▁éc 790479
▁við 790390
▁européenne 790319
baren 790205
ección 790023
▁kos 789963
▁jed 789932
▁antworten 789907
▁tej 789790
tual 789741
▁tú 789641
vad 789583
▁janeiro 789576
▁γ 789555
▁ireland 789547
▁lleg 789509
kas 789285
▁repos 789227
anci 789097
▁tard 789006
▁tennis 788861
▁ensuite 788859
▁formular 788800
▁sample 788540
▁instalación 788428
▁expression 788383
cons 788089
▁org 787973
aging 787948
▁flower 787889
▁twee 787842
▁desta 787797
τική 787730
▁governance 787688
izi 787648
▁botón 787450
▁rice 787181
ensemble 787023
▁branch 787003
▁output 786924
▁itt 786886
▁volvo 786878
estas 786678
▁grat 786582
▁commande 786564
▁materia 786544
▁prague 786518
▁contacts 786453
quality 786442
▁investi 786312
ük 786157
▁comunidad 786116
mad 785963
▁acid 785923
▁diff 785777
▁concrete 785736
▁recover 785647
▁falta 785450
▁categoria 785405
▁další 785305
▁argentina 785254
weis 785193
▁dettagli 785169
emploi 785152
▁html 785089
▁burn 785026
▁bare 785007
▁structures 784957
führen 784916
▁piezas 784867
▁ath 784810
ree 784634
λε 784508
▁seul 784372
.: 784357
jec 784330
oa 784136
▁blick 784127
ître 784107
τή 784069
▁slight 784022
▁dif 783977
▁pink 783973
ór 783755
itus 783744
▁parque 783710
▁69 783655
▁dernier 783505
▁kurs 783288
▁vintage 783136
▁palest 783130
▁tue 783073
▁dun 783030
gal 782915
▁robert 782851
▁olyan 782655
▁admin 782635
▁sugar 782557
tex 782468
riff 782329
▁än 782238
vc 782178
▁lei 782120
▁wirklich 781981
▁seja 781826
til 781807
▁mem 781803
▁spacious 781626
lijk 781499
▁κατά 781300
▁comparison 781162
écran 780943
▁kok 780863
▁entrega 780820
lap 780782
zym 780738
▁seinem 780714
▁intr 780686
▁piel 780598
akt 780579
▁zones 780577
▁lokal 780552
▁seal 780441
bud 780324
person 780256
▁zubehör 780089
▁tidligere 780055
▁lon 779961
▁paese 779910
zés 779692
▁jej 779566
▁testimon 779366
▁produkter 779323
▁riesgo 779311
▁tarjeta 779259
▁implic 779074
▁lay 779012
umb 778983
▁gor 778934
▁erre 778901
fico 778715
▁óp 778631
▁sina 778629
▁contribut 778602
fläche 778499
▁directement 778496
alten 778388
▁mouse 778359
▁samen 778350
▁entra 778235
▁amo 778038
fahren 777909
legen 777906
▁arrang 777868
▁parks 777706
party 777681
▁cn 777569
will 777401
▁hart 777363
change 777321
chem 777255
ense 777114
nam 777069
▁ibis 777028
rib 777026
ception 776824
▁chf 776793
▁pow 776788
bay 776748
▁interesse 776704
▁myös 776569
▁peru 776391
yth 776362
ρό 776325
▁climat 776207
▁umgebung 776165
quant 776095
▁corpo 775958
▁desire 775848
▁tiss 775584
amme 775502
unat 775410
▁sov 775337
▁cena 775143
▁pvc 775022
▁cz 774958
▁bob 774857
▁nich 774522
▁queste 774372
iu 774168
▁inner 774145
▁frecu 773855
▁causes 773846
origin 773815
fica 773778
▁accessoires 773747
▁temple 773606
▁áll 773407
unted 773251
idu 773194
isu 773113
▁téléphone 773069
▁técnico 773035
▁zentrum 773005
▁alcohol 772902
▁mogelijk 772884
▁geschichte 772872
ének 772861
▁camino 772783
▁enh 772773
yg 772709
▁presidente 772659
érer 772567
ping 772467
▁minist 772462
▁nära 772283
trag 772258
▁57 772245
▁dinner 772244
edor 772049
2011 772041
▁oktober 771932
▁manifest 771745
aw 771630
▁nuit 771612
▁detall 771454
▁egg 771395
▁dernière 771380
abb 771167
▁septembre 771104
acji 771048
▁vag 770972
atri 770956
ят 770880
▁named 770847
vien 770745
▁prav 770676
öst 770424
▁prend 770321
▁corrup 770290
dl 770279
▁hommes 770264
▁saying 770087
▁computador 770001
▁ress 769995
▁caracter 769834
▁breath 769776
▁segu 769764
oter 769715
igkeiten 769682
▁thursday 769516
▁facility 769484
▁rendimiento 769388
▁twin 769270
▁dish 769208
▁senc 769118
inden 769116
osas 768891
ované 768873
▁nied 768765
▁divis 768589
▁chap 768526
▁magazine 768358
oming 768334
▁bewertungen 768227
▁hearing 768098
▁evangel 767943
▁те 767926
▁contin 767861
▁gewähr 767674
▁veuillez 767626
▁všechny 767509
ático 767432
▁zeer 767348
non 767326
▁imper 767212
itaire 767074
▁thick 766993
know 766772
▁doors 766718
▁sprach 766566
annt 766537
▁oro 766350
tiven 766240
▁glu 766179
▁fru 766114
▁mensch 765895
script 765891
▁mensen 765827
ession 765813
▁51 765791
▁fueron 765673
▁czech 765656
rand 765343
ív 764992
▁reconoc 764978
mitt 764835
▁documentation 764729
▁capacité 764496
▁realmente 764369
▁spiritu 764300
▁06 764198
▁teile 764124
▁performed 764115
▁taux 764069
agt 764062
▁fen 763956
▁primo 763948
▁outras 763820
▁sust 763785
cover 763595
▁contributions 763519
▁laquelle 763401
▁einschließlich 763318
▁jerusalem 763286
▁score 763203
▁fear 763126
▁satisfaction 762976
▁hinaus 762945
▁elect 762899
zel 762895
▁auprès 762859
▁combina 762835
▁negocios 762667
▁materiales 762643
▁rouge 762618
▁о 762550
▁wich 762387
▁plaats 762336
lip 762329
ær 762308
▁komfort 762213
▁tele 762169
▁cells 762005
▁kommission 761986
data 761915
▁champion 761904
rij 761879
▁attraverso 761870
▁stem 761870
▁τ 761831
▁dance 761665
▁obra 761504
▁datum 761465
▁bodies 761444
▁schn 761343
▁atlantic 761321
▁translation 761300
▁kod 761115
iras 761047
▁sean 760966
▁couleur 760789
▁nit 760747
▁delta 760676
tos 760577
▁concent 760507
czy 760504
zon 760501
▁ainda 760493
hmen 760297
▁musée 760181
▁crime 760088
▁sicurezza 759835
▁adopt 759772
▁programming 759768
▁soleil 759719
▁extens 759603
esehen 759563
▁jesús 759551
▁kla 759232
▁ej 759095
▁â 758785
home 758773
▁istanbul 758758
ną 758736
ματα 758380
pak 758342
ément 758273
▁licens 758077
▁gute 757966
▁auton 757549
▁eventos 757546
▁carga 757484
▁korea 757481
▁miglior 757391
▁cristi 757330
▁einzig 757186
▁œuvre 757146
▁cinema 756979
▁fondo 756978
util 756930
file 756928
▁hver 756838
engers 756656
mens 756555
▁arrive 756463
nous 756443
▁; 756306
▁één 756213
▁cry 755917
▁365 755809
▁distin 755534
▁amenities 755531
▁stesso 755439
▁legjobb 755397
▁estándar 755368
▁temp 755171
▁larger 754821
▁diam 754598
europe 754522
▁artículos 754458
▁didn 754410
chs 754269
▁quieres 754239
▁heads 754167
occasion 754108
▁huis 754058
▁strony 753749
.- 753736
▁memor 753559
▁anglais 753357
▁elegir 753296
▁tast 753252
▁quelque 753092
▁dimensions 753072
▁genet 752931
ajú 752880
▁secondo 752880
▁situación 752857
▁09 752852
▁mary 752841
nant 752748
2010 752348
▁poskyt 752285
tempt 752267
▁extended 752204
xy 752136
▁exactly 752121
▁finn 751997
▁máximo 751988
▁antonio 751987
▁conflic 751836
gio 751703
▁58 751687
▁handling 751601
▁czy 751537
▁zam 751420
iel 751396
▁seller 751365
▁informe 751362
uly 751352
▁publish 751215
bli 751153
▁pant 751080
auen 751069
▁cand 750985
cap 750967
▁partic 750907
▁passage 750882
▁elk 750863
▁lisbon 750804
▁adicional 750473
▁apartamentos 750316
▁stores 750307
▁component 750204
▁helping 750186
▁verte 750174
▁cutting 750018
▁preguntas 749996
▁exig 749944
▁wochen 749890
▁ratio 749773
▁cependant 749576
ма 749556
▁políticas 749504
▁προς 749480
▁tables 749226
▁michel 749179
▁eerste 749155
▁gear 749070
itudes 749023
avi 749006
wend 748970
▁weniger 748938
ission 748913
▁nights 748861
fter 748649
▁możesz 748610
▁chips 748527
main 748523
erne 748297
▁pourrait 748255
▁може 748252
▁mater 748028
▁encourag 747936
▁matters 747821
▁conecta 747782
93 747746
▁wooden 747700
92 747661
▁søg 747565
▁72 747355
▁schnelle 747183
werken 747063
▁gör 747051
▁circ 747033
ziel 746968
▁discrimin 746966
▁depois 746934
▁tin 746767
▁resist 746597
▁awards 746180
ρά 746153
ivos 745929
entemente 745719
▁confort 745696
▁grie 745649
▁fost 745498
▁colours 745388
▁monet 745338
▁wohnung 745311
▁controls 745250
▁cuatro 745125
▁durée 745120
▁herramientas 745047
▁attra 744856
▁dose 744802
order 744732
▁diffic 744633
▁filters 744614
ners 744599
▁gebruikers 744314
▁abandon 744273
▁toegang 744209
▁segurança 744135
▁anschließ 744007
▁combat 744007
▁metall 743996
▁wednesday 743968
zustellen 743643
▁hosting 743570
▁frankreich 743546
▁hip 743392
▁vot 743103
altet 743049
pay 742804
▁disponibile 742764
▁bruker 742716
▁création 742696
▁japanese 742676
▁besuch 742658
▁méxico 742548
usión 742512
▁trag 742506
▁lenovo 742450
ographic 742403
▁jur 742390
▁attac 742273
▁problemen 742262
”) 742232
▁italiano 742224
▁ausgestattet 742170
▁além 742158
▁agli 742124
ție 742102
▁atra 741946
▁brug 741863
rian 741839
▁lex 741823
skap 741762
▁54 741537
enb 741480
▁aucune 741382
▁acción 741289
ítás 741273
itación 741057
▁numéro 740870
▁wereld 740739
▁można 740733
esch 740500
iving 740485
▁či 740429
▁finland 740301
organisation 740279
▁spl 740262
▁även 740261
▁haiti 740171
▁risque 740126
▁vienna 740095
▁vě 740043
▁plage 739904
eps 739903
gruppe 739876
▁dice 739833
pris 739820
▁vz 739808
▁juillet 739705
▁verific 739678
dem 739650
▁sym 739587
▁bara 739581
▁adapter 739567
unds 739564
▁salida 739438
▁пре 739397
▁grill 739191
▁mycket 738760
▁hinter 738543
▁impression 738398
▁cursos 738384
▁ili 738226
▁emissions 738069
ulas 738032
▁desea 737760
▁nest 737757
▁bass 737736
▁lima 737424
▁adres 737414
▁musical 737301
rates 737289
usse 737196
▁hak 737157
▁gobierno 737060
try 737042
▁hotelu 737042
▁paramet 736805
▁spar 736787
▁reduz 736633
linie 736625
▁až 736527
▁recep 736274
été 736207
▁deriv 736183
▁werd 736109
▁transparent 736031
uksia 735997
▁mesa 735747
hung 735695
ither 735651
▁unterkünfte 735636
▁jedem 735607
mine 735600
σετε 735551
▁но 735545
sim 735423
▁dob 735287
uga 735264
utiliser 735235
▁charming 735156
▁πα 735132
▁cinco 735086
▁respuesta 734906
σε 734872
▁gäste 734702
▁vl 734599
▁investments 734249
▁hijos 734190
▁span 734066
atel 733879
▁downtown 733846
▁stick 733625
acia 733513
ουμε 733458
ané 733411
▁encontrará 733365
mun 733296
▁electricity 733287
▁daugh 733023
jus 733022
▁responsables 732919
▁compartir 732835
▁pacific 732817
▁verg 732546
chos 732540
▁fruits 732481
kur 732288
sd 731886
ragen 731872
▁clothing 731800
rale 731735
▁inicio 731696
▁før 731659
ció 731575
▁secu 731541
▁lights 731502
▁concert 731497
▁entreprise 731459
120 731277
▁profesional 731223
▁printing 731192
▁transactions 730682
▁discount 730679
alisation 730659
▁capable 730601
▁décision 730360
áveis 730259
▁kuin 730247
icia 730205
ective 730174
rap 730172
▁stoc 730110
▁wait 730078
rés 730077
▁použív 730061
▁wahr 730059
▁investigación 730018
▁oltre 729959
▁announ 729880
ulo 729841
94 729759
▁neigh 729552
▁rar 729547
▁doble 729499
anze 729405
▁guides 729399
ujte 729347
▁conclus 729316
▁environnement 729246
▁excess 729181
▁topics 729070
▁rear 729056
▁perfekte 728974
▁segunda 728916
alth 728851
dan 728807
icians 728792
▁simpli 728543
▁flag 728498
▁stories 728489
erve 728456
▁james 728401
▁parec 728379
▁privé 728192
reten 728025
▁publi 728025
▁alguns 727961
▁fournir 727827
▁encu 727822
▁decl 727792
▁dello 727776
▁amely 727765
▁instance 727628
▁luxe 727612
▁unie 727499
▁input 727341
▁aims 727339
▁boston 727245
▁europeo 727227
▁burg 727198
▁alcuni 727190
▁theatre 726966
etter 726827
▁recre 726754
éta 726749
bilidad 726681
▁waters 726488
▁besonders 726334
▁entwickelt 726166
▁cere 726076
▁více 725891
▁cultiv 725720
ição 725704
▁trata 725602
▁fich 725293
▁default 725263
dec 725207
erous 724813
▁kredit 724768
▁pleasure 724645
ível 724617
▁duty 724557
▁contest 724401
▁ukraine 724395
▁acero 724324
▁priest 724307
▁substances 724230
▁contamin 724154
▁altern 723900
dert 723879
load 723789
▁acts 723738
▁incred 723713
lis 723615
», 723530
ský 723397
ims 723343
pil 723293
sv 723257
▁exclusiv 723255
▁monument 723241
▁lager 723174
proof 722845
lou 722777
▁cambios 722592
▁bali 722523
▁flere 722487
▁guardar 722287
▁53 722285
▁contained 722234
rance 722212
iac 722047
pd 722023
olution 721977
asc 721935
▁sotto 721929
▁diferente 721898
bot 721732
ле 721662
▁jac 721349
▁loty 721162
▁tämä 721086
▁aufge 721080
erez 720980
ко 720930
▁powder 720899
▁punti 720893
▁privileg 720753
▁dinero 720597
▁elementos 720482
▁használja 720450
▁στον 720371
▁hervor 720341
▁kund 720226
▁defence 720041
▁έχει 719948
▁cres 719894
homme 719869
rev 719851
aces 719821
▁mappa 719819
▁mec 719760
tieren 719752
aly 719706
▁managing 719595
▁luc 719378
▁devrait 719376
▁partager 719312
▁88 719306
▁dimension 719295
▁verantwort 719236
oga 719207
▁simult 719169
ési 719103
inder 719056
▁tum 719033
▁där 718988
▁conception 718926
erty 718800
▁composition 718749
▁administ 718634
▁inhab 718373
▁consolid 718307
▁josé 718291
▁défin 718200
▁erhö 718156
fx 718062
▁kv 718020
▁své 717983
izione 717853
▁παρα 717810
▁extraordin 717669
▁transaction 717605
▁07 717431
250 717407
▁chamber 717400
▁statt 717391
êt 717233
▁új 717170
iven 717145
▁provinces 717104
▁spanien 717034
icio 717023
δο 717022
▁enables 716933
▁sorte 716897
▁terr 716895
▁reviewed 716785
▁gruppo 716749
ják 716597
▁côté 716514
▁racing 716513
▁painting 716374
ază 716309
▁treas 716245
▁arbit 716227
▁kai 716125
▁sme 716050
▁volgende 715988
▁dav 715969
▁mietwagen 715836
▁formal 715590
▁plazo 715436
histoire 715350
▁acceder 715283
äre 715220
▁zou 715193
▁refin 715064
▁hes 715016
isin 714699
teren 714660
▁zad 714533
▁thailand 714508
▁consumo 714493
alized 714479
▁nombreuses 714435
▁poland 714387
code 714342
▁impac 714292
▁esqu 714075
▁debate 714044
master 713747
annen 713652
amm 713552
iture 713496
▁consiste 713491
ubl 713471
▁proprio 713371
▁nomin 713300
▁beit 713274
rai 713238
▁économique 713209
estre 713126
ът 713054
▁benut 712988
▁alrededor 712789
▁yamaha 712694
▁sos 712682
▁webcam 712600
▁replacement 712599
▁rép 712551
▁če 712535
▁invit 712517
▁exper 712510
▁torre 712501
▁skype 712423
▁fc 712404
environnement 712388
▁rand 712330
▁tuesday 712276
▁velocidad 712232
owane 712203
olla 712169
▁musi 712013
était 711998
▁gross 711929
räge 711804
▁aang 711677
atter 711548
erson 711514
▁columbia 711467
unce 711461
▁janvier 711414
▁texas 711400
▁bir 711279
▁pasos 711244
▁kommt 711183
▁indian 711164
▁kil 711107
▁scient 711047
▁meest 710830
▁subjec 710761
▁áreas 710602
▁semin 710443
▁vostra 710417
▁lett 710415
▁contatto 710411
ever 710306
▁ganzen 710305
τικό 710281
rane 710258
▁deploy 710210
aves 710156
▁characters 710148
▁informação 710108
▁använda 709931
▁tego 709747
▁walls 709708
icken 709496
iendo 709353
owany 709341
▁birmingham 709169
▁również 709149
▁neck 709148
▁facilmente 709066
ified 709026
▁aantal 709016
rut 708963
▁earn 708921
▁wants 708919
▁amar 708807
▁perfil 708805
▁speichern 708785
▁buying 708779
▁02 708713
▁denomin 708657
▁portfolio 708652
lit 708582
▁formulario 708539
ery 708362
▁toulouse 708099
κα 708079
▁garten 708078
▁molti 708001
▁lady 707994
▁tekst 707982
▁demonstrat 707862
ogne 707803
ivat 707716
▁converti 707681
▁enthält 707572
cre 707364
edia 707127
▁grands 707059
▁geh 707037
▁juni 706938
unde 706879
▁truck 706837
ból 706819
▁sowohl 706738
▁catalog 706604
▁conseguir 706561
pped 706558
▁conseils 706420
▁900 706310
▁dy 706310
▁consulta 706249
▁spielen 706198
▁publié 706179
▁ministre 706059
▁foll 706026
active 705942
richtungen 705866
▁professor 705864
▁kin 705771
▁discussions 705698
▁obter 705692
▁xl 705651
▁latin 705608
▁donner 705580
▁octobre 705544
yez 705418
egn 705416
▁normalmente 705171
▁jas 705108
▁ecos 705107
▁sever 705002
▁stamp 704920
▁dernières 704839
▁prat 704748
emy 704522
lá 704420
club 704262
▁hä 704224
▁differen 704105
▁expérience 704060
pli 704007
tais 703991
ork 703834
▁crown 703765
rait 703727
▁volo 703723
▁získ 703674
▁grad 703652
▁stron 703543
▁instagram 703520
uty 703507
▁naz 703481
énergie 703296
iete 703234
▁stär 703224
▁ξενοδοχεία 703075
oko 702945
▁boka 702909
▁sitz 702885
▁recom 702820
▁soubory 702668
▁rap 702480
λι 702389
▁unión 702291
▁perder 702147
▁devez 701990
▁ansehen 701957
▁moeten 701871
dic 701806
ха 701716
zem 701539
▁estudio 701526
▁automatische 701402
▁starten 701245
▁lisboa 701209
▁livello 701093
▁informasjon 701011
▁nieder 701003
vention 700966
leb 700811
▁marseille 700675
▁ако 700642
▁sections 700596
▁sekä 700594
▁cass 700476
▁comercial 700220
▁matt 700164
▁salvador 700160
▁badezimmer 700146
genommen 700093
▁aufgrund 700032
▁superficie 699947
▁immun 699935
ро 699917
▁meilleure 699875
ści 699813
▁elabor 699719
▁migliore 699679
▁primeros 699584
νται 699557
▁análisis 699379
▁massage 699313
▁electrical 699276
▁ottenere 699262
▁advis 699099
▁susp 698906
▁keyboard 698898
wing 698894
arc 698842
▁repülőjegy 698841
▁connexion 698837
▁resorts 698738
▁transformation 698712
▁merk 698702
lex 698660
ības 698590
▁én 698578
▁aktualiz 698558
▁ontdek 698464
▁destinations 698442
▁patent 698323
▁efectos 698315
ége 698255
λή 698224
▁analyt 698188
▁proporciona 698130
▁marked 698076
2009 698073
owanie 697976
▁stro 697866
▁bene 697768
▁kans 697740
?" 697636
ental 697519
ieb 697512
▁utente 697484
mac 697334
▁formas 697325
▁intim 697323
▁ves 697294
▁facilit 697276
▁collections 697176
▁materiale 697171
▁08 697115
▁pros 697086
▁computers 697041
▁kanssa 696902
▁aumentar 696868
▁dois 696855
▁straight 696533
▁enkelt 696504
ols 696490
▁salv 696424
▁proximité 696208
▁inde 696142
▁inhal 696102
▁bzw 696054
▁140 695949
giv 695928
bij 695927
▁pronunciation 695841
▁letzten 695829
▁rim 695655
ulu 695632
▁harm 695543
esz 695537
▁rit 695489
ggio 695481
▁api 695449
▁servidor 695324
ést 695081
▁región 695018
geg 694866
▁instruc 694758
▁stelle 694683
icação 694522
▁décembre 694361
▁liqu 694346
▁motel 694154
▁miembro 694132
▁dato 693928
front 693861
▁persön 693801
▁signs 693798
▁boost 693657
itori 693633
▁controle 693572
▁inici 693552
▁vain 693537
▁estación 693473
▁quais 693402
eo 693325
cn 693284
▁propriété 693208
▁remov 693185
▁lug 693127
▁relacionados 693109
älle 692979
▁cv 692975
▁groupes 692868
▁dispositivi 692795
▁douche 692773
bek 692760
cí 692750
shop 692726
▁installations 692674
▁servers 692550
▁varje 692531
λο 692517
kit 692483
▁fro 692459
ict 692414
▁circuit 692402
tat 692345
▁služby 692320
▁strict 692267
▁typical 692163
▁apare 692088
▁flygbil 691986
▁volver 691899
▁günstige 691783
▁explos 691772
ardo 691722
illi 691700
▁ano 691683
cast 691484
cookies 691412
▁downloaden 691332
▁oben 691285
▁intu 691251
▁locale 691211
ogo 691112
▁lien 691054
▁най 691014
▁comentarios 690989
▁eux 690609
ával 690603
▁mohou 690349
cp 690337
▁remar 690264
▁ahhoz 690209
format 690147
▁possível 690135
▁usado 690130
▁bruxelles 690127
rank 690116
utar 690059
▁csak 690008
made 689955
▁údajů 689906
▁vengono 689866
▁cé 689806
▁dispone 689801
▁leid 689654
▁comisión 689650
▁esempio 689390
▁cannes 689362
lines 689312
vil 689300
▁finanz 689298
▁chr 689239
▁elemento 689170
▁índice 689036
▁diensten 689005
▁pequeño 688947
▁gren 688652
face 688615
▁communauté 688606
markt 688531
▁consejo 688505
ány 688444
aneous 688274
▁bezie 688223
.“ 688211
▁alimentos 688207
▁gesetz 688157
▁által 688149
▁curso 688125
▁schlafzimmer 688123
▁compagnie 688093
τό 687780
▁sicherheits 687641
▁residential 687364
▁autoc 687291
▁humanit 687280
▁stable 687157
▁gali 687090
▁projec 687029
ety 686886
▁göra 686836
èrent 686833
▁juste 686738
md 686689
▁tenga 686645
▁weap 686596
▁effectu 686531
▁seeds 686469
▁jose 686449
konto 686212
name 686092
izer 686020
arta 686018
tons 685858
▁industrie 685746
▁richtige 685723
▁últimos 685696
▁substanti 685512
▁organización 685311
▁balkon 685239
istan 685153
▁proporcionar 685005
hre 684983
pit 684858
▁só 684692
▁layer 684657
▁pam 684628
▁hinzufügen 684494
▁bestimm 684098
▁authentic 684063
▁melbourne 684018
▁89 684010
▁internacionales 684003
iais 683998
▁proteger 683996
▁opiniones 683923
2008 683913
jac 683894
isses 683884
▁instalar 683810
olen 683775
▁moments 683739
▁geräte 683709
▁hilton 683689
▁350 683528
▁inj 683507
hou 683417
pus 683375
▁skyscanner 683181
ára 683012
▁bottle 682980
▁bid 682956
▁protein 682930
▁decis 682863
▁prakt 682751
▁palabras 682685
▁boy 682662
erm 682659
áticos 682656
▁extensive 682581
ninger 682570
▁sesión 682525
▁mom 682477
gener 682467
ību 682300
▁técnicos 682220
▁επι 682210
▁especific 682192
▁batt 682183
▁haber 682153
▁hijo 682067
▁haup 681992
▁milano 681951
ank 681932
pra 681884
▁höch 681663
▁ligt 681647
▁réalis 681250
▁hotwire 681216
uth 681165
▁journée 681148
▁incluyendo 681134
▁fell 681092
▁isla 680935
nat 680879
▁spiritual 680864
peg 680852
uel 680836
tering 680681
▁rechte 680496
▁examples 680495
▁adapta 680486
▁incluindo 680457
▁fabricación 680448
gende 680281
ritt 680272
▁refrigerator 680249
▁soutien 680207
▁zurich 680198
де 680075
▁donné 680075
▁tenden 679965
▁abroad 679885
▁mě 679785
reb 679751
▁subsidi 679750
emme 679729
oria 679655
▁compañía 679542
▁aprove 679449
▁angebote 679361
▁alarm 679124
▁toler 679101
▁legitim 679019
▁ours 678975
▁bloque 678739
▁lois 678734
▁ups 678706
▁coin 678673
▁industria 678668
▁billigaste 678657
▁jūsu 678613
▁aktu 678520
▁cyber 678423
tigkeit 678315
alu 678232
orti 678188
▁sint 678118
▁indoor 677973
▁primar 677824
▁parent 677820
bru 677819
▁chart 677812
εί 677777
▁intelligence 677735
icial 677670
ellt 677517
▁nik 677517
▁sulle 677448
ify 677033
▁helsinki 676996
num 676796
▁führen 676547
▁tuoi 676387
▁combine 676358
ре 676226
▁totale 676165
▁histor 675778
▁münchen 675737
sal 675674
▁règlement 675547
▁instru 675483
lov 675446
rang 675387
▁magnet 675375
▁zas 675353
▁destroy 675308
▁schrift 675197
▁comunicación 675195
▁representa 675128
ician 675125
▁vod 675114
▁vorsch 675112
θε 675103
▁soient 674929
▁mali 674548
▁moon 674537
▁geht 674359
faces 674328
▁villages 674243
▁lernen 674195
▁ciudades 674193
▁diritto 674090
cad 674064
▁intellectual 674024
▁henkilö 673837
▁1992 673720
▁commit 673654
▁bestell 673622
▁mondial 673610
▁météo 673599
▁variedad 673568
▁fia 673564
▁bleiben 673538
▁sessions 673524
▁veränder 673504
punkt 673480
▁migr 673462
▁particulier 673384
▁sao 673284
▁cape 673186
▁filen 673145
▁beta 673144
▁determinado 673124
▁68 672936
▁caf 672933
▁semanas 672932
▁adm 672901
▁medios 672666
▁nahe 672458
▁populations 672416
▁clock 672172
▁crit 672064
▁democra 672044
▁wen 671976
chu 671966
zed 671946
▁acordo 671931
▁prä 671887
▁zon 671722
▁vertr 671708
▁scene 671706
▁schul 671559
▁modific 671377
▁horse 671366
▁dll 671338
▁neuro 671283
▁socio 671267
ită 671258
ificación 671243
▁kid 671241
▁reservas 671238
▁guten 671230
▁descripción 671129
▁décor 671122
▁migration 670945
▁bull 670939
▁sup 670846
▁acepta 670683
▁teachers 670626
▁pagamento 670608
▁maakt 670455
ąc 670452
▁munich 670451
▁dado 670372
▁hotellet 670364
▁ahor 670268
▁trattamento 670140
bla 670126
▁entdecken 669868
▁immedi 669850
▁schritt 669815
▁strap 669771
ват 669745
▁tecnologia 669703
▁innen 669691
▁suisse 669476
▁minimal 669459
▁woche 669452
▁avril 669439
xp 669373
▁efecto 669361
bir 669332
▁christi 669285
▁côte 669269
▁soil 669263
▁mari 669107
▁clinical 669106
▁kont 669093
▁fim 668999
hend 668907
ências 668799
▁gamme 668797
▁lumière 668749
▁whirlpool 668746
pia 668740
▁letto 668712
nica 668609
▁ello 668570
isée 668380
ír 668358
▁circa 668283
teilung 668253
stä 668236
▁prize 668187
▁feeling 668132
▁hills 667929
▁sci 667911
iat 667894
▁homme 667801
ιο 667786
▁váš 667751
▁suspend 667604
', 667579
ünd 667534
▁alguna 667469
bur 667319
▁rendre 667297
▁có 667235
▁datenschutz 667195
▁feder 667187
▁besuchen 667171
▁alicante 667148
αν 667057
amy 666976
voor 666962
ulta 666802
▁gez 666726
ift 666667
▁aufenthalt 666573
mises 666525
▁chine 666400
ège 666386
ilu 666345
▁kul 666270
▁reconna 666081
▁arī 666039
▁equipos 666023
▁skill 666009
▁rubber 665655
-/ 665566
▁surrounding 665515
▁voz 665412
▁bern 665383
inde 665238
▁laboratory 665219
▁incon 665080
▁160 664886
▁bott 664715
▁β 664678
▁sang 664632
▁mitarbeitern 664521
▁mineral 664470
ups 664434
▁agosto 664404
analyse 664393
▁wrong 664228
▁meat 664064
▁jūsų 664049
ecta 663985
▁wahl 663916
▁coal 663876
▁lock 663865
inių 663715
▁sä 663711
▁sł 663699
▁croissance 663623
▁inhalte 663621
▁alliance 663599
▁romantic 663580
isiin 663395
▁ό 663271
ντ 663109
ikan 662829
itable 662790
▁rok 662771
▁thé 662768
▁publishing 662723
▁www 662704
▁mala 662641
▁electrón 662638
▁lago 662637
▁lorsqu 662536
▁identification 662525
lös 662494
▁tudo 662387
▁både 662285
▁sweden 662192
▁vendre 662170
▁corte 662106
σι 662103
▁guía 661996
▁interés 661914
univers 661800
▁covers 661761
▁grazie 661655
▁produkts 661651
▁trabajar 661646
▁spiele 661372
▁archives 661363
▁orbitz 661280
verbindung 661215
▁obligation 661122
▁urządzenie 661003
last 661001
wia 660664
▁vindt 660594
aza 660581
▁hag 660578
▁holder 660550
▁alojamientos 660481
▁château 660440
▁terug 660392
plo 660316
ído 660183
▁kim 660122
▁benutz 660090
▁democratic 660084
▁66 660014
▁bruger 660011
▁sunset 659977
▁congress 659811
▁modell 659649
▁arba 659521
▁respecto 659462
▁preço 659442
▁mutta 659431
▁directeur 659382
etu 659363
▁czasie 659285
▁mensaje 659281
'. 659239
sex 658981
▁pinterest 658948
fas 658883
▁herman 658830
▁discipl 658644
▁125 658599
▁mou 658505
▁apo 658499
▁φ 658496
▁ceo 658483
▁regime 658409
ικό 658330
▁ceram 657958
▁dalle 657947
ția 657903
▁wirk 657655
▁daniel 657624
ús 657458
▁gastronom 657449
arn 657415
▁dép 657402
rire 657384
▁chcete 657368
gor 657161
ucher 657160
▁pog 657119
chaften 657082
▁guerre 656869
stan 656786
licht 656768
▁lennot 656730
91 656718
▁frauen 656701
▁rapidement 656620
utation 656606
▁durchschnitt 656603
ής 656462
▁faz 656412
ilia 656316
▁noti 656198
▁cœur 656175
▁colombia 656157
iji 656145
▁transl 656099
ισ 656052
▁prove 655976
▁delay 655955
▁cargo 655863
▁offerte 655846
fal 655722
▁kaz 655345
▁vezes 655326
db 654969
ril 654891
▁bind 654887
▁température 654869
tom 654858
▁holding 654789
▁plupart 654719
▁använd 654677
▁digitale 654641
onde 654606
ío 654584
▁använder 654521
quette 654490
▁lö 654437
▁herramienta 654426
▁která 654222
▁anniversary 654157
▁unterstützt 654115
friendly 654114
▁washing 653999
▁mitarbeiter 653808
▁fold 653707
oden 653652
div 653627
ican 653543
lí 653511
▁arran 653481
▁azt 653390
▁tylko 653294
kun 653276
jte 653272
▁rin 653227
▁mia 653139
law 652927
▁boot 652849
▁pedro 652849
laim 652824
quel 652734
▁betre 652711
▁crea 652704
world 652649
anal 652640
▁autour 652587
▁notific 652479
▁cant 652384
ensch 652290
ardi 652273
▁facilitar 652272
▁beijing 652229
▁nek 652185
▁nev 652140
▁rond 652005
▁internetu 651970
▁starts 651937
▁performances 651928
▁pren 651914
▁když 651678
▁distancia 651570
ας 651503
▁buffet 651333
fill 651305
▁perto 651273
▁verbind 651265
▁montage 651213
▁shap 651201
▁disponibil 651135
ifi 651101
▁pena 651101
▁negro 651060
▁rs 650978
▁teen 650837
▁diameter 650812
flow 650803
▁eigene 650775
▁96 650728
hetic 650708
▁seem 650702
▁oem 650640
▁prescri 650621
▁allí 650462
issons 650242
atten 650122
▁gemaakt 650075
orten 649986
▁looks 649951
▁managers 649950
▁gym 649922
▁apoyo 649738
▁confidenti 649738
▁sull 649583
▁ibiza 649547
▁florence 649492
▁chocolate 649442
▁eigent 649356
ivers 649328
700 649324
▁partenaires 649287
issez 649140
inks 648939
▁analog 648855
▁capit 648829
▁museums 648750
▁χ 648585
θεί 648411
▁verificar 648395
▁1980 648240
▁erforderlich 648202
▁drugs 648113
etty 647945
staaten 647776
kap 647682
heure 647680
▁vog 647665
ject 647604
▁manten 647592
▁bør 647566
▁último 647493
▁го 647466
▁pratique 647353
sn 647306
▁neste 647237
▁comida 647220
gers 647218
rote 647189
▁transm 647106
▁bedingungen 647089
owo 646909
chafts 646882
▁reserved 646882
▁bain 646842
▁zen 646717
▁fréqu 646673
▁delete 646645
▁beweg 646610
▁mercedes 646542
▁tee 646472
▁bieden 646374
▁niin 646171
etes 646170
▁nan 646068
▁vine 646011
▁übers 645629
▁sof 645485
ses 645471
▁éxito 645322
▁tela 645288
erto 645237
▁wife 645235
▁weltweit 645222
▁workshops 645184
▁gemäß 644939
▁venice 644850
▁trus 644746
▁visited 644723
▁stability 644681
▁viz 644610
ingu 644523
neo 644488
▁describe 644439
▁shel 644436
▁leads 644397
▁registrar 644373
▁vedere 644315
▁compagnies 644264
▁argent 644162
oux 643956
▁anci 643898
▁jih 643825
mans 643810
▁gästen 643613
▁sociedad 643498
▁bacter 643494
gent 643471
érieure 643446
▁practic 643443
▁milieu 643250
▁obv 643215
▁ey 643111
▁comenz 642983
▁jardín 642975
cloud 642875
▁heaven 642726
▁permettre 642598
▁mindestens 642475
▁restric 642472
▁malta 642329
▁steam 642310
▁lingu 642303
▁educación 642165
▁tuttavia 641982
▁valle 641892
▁wedding 641837
compon 641673
ми 641670
▁ek 641580
fare 641574
▁leaves 641543
▁rä 641530
▁generic 641424
ington 641400
▁faro 641319
▁bang 641157
▁unternehmens 641113
▁distingu 641101
▁cooking 641087
▁bron 641052
▁tud 641003
nější 640896
▁casinos 640597
▁fuente 640541
▁naše 640502
▁pouvons 640480
nap 640384
▁evol 640259
▁destino 640195
▁meno 640173
beg 640165
▁appearance 640097
▁unas 640036
▁gilt 640025
ării 639951
▁sprache 639913
▁predic 639880
▁speaker 639791
▁gle 639698
▁terrain 639631
drive 639619
▁lands 639602
fam 639556
din 639496
▁audience 639443
▁outro 639431
radas 639311
▁allt 639257
▁synchron 638965
▁phil 638964
▁quest 638903
▁itiner 638837
▁contrast 638590
▁dispose 638459
▁setzen 638429
▁verein 638411
▁gaan 638400
ibly 638283
▁moto 638255
elte 638227
▁contacter 638206
▁proyectos 638142
▁proof 638104
▁omega 638075
▁propio 638052
▁tarde 637979
▁lek 637945
▁insbesondere 637914
stock 637902
▁welke 637762
▁thinking 637721
▁waiting 637597
▁zodat 637550
▁ganze 637545
▁funzion 637466
wind 637428
▁langue 637398
▁naturaleza 637334
▁garantizar 637327
▁famili 637318
▁cier 637140
▁différ 636933
▁kup 636717
▁caps 636691
▁livraison 636656
oon 636608
▁talent 636573
▁zero 636343
üss 636330
▁invo 636278
▁visiting 636243
porter 636168
▁asset 636159
▁funzioni 636063
▁evento 636016
▁reste 635871
▁precision 635824
usement 635699
▁tad 635519
▁microwave 635455
▁cose 635300
▁finanzi 635242
ajo 635065
▁próximos 635064
▁halten 635054
▁shell 635051
etz 635016
▁disposition 634938
▁mann 634927
▁commentaires 634858
▁excellence 634773
▁98 634736
case 634688
▁bains 634628
▁experiência 634620
▁kilomet 634579
▁bags 634468
pä 634299
hom 634228
▁chur 634054
▁registr 634022
▁whats 633982
▁geeignet 633880
▁inch 633875
▁wonder 633806
▁durant 633739
▁clip 633733
ding 633580
▁metabol 633512
▁tiek 633499
▁früheren 633482
elve 633454
▁construcción 633383
▁dh 633323
▁práv 633192
icios 633136
fern 633107
inis 633050
▁gottes 632923
▁rencont 632875
▁philippe 632856
▁wol 632780
▁mall 632728
wort 632658
bat 632634
▁prie 632595
alan 632548
▁liebe 632519
▁jejich 632474
emark 632373
▁actividad 632218
▁coches 632124
origine 631971
▁lent 631936
orial 631901
▁tür 631880
▁lite 631823
▁existen 631694
äll 631684
▁polo 631679
▁fib 631656
▁punkt 631459
▁behav 631427
▁upgrade 631425
gue 631414
▁perspective 631015
110 631014
▁shirt 630937
▁continuar 630932
hop 630761
▁therm 630735
▁emo 630619
▁hybrid 630598
▁impr 630595
ве 630517
▁meu 630505
▁plataforma 630405
▁buiten 630361
tac 630293
▁abre 630124
▁perfecta 630116
ätt 630041
bh 629964
▁vergelijk 629859
▁augen 629761
stone 629760
éch 629710
rome 629709
▁móvil 629581
▁minut 629491
sche 629455
▁goede 629329
▁thermal 629302
áte 629168
▁accueil 629154
▁čo 629029
▁ware 629024
▁parl 628963
▁équip 628960
▁blev 628906
▁transpar 628683
▁zab 628613
▁push 628497
▁utan 628434
▁brain 628201
ittel 628071
▁bc 628071
▁atlanta 628061
▁forts 627954
▁werken 627705
équipe 627635
▁esté 627567
▁obras 627469
▁basket 627426
▁crecimiento 627422
▁turqu 627411
▁thor 627389
▁visitantes 627211
ocation 627054
esses 626699
▁depos 626628
▁contenidos 626619
ssystem 626602
▁unterstützung 626522
▁94 626475
▁facts 626349
μη 626298
▁rosa 626249
achen 626242
▁finne 626078
▁entfernen 625928
wards 625886
uve 625835
▁zm 625738
omis 625695
▁gent 625653
▁sak 625625
wij 625583
bul 625513
▁weit 625453
▁druck 625445
▁tm 625427
“. 625369
fp 625225
▁gru 625225
▁môžete 625183
euro 625131
ersch 625098
agit 625032
tivos 625019
êtes 624905
▁morocco 624849
▁define 624847
cra 624837
▁strat 624819
level 624755
▁kleinen 624747
▁aviv 624701
▁caja 624589
▁étant 624562
ją 624508
▁calor 624487
iseen 624444
ări 624417
▁zbor 624380
▁zugriff 624328
amientos 624172
tables 624151
▁gioco 624129
▁ji 624118
▁figures 624060
allo 624038
▁requer 623947
▁indicate 623862
▁deuxième 623799
▁debian 623752
▁ern 623552
omas 623542
▁bog 623511
fung 623508
▁unido 623477
▁featuring 623429
▁browse 623419
▁relev 623297
▁requisitos 623262
▁soins 623255
▁aspect 623252
→ 623247
isés 623163
add 623135
▁cov 623115
▁asi 623110
▁proportion 623103
▁mellan 623006
tiver 622873
▁gruppe 622731
▁cuad 622723
▁dane 622707
▁anders 622483
ací 622326
▁simul 622292
ému 622124
▁slim 622109
asts 622037
▁printed 622008
▁conforme 622001
▁oak 621896
τικά 621851
▁simples 621819
ло 621726
unte 621712
▁baja 621653
▁gol 621594
▁anterior 621593
▁teh 621406
▁teach 621241
▁songs 621235
▁této 621180
▁przed 621156
▁panama 621069
asis 620944
▁madera 620941
▁ss 620929
▁detect 620892
▁despre 620891
▁zoekt 620779
▁więcej 620729
▁gele 620679
▁idéal 620658
▁stam 620626
▁szer 620355
▁größ 620338
▁oral 620300
▁ultimate 620225
▁cinq 620087
▁sais 620074
▁matériel 619966
▁części 619953
▁aiutare 619906
▁pessoais 619860
▁développ 619842
ály 619836
▁league 619827
ismus 619800
▁nové 619721
▁clave 619697
ksam 619680
▁comple 619630
▁artistic 619545
▁carro 619383
▁tracking 619358
estra 619352
▁configur 619352
▁água 619303
▁fach 619284
ribe 619262
▁aeroporto 619146
ertos 619101
▁zeigt 619077
▁surve 619066
▁polar 619060
egar 618912
▁devant 618884
idence 618860
σεων 618739
▁componentes 618724
▁acco 618699
▁ib 618660
▁vitesse 618611
▁curs 618598
▁ép 618592
▁utilisez 618494
▁rica 618463
para 618452
print 618434
ilian 618385
▁colon 618376
▁lots 618283
fia 618266
lique 618229
▁signature 618226
ogene 618188
life 618175
▁cumplir 618042
▁трябва 618011
ст 617929
▁humidity 617913
▁carrier 617508
▁würde 617496
jat 617492
odi 617444
▁essen 617440
check 617430
mh 617358
▁représent 617190
▁delet 617165
▁vál 617106
zeuge 616959
▁1993 616851
▁importa 616809
▁chang 616749
ítés 616559
▁wirtschaft 616331
▁motorola 616293
▁aquellos 616149
eke 616126
▁annex 616001
▁faites 615897
▁lap 615840
▁associations 615697
▁yi 615662
▁olympic 615661
▁spare 615621
▁champ 615554
ática 615451
▁conclu 615406
▁poner 615319
linien 615097
▁tyto 615018
▁mechanical 614963
▁seo 614943
▁fie 614895
▁stata 614476
egy 614409
▁adecuado 614373
▁celu 614355
▁fonctions 614280
otto 614176
▁θε 614024
▁actualmente 613881
▁powers 613838
▁cabinet 613700
▁éléments 613662
▁vitamin 613643
▁plik 613634
▁natür 613632
▁nyt 613575
atures 613560
▁invite 613430
▁discovery 613220
▁kde 613196
▁restore 613162
▁quale 613085
▁satisfac 613007
▁ati 612813
owned 612805
▁adri 612727
▁sensitive 612701
▁grade 612638
▁всички 612583
prin 612569
▁slu 612502
▁tob 612441
▁mining 612435
▁streets 612378
▁blanco 612270
▁siamo 612247
▁temat 612229
bou 612222
▁bambini 612168
yti 612077
▁té 612011
dateien 611814
cija 611807
ében 611781
zos 611721
ujeme 611687
ärt 611640
▁dating 611585
▁affaires 611536
ené 611515
▁bestim 611484
forme 611465
▁ansch 611353
sid 611259
windows 611193
▁bagno 611117
▁pt 611047
rí 611010
▁olive 610996
▁käyt 610957
▁gaming 610949
ρε 610896
imus 610884
▁facilement 610874
▁unabhäng 610844
▁tienda 610823
pur 610738
quil 610711
▁procure 610597
▁αλλά 610593
▁versionen 610578
cké 610527
▁feu 610521
informations 610514
▁esse 610483
▁hidden 610471
entos 610414
forum 610382
burgo 610355
▁definit 610278
▁isra 610270
▁gets 610264
vements 610163
▁provence 610156
aría 610053
▁braz 609953
▁kontaktieren 609946
irm 609770
rico 609706
▁faster 609647
▁häufig 609635
▁seed 609561
▁oe 609489
▁método 609453
version 609434
kami 609375
▁zeigen 609322
jud 609270
syn 609216
în 609196
▁especiales 609187
esty 609105
▁reich 609103
▁transp 609061
▁indépend 608972
▁styles 608958
▁wechsel 608836
dur 608720
même 608659
elem 608597
▁générale 608436
▁robot 608376
otas 608344
nice 608300
▁nächsten 608237
▁risiko 608151
uw 608139
▁erreicht 608127
ån 607987
▁lokale 607967
▁turismo 607801
▁volunt 607796
▁hely 607787
▁obtén 607785
▁detaillierte 607724
cem 607678
▁populares 607590
lection 607508
▁dok 607473
▁envío 607442
▁több 607418
čné 607240
▁chim 607233
▁outre 607218
▁tagen 607108
▁umwelt 607093
▁vul 607026
▁propor 606972
▁summit 606812
▁δ 606786
umer 606612
tore 606492
▁staaten 606473
▁74 606454
▁utilisant 606417
▁ähn 606306
▁huma 606294
▁sierra 606286
▁klanten 606257
▁colores 606207
ît 606189
▁unidad 606123
▁fuß 606056
orta 605953
aram 605936
▁käyttää 605854
▁moyenne 605773
▁wire 605736
illä 605557
▁taip 605537
▁hersteller 605492
▁formats 605478
▁vitam 605379
elos 605358
prise 605349
▁gud 605344
▁elő 605271
áll 605265
▁frank 605252
▁février 605242
oval 605049
zó 605038
▁serait 604991
edores 604986
▁espíritu 604949
▁pp 604913
▁einz 604896
▁fis 604759
▁membri 604617
▁nye 604527
▁niveles 604519
cip 604387
live 604358
▁agriaffaires 604327
▁bases 604323
▁absor 604268
▁77 604166
ierungs 604010
▁topic 603995
▁alemania 603994
▁encontrado 603972
into 603922
▁dynam 603907
▁chemin 603884
elig 603870
áj 603766
▁größe 603612
▁presse 603589
▁jederzeit 603566
▁delic 603445
▁choisir 603382
2020 603254
ämp 603149
.» 602980
bahn 602961
▁consist 602912
rige 602901
▁ά 602871
▁jste 602866
▁vorher 602839
city 602802
▁anticip 602722
▁creativ 602578
niki 602575
▁ela 602533
▁hundred 602497
▁mentre 602471
▁bienven 602449
▁pare 602393
▁modèles 602387
▁heure 602275
▁protest 602082
▁elegante 601930
▁fuerte 601909
▁hospit 601898
▁fals 601884
▁infin 601827
▁diversi 601813
▁emotion 601635
▁inm 601580
ând 601554
doc 601461
▁todavía 601366
▁zonas 601292
èle 601274
▁dostęp 601250
▁procura 601209
▁bomb 601161
▁canadiens 601152
ματος 601097
▁stuttgart 601066
▁répar 601065
ließen 601041
▁packages 600755
uvre 600747
▁ami 600687
▁teg 600683
▁comuni 600365
ijas 600252
▁glasgow 600197
amentos 600196
▁deck 600160
▁academic 600150
▁hack 600028
▁dejar 599968
▁raum 599934
▁autoriz 599656
▁talál 599565
edo 599556
▁inver 599492
ového 599482
▁gjøre 599425
▁scor 599409
right 599392
▁stellt 599305
appe 599216
▁puedo 599205
▁montre 599190
rons 599090
orer 599077
▁aumento 599010
▁movies 598994
gia 598932
▁opposition 598857
▁län 598788
▁obser 598719
▁texte 598613
▁selección 598480
▁soporte 598446
▁pharm 598427
▁přístup 598389
arbeiten 598312
ordnung 598303
▁přes 598259
▁holz 598245
▁philosop 598199
▁gare 598172
cios 598071
▁extend 597999
voll 597908
ough 597879
emente 597805
?” 597762
▁filtr 597749
▁stri 597732
▁lähellä 597701
▁crystal 597658
▁gasten 597623
▁prí 597621
▁estudiantes 597590
▁leisure 597443
weisen 597381
clos 597361
▁pretty 597301
▁seeking 597153
▁aide 597125
▁ink 597115
▁schwer 597094
holder 597046
▁arena 596999
▁pollu 596890
▁helt 596773
books 596613
umo 596610
chts 596604
▁permitir 596588
▁simplement 596515
software 596446
idir 596339
▁könig 596336
▁siete 596239
▁konfigur 596165
▁propri 596134
imal 595917
▁anz 595875
▁serán 595786
▁difícil 595748
got 595719
▁photography 595710
▁jordan 595538
▁dritt 595535
▁kaart 595522
▁azul 595519
heden 595327
▁_ 595324
▁efficace 595316
▁není 595266
▁62 595031
▁dent 595027
▁villes 595002
▁130 594909
▁meteo 594886
▁bib 594865
egt 594738
gon 594708
ică 594706
▁insu 594645
▁sede 594503
▁także 594427
atas 594369
bian 594355
▁occ 594090
chant 594017
▁tari 593867
▁pne 593850
pher 593818
avoir 593766
▁visto 593705
▁saat 593677
▁conti 593656
▁beginnen 593517
▁malware 593483
▁63 593417
ried 593397
▁coordination 593356
condition 593285
▁confirmation 593230
▁dram 593225
▁jum 593224
▁redire 593166
▁état 593162
oft 593150
bü 593133
▁proteg 593057
amin 592975
▁pocket 592971
itat 592932
timo 592602
▁crucial 592539
▁05 592492
bez 592483
▁équipe 592467
▁vá 592459
▁bund 592448
▁anc 592437
▁gratuitement 592368
▁existence 592204
▁ash 592155
▁morgen 592131
▁fäh 592115
ählt 592093
▁fam 591929
▁valores 591903
► 591867
▁gäster 591864
illos 591842
▁classif 591813
▁→ 591639
itare 591605
irk 591512
▁md 591503
▁sää 591498
▁lakes 591488
▁informa 591476
▁reserves 591413
▁motorcy 591360
▁ie 591198
avo 591088
▁zaj 591013
▁modifier 590993
▁tats 590980
▁bee 590914
▁upload 590822
▁gegenüber 590770
▁accident 590618
ilig 590560
▁mam 590517
▁disponíveis 590506
comm 590381
▁tokyo 590293
▁geme 590283
▁crédito 590184
imen 590167
▁elite 590117
bestand 590106
antages 590075
▁obs 590026
▁wave 589942
nad 589929
▁contrô 589902
▁92 589888
hyd 589776
▁codes 589718
▁cámara 589668
amar 589409
▁madre 589401
▁acondicionado 589320
making 589246
▁ultim 589239
äs 589157
▁προσ 588979
▁webbplats 588888
▁78 588871
▁fiche 588830
▁transit 588806
▁actuellement 588767
ků 588429
▁erstellt 588418
▁graf 588375
▁interactive 588195
▁integral 588191
▁podle 588182
▁sponsor 588162
ális 588161
dien 588122
ekom 588059
roy 588051
▁był 588022
cil 587974
▁studios 587927
▁ana 587899
▁hunt 587812
bilité 587719
▁instalaciones 587697
▁technik 587667
▁compress 587640
osc 587591
▁inclusive 587551
▁verbra 587493
▁potrai 587480
▁zip 587467
▁fé 587329
▁direkte 587168
uba 587115
▁charm 587067
▁spi 587044
atti 586994
▁67 586974
▁primero 586953
▁03 586896
ulares 586860
▁avere 586850
▁rak 586765
meld 586681
▁répondre 586665
▁gesamten 586648
!” 586575
▁manier 586533
▁dusche 586436
▁siècle 586404
▁unver 586402
rupt 586394
▁tiers 586303
icion 586278
ване 586248
▁našich 586227
▁enqu 586225
▁prod 586112
▁arquivos 585962
▁municipality 585923
olas 585871
▁choses 585736
zien 585545
▁réponse 585521
▁einsatz 585391
▁contraseña 585292
hle 585234
▁има 585218
▁nato 585195
▁gall 585179
▁< 585073
▁nieuw 585046
κο 585040
▁verbessern 585022
▁disponibili 584994
usal 584965
irty 584885
▁sic 584708
▁normas 584656
isesti 584522
ücken 584412
▁posts 584336
▁contem 584264
▁entend 584232
▁outils 584185
biet 584173
▁vary 584155
▁mista 584145
▁produz 584080
▁ducha 584016
▁fá 584014
ticket 583993
še 583892
▁budete 583853
▁aumenta 583771
▁fácilmente 583739
▁ron 583631
vs 583425
▁dekor 583416
▁gratuite 583345
▁1991 583337
▁trebuie 583295
▁tipi 583272
bung 583270
fier 583246
▁første 583190
mak 583045
▁phoenix 582743
▁(“ 582707
espace 582665
bury 582615
pens 582586
idente 582544
▁directions 582541
▁verbunden 582525
jąc 582416
▁câ 582359
▁abb 582281
▁opens 582261
▁tomor 582219
▁localiz 582188
▁rendszer 582068
ius 582041
▁pace 582040
▁dial 581977
▁pud 581961
▁spir 581911
▁portrait 581876
▁monaco 581866
▁birds 581845
▁spra 581830
▁literature 581762
▁► 581754
ligh 581713
▁suminist 581667
▁petits 581650
ēt 581644
aud 581624
▁incluyen 581532
▁στις 581494
τες 581448
▁funcion 581348
ruk 581298
▁kh 581288
eret 581280
▁spectac 581251
▁leb 581125
rz 581123
▁federation 581114
▁zien 581064
▁utilizado 581018
▁común 580967
▁concep 580959
▁gard 580922
▁capture 580916
▁mh 580878
▁médico 580827
▁menudo 580758
▁floors 580744
tran 580741
établissement 580626
▁cala 580597
druck 580595
αι 580513
▁tang 580409
▁wars 580366
ätze 580343
▁már 580313
▁asian 580288
orie 580279
▁haven 580263
▁lovely 580230
▁skip 580189
▁beiden 580123
▁renta 580123
mand 580097
▁hik 580012
▁marcas 580001
anga 579966
▁momentan 579943
▁hvad 579914
▁expansion 579911
▁reklam 579858
▁angezeigt 579813
▁nemen 579741
accord 579733
▁removal 579693
▁conclusion 579582
ação 579545
▁intervention 579532
▁wün 579471
▁repr 579469
nelles 579465
▁facult 579336
▁bekommen 579314
▁mikro 579164
mental 579148
▁dign 579124
▁drag 579104
▁référence 579099
▁fox 579095
ulación 579058
ennt 578994
asia 578919
eland 578870
▁extrac 578831
▁hohe 578552
ци 578457
▁бъде 578281
▁kinderen 578237
▁trains 578163
cla 578147
▁jump 577820
▁biodivers 577801
rive 577760
dk 577701
▁pomoc 577613
▁container 577552
▁devi 577408
▁wash 577408
▁ignor 577386
▁ministère 577341
▁cuba 577251
▁operators 577162
▁panoram 577039
call 576890
▁propriet 576878
fang 576716
▁jon 576714
▁möglichkeiten 576689
▁coup 576686
900 576613
▁yu 576600
▁souhaitez 576579
jd 576536
▁lujo 576526
▁måste 576488
▁permanente 576488
chy 576479
qués 576448
▁difficile 576377
▁konz 576325
▁π 576325
▁pasar 576322
▁prac 576115
▁guida 576093
zyć 576037
▁popul 576007
▁août 575948
▁naveg 575799
▁descon 575787
▁seule 575674
▁kro 575672
▁besser 575652
▁loop 575605
ector 575589
▁mund 575485
iju 575396
▁afternoon 575368
▁conto 575335
▁pend 575332
▁ví 575302
issä 575284
icon 575157
▁netz 575138
▁sainte 575060
▁93 574976
си 574950
▁auth 574912
▁objeto 574853
▁tested 574838
tai 574816
▁bow 574745
▁pourrez 574651
▁jogos 574595
▁jacuzzi 574585
▁courts 574481
▁quartier 574326
▁società 574306
pin 574298
▁réunion 574143
lus 574100
▁zusätzlich 574057
▁conocimiento 574052
▁veg 574051
▁advoc 574014
▁fung 573969
▁jem 573946
▁voulez 573943
▁posta 573691
iefer 573647
▁sök 573590
▁bort 573561
▁leven 573480
▁directed 573427
▁sep 573365
chio 573241
▁oggi 573236
▁tart 573153
▁luxus 573103
▁virgin 573086
▁oce 573055
▁profiter 572847
▁pasado 572842
▁mirror 572815
rations 572783
▁automatico 572764
▁escape 572750
▁durata 572672
▁struttura 572653
▁wach 572648
▁cali 572566
šanas 572537
▁mouth 572490
aber 572483
▁portion 572478
jur 572455
ady 572422
▁muut 572411
▁acord 572330
▁dañ 572306
▁brit 572291
▁técnicas 572156
▁propia 572136
▁dopp 572071
▁vino 572012
▁confi 571960
▁publique 571909
wać 571859
▁rechten 571775
▁klar 571755
▁μετα 571750
zte 571700
▁gos 571699
cription 571618
▁resul 571589
arden 571573
▁broch 571457
ieux 571415
▁läh 571380
▁contrato 571350
ibili 571279
option 571162
amenti 570912
design 570869
▁cb 570823
▁uden 570811
▁leistung 570726
▁personnelles 570715
▁ew 570700
▁fahrzeug 570677
▁ander 570632
▁jóvenes 570601
ět 570562
▁reag 570562
chung 570504
▁sj 570459
▁paesi 570414
▁kirche 570387
ská 570370
ienza 570359
▁stell 570269
▁diabetes 570225
▁aéreas 570103
▁gras 570095
ρί 570078
▁lens 570024
▁pastor 569880
rans 569657
asso 569574
▁aparta 569544
▁popraw 569496
richtung 569486
oe 569471
▁uživatel 569443
▁öffent 569422
са 569412
▁paiement 569391
▁igual 569373
ánd 569353
▁cot 569310
▁healthcare 569261
▁banking 569242
aan 569105
▁ländern 569008
itaires 568989
toral 568957
▁cf 568882
▁houston 568845
▁chalet 568720
▁únic 568714
▁problém 568689
ois 568595
▁alquileres 568527
▁meta 568521
ool 568439
▁ea 568421
▁airways 568403
▁04 568402
▁pneumat 568381
▁separat 568338
▁koop 568287
▁oficial 568287
▁åter 568161
essä 568033
▁moral 567993
▁suficiente 567874
amis 567824
▁unterstützen 567759
▁specialist 567731
ży 567712
μπ 567664
▁paradise 567544
▁bruke 567463
▁fascin 567416
▁zač 567339
role 567308
▁xx 567212
▁inom 567186
▁flü 567175
▁bericht 567163
ovanie 567095
▁speciale 567088
▁oferece 566999
▁accompl 566925
▁zwecke 566860
schluss 566812
▁jego 566637
▁condições 566567
rata 566501
▁necesidad 566474
▁oct 566335
▁bestä 566261
dd 566257
▁spesso 566231
vät 566215
server 566187
▁reducir 566140
inės 566065
▁sofort 565907
▁configura 565906
▁slechts 565846
▁negocio 565798
tav 565754
sy 565698
hav 565680
зи 565649
▁debería 565646
▁ruh 565483
▁jogo 565479
▁jazz 565469
kehr 565450
▁crew 565406
embl 565328
▁át 565245
▁ofrecen 565202
▁consulting 565190
stär 565059
▁bele 564991
▁nine 564981
▁assistant 564967
▁fase 564890
zul 564882
▁jim 564870
▁sharp 564821
▁têm 564762
▁profund 564760
▁asc 564742
▁folgende 564718
▁când 564639
▁entrar 564630
iß 564581
aid 564578
ecd 564533
▁meget 564533
▁pār 564413
▁indonesia 564405
▁corres 564324
▁barra 564265
edas 564251
før 564179
▁anna 564162
from 564151
▁ferienwohnungen 564103
▁soir 564103
▁gateway 563972
▁vest 563952
▁teacher 563825
▁cyl 563707
leistung 563686
izado 563383
▁internationalen 563377
▁interne 563361
ax 563335
▁aseg 563284
▁strom 563228
▁plas 563212
▁echt 563161
ują 563119
▁fantastic 563046
▁dimens 562998
▁sentido 562940
▁imperial 562871
▁persönlichen 562843
▁schwarz 562823
▁senden 562818
▁junior 562776
▁dég 562762
▁posición 562667
▁bist 562636
▁pertin 562629
itants 562616
▁marzo 562467
▁blanca 562460
▁kamers 562391
othe 562380
▁egen 562308
▁ment 562261
▁περι 562234
▁faible 562216
▁fils 562154
▁áfrica 562116
▁escu 562050
▁rezerv 561940
▁scre 561887
▁exem 561880
▁trä 561853
ng 561851
▁alberta 561785
▁positiv 561775
▁loading 561684
tro 561676
▁llev 561663
▁blir 561583
tiges 561382
▁télévision 561287
▁meilleures 561271
▁jurid 561231
▁nokia 561231
ancy 560940
▁native 560940
▁sess 560929
▁verso 560921
▁emple 560738
▁akkor 560677
▁spok 560669
▁sätt 560581
▁ung 560563
hör 560548
haltung 560277
▁connections 560265
▁noise 560177
▁fors 560158
kv 560149
▁habitat 560093
▁guitar 560048
▁spieler 560004
▁ко 559941
adoras 559854
▁länder 559714
▁victor 559603
▁certif 559586
▁clique 559562
ού 559520
▁með 559510
▁rota 559495
▁ég 559467
▁gemakkelijk 559459
▁раз 559416
▁pien 559407
▁travaill 559374
▁concentr 559361
alog 559314
▁voy 558994
▁edad 558890
▁conna 558825
▁rejo 558816
▁toutefois 558797
▁refriger 558772
▁cuanto 558680
▁polyester 558411
▁vertical 558312
▁acab 558268
▁herren 558227
▁tramite 558206
▁esfuer 558181
vey 557924
▁lauf 557779
▁accommod 557744
▁guy 557729
ött 557725
ienia 557622
ationer 557518
▁pessoa 557450
▁découvrir 557431
nico 557424
▁1970 557399
▁catalogue 557342
▁paras 557299
▁exemplo 557279
▁technischen 557269
nahmen 557248
▁persoon 556827
▁sigue 556693
▁съ 556675
▁lifestyle 556668
▁garantir 556598
▁máxima 556572
▁tube 556555
▁obsc 556506
▁keinen 556423
itut 556257
mails 556244
▁gil 556240
▁bezug 556151
click 556126
▁rien 555994
rée 555976
yy 555965
▁estancia 555952
inique 555940
▁mots 555932
ogra 555921
▁erg 555905
▁då 555861
▁maßnahmen 555802
▁olet 555721
▁possibilité 555696
▁idioma 555642
▁prise 555502
▁responsabilidad 555490
▁společnosti 555448
▁brasil 555221
▁respective 555216
▁einigen 555173
cond 555167
▁substitu 555134
▁mencion 554978
▁pig 554976
sf 554938
▁intéress 554893
▁handels 554747
▁funcional 554681
▁hause 554636
▁utilisation 554613
dez 554505
▁gemacht 554491
▁cathedral 554428
▁synth 554259
▁dl 554254
isierung 554253
▁viet 554187
▁beschreibung 554142
bourg 554133
▁urządzenia 554063
▁éd 554050
employ 554046
iken 553947
atok 553924
born 553857
▁magnific 553795
▁schne 553720
rest 553704
▁düsseldorf 553662
▁smith 553635
▁moscow 553571
▁számára 553541
▁objetivos 553503
▁prijzen 553501
▁geven 553414
▁notwend 553376
▁nak 553373
▁muitas 553296
▁utilizzo 553282
▁nachdem 553207
ierungen 553190
▁toyota 553160
pis 553140
▁septiembre 553106
▁thous 553037
general 553036
▁nez 553034
101 553022
omat 552947
▁reten 552924
elde 552923
▁evolu 552922
▁puerta 552752
chan 552748
▁használ 552611
▁plen 552608
ijos 552471
aben 552438
▁institut 552415
rano 552414
▁dock 552346
▁chal 552283
ühr 552178
dessus 552128
▁olika 552099
▁bland 552016
▁personn 551853
▁conformément 551851
▁boss 551819
▁exigences 551780
▁schle 551777
ricas 551756
▁život 551727
arb 551719
▁tā 551690
▁anforderungen 551643
▁sollen 551593
▁ergebnisse 551587
▁siendo 551580
sat 551455
▁llc 551421
▁tweet 551414
▁blind 551403
▁fünf 551400
▁usuário 551304
▁marri 551281
▁atta 551079
▁fertil 551030
▁produktion 550995
▁dust 550974
▁gate 550963
▁fonctionne 550893
▁autos 550777
▁profesionales 550694
▁arms 550666
▁empfehlen 550409
▁kennen 550324
▁recol 550242
▁creación 550156
▁erne 550144
▁visas 550087
▁hör 550035
▁caractéristiques 549965
▁gratuitamente 549923
▁sentir 549857
▁foglal 549789
pez 549773
▁obsta 549695
san 549678
▁nå 549619
▁sedan 549615
óm 549538
▁nowe 549499
▁interrup 549369
μού 549279
▁cerem 549237
▁tij 549149
zeiten 549131
ρισ 549084
▁continua 549040
cus 549015
▁oblasti 548974
irse 548941
▁jahres 548702
defin 548676
▁lies 548658
ρέ 548631
▁conteúdo 548553
▁torn 548519
lhe 548491
▁foods 548355
▁clothes 548331
▁imagin 548276
▁apie 548272
▁cest 548159
▁pratiques 548131
falls 548127
wed 548069
▁réservation 547987
▁chic 547981
▁fusion 547940
uchen 547927
▁alum 547826
argent 547781
▁pull 547732
▁ajouté 547702
▁octubre 547621
té 547575
▁farben 547476
▁3000 547434
▁foram 547335
▁letters 547281
▁arri 547280
isson 547230
▁tenido 547212
izada 547083
▁complète 547037
inian 546961
▁prenota 546926
▁réservez 546828
▁deten 546765
▁concentration 546726
▁técnica 546724
▁almacenamiento 546701
▁rf 546697
▁direito 546639
▁démar 546635
▁globale 546539
▁goedkope 546528
▁mente 546526
álu 546515
rogen 546406
▁aconte 546381
▁couleurs 546301
▁console 546282
▁många 546241
▁réponses 546080
▁accounting 545926
▁pets 545869
▁belgi 545645
estar 545642
riger 545568
▁ли 545557
orda 545520
▁finans 545428
▁þú 545365
▁intermedi 545337
onie 545332
▁bread 545310
▁frat 545268
▁mex 545211
undi 545204
▁mira 545185
▁vlastní 545136
▁vídeos 545083
▁edinburgh 545029
kop 545007
▁introduce 544952
cich 544904
üssel 544859
▁vesti 544699
▁quem 544662
▁buchung 544661
!!! 544624
!" 544575
▁außer 544559
▁gruppen 544510
ény 544420
▁enem 544396
▁gust 544317
hum 544310
▁scaricare 544309
▁rez 544227
▁enn 544213
▁sunrise 544152
▁gaat 544091
bach 543993
▁kilometer 543992
▁aument 543977
ffs 543976
▁politik 543934
▁augment 543926
▁alber 543920
▁wszystkich 543883
▁campus 543807
▁costo 543783
▁lille 543782
▁drawing 543736
chair 543706
▁tenerife 543682
odes 543557
▁automatique 543539
▁adicionales 543420
▁verpflicht 543409
▁recop 543335
▁emergen 543297
▁quiere 543259
▁reak 543109
▁bella 543083
iej 542935
▁découvrez 542850
▁fuerza 542844
▁gespeichert 542772
▁praw 542768
▁deinen 542739
alon 542681
...) 542618
▁vendita 542579
▁margin 542304
▁patio 542300
▁ethn 542278
ún 542270
comp 542152
▁imagine 542140
▁hilft 542118
▁normale 542088
▁academy 542080
naires 542079
▁személy 541971
emar 541937
▁zealand 541913
▁congo 541868
▁gusta 541806
▁cuidado 541773
би 541761
▁legge 541681
▁kel 541659
▁mij 541594
tad 541559
ję 541178
▁menor 541173
▁oportunidad 541121
▁pronto 541082
▁thy 541065
▁poi 541040
▁extr 540874
▁larg 540863
serv 540777
▁proveedor 540775
sehen 540662
2006 540654
▁réduire 540578
▁altura 540530
▁producer 540503
klad 540450
▁člen 540401
andi 540299
▁changement 540283
▁exit 540242
▁inspiration 540215
volle 540193
▁bedeutet 540145
▁spéci 539927
▁öl 539887
tivi 539788
▁banco 539780
▁syl 539780
▁solicitud 539738
▁riv 539610
ather 539595
▁brid 539565
▁nob 539559
▁máte 539504
▁relief 539443
▁resto 539417
views 539301
power 539165
vos 539107
▁comer 539106
▁dokumente 539007
fü 539001
▁beide 538887
▁populaire 538878
▁pelos 538864
▁emirates 538862
kw 538836
woord 538783
▁numérique 538749
▁herzen 538719
iamo 538682
▁połąc 538668
▁rog 538572
▁verfügen 538546
▁accommodatie 538443
▁servir 538342
laub 538310
▁dela 538235
▁chiesa 538225
▁μ 538159
aru 538154
porte 538128
▁vraiment 538117
econom 537957
évaluation 537866
▁intelligent 537754
ettre 537721
▁abund 537690
▁220 537553
▁dear 537548
▁vand 537541
control 537531
▁objekt 537517
mme 537484
▁formación 537412
ecte 537250
kker 537151
counter 536996
aug 536988
ieu 536939
▁več 536931
vio 536924
▁comerciales 536898
▁rode 536828
▁gehört 536699
▁valamint 536646
cit 536548
ird 536532
▁clase 536524
▁volledig 536510
▁sagen 536403
▁thema 536389
▁zuverläss 536351
▁poids 536282
▁grave 536222
▁exec 536083
alter 536075
ollen 535981
ilen 535941
université 535891
rif 535860
nio 535812
▁nantes 535767
▁slot 535702
▁tos 535670
dre 535591
▁farbe 535587
▁fabri 535562
hô 535518
▁longue 535448
▁riad 535438
▁beachten 535437
▁cucina 535412
pias 535407
▁cine 535229
▁nécessaires 535191
▁rewards 535164
▁difer 535138
▁femin 535058
▁towns 535046
▁doppel 535031
▁mercato 534956
▁genre 534955
▁stretch 534950
▁lobby 534882
▁shuttle 534873
ává 534832
iba 534828
▁dicho 534810
ckt 534623
▁pokoj 534565
▁jord 534542
▁produkten 534523
▁tali 534487
▁electro 534392
▁impor 534356
▁favour 534273
▁accesso 534200
▁risques 534195
▁bardzo 534183
▁solamente 534163
aban 534142
▁abend 534096
▁camb 534020
▁continent 534003
▁einsch 533921
▁travaux 533904
▁gn 533822
▁terraza 533731
▁bedrijf 533717
▁dictionary 533698
▁intense 533618
▁stol 533539
▁extensions 533528
▁poste 533295
▁világ 533202
мо 533179
▁folk 533151
otos 533054
▁solicit 533026
▁highlights 533008
▁forne 532995
▁minuti 532971
▁vrij 532866
tev 532848
▁shot 532846
mäßig 532838
▁delicious 532823
▁réguli 532734
▁prozess 532637
▁tare 532628
▁450 532544
schnitt 532529
▁mist 532510
▁scanner 532492
▁république 532483
▁grandi 532451
▁particuli 532351
▁cork 532339
arbeitung 532332
▁brothers 532308
▁manila 532297
▁plac 532292
▁impres 532206
▁suspension 532173
instal 532147
▁noen 532135
▁deinem 531918
olis 531850
▁niño 531791
úr 531781
etzt 531768
▁infl 531755
▁florida 531675
ística 531564
ross 531551
▁funzione 531495
▁demás 531469
▁newsp 531451
▁motivo 531450
ücks 531437
▁ricord 531371
▁letar 531369
▁puissance 531341
tioner 531140
▁ejec 531127
▁verre 531118
page 531104
▁stages 531069
▁ct 530897
▁sine 530862
eté 530852
wasser 530814
lim 530792
nummer 530779
▁mètres 530778
▁contempor 530682
▁eau 530649
▁ingyenes 530580
▁parha 530453
▁perce 530437
▁segura 530390
▁мо 530376
▁baz 530363
▁fundament 530347
pac 530338
▁restaur 530326
)( 530287
▁preocup 530226
▁améliorer 530148
dev 530064
▁közelében 530047
▁parís 529886
▁robust 529835
kün 529834
▁termes 529812
itore 529806
▁confiance 529768
ţie 529755
há 529651
▁frau 529641
▁trouvé 529604
auto 529406
▁materi 529342
orden 529330
▁gleichzeitig 529313
▁marche 529198
▁erf 529049
wen 529011
▁sobald 528989
days 528934
▁bądź 528877
▁sugger 528854
ující 528788
▁allo 528741
minen 528731
gement 528703
▁delhi 528696
▁reb 528639
▁programu 528638
▁merci 528611
intérieur 528584
icals 528565
▁tidigare 528541
▁hect 528498
▁soggiorno 528458
agers 528322
▁bird 528305
▁retur 528293
▁parole 528289
▁stands 528226
▁61 528197
zik 528165
stop 528134
▁maz 528106
▁sty 528102
▁frü 528076
istische 528031
▁harbour 528014
▁való 527883
▁ries 527852
▁activiteiten 527720
▁który 527683
▁dispon 527580
▁clima 527566
▁ih 527537
▁scen 527438
▁benef 527367
▁puzzle 527354
▁recuer 527288
▁defic 527269
▁ça 527171
▁hell 527159
▁vollständig 527137
▁trot 527135
▁conocer 527120
▁lavor 527069
▁orienta 527068
▁~ 527052
▁tropical 526975
▁segment 526972
▁amis 526895
▁legisla 526891
▁flying 526802
▁substance 526709
▁posibilidad 526684
▁notification 526590
▁trig 526325
▁termos 526283
erk 526267
▁nö 526245
▁respir 526174
allas 526140
▁svoje 525963
▁modified 525924
▁automáticamente 525923
▁sommer 525792
▁много 525773
wc 525694
▁mañana 525579
▁imposs 525575
geräte 525519
programm 525411
text 525360
▁theater 525359
▁maior 525307
▁inferior 525288
▁trump 525208
▁tied 525173
▁haciendo 525169
▁posto 525145
čne 525126
ków 525117
ças 524993
▁qc 524957
▁sli 524951
▁abord 524921
▁controllo 524913
▁palabra 524873
soft 524765
ację 524727
▁mixed 524639
▁zelfs 524609
▁tableau 524575
▁tudi 524516
▁éti 524460
▁mezi 524420
▁energet 524287
▁herrn 524254
arbeitet 524216
lust 524170
uais 524122
▁μπορείτε 524121
onna 524075
orient 524073
▁abil 524069
▁rápidamente 524052
▁maker 524001
▁canaria 523958
▁algumas 523954
▁suivant 523918
▁könnten 523885
▁österreich 523825
▁maritime 523824
▁mayo 523814
ecken 523780
▁drops 523729
ké 523621
▁heel 523618
▁jugar 523616
▁modification 523595
eve 523583
▁excl 523578
chine 523413
▁laat 523377
sin 523243
▁interi 523217
▁fotograf 523199
▁beat 523118
eración 523007
▁barbecue 522978
▁administrator 522877
▁refle 522766
▁temas 522752
▁sustainability 522722
▁searches 522572
▁plante 522505
arie 522453
▁bestimmte 522364
▁patri 522361
▁wikipedia 522312
во 522279
ossa 522224
▁belieb 522192
▁rese 522191
▁disney 522101
pap 522080
▁diagn 522031
▁vér 521996
ey 521992
utting 521989
λά 521983
▁fyrir 521954
▁autonom 521937
▁conférence 521929
▁pobliżu 521925
▁bringen 521873
▁applikation 521870
mul 521808
ests 521779
▁dėl 521772
▁wettervorhersage 521724
▁objectifs 521647
▁rt 521636
▁ønsker 521566
▁generate 521549
▁quar 521526
▁sok 521492
artige 521437
▁uniform 521400
gf 521382
▁ave 521339
ství 521323
▁française 521256
itatea 521213
▁descarga 521209
▁necessário 521162
▁estudios 521144
▁rug 521117
▁foro 521067
▁transfers 520956
▁celles 520776
▁concer 520774
▁wegen 520730
▁entrepreneurs 520705
▁strani 520677
▁benötigen 520626
▁pequeña 520604
▁jar 520565
ieur 520528
auft 520527
▁etern 520433
▁fic 520407
▁spray 520348
▁everyday 520324
▁premi 520292
▁indica 520259
▁prendere 520160
ulin 520152
▁abaixo 520071
ryp 520019
icherung 519975
▁επίσης 519901
▁root 519812
▁modifications 519752
fé 519719
▁ari 519710
insp 519698
▁kül 519427
▁antwort 519410
▁autoridades 519400
▁kör 519319
▁webs 519255
▁uur 519238
obe 519223
▁arra 519214
ša 519207
ikat 519136
▁kür 519113
eco 519069
▁versuchen 518998
▁urs 518861
arti 518734
▁angeg 518711
▁79 518697
▁precise 518643
▁décou 518637
▁posso 518589
▁gesundheit 518565
▁ofrecemos 518553
▁funciona 518529
▁diver 518459
▁manutenzione 518430
▁commen 518357
▁lod 518319
▁script 518316
▁possibil 518296
ría 518203
temp 518174
▁hotelek 518128
▁qued 518062
emble 518014
▁neb 517949
lijke 517912
rán 517891
▁zd 517848
▁siden 517768
▁domingo 517735
▁chip 517719
▁disso 517682
▁sour 517652
inio 517646
▁semplice 517584
commerce 517533
▁några 517505
τικές 517502
stellungen 517381
▁tämän 517287
onta 517233
▁eind 517192
▁laur 517180
▁alex 517173
▁crianças 517159
▁canvas 517126
*, 517121
▁statisti 517082
kus 517023
▁alp 516976
▁nécess 516797
▁személyes 516765
▁movimiento 516752
▁kategorii 516729
▁aktuelle 516714
houden 516657
▁cycl 516616
keits 516600
▁leyes 516539
oja 516513
▁dí 516307
▁beispielsweise 516283
▁usados 516273
▁aéroport 516264
▁pioneer 516202
▁sq 516197
rigen 516154
menta 516042
▁hosts 516011
erste 515957
▁utilis 515867
▁vorhanden 515863
▁kostenlose 515850
▁този 515843
▁quartos 515767
▁vam 515764
▁pä 515748
▁mensajes 515672
▁fraud 515659
▁blízkosti 515642
▁appel 515554
▁ting 515539
2007 515532
▁multimedia 515528
▁false 515500
▁apropi 515480
▁styl 515448
▁déf 515424
▁copia 515367
expérience 515364
▁integrat 515326
▁paragraphe 515293
▁envoy 515252
▁abu 515230
spiel 515217
▁persoonlijke 515209
dienst 515162
lon 515115
▁monat 515112
▁към 514971
▁universe 514809
tiert 514793
▁această 514783
nö 514775
iction 514740
▁sección 514656
▁ejecu 514654
šk 514467
vá 514456
änge 514337
cept 514309
æn 514289
ható 514166
▁zust 514037
▁moda 514036
▁någon 513923
▁går 513897
▁tarifas 513807
▁privil 513800
aniu 513780
▁assure 513767
▁graphic 513720
umat 513712
illy 513675
▁fid 513652
▁montag 513621
▁europäische 513564
▁granada 513534
▁paquete 513500
▁leistungs 513486
xa 513472
worth 513457
▁rd 513368
▁nichts 513332
▁fonctionnement 513282
▁muscle 513156
▁pais 513133
hte 513090
▁especializ 512981
▁témo 512931
▁%, 512910
▁statut 512860
▁bible 512859
▁perfecto 512856
▁moderno 512835
▁comunes 512815
▁diagnos 512788
erar 512724
ruck 512608
▁banc 512522
▁relatives 512516
▁élev 512447
ève 512282
itie 512237
▁formulaire 512176
▁carne 512102
▁palmas 512084
▁toto 512057
hlt 512044
▁recording 512020
▁fet 511978
▁nikon 511962
▁primeiro 511931
spro 511908
▁bisog 511819
▁bisogno 511815
gehen 511774
▁discret 511697
▁passé 511674
▁ως 511633
▁apresenta 511570
▁absolute 511555
▁ocup 511369
▁diagram 511323
nels 511320
ικά 511243
inig 511159
▁zelf 511114
▁účely 511023
▁centra 510977
▁mér 510877
▁zusammenarbeit 510774
▁soy 510722
▁richard 510712
▁cultures 510686
▁strasbourg 510626
▁basel 510584
▁trem 510544
▁αυτή 510536
▁thunder 510523
▁athens 510481
▁entsprechend 510417
▁jacques 510416
▁bearbeiten 510407
▁πο 510400
ácie 510323
▁luogo 510311
▁aura 510272
▁ats 510153
▁pizza 510107
▁preț 510038
phones 509912
▁enkele 509880
▁slik 509720
▁aceite 509675
▁provincia 509665
▁zach 509647
▁atten 509626
▁minder 509604
▁altijd 509586
▁deste 509582
ücke 509466
sr 509423
änden 509420
▁wohl 509368
▁developer 509337
▁ermöglichen 509332
▁plata 509304
▁alimentación 509295
▁gesellschaft 509197
▁sinun 509148
▁già 509105
▁defend 509091
▁posibil 509000
lj 508965
stru 508934
▁functies 508923
▁(+ 508912
▁ibm 508876
▁piso 508875
ßt 508859
▁bachelor 508835
fahrt 508783
▁fiz 508771
td 508739
▁pum 508704
▁missions 508677
isz 508632
▁fabricant 508585
▁reihe 508562
▁lle 508551
▁liens 508503
mers 508482
êts 508328
▁impri 508300
▁travailler 508128
▁cach 508108
▁dépos 508087
ignon 507965
▁favourite 507887
uks 507849
▁carlos 507681
▁escri 507668
▁uniquement 507647
▁tradu 507628
▁multe 507577
▁república 507525
ření 507523
sein 507504
▁adress 507440
pg 507425
▁carp 507363
▁fier 507259
▁nám 507214
κό 507149
mir 507047
▁fabb 507031
▁meie 507016
teile 506978
put 506935
▁presso 506891
▁smartphones 506856
▁hormon 506791
▁julio 506791
▁gd 506714
▁aange 506668
▁wys 506615
▁quien 506489
● 506479
▁espace 506477
ential 506452
▁edificio 506447
ript 506435
image 506415
▁parco 506399
aper 506368
▁υπο 506365
jahr 506311
за 506242
map 506185
▁ports 506138
▁européen 506092
ètre 506082
▁extran 506037
zep 505999
▁bade 505995
▁paci 505982
acie 505893
mä 505893
▁berech 505734
uu 505677
▁bleu 505642
après 505639
ές 505606
▁pocos 505579
▁webové 505463
enger 505413
▁fred 505349
▁natürlich 505184
trans 505138
▁sper 505136
▁sociétés 505125
▁comerci 505099
▁sri 505034
▁folder 504975
▁vector 504888
nungen 504857
upe 504854
akes 504744
▁regol 504729
zip 504708
▁événements 504684
imin 504595
▁giver 504585
elec 504551
▁millionen 504511
▁père 504118
▁filtro 504091
▁royaume 504059
▁nagy 504024
atoire 503959
achi 503822
ftig 503803
▁igu 503711
▁máquinas 503685
▁affordable 503681
▁generalmente 503659
foot 503644
eggi 503576
fig 503536
▁pasa 503503
▁potrebbe 503396
▁basta 503355
▁layout 503353
▁inoxid 503309
▁bättre 503295
▁poursu 503274
▁dónde 503251
...+ 503209
▁dum 503197
▁internation 503112
▁freund 503105
▁pies 503090
▁anton 503022
ingar 502949
▁sauv 502949
▁będzie 502937
▁● 502806
aliza 502757
▁fou 502748
▁muitos 502730
chia 502683
▁lehet 502551
▁ssl 502544
▁bologna 502524
ulla 502455
▁poderá 502438
▁wake 502429
lieren 502410
▁divine 502399
▁shift 502392
▁porno 502380
▁tête 502356
▁comercio 502324
▁établ 502176
▁judicial 502146
▁pond 502088
▁riguard 502088
▁aplica 502011
▁bewertung 502010
hour 501920
▁musí 501756
▁caz 501754
▁wiki 501731
▁про 501727
kla 501717
houd 501647
▁opinions 501598
▁zentral 501537
aje 501524
▁zudem 501513
▁préfér 501512
▁gerne 501403
▁colabor 501350
▁vertu 501345
▁cic 501166
ţia 501162
hler 501142
kos 501138
▁animaux 501118
▁permettant 501077
nale 501074
▁testa 500961
nav 500915
▁taiwan 500915
ece 500829
▁bein 500775
▁cruise 500775
▁gat 500748
375 500726
▁cock 500638
▁william 500629
abad 500618
▁zürich 500615
▁apparaat 500547
▁hatten 500515
ded 500462
▁tendrá 500406
ля 500390
run 500276
jam 500226
▁malaga 500225
▁downloads 500216
owej 500163
▁watches 500124
▁wahrschein 500002
▁führt 499884
uesto 499882
▁transparen 499824
ibilidad 499817
bad 499812
▁zeker 499622
▁1960 499619
▁grass 499588
▁consegu 499576
▁jersey 499532
▁zul 499484
▁sonnen 499387
▁premières 499375
zzo 499347
▁neutral 499262
iring 499228
istent 499163
▁bestem 499132
▁continental 499089
pot 499085
▁prem 499075
▁offrir 499016
gada 499009
ικές 498999
kol 498916
cuál 498819
unes 498811
▁eficaz 498789
vern 498779
▁tx 498760
▁mold 498665
▁nya 498665
▁elektr 498589
▁cottage 498584
▁kne 498570
ăm 498456
ването 498453
▁sviluppo 498437
▁struktur 498363
▁belt 498255
▁după 498214
▁toho 498180
▁arb 498174
▁gala 498085
arbeit 498059
▁avi 498014
▁panorama 498009
▁telles 497988
intes 497973
▁variable 497965
▁illegal 497956
▁répond 497933
▁francis 497921
▁lung 497916
▁theory 497839
arde 497838
▁retir 497809
▁wort 497799
▁inden 497759
▁87 497719
▁guinea 497700
▁registre 497628
▁fájl 497622
▁discounts 497575
▁grace 497503
▁neues 497483
▁supervis 497476
▁voo 497449
▁parece 497372
▁bajos 497346
▁desayuno 497326
▁relat 497286
▁elett 497247
cono 497216
▁travelers 497205
stream 497171
▁sql 497140
▁independ 497089
▁stratégie 497074
grade 497070
gé 496995
▁nás 496976
▁oficina 496975
▁erbjuder 496944
▁televis 496921
▁propres 496704
vista 496693
▁timp 496661
▁concl 496622
▁kurz 496492
▁palais 496424
▁cura 496387
▁persoonsgegevens 496370
▁omdat 496303
▁lässt 496264
sku 496238
▁blive 496180
▁japon 496178
ondo 496173
hard 496101
cera 495982
▁siv 495938
itti 495937
▁norway 495931
▁claire 495907
▁toy 495882
τος 495821
isant 495782
▁adj 495780
▁displays 495691
▁toma 495685
▁coûts 495654
▁entorno 495516
▁skulle 495466
nal 495443
reib 495423
iii 495391
▁publ 495376
▁mindre 495279
▁batterie 495193
zeniu 495176
▁catal 495176
▁responsabilité 495123
▁potencial 495116
▁nick 495073
▁almacen 495035
▁seis 494918
▁tweede 494890
atif 494861
▁authenti 494822
▁paix 494799
bringen 494769
▁privée 494759
▁aloj 494743
▁creek 494712
preis 494653
▁advertis 494628
▁hairdryer 494609
▁brut 494571
▁mons 494505
▁raid 494498
▁dutch 494442
▁saranno 494440
ība 494418
▁criar 494412
▁professionnels 494409
bido 494368
▁orice 494271
▁études 494255
▁kunde 494223
affaires 494178
timas 494107
agement 494099
nique 493970
ieve 493940
▁breast 493935
canada 493891
▁danger 493856
rating 493830
▁κάθε 493825
▁våre 493770
▁assurer 493756
▁segundos 493744
▁turkish 493598
▁esencial 493596
▁airports 493534
▁brus 493516
▁anten 493476
▁spin 493353
▁assur 493297
oudre 493263
▁homem 493243
▁effets 493215
▁opl 493119
▁organizz 493102
endet 493094
▁gun 492980
▁fiber 492906
▁impacto 492780
▁seleccione 492716
▁beb 492679
αλ 492599
▁cielo 492597
fäh 492589
cidos 492537
▁zav 492400
νε 492383
▁overlook 492314
imat 492255
▁ка 492172
▁greek 492109
▁env 492108
▁succès 492023
▁personenbez 491995
instru 491980
▁accumul 491951
▁még 491910
tri 491909
▁(- 491857
ribu 491836
▁peg 491814
▁nurs 491794
oo 491789
▁enfr 491768
▁termini 491714
uil 491642
▁vårt 491504
▁trips 491485
wohn 491443
▁stoff 491419
▁πληροφορίες 491384
▁adgang 491380
▁peugeot 491340
▁volt 491336
otu 491280
ických 491231
▁realidad 491182
▁manit 491174
plex 491173
isko 491153
▁produzione 491110
▁organizaciones 491096
▁existi 491065
isp 491023
▁extract 491020
team 490987
▁string 490950
dores 490884
▁ajuda 490882
riques 490823
▁referencia 490805
weight 490793
▁pia 490792
▁whe 490724
▁prolong 490654
▁απ 490643
uchte 490565
▁krijg 490551
erta 490541
▁réserver 490495
ácia 490482
▁realiza 490475
▁cheese 490470
▁bastante 490395
▁memoria 490391
▁datab 490385
▁lee 490361
▁indirect 490329
▁būti 490290
▁ow 490277
▁bune 490276
▁tablets 490212
▁invers 490194
▁kern 490184
▁parad 490120
zij 490085
zne 490073
rooms 490044
nosť 490015
▁kommun 489951
administration 489937
▁estes 489909
[...]
