# {"tokenization": 2, "inline_case": true, "nfkc": true, "protect_regex": "<(term|/term|DATE|DDMY|DMDY|DT|DYMD|NN|NW|QCM|QKM|QL|QM|QS|monotonous|monotonish|finance|it_science|kpop|law|medical|news|patent|shopping|sports|travel)>|<lang:[^>]+>"}
▁ d
e s
▁ a
▁ t
o n
e n
▁ p
▁ l
i n
e r
▁ c
▁ s
r e
o u
t i
a n
▁t h
i s
▁d e
o r
▁ m
i t
▁ f
a r
▁th e
en t
▁ e
▁ b
a l
ti on
l e
t e
q u
▁ o
r o
▁ w
▁ in
▁ n
u r
▁ v
i l
▁a n
u n
▁ h
o m
i c
a t
ou r
▁o f
▁l a
▁ r
a s
u s
a tion
v e
in g
▁t o
▁ g
▁l e
▁an d
▁e t
m ent
c e
c h
e l
▁ re
▁ en
▁ un
▁l es
▁ qu
▁c on
r a
▁ à
r i
e t
▁d es
e d
▁p ro
i r
o s
o l
an t
es t
ou s
▁c om
a g
o t
i d
▁ y
er s
i g
c t
▁p ar
▁c h
i m
▁f or
u t
▁ (
▁ j
an s
a m
u l
▁ on
▁ 1
▁p our
a d
es s
▁ 2
é s
a b
p p
i e
▁ é
t er
▁s e
▁d u
i on
▁ is
▁p l
c i
a te
▁a u
▁s t
qu e
m e
a c
a u
i re
n e
an d
a y
v er
▁a l
▁b e
▁p r
o w
it h
▁ -
or t
▁s u
a in
▁e x
▁s ur
▁w ith
il l
▁d ans
l y
▁m o
on t
▁ or
s e
s t
▁d é
p e
i f
▁n e
u re
▁a s
ou t
▁w h
▁un e
ag e
0 0
▁ est
en d
▁a c
▁qu e
is t
▁com p
▁ it
▁y ou
r es
l o
▁ k
é e
d i
c tion
e m
▁v ous
l es
u m
▁m a
it e
d u
▁th at
t h
i v
▁t r
▁c an
▁r é
g e
l i
o c
ation s
▁a ve
▁con t
a p
▁f a
i b
. .
an ce
d e
in e
▁ ou
t é
it é
ur s
f f
▁a t
▁w e
▁s er
▁p as
ro m
▁a re
▁qu i
al e
▁ave c
0 1
t s
▁ us
ab le
f or
▁s h
on s
it y
ig h
▁p e
▁n ot
é r
▁pl us
▁s o
a ti
o o
▁a pp
▁t ra
▁b y
u e
te l
▁a d
▁g r
▁a r
l is
▁ im
ar d
en ce
▁f rom
o g
u x
▁y our
▁com m
▁th is
p r
▁m an
▁ u
é es
en s
o p
ou n
for m
▁c e
er e
qu es
▁ il
▁ 3
a is
ic h
▁a v
on n
il le
al l
ment s
▁d is
c om
▁r es
ic e
ti c
▁m ar
▁h a
p er
c es
▁p er
▁2 01
▁c l
id e
t re
è re
i ti
us t
▁h e
▁m e
▁al l
c l
i es
in s
p ort
te d
tion s
▁in ter
▁pro du
a re
▁ i
t a
i er
▁n ous
a v
i que
▁ ro
u b
ig n
▁v ot
is s
c ess
ou ve
▁a ut
è s
▁vot re
▁t e
in d
i a
p os
▁con s
l d
or d
k e
ch e
▁c ar
▁ser v
p h
or s
r u
▁a m
▁w ill
▁s ont
▁a b
a ce
▁s p
au x
▁of f
l ic
el le
a ir
p s
o ir
on d
ent re
▁c o
ant s
▁p ers
a ire
▁s i
an g
m es
▁f r
ti lis
un e
▁d o
▁s a
i le
é ri
▁au x
ent s
▁ 4
is e
ar t
o re
m b
it s
i ve
▁p ri
▁j e
a ct
▁n o
▁s y
i en
r é
▁p re
▁p os
▁c ol
ti f
u d
▁w or
t en
on g
▁ha ve
v en
ul t
▁ 5
s o
igh t
ate d
o d
▁h o
▁a g
▁p h
▁w as
▁ our
p l
oo k
ur es
d er
.. .
a il
et te
our s
l é
on e
▁f l
ic es
as e
é n
▁in form
▁r és
as s
▁m in
a ch
ion s
i ent
ê tre
é c
▁ho tel
o in
▁t out
▁par ti
ci al
el l
▁ne w
e ar
os t
e z
a pp
▁tr ans
▁can ad
ti v
j e
ay s
▁m on
▁ac c
h er
▁1 9
) .
air es
▁a f
o is
ac k
▁é t
b er
a k
▁re g
▁o p
if f
▁t er
r y
▁h as
re e
g h
ti t
▁o b
el s
▁ "
i p
b re
i z
▁f in
u al
▁p ol
▁s on
a ut
r ic
as t
ag es
ib le
er n
▁l oc
a it
▁wh ich
ar y
▁ma is
ou v
▁ 6
▁v is
us s
▁mo re
p le
o y
▁c ette
l l
g ra
▁par t
er t
▁e m
é t
e x
▁e u
ou ld
th er
▁pro v
▁se c
▁inter n
ve lo
▁p ub
▁on t
▁u tilis
▁d ire
▁con f
▁ if
▁2 00
t es
é g
▁e ff
os e
▁t im
us e
oun d
ation al
▁ être
▁re c
▁su pp
▁d iff
▁g u
▁it s
▁b ut
k s
m s
m in
om e
) ,
le ct
▁s pe
oun t
ou ver
▁b r
u is
ch er
m o
ol og
i ère
ti ve
▁s ol
ic i
▁the ir
at s
▁f e
▁de v
l le
ar i
te ur
▁n ouve
ch n
en ti
r ess
e c
▁ z
▁c or
▁re l
▁ out
on ne
▁mo d
g an
▁ entre
ic al
▁ 7
▁t ou
k ing
▁é té
i ques
▁l i
il s
▁on e
▁comm un
v es
▁ «
▁u p
▁v ol
▁te chn
our n
▁in st
▁t em
and e
am e
▁m ont
et s
▁al so
▁ –
it és
▁for m
v ent
▁com me
▁ 8
▁not re
▁in d
è me
b le
p ar
▁pro f
ô tel
ie w
an ge
u tion
▁an n
▁b l
ce p
▁con c
oo d
p lo
▁in s
▁m at
▁s c
▁n om
ig ne
ri b
▁o ther
ou gh
▁serv ices
ct s
ow n
▁dé c
t o
▁pr és
▁m é
▁pro gra
▁ 9
▁eu ro
▁g o
▁t a
▁s it
▁canad a
▁d i
▁the y
▁pers onn
di tion
▁an y
▁ “
▁d onn
▁c ap
▁ &
ci p
▁pr é
▁1 0
▁m ain
▁inform ation
ale ment
▁ es
a i
▁tra v
▁pe ut
▁th ere
▁en v
el les
an c
▁as s
▁s ou
▁ch ar
iti es
▁t ous
▁tim e
▁v er
▁su b
i tion
▁ »
at es
▁per m
▁c es
▁in cl
at ure
▁v ers
▁us e
ri p
▁l o
▁de m
▁c as
▁s im
ou p
é lé
▁y ear
c o
▁de p
es e
▁m em
▁s ite
ent e
▁c li
▁s al
or y
▁we b
c on
▁ x
▁r est
▁serv ice
▁d ur
è res
▁progra m
le ment
▁b o
▁ch am
u es
▁b u
ate ur
▁ab out
▁h ow
n er
ess ion
▁r en
▁b as
▁f il
ic k
u i
▁le ur
w e
▁f ind
▁pos s
i an
▁ré g
ad e
iv ers
▁wh o
▁m et
▁pe u
▁m ay
▁s es
▁ ent
ing s
▁a ir
end re
il d
▁c am
▁c ent
▁c our
▁d at
y s
igh ts
▁qu al
i x
an te
ti que
▁v os
ouve z
▁pre m
▁c re
ê me
▁p ort
r it
▁ |
v is
at h
▁or gan
▁ /
ati ve
al s
o b
g er
te m
▁wh en
▁in c
ti s
ction s
▁h ôtel
▁pr in
▁t élé
▁g en
▁im port
▁l ong
▁im p
▁h is
▁f am
▁re m
▁s é
al is
▁en g
▁f ir
▁re qu
▁re p
▁pr es
ic ation
c k
com m
▁b ien
▁t y
▁pas s
f t
▁n um
u p
ain e
an ces
▁re cher
▁th an
er v
▁v o
▁f on
al ly
is h
an n
ain s
▁pub lic
▁ :
▁h el
▁fa it
▁p o
▁de ux
▁a ff
▁l iv
▁ac cess
ra ph
at er
▁ex p
te ment
in es
▁é g
▁re f
▁p oin
▁c a
▁ac tiv
▁d ro
ri e
ag n
▁wor k
t ra
p on
▁s ign
i ers
▁b est
▁c al
v al
▁th ese
r on
▁t w
▁hotel s
u tilis
ver y
▁ad d
▁b et
▁v al
▁g re
l and
iss ion
▁o ver
▁m y
▁in f
▁b ook
▁pl ace
▁h igh
ab il
▁n on
▁n os
▁m us
▁pro cess
▁d ist
▁be en
▁c ré
en ces
▁l ors
at ing
e ct
▁pro pos
o v
▁ch a
▁re v
h e
ve l
pr ès
b l
ro s
00 0
▁ id
▁2 0
▁b ar
ol l
▁sit u
c a
j et
▁con ne
é d
▁pri x
▁d ri
▁a ct
▁me ille
▁sy s
i o
▁de velo
▁j us
▁p ays
▁pri v
id er
▁f ree
es tion
ot h
uss i
ow s
ar ch
▁g én
g r
▁fa ire
al es
ci f
▁so ci
▁b el
▁m ost
is es
▁d oc
▁m en
▁cont act
▁fir st
▁c ert
▁d om
r en
▁k n
w n
2 0
▁pro te
▁b us
▁s ans
▁a ins
▁app lic
▁wh at
▁ains i
▁gr and
5 0
ul ar
ab les
▁d ou
▁p ra
ne ment
▁ph ot
▁m ême
ow er
▁man u
▁wor ld
p or
▁develo p
▁donn ées
ar ge
▁s ome
er g
▁on ly
p ons
▁a ussi
ti m
▁ég alement
b res
▁ch e
▁ne ed
lis h
▁re t
▁in v
▁ [
it er
▁perm et
a ur
▁v e
▁h um
▁pl an
le ction
▁d own
c c
▁w ere
a z
▁tr ès
▁ 0
▁dat a
▁dis pos
▁des ign
▁in di
▁en c
▁doc u
le d
▁recher che
1 0
▁s k
▁c ou
u it
is se
▁ex per
t on
▁fon ction
▁env ir
▁af ter
▁sy st
▁cont in
▁app ro
▁c ount
qu i
▁qu el
▁con st
▁m es
▁1 8
▁pe op
▁comp le
▁w ell
c ted
▁l og
▁é ta
▁nom bre
▁intern ational
en se
▁th r
▁the m
r ent
ie u
▁un der
▁pro p
▁e lle
▁ro om
ch es
▁v ill
▁c entre
▁h er
▁tem ps
velo pp
te urs
ti ques
é té
▁p ouvez
is te
▁p le
▁f un
i ed
n es
▁t ro
▁peop le
▁an s
▁tou te
▁1 2
▁f ourn
end ant
▁e l
▁ ?
l ine
▁com ment
ib il
▁c el
▁p op
▁produ its
it ed
an y
▁s m
▁m ed
ous e
▁o ù
▁su ch
▁thr ough
di tions
▁in to
t y
b e
▁tout es
d ay
▁m al
▁re ce
▁1 5
en c
▁dire ct
▁dé velopp
▁euro pe
▁r app
ac c
▁a près
ar m
▁se e
▁sp é
ve d
er a
▁con se
▁av ail
▁b ro
con om
plo y
▁incl ud
▁us ed
▁g et
u de
ate urs
▁hôtel s
ol d
it al
▁g ra
▁wh ere
▁supp ort
▁d on
▁p age
▁pers on
▁f ich
▁fr ance
▁f ra
ti l
p art
▁le urs
u di
▁m ill
▁mar k
f ul
▁c ro
o ire
▁techn olog
▁hel p
▁tw o
il y
▁p a
▁s ous
▁conc ern
▁v ie
▁dep uis
▁b re
ur n
je ct
g es
t ing
▁dé f
▁par tic
▁b i
▁av ant
▁ver y
t in
▁k e
▁res pons
id ent
▁gén ér
id es
▁sh ould
▁s et
▁de c
▁v iew
▁c at
▁gr at
▁r ou
▁j our
▁v i
r is
▁inst all
▁g ar
s h
é ra
▁k m
▁m er
2 01
▁j u
▁s te
▁e very
▁import ant
▁rest aur
f ore
▁peu vent
▁en d
▁prés ent
g et
er m
▁mar ch
▁w ould
▁ch o
▁w ind
ard s
▁gen er
▁ma ke
▁su iv
in ess
▁h ad
▁h ist
▁con n
ter n
▁se arch
▁dis c
▁f ac
▁sys tem
▁be au
▁n et
in k
at her
oc k
v id
▁m il
▁year s
▁é c
we en
▁pl ay
▁l im
a h
aut res
▁bet ween
ul ation
▁l ib
r ation
is ation
▁avail able
▁il s
▁af in
x t
en tif
if e
▁s ant
▁aut om
as se
en ne
▁r is
so ci
in ce
u tions
ain es
en e
▁s ch
▁li ke
▁n or
ve z
w are
▁t our
re z
ut es
▁fl ights
▁a j
l è
ag ne
▁c ity
age ment
▁c ur
v ers
r an
▁mon de
ess e
du c
▁aut res
▁gr oup
▁fr an
w or
in a
e ment
▁n ational
▁n é
▁dis pon
pe ct
▁ch ange
▁l ang
▁d ay
al th
j our
▁en f
▁in té
▁s om
▁d ern
r er
▁o per
▁v ari
▁diff ér
▁re comm
u er
▁cha que
e au
▁con ditions
it es
▁st and
ver n
p t
1 9
ati s
in t
▁ !
▁gr ou
▁poss ible
c rip
▁c ours
ar n
is ion
ce d
an ti
▁or der
▁h ome
lo ad
▁m ot
▁s w
a ff
ur al
▁b ou
▁p ay
il i
▁com b
▁n ature
▁3 0
▁b es
▁prof ession
▁tr ouver
▁n ow
▁st r
▁v oy
▁c ust
▁in t
▁cont r
▁intern et
▁ch er
▁l igne
▁off er
▁per form
u g
▁bus iness
▁s av
x im
▁a ch
ant es
u te
▁re ad
u le
p ond
3 0
▁g ood
▁prin cip
▁19 9
ru ct
▁s el
u elle
▁poin t
▁p an
▁man y
▁inform ations
▁c ult
▁cust om
▁mo ins
▁ty pe
▁m ade
▁ind ust
ain t
▁produ cts
m er
▁comm er
ri es
▁kn ow
▁f ond
▁p ur
▁p u
▁ar tic
▁f oll
▁personn es
▁an al
c le
▁es p
og raph
▁op en
m ar
b o
▁f em
éc ur
c tive
us es
ag er
▁f ois
▁f ul
i el
▁m ul
▁dri ver
▁diff er
▁em ploy
d it
▁t re
▁ ess
▁b ack
▁so it
è mes
i ères
le t
qui pe
▁at t
▁syst ème
▁v oir
▁ .
▁e ach
h a
ie ux
▁parti cip
éri e
▁201 7
▁m ust
▁1 6
mb er
▁1 4
▁acc ord
▁envir on
▁t able
▁trav ail
▁ch ild
▁he alth
▁go vern
ib les
▁parti e
ais s
▁g l
▁cl ass
i um
▁1 1
▁prote ction
▁1 00
▁p or
r al
z e
▁d ont
▁s écur
ic ations
é m
our ces
▁ta ke
ar s
▁foll ow
▁h and
e p
▁s ci
▁c er
▁mo b
▁th en
▁const ru
▁pro per
▁tra in
▁in n
utilis ation
▁entre pr
▁main ten
▁to p
▁j ust
▁télé ch
▁pro bl
▁pol iti
ens ion
i k
▁w ater
cep tion
ô le
▁l ook
▁web s
▁program me
▁cont ro
f s
▁dur ing
i al
1 2
▁e as
▁ $
▁requ ire
w ay
▁e lect
▁e ven
▁p ouv
▁ave z
▁ex am
at or
▁produ it
▁as soci
▁dem and
a ient
▁rapp ort
▁cli ents
ac es
▁pr éc
ro om
▁sec ond
te z
▁r ap
▁ex t
v ous
▁f ab
▁2 4
l er
s u
▁down load
▁cam p
▁man ual
▁le ad
ite ment
▁mo y
▁j ours
▁b on
▁num ber
▁d és
▁h om
le v
▁m om
ent es
i ment
▁rev iew
l ig
▁produ ct
▁nouve au
v ing
▁sh e
ph one
▁p ower
ro w
▁un ivers
ou d
▁éta it
▁1 7
ic s
▁p i
▁f ile
et er
▁l it
▁l arge
g o
qu er
▁aut re
▁ er
ati que
f e
▁qual ité
▁b an
ur er
p é
is ter
▁o cc
▁ar ri
ti ère
u v
▁fin an
▁c le
▁do it
▁im m
ra it
▁b ase
▁cel a
id é
▁t it
é ro
mb re
▁h ere
▁par is
▁on line
▁é v
i ous
▁l ist
▁col le
▁su per
▁c r
pl ace
et y
ill es
ê t
▁b lo
▁loc ation
▁l ife
▁to t
▁so cial
ul es
▁l ui
▁c et
re d
▁r ad
▁w ay
▁enc ore
ie urs
▁p al
est s
▁f ut
▁be fore
▁h ol
ais on
▁mark et
▁p il
qu ip
▁re pr
d ic
o i
▁h y
▁min utes
li que
▁b al
l ab
▁le g
ati c
▁g ouver
▁docu ment
▁an g
h or
▁min ist
o le
ta ils
▁g am
or ation
▁or d
▁ser a
▁re port
▁fran ç
o ol
▁b ed
▁jus qu
▁re al
▁ag ain
▁v ille
▁with out
▁gr ande
▁mod if
▁develop ment
▁d ate
▁trans port
crip tion
in st
1 1
▁r ight
a ve
▁p at
iz ed
▁f ound
ê te
▁spe cif
▁1 3
▁m ic
t le
mb le
f act
▁j ou
b ec
▁h ouse
▁né cess
▁dé b
▁ne ar
▁mais on
th e
▁spe cial
▁ma ch
min ist
▁rés ult
▁p endant
▁cont re
▁t en
f r
n ess
com e
▁cont rib
tic al
▁de f
▁c ad
▁comm ission
m an
▁are a
é v
▁s out
▁c ook
▁fl ight
▁grou pe
▁webs ite
▁m ess
▁qu estion
▁e v
▁tro is
▁f er
or ies
▁me et
▁développ ement
ri r
▁produ ction
▁av oir
▁app ar
▁fa ç
▁s an
o te
▁comp any
▁r ent
▁organ is
▁l ég
▁with in
▁sécur ité
▁2 5
▁de l
▁t ri
▁o wn
o de
▁fa ce
▁av ons
el y
in form
▁s ens
▁201 6
▁gre at
al ité
en ch
▁f ri
se ment
▁us ing
▁n ive
ros s
▁comp te
▁comp os
ut er
o k
▁cl im
▁un ique
▁plus ieurs
ig in
a f
▁l ow
▁ar ch
▁la b
▁nouve lle
▁m or
é li
▁pro ble
▁g lo
ar g
id ed
▁sh ow
▁includ ing
▁wh ile
re g
▁th ose
val u
▁sant é
ti en
▁d iv
▁o pp
▁differ ent
os s
▁se m
ti ce
▁pro jet
▁ +
▁n av
▁cham bre
i ence
▁c ri
▁c y
▁p uis
▁dem ande
p es
▁wind ows
▁qu es
▁des tin
▁comp are
▁us er
▁s aint
ort h
as h
▁st ud
▁man agement
m a
cep t
u el
in ter
en g
f er
é qu
▁qual ity
▁dire c
l a
▁ques tions
▁inc re
▁s ame
▁sim ple
▁la w
▁w ant
▁la st
▁vis it
ven tion
▁ad v
▁mom ent
▁c ir
l les
▁w om
s c
▁v ide
c er
è g
il es
h ip
▁hum an
▁dé p
▁franç ais
▁b at
é ta
▁prov ide
▁201 8
j ours
t res
▁g estion
▁car te
ér ation
ca use
▁ré f
onne ment
f i
▁st y
▁5 0
▁é lect
pr ess
▁applic ation
re t
p ro
▁ €
▁t ak
▁manu fact
▁be cause
▁an im
▁ad dition
ce ll
ol ution
com p
▁count ry
▁cont en
▁ch ang
ct or
p ri
▁le vel
▁person al
▁le t
▁trav a
▁ob je
▁d ra
▁st ate
▁v ue
▁h im
6 0
wor k
▁so ft
▁pol ic
e k
▁v ac
▁st ra
▁r end
▁se u
▁c ost
ti es
▁do es
▁s am
▁cont ra
ati ves
s er
▁t rip
abil ity
m m
▁a part
▁dro it
▁c ould
▁loc al
▁it al
1 5
j ets
▁sel on
▁d ays
du ction
d f
ê tes
▁j o
▁sh are
b ers
▁j an
▁bu ild
▁ch ois
ur y
▁indi vid
▁res ear
▁l ight
in té
as on
▁rég ion
▁dev ice
▁v en
▁au c
p te
▁ex em
▁inst ru
▁comm it
or is
b ook
▁vol s
▁ob ten
▁p ap
▁or igin
▁s or
▁al ors
▁au g
▁prem ière
▁ins tit
▁contro l
l ess
▁exper ience
▁f re
cl us
▁mo der
ir d
t ure
▁b ra
ul aire
in n
8 0
ir es
c tif
▁pe tit
▁enf ants
▁lo i
ri que
▁j ourn
vis ion
▁euro pé
▁prem ier
e ver
▁pro ject
in o
▁st udi
ac tion
▁ ir
f ort
▁e conom
▁201 5
▁p ot
▁te am
▁quel ques
ur g
▁ar t
▁c are
▁cult ure
▁cap ac
el f
▁resear ch
e ur
▁cham bres
▁sm all
is c
▁s un
▁f le
▁fac il
▁r èg
▁pr ice
▁seu lement
▁ch ez
▁ %
▁c op
▁ —
▁partic ul
▁tou jours
o ot
▁che ap
▁pro c
▁parti r
un is
▁voy age
or er
▁l and
é p
▁faç on
l u
▁eng ine
ab it
ri d
▁prop ri
▁fr ench
▁in iti
▁pers onne
▁s port
▁eff ect
▁st ock
▁pres ent
▁off ers
▁b oth
2 4
m p
▁govern ment
▁lors que
2 00
▁repr és
h ic
▁phot os
▁vo it
▁s l
▁ré alis
▁conse il
▁l ux
o x
▁ ici
oir es
a x
▁mod è
iel d
▁m ag
▁grat uit
▁dé cl
▁rés er
ti er
▁v it
▁vers ion
▁eff ic
▁par f
▁soci été
▁s au
on es
▁res pect
▁be ing
▁environ ment
▁v idé
▁cur rent
▁is s
▁ful l
▁s ti
▁t est
▁p éri
▁s ince
▁re d
▁fam ily
▁ma j
▁m ise
▁o ct
▁sh all
erv ation
▁an ti
▁m u
▁d r
▁ta x
ô t
it ch
▁dro its
▁fab ric
▁fa ct
▁glo b
▁child ren
as ed
▁h au
▁c ase
▁mat er
▁r ess
▁dist rib
▁st art
h ôtel
er ic
▁europe an
▁gr â
▁mic ro
▁fa v
2 5
enc y
▁par ten
an e
▁sit es
▁activ ités
▁loc ated
▁aut hor
▁th ree
▁t v
▁bl ack
ul ts
end s
our ce
▁mont h
▁sal le
▁grâ ce
un g
▁mul ti
n ent
▁mo is
▁ q
▁n at
enti al
un d
it ation
▁c os
▁co de
▁imp ro
▁fich ier
od y
▁g ard
▁é conom
re ad
▁ad ap
ar ger
tic s
▁gouver nement
m é
1 8
▁g iv
▁je u
i ra
▁ple ase
i tions
▁g e
▁n ame
▁be ach
▁bu y
▁reg ion
in ation
▁meille ur
▁cer tif
id s
ou ter
▁l ieu
1 4
▁tra vel
a ment
▁new s
u me
▁nive au
t ain
▁docu ments
qu é
▁le arn
▁mem bres
▁f ur
f ace
h ing
1 6
at ures
▁h os
▁st ation
▁sé lection
▁l ive
▁off ici
am ment
▁su c
▁t ar
ruct ure
lé ment
▁sec ur
▁201 9
▁h or
abil ité
▁201 2
c oup
c ul
oin t
ten tion
▁pi è
▁sa id
▁in tel
▁f ore
▁id entif
▁ #
▁ ide
▁pr ess
w ard
▁c in
c ont
▁sol utions
▁d ivers
▁gener al
▁log ici
y n
▁d id
▁en s
▁comp ar
▁pro m
li er
▁e ar
▁201 4
▁c i
▁rece ive
is on
▁cad re
oc c
▁t u
▁char ge
▁in de
▁a ider
▁mat éri
▁off re
m i
▁et c
c y
▁car act
▁to ol
ot her
r ée
▁cons tit
duc ation
▁ann ées
▁ét ats
a î
▁qu and
an a
▁st ay
▁beau coup
▁don c
▁cli ent
▁f our
d ess
▁se x
▁pr ices
▁cor re
e ff
▁acc ount
▁ar ound
▁un ited
▁f ood
▁wom en
▁résult ats
▁j am
en v
iz ation
▁d ig
▁st ar
▁sign if
▁man ière
▁artic le
▁se pte
▁rap ide
▁ex pl
ter min
▁tr ouv
ibil ité
▁de li
is me
▁af ric
▁poin ts
▁m as
▁dou ble
▁s ing
▁st re
1 3
▁av ait
▁sav oir
▁sim il
in ateur
▁g od
▁diff ic
▁w est
▁mon di
▁pos t
▁ '
▁st ates
▁p ack
▁no te
c ent
▁tr ouvez
as ion
▁vi ol
▁soft ware
b les
iv ent
▁ rom
▁c oun
ou l
end ed
▁follow ing
4 0
▁bes oin
▁d im
▁v ale
▁perform ance
▁r ights
▁politi que
▁v ic
▁reg ard
es p
▁parti es
▁su ite
i ps
▁how ever
▁re mo
▁p ages
▁pe ti
se igne
rie ur
▁cert ain
▁dispos iti
▁su d
g g
ab lis
▁tot al
▁l um
▁pro mo
▁se ction
h ui
d es
reg ist
▁se ver
▁201 3
é ment
▁b ath
▁add ress
iz e
▁comp uter
▁ad minist
▁ >
b our
▁lang u
▁cat ég
▁constru ction
▁spé cial
w ays
▁ex ist
▁maj or
ot s
▁v ia
o f
▁pr ès
▁concern ant
▁v ir
jour d
▁l iste
om m
▁t ur
le z
▁fun d
▁priv ate
ér ence
i od
▁wor king
▁ag ree
▁we ek
▁b ud
▁fa ci
un es
▁ref er
om b
▁lo ve
▁hist or
▁restaur ants
▁s il
▁col lab
b y
ill er
▁commun aut
▁pr endre
▁f ar
ol es
éri que
▁oct o
▁w i
▁grat u
r ant
▁j et
o ff
▁ph ys
c tiv
▁su ff
▁mainten ant
▁ce ux
c s
▁nav ig
▁process us
▁cook ies
è ne
l s
▁tra dition
▁secur ity
ci er
▁c ô
ist ance
▁pos ition
ri er
▁count ries
▁mo de
▁he ad
▁activ ities
▁march é
œ uv
▁inn ov
û t
▁ke y
▁t ant
le m
▁situ ation
▁sol ution
▁l ic
▁pra c
▁cou le
▁all ow
▁av is
▁eng lish
er c
inst all
r ist
7 0
g u
▁au di
▁2 2
▁again st
ite z
id ence
▁profession n
▁c uis
in er
▁ma p
▁en erg
▁ac tion
▁utilis er
▁comple te
ist es
▁2 1
▁mes ure
▁cons ult
▁no ve
▁l at
▁s us
▁sy n
▁ro y
ér er
e u
ate ly
▁un d
i or
ce l
▁fil m
i ens
▁canad ian
▁me as
▁représ ent
▁personn el
▁w ar
▁ma xim
▁des cription
▁con du
▁nouve lles
▁4 0
▁mem bers
▁air port
▁sty le
a w
▁ ill
▁comp r
▁w at
▁cons id
w h
iss ance
i ème
▁restaur ant
▁b én
▁bas ed
▁ •
▁w al
▁con dition
▁am eric
▁cons ider
▁rep res
▁par k
▁ch ec
▁mo teur
n ers
pr ise
▁déc ouv
▁ab le
▁ar r
▁n i
▁m is
▁s n
p a
▁ ur
▁sti ll
▁polic y
ation ale
▁sch ool
▁b ure
▁res ults
▁ne xt
▁cir c
è tres
ien ne
b it
▁spé cif
ille t
▁dispon ibles
▁we ather
éri ence
ort un
or ie
ac y
i i
▁pub li
▁g row
é l
▁in ves
▁l in
pl ay
▁n ord
p les
h n
▁situ é
ort s
▁vide o
▁p ati
▁conne ct
. ,
▁o ld
▁probl èmes
▁to day
ate g
▁a im
▁contin u
a im
▁pri or
▁op tim
ari o
▁rel ations
v o
▁comp ris
▁d it
▁mus ic
▁mob ile
inform ation
l ing
▁per iod
▁aff ich
▁au jourd
l ais
▁décl ar
▁commer cial
▁téléch arger
▁a ur
▁manu el
ual ly
▁dep art
▁é quipe
▁cert ains
▁ent er
▁partic ular
▁t or
▁tra itement
▁proper ty
▁ex cell
v ille
▁ren seigne
▁ann ée
▁meille urs
▁les s
▁acc ue
▁e d
v a
▁b ene
ar k
▁stand ard
▁comp agn
is er
▁2 3
▁ter ra
▁ex tra
▁commun ity
pr ession
▁cont ent
▁fem mes
▁dé m
al og
▁su p
▁hol id
▁201 1
- -
ers t
g le
▁energ y
g ress
▁ré du
▁g ame
▁cl ose
u ille
▁bre ak
▁g erm
▁r ais
▁exem ple
▁wor ks
1 7
▁mu ch
▁m m
▁c oo
▁c all
▁ch au
) :
ci es
▁l u
▁f lo
j oy
ie z
▁sout h
▁an other
▁ch em
▁em ail
▁c iv
co ver
▁fe w
▁ré c
▁rec ord
▁h u
▁fam ille
▁ty pes
▁room s
▁pl at
pp ing
te ms
ir m
▁sever al
f ect
is m
▁ser ont
▁qu ick
un ion
ven ir
ang er
▁sa f
▁op tions
at t
▁ré p
▁as se
▁mem ber
▁c m
▁som mes
▁env oy
▁c ateg
▁c ard
▁ar m
▁te x
▁h ar
▁opp ortun
▁g al
▁f ix
▁ha ut
▁con v
▁h ard
▁app li
▁aj outer
▁entrepr ises
▁ab s
▁e mb
▁moy en
▁str at
ç u
▁ *
ar a
valu ation
▁é ch
▁cour se
▁ma tière
▁glob al
▁pil ote
é quipe
t or
▁en joy
▁m ac
▁d ieu
▁dé j
ud es
▁met tre
i ver
▁par c
ress e
place ment
▁b ri
▁recomm and
▁e le
▁up d
▁ou ver
uelle ment
▁s ale
ed i
▁bene f
▁mach ine
ab lish
▁s ource
▁ca use
▁contr ôle
▁pro je
▁v éri
▁ êtes
▁fur ther
▁prov ided
or n
▁cl ick
▁trans m
▁contin ue
▁k ing
▁6 0
▁inv est
▁am éli
ist s
▁app el
▁déj à
▁ob lig
▁accord ing
p ir
▁m un
▁com e
▁con form
▁is land
▁do ivent
▁r un
2 2
▁gu ide
▁techn ique
a ide
▁part ners
▁r ich
▁eas y
7 8
▁nor m
▁cuis ine
▁si è
▁col lection
▁201 0
▁apart ment
f ic
▁im ages
qu ent
▁b ody
▁qu é
▁t al
▁a y
▁wh ite
▁v iv
▁chec k
▁r ange
. ”
▁ne cess
▁trav ers
▁applic ations
▁w ord
▁ré pond
▁utilis é
te g
v oir
▁dom aine
▁renseigne ments
▁im pos
n g
▁ter rit
▁m id
▁ret urn
▁commun ication
▁vac ances
s s
▁cre ate
▁tre at
▁suc cess
9 9
▁g oo
v iew
▁cham p
k es
▁phot o
▁en se
▁technolog y
▁j ul
▁v é
▁h abit
▁an ci
▁je ux
▁est ablish
▁al ways
▁e vent
▁te le
are il
▁probl ème
t ant
▁sh ort
▁n u
▁n orth
▁form ation
▁off ice
pon se
▁de tails
▁us ers
▁repres ent
▁min im
▁techn iques
ibil ity
▁2 8
▁con ver
▁comm and
le y
▁sys tems
▁st at
ar tic
▁déf in
▁th ird
▁c ra
▁specif ic
▁res ult
▁dispon ible
ti me
▁bo ard
▁m ass
▁ens ure
▁vidé o
▁goo gle
c ast
ind re
▁br and
iss ions
er al
▁le d
▁anal y
é ch
▁hau te
▁co ver
▁eff ec
t r
or gan
end ing
en n
▁strat ég
et her
▁dispositi f
▁comp an
▁ter r
▁finan cial
▁é p
▁s ac
▁anal ys
▁comp lè
u k
ul ations
▁ex ig
▁p s
▁ha pp
▁m i
▁cent er
▁net work
s erv
▁qu ar
▁f ig
l in
▁be g
▁mess age
▁l ou
▁» ,
▁p ic
▁bel ow
▁individ ual
b r
▁ex plo
▁vis ite
▁c ab
b an
▁appro pri
▁cons ul
▁péri ode
▁v ra
▁v ente
▁in te
o ve
on de
▁stra teg
▁m ét
d o
▁he ures
▁el les
▁g ive
2 3
▁sur ve
on om
▁indust ri
▁und erst
▁sp ir
▁vill age
ur ance
ple ment
▁ad op
ti st
▁conn aiss
▁voit ure
▁2 6
▁indust ry
▁reg ist
▁am ong
▁pur pos
▁rel ated
▁ch rist
▁c u
▁book s
at re
▁require d
ouv ent
▁r ôle
▁ œuv
is ions
it able
▁rec onn
▁per fect
▁tem p
▁ 000
▁for me
▁déb ut
▁fra is
▁ou v
g é
e e
ve ment
▁rés eau
▁fr anc
▁pop ulation
▁imp act
▁nouve aux
▁incl ude
▁v a
env ir
ti e
▁bet ter
que z
▁b ord
▁cho ose
▁im age
ati f
▁program mes
▁pouv oir
▁génér al
▁ex pos
▁col or
▁b er
ra ient
▁need s
▁nat ural
ough t
▁rou te
▁ter ms
▁can n
or m
▁fut ure
▁s atis
lic ation
▁com fort
if ication
res pond
▁proble ms
▁h ours
l ation
d om
▁2 7
▁pro b
9 0
▁fe atures
▁m agn
on y
▁cré er
▁comm on
▁ac comp
▁mod el
at ors
▁g raph
▁disc uss
▁for ce
▁si x
▁pro té
t ers
▁utilis ateurs
▁d am
▁catég orie
▁vill a
re en
▁modè le
▁qué bec
▁im plement
ro id
comm od
▁ex press
▁train ing
▁200 9
▁é quip
▁comple x
▁cent ral
▁p ut
▁ind ic
elle ment
▁techn ical
it aire
▁liv res
t ent
▁mé té
▁are as
c ost
h y
ge ment
▁e quip
▁tim es
▁dist ance
d a
▁a ver
▁l ine
▁ann on
▁logici el
▁différ ents
as es
▁c ell
▁ac commod
ti g
▁é lé
▁p df
vis or
m ail
▁compan ies
▁bure au
tif ul
▁mont re
▁wh ether
▁elect ron
▁se a
▁en regist
▁h on
▁cour t
. "
▁sé jour
▁sp a
ot t
▁piè ces
mb l
h od
▁pro t
▁mill ion
▁gre en
▁dire ction
▁f ield
▁19 8
▁se lect
▁lit tle
▁dig ital
▁gar anti
▁ren cont
▁requ est
▁not amment
▁review s
▁ ,
▁pro jets
▁conten u
▁z o
▁fourn isse
▁fa ut
▁op tion
▁ac qu
um p
▁satis f
▁on ce
▁cor respond
▁mill ions
▁cle ar
▁he art
▁sou ha
▁fr ont
▁j ob
▁b ill
ct ure
▁b onne
▁rég ul
▁e qu
▁liv re
▁z one
▁par ag
og n
▁f ire
▁cel ui
▁beau tiful
▁fich iers
▁m ount
▁cl ub
▁w el
pp ed
▁hist ory
7 5
▁nécess aire
k a
h am
plo i
▁ter min
l im
▁exam ple
us ion
▁ag ric
▁v endre
▁langu age
▁rad io
▁l ink
▁m ission
▁f ont
▁su is
▁n ations
▁r uss
▁f oc
▁bén é
▁acc ès
▁build ing
▁liv ing
ra ge
▁pur ch
▁dé ta
▁ris k
iss ant
▁nombre ux
▁dé part
▁prés ente
▁artic les
▁f oot
b il
ac tiv
m ing
▁d av
▁sp ace
▁por te
▁b ig
▁j ap
tif s
▁ser ies
▁auc un
▁necess ary
▁ex clus
ét és
▁fil es
▁as k
gh t
▁dis cover
▁moder n
▁a ust
▁form at
▁o il
▁téléch arge
▁sec teur
▁n ight
▁k itch
et tes
▁m ad
o ins
▁f it
▁w rit
ur ing
er ing
▁ou til
▁jet cost
é di
▁m use
▁ress ources
▁to wn
▁commit te
▁st ore
ér é
▁technolog ies
iti ve
y ing
▁po ol
c teur
▁med ia
▁aug ment
▁mes ures
▁be h
▁pl ate
▁s ouvent
▁supp lément
▁holid ay
ablis sement
2 8
▁inter est
▁ke ep
▁l is
c il
▁mont ré
2 1
g ré
n ing
ex p
ne y
h ist
▁autom atic
▁autom atique
▁id é
▁re le
▁econom ic
▁si ze
▁underst and
▁pl as
ér ic
ne ments
▁propos e
read y
▁comb in
▁ac tive
get her
▁f ed
▁to gether
▁m ieux
▁j ud
▁aj out
▁to w
▁s en
▁b ag
▁cho ix
▁me ans
artic le
▁bes oins
▁vale ur
end ent
▁conne x
▁saf ety
m et
z z
▁pl aces
▁des c
an o
4 5
un ch
▁look ing
▁meet ing
t te
▁at te
éro port
▁fonction n
▁e c
▁bath room
▁véri f
▁j ur
▁kitch en
▁int ro
▁tit re
b a
▁proble m
▁equip ment
▁val ue
▁l ond
▁p c
▁st ructure
▁b a
▁proc éd
▁cons omm
▁cl os
▁fin ance
▁ach eter
▁ans w
▁ma king
op s
▁cle an
▁wh y
▁spir it
▁parag raph
▁obje ctif
▁ro ad
th ers
▁for um
▁t urn
▁sup érie
▁pré par
am p
▁for t
▁rel ig
▁d oll
▁gam es
▁200 8
▁pl ans
▁mé th
▁re ven
▁syst èmes
▁bl anc
▁s érie
▁par ce
▁al ready
▁at tra
▁r aison
in f
▁a way
▁s ay
▁ch ap
▁e ducation
g ar
f a
ro it
bour g
▁v ert
ti ent
▁phot ograph
▁finan ci
id enti
▁pré v
▁part y
▁mar que
t m
▁studi o
▁cal cul
at ory
▁sh o
▁pop ular
s ide
▁custom er
ar es
if i
▁prop re
▁re ach
▁fa is
us h
▁c and
▁vari ous
▁se ul
▁ ic
qu oi
▁ét udi
▁f ru
v ious
▁met hod
▁ter re
▁ro le
▁signif ic
▁app r
ati ques
acc ès
▁2 9
▁reg ular
su ite
ann ée
▁é lev
▁dé tails
▁you ng
er ie
▁origin al
h ib
▁ar tist
ie ve
▁trans form
▁c it
▁» .
or g
▁prov ides
2 6
th ing
▁v ou
▁of ten
▁em p
▁tr ouve
▁elect ric
▁he ure
▁éta ient
▁char act
▁pro gress
▁ta ille
▁sm art
▁bo x
▁g old
▁b ul
m it
▁st aff
led ge
3 5
▁j ard
aut re
▁design ed
▁ac cep
b i
g a
▁un til
os es
▁par mi
▁l ot
id ing
▁h al
▁ ‘
▁sur face
▁pub lish
▁be come
▁pol y
▁co ord
▁so le
▁sci entif
▁n oir
iv es
w s
for me
▁s ent
w a
▁coun cil
ille urs
h om
qu el
▁pour quoi
▁b â
utilis ateur
▁p ied
one y
▁tem per
▁mater ial
▁je an
▁men u
▁custom ers
t ures
▁conf ort
▁p ier
▁3 1
▁200 7
ad visor
tion n
▁off res
r ont
▁cor ps
▁par ts
ens ive
▁ev ents
▁ord inateur
▁muse um
ét at
▁bel g
c é
ic a
▁to ile
c ar
▁ab ove
▁install ation
ad es
▁ch ose
▁fun ction
▁effec tive
▁tou ch
▁con vention
▁com pe
▁b out
▁re du
▁committe e
▁jam ais
▁f es
▁prés ident
an che
▁t ick
▁al lem
▁du e
▁w ood
er re
▁ay ant
▁a p
▁b ois
▁hy d
▁rec ent
▁recomm end
install ation
▁pap er
▁ch all
▁h ous
▁c oup
▁bed room
e urs
▁dé termin
▁conf ig
▁tro p
▁caract ér
▁s end
al ity
r és
▁pol i
▁add ed
if s
k er
▁w all
▁trans f
▁zo om
▁giv en
ri m
b ack
▁it em
▁comm enc
ab l
▁cap ital
▁cli quez
▁car ri
▁c ru
b all
▁univers ity
isse z
▁9 0
▁te xt
or k
▁trans fer
▁bat ter
▁pas se
▁pas t
▁profession al
▁t el
▁proje cts
▁vé hic
▁sub ject
▁p isc
▁t as
▁pro xim
▁mar s
▁simil ar
▁cont ain
1 00
▁th é
▁cert aines
if t
dess ous
▁g ens
▁trouver ez
▁différ entes
▁h ot
▁str ong
v ier
▁élect ron
▁gard en
uille z
▁spe ed
▁h é
▁politi ques
entre prise
▁leg al
n a
al ités
op h
▁app ly
l an
▁obten ir
in c
▁ma i
▁bl ue
c al
▁t om
▁inv ol
▁comm ande
▁cor por
▁t els
2 7
▁par king
▁month s
▁categ ory
▁s ide
ch ange
ag ing
ical ly
ol f
▁bud get
is é
▁th ings
▁eff et
▁ca us
▁l ire
g en
▁envir onnement
▁d ès
▁ang lais
▁en ti
▁con te
▁m r
▁fe el
▁arch ite
▁com ité
▁ré par
▁wat ch
▁long ue
▁direc tement
▁mob il
er y
▁al tern
air s
▁min ister
▁sing le
▁d yn
▁sign al
▁temp ér
▁col lect
▁ad j
▁dern ière
▁contra ct
▁europé enne
▁prov ince
▁prov in
▁de al
▁mus ique
▁w ish
▁pa ie
▁j une
▁ve uillez
▁ce p
▁sub st
▁addition al
▁ess enti
" .
6 5
▁ser ve
▁év é
▁tra de
▁sem aine
▁cher che
en nes
▁je unes
▁c elle
▁l à
▁dern ier
▁audi o
ti tion
ense mble
▁3 5
qu elle
ant age
▁enc our
n et
▁sk i
▁rés erv
▁spe ct
is tiques
▁st or
▁montré al
it ter
▁j oin
▁télé phone
▁su jet
▁ju in
f ast
s p
▁ac cept
or ted
▁k ind
▁qu atre
▁appar tement
au v
r êt
le x
▁t rib
▁dis play
re ment
s elf
il t
▁al iment
app lication
▁ne ver
" ,
▁h d
▁agree ment
on a
▁comp é
▁ph ili
▁la quelle
▁num éro
▁au près
z er
▁t aux
▁ac tions
▁res ources
al y
▁mé dic
▁mo i
▁auc une
▁p ens
▁capac ité
b on
▁fin al
▁cre ated
▁fes tiv
it or
▁gu ar
▁f all
out h
▁maxim um
▁l y
u é
▁ch ina
▁rent al
em ploi
im e
▁ch ur
▁stud y
ê ts
▁impro ve
ti r
▁mé di
▁vis ion
n o
▁pr is
▁m and
▁e p
▁pré f
▁ro b
▁quel que
▁8 0
▁ ;
▁œuv re
▁v end
▁rec ogn
tit ude
▁un ion
occ asion
ière ment
▁afric a
▁re li
▁ve hic
▁ré v
▁cep endant
▁ex c
▁5 00
▁s ais
▁de b
▁i i
▁know ledge
▁pour rait
▁book ing
utilis er
▁ass ess
▁min i
f l
eu ro
est er
▁n uit
▁dur ée
he et
▁there fore
▁iss ues
▁o thers
h o
c an
▁th ink
▁sa ve
▁fem me
▁inté gr
▁p ain
▁ha ving
▁aver age
▁f éd
i als
▁jo hn
pp er
▁dec ision
ad a
m ont
▁su m
▁t end
▁dé t
r il
œ ur
u ary
▁a pr
▁h am
▁peti te
erg ie
▁m ich
▁m ort
▁le ft
▁appro ach
▁coule ur
▁pro ch
▁st atis
d en
▁reg ister
▁fourn ir
▁a ra
▁jus tice
▁pisc ine
▁ex ception
▁h old
ic ip
▁bro ad
▁200 6
▁ret r
▁des s
▁to o
▁fle x
os ph
▁jul y
2 9
▁gu ests
▁su re
n ous
ill s
▁conf er
▁hom mes
▁d en
▁foc us
▁excell ent
▁con vers
▁sub s
▁mem bre
▁mil it
▁m ix
▁e y
▁tool s
▁déc ision
▁f i
▁is ra
▁ret our
u y
ais e
▁sou tien
▁entrepr ise
▁é m
iss ent
ari at
3 3
ar ing
▁pres ident
ur ation
▁m c
▁cré ation
▁septe mbre
▁k il
oc ra
ens es
▁direct ly
▁g az
un ivers
▁économ ique
▁dev rait
▁( ?
u ve
▁de ce
▁face book
▁r ate
▁con ven
▁n ég
▁s û
▁en suite
u els
b s
▁fl or
▁aut or
▁mun icip
▁require ments
▁fond s
▁stre et
▁ris que
.. ..
▁o s
▁market ing
▁n am
▁dern ières
▁ense mble
▁ju illet
é der
v i
▁b io
▁destin ation
d ing
▁c ross
▁ban k
▁dé ce
l igne
▁distrib ution
▁rel ative
▁y ork
▁tr ou
l am
▁nombre uses
are d
▁t ourn
▁s at
▁pra tique
▁d in
è de
▁conc ent
ter m
r ich
en ir
a j
or ter
▁chall en
▁exp érience
▁as us
▁fav or
▁sport s
▁de vez
▁ch ac
▁all ows
▁dyn am
▁am ount
olog ie
▁adv ance
at oire
▁progra ms
▁le ast
ust ain
▁rom an
▁meille ure
ic o
as heet
▁co û
éta it
ra î
▁part ager
▁conse ils
app ro
ir t
ile d
envir onnement
▁de ta
ais se
▁am b
▁b ab
▁v ér
n el
▁g ir
▁perm an
▁ex erc
▁liv ra
▁sim p
ult ure
â te
▁eff orts
▁minist re
▁faci le
▁par am
▁incre ase
▁mat ch
▁at ta
qu ant
▁kn own
▁al ong
▁spe ak
iv al
▁c ut
▁cons équ
én ergie
r ice
▁proxim ité
olog y
▁v in
ag ed
ith er
▁6 4
▁particip ants
▁pre vious
▁m ig
tis se
éc ran
u c
▁200 0
r ite
▁pr en
▁donn er
▁inf r
▁propri été
as ter
r ou
▁direct or
▁septe mber
▁collab oration
▁jan vier
▁conf irm
alog ue
▁se ctor
d s
ti le
▁adap t
▁re ason
a ke
z a
▁e ux
▁def in
▁group es
▁h p
▁a ge
▁accommod ation
▁fra me
alis ation
im p
5 5
▁aut o
hist oire
y l
▁b or
▁b en
▁cô té
▁préc éd
▁s ustain
▁technolog ie
▁stud ents
on st
▁règ lement
ro p
b ru
▁s ound
▁donn é
▁manufact urer
ri g
▁so ient
▁déce mbre
▁up on
▁mas ter
▁inf lu
or te
▁app ear
de c
▁s qu
pe ctive
oud re
▁compagn ies
▁m ight
▁ad m
au me
▁charact er
▁conc er
▁sci ence
▁connex ion
le g
▁se in
▁sec ret
p ital
▁for ces
▁co ff
j o
▁communaut é
▁mété o
▁r endre
▁mot or
▁te ach
▁ ul
6 4
▁n ut
▁journ ée
▁n ice
▁jard in
▁al m
▁facil ities
ens ions
ind ust
▁deli ver
tiv es
▁cand id
ç a
▁cl in
ce ed
ri v
▁ac ross
▁s pr
è rent
▁i p
ire d
▁ar tis
▁es tim
▁ont ario
▁er r
▁ren for
▁s ession
ati fs
▁d onne
▁commer ce
▁inst al
▁a st
pe cial
▁st rip
ed ia
▁a w
k y
ate ll
▁b ur
▁includ ed
as ing
▁administ ra
▁s and
▁r ac
▁lors qu
ol a
inn ing
in i
▁instru ctions
▁respons able
▁sa fe
▁ste el
▁ét o
hom me
▁octo ber
▁pol ice
▁instit utions
▁organ iz
▁r ue
▁cro issance
ab ly
▁f ive
▁gam me
è te
. )
▁octo bre
ig ine
c d
s on
▁mater ials
▁b all
▁s ell
▁deli very
▁particip ation
n é
▁particul ier
▁chang es
▁cann ot
pr it
▁tak en
▁rapide ment
▁mon itor
▁l ois
▁manual s
up art
▁dri ve
▁pl upart
b es
d am
▁tempér ature
c ra
▁temper ature
▁la c
▁lead ers
▁treat ment
ti se
▁f erm
▁p ie
▁dece mber
▁ass ist
▁deux ième
▁parten aires
en a
▁b ay
▁am éric
▁certif ic
▁associ ation
▁iss ue
▁priv acy
od es
▁out re
f ois
▁pl age
▁dé l
▁pouv ons
▁f arm
▁ca f
▁m s
▁main tain
▁aut oris
▁ph one
▁di am
▁jan uary
▁sc reen
▁grou ps
▁part ner
▁permet tre
▁aug ust
aî t
ac tions
▁c ouver
aî tre
▁br ing
▁than ks
▁qu elle
e ux
o ti
▁l anc
▁rem ain
▁nove mbre
▁m ur
▁ne u
▁ â
▁grand s
▁c œur
▁d v
▁b le
▁c rit
▁pl ant
▁sp ain
▁aut our
▁son y
▁7 0
▁contact er
3 2
▁v an
▁soci ety
ul aires
▁res ort
ti mes
▁lum ière
▁chur ch
ub lic
▁fri end
▁lab or
bo ard
▁germ any
o ver
▁s mo
▁lim it
▁livra ison
c teurs
▁cal led
um er
▁p en
▁guar ante
▁u k
he ure
▁jus te
am a
▁diffic ult
▁apr il
▁intern ationale
ti ères
▁at tention
▁ex ec
▁200 5
▁ter me
▁re lev
h ouse
de z
4 8
▁mal ad
▁ph il
y ch
▁be aut
ub e
ric t
▁grow th
▁pass er
▁hel d
▁b elle
li ance
re am
▁s atell
▁gu id
k n
▁mondi ale
▁sal on
▁pa ul
▁respons ible
▁utilis ez
▁y et
ag it
▁blo g
▁civ il
▁ple in
▁g ros
ê mes
▁g é
▁f ish
▁pati ents
▁clim ate
e es
i és
▁poli tical
in tern
▁dur ant
▁m oney
ra m
i j
▁ét ant
▁break fast
ke y
ous s
▁journ al
▁é qu
▁matéri el
o ût
▁g as
▁flo or
▁gr ound
li ers
▁cos ts
ë l
▁c ot
m on
▁receive d
▁loc ations
g th
▁faci lement
▁d er
▁fon ctions
▁h ors
▁t on
▁so ins
▁comp ati
▁m ent
▁f év
▁cas es
▁h arm
▁us b
ure d
▁fait es
▁prote ct
is ed
au d
▁car t
▁vir t
▁signific ant
▁s én
ren gth
pe cted
▁conne ction
g as
▁tem por
p tion
▁t iss
▁develop ed
▁al b
▁dev ant
pe cts
▁conf i
▁l ut
▁lang ue
▁includ es
▁lim ited
▁pl ann
h u
▁élé ments
▁f ast
▁ar g
▁in g
s ur
▁ch at
▁pe ace
p ad
▁4 5
▁pri m
an k
▁depart ment
▁utilis ant
▁dev ices
▁inde p
▁ro me
▁res te
▁re ally
▁s ources
▁vit esse
▁cl asse
▁su cc
▁cop y
▁cap it
▁pl a
un er
▁sole il
▁l ord
▁cas ino
▁m éc
▁c ath
▁current ly
▁mus ée
m ême
c m
▁b and
▁hom me
ra y
u elles
▁ser ait
▁nove mber
▁ma kes
▁pier re
c te
▁ind ép
▁gl ass
▁st rength
en f
▁direc teur
▁gu est
▁v ib
▁tr y
ri a
▁con tem
▁commun i
▁trava ill
▁exclus ive
▁simple ment
▁ét r
▁moy enne
▁modè les
▁la ke
▁o t
▁er re
▁d an
▁en tière
▁chois ir
ro y
▁e dition
pecial ly
▁spé ci
▁activ ity
ere z
▁pr on
, ”
▁cin q
euro pe
▁promo tion
▁ ib
bo x
▁who le
er ia
▁ ́
▁pass ion
▁comment aires
▁l ater
▁réf érence
▁t es
▁b ains
▁inté ress
▁av ril
t d
▁impos s
▁act uellement
g ed
▁med ical
b urg
h um
▁dis p
pl ac
▁every thing
at a
▁- -
▁personn elles
▁r iver
h old
indust rie
▁ide al
mar k
▁ch ine
▁inf o
▁e ast
▁sub mit
▁fév rier
av oir
olog ical
▁gu erre
▁che f
d é
ctiv es
▁americ an
o id
▁att end
▁festiv al
m en
▁doll ars
▁t ag
▁c ul
▁vill es
9 5
ic tion
▁stand ards
▁m ouve
onn es
in é
ti qu
▁cl aim
l ines
▁aust ral
▁canad ien
▁aff aires
h i
▁bu ilt
▁pro ced
tit y
s a
tis sement
▁ét at
▁ob tain
té rie
▁ful ly
▁eas ily
▁magn if
lis e
▁me an
ar ies
▁th us
▁s le
am b
▁effic ace
ont o
▁comple t
▁sal es
▁fam ili
▁g olf
el ves
ur r
▁l ien
▁répond re
▁plat form
▁souha itez
▁c d
b as
▁ré ponse
▁béné fic
▁dispos e
▁publi é
▁me x
▁se ason
▁s enti
▁comp on
▁d oss
able ment
▁dat asheet
c les
▁a th
t tes
▁outil s
▁l un
▁ch in
▁upd ate
▁capac ity
▁pay ment
▁and roid
h ô
ét ablissement
▁m ind
▁génér ale
▁no tif
inform ations
▁parf a
▁p et
▁bas ic
isse ment
olog iques
bru ary
▁li qu
▁sol ve
▁val id
▁ch oses
▁bâ ti
ch an
▁vou lez
▁infr ast
3 6
▁mainten ance
▁pour rez
▁confer ence
▁hé ber
g ment
▁cent r
▁enti re
3 8
▁c ast
▁con ception
” .
r ons
▁oper ating
▁n ation
▁bar cel
i é
id ents
▁an ne
▁occ up
▁coo p
▁se ule
▁organ ization
so ft
um in
▁es pecially
té rieur
▁mé dec
▁r am
▁t iers
▁a ide
or igine
▁3 00
▁modif ier
▁imposs ible
ie f
▁imm edi
▁chau ff
▁siè cle
▁ag ency
vis ions
▁cl oud
m osph
▁v ent
▁paie ment
▁grand es
ut s
u ent
ill ance
app areil
▁r iv
▁m os
▁fa ir
▁compr end
▁ch ris
▁manu els
w ord
▁wal k
▁go ing
▁con cept
3 4
ap es
▁bo î
n elle
▁region al
▁ear ly
ign es
▁su isse
▁perm is
▁r ates
7 7
▁analys is
▁j ac
if ied
▁gr an
▁peti ts
▁environment al
ber t
▁meas ures
ri mer
▁fri ends
▁pil ot
▁sou l
u ant
▁cho ice
▁pub lique
▁ty p
h ol
▁de cl
▁dur able
▁a oût
▁télé vision
▁f ins
▁vol ume
ci ation
▁ste p
ig e
▁bro w
▁sus p
▁inte gr
▁fe ature
▁meille ures
aff aires
il ing
ci a
▁t ips
▁fe bruary
l it
▁fa ible
▁toute fois
▁w in
er ve
▁par ents
▁no tice
▁rés ervation
▁n ationale
▁access oires
▁b ain
▁ext ension
aiss ance
pons es
▁lic ence
▁accue il
▁w ide
▁port ug
▁a x
▁ex port
▁minim um
y a
▁fed eral
▁kil om
▁d ates
▁conform ément
▁poss ibilité
an ne
▁so ir
use ment
▁sk y
▁th erm
▁organ isation
ap s
▁simp ly
▁offici al
▁sol id
▁supp ly
▁réser vez
▁fonction ne
▁ag ré
▁pl ac
▁découv rir
î le
▁sci ences
gr ound
▁ob serv
▁access ible
▁sum mer
dess us
▁r are
▁arri v
▁personn alis
j a
▁fr équ
▁tak ing
▁sy mb
▁satell ite
▁ro ck
▁lond on
▁through out
▁cent ury
k i
▁out side
▁ré ponses
▁b ad
tem ps
▁rep ro
lo c
▁ital y
▁exig ences
▁access ories
it age
et hing
▁organis ations
▁su gg
▁sub se
ra te
▁caractér istiques
è que
▁minist ère
o que
por te
▁ajout é
▁trans par
▁nut ri
▁ser ver
p re
▁h ost
▁r ien
▁fore cast
wor ks
ad minist
▁gratu itement
olog ique
an ch
▁mess ages
▁que bec
e cts
▁sur v
▁coo per
▁commun ications
▁b our
▁200 4
▁complè te
▁propri éta
▁rep ublic
▁fore ign
▁f ant
▁level s
ub lique
▁imm édi
▁pr est
▁c é
▁méc an
▁purch ase
▁e dit
▁mach ines
▁pra tiques
▁ex change
▁pot enti
▁sel f
▁ar ts
▁pre p
▁t ard
s ter
▁ins c
▁se par
▁fir m
▁ch ance
ag ers
▁compare z
▁r out
▁viol ence
▁con cl
▁cha uss
▁découv rez
qui pped
▁som ething
▁rég lement
▁d one
” ,
▁sur f
▁tor onto
arg ent
▁exper ts
▁utilis ation
6 8
ail y
acc ord
▁pr ise
▁se lection
▁st ruct
▁rédu ire
in ary
▁princip al
en ligne
d le
▁m iss
▁roy al
ti an
▁fil ms
▁cha î
▁mo ve
0 5
▁mar i
▁di agn
4 4
▁ann oun
▁nécess aires
▁comp ren
im port
▁e ver
▁mondi al
le cted
▁vra iment
r ound
▁h all
▁rou ge
▁cre dit
é valuation
▁dispos ition
▁coule urs
▁change ment
▁canad iens
▁po ids
▁améli orer
ac ité
▁wel come
▁de ath
▁cult ural
▁americ a
it ure
▁ ...
▁concern ing
▁ré union
▁rel ation
▁dom in
▁r ub
▁jur id
▁trouv é
▁conne cted
▁f ils
▁t ell
▁v ig
ien nent
▁les qu
or es
c ol
▁qu anti
▁ris ques
▁process ing
▁man ager
è le
▁invest ment
te ase
end er
▁all er
▁opportun ity
▁rel ax
▁electron ic
▁fl ow
▁cy cle
▁confi ance
ri re
▁m ètres
▁m el
▁r ay
▁num érique
▁p om
▁sh op
▁pu issance
je uner
oc ol
▁aff ect
▁de als
▁k it
in te
▁p ath
▁g au
▁publish ed
inté rieur
▁com es
▁ex hib
▁appropri ate
▁s aison
▁alm ost
▁la unch
▁strip tease
ex plo
▁priv é
t out
li es
▁suiv ant
▁employ ees
▁v ar
iss ons
▁ag o
p df
▁d aily
g y
▁benef its
ap r
▁ph arm
▁r ound
▁é ner
▁we ight
▁fil ter
▁hos tel
▁c â
▁a qu
▁oper ation
▁objectif s
▁collab or
▁long er
▁trav aux
▁c elles
▁purpos es
▁p ul
ore d
tic es
▁ma x
esp ace
▁desc rib
ord inateur
▁to ok
g s
3 1
▁fe u
▁vers ions
▁bas is
▁ter mes
s ung
▁em erg
▁paragraph e
▁ ça
▁form ulaire
pp e
▁set t
ér ations
am éli
um es
▁conf érence
▁dé pos
▁ps ych
▁studi es
▁rem ar
un i
▁intel lig
▁idé al
▁fonction nement
u tive
exp érience
▁m p
▁act ual
▁e ither
▁lat est
▁ro se
if est
▁l oss
g ue
▁z ones
▁f urn
▁j ack
3 9
▁pot ential
▁fe ed
è ve
▁off ic
▁li k
her n
0 2
on ie
▁b it
ad s
▁fl at
▁opp os
▁e ur
3 7
▁e quipped
▁pr end
h abit
m ment
▁9 78
▁or ient
▁unique ment
▁west ern
▁t ir
▁r ail
▁trava iller
▁un it
▁r ules
ach at
6 7
en ing
▁sk in
qu és
▁t ent
▁pass é
▁form er
ne z
▁le ave
▁chem in
▁sh i
0 8
▁fabric ant
b ur
▁al i
▁sy m
▁navig ation
il ity
▁aut h
▁soci étés
▁lib er
▁app are
▁b ib
▁prof iter
ag o
ri ère
▁mé d
▁respons abilité
▁permet tant
▁di pl
▁ess ay
▁contem por
ish ed
apr ès
▁prop res
▁montre al
▁pat ri
▁d ress
▁su ites
▁évé nements
▁applic able
▁dé mar
▁sam sung
▁par li
iti z
in aire
▁play er
▁c ities
▁la iss
▁europé en
▁bou tique
▁app e
▁sant a
univers ité
▁t elles
▁t ab
▁ph ase
▁camp ing
▁ac ad
è tre
▁op in
b or
▁pro ven
8 8
▁stor age
▁rép ublique
p ool
▁intro du
▁li ens
▁prem ières
▁ass urer
▁f ib
oti di
▁réser ver
▁200 3
▁anim aux
▁st op
▁industri al
▁3 2
b ar
▁coû ts
▁1 50
▁reg ulations
0 4
▁roy aume
▁féd ér
et h
it aires
▁ann ual
c tement
▁f ly
oun ts
▁qu otidi
▁de termin
e uv
▁de ven
▁cam era
▁purpos e
▁am is
ou te
▁cent res
é tique
201 7
▁supplément aires
ci ous
▁dis e
▁occ asion
▁jap an
▁t é
▁wh e
▁view s
id a
▁so on
▁lin ks
ta wa
▁but ton
▁quar tier
▁d a
▁d ot
organ isation
▁he av
▁20 20
ai x
▁priv ée
▁garanti e
▁l os
du le
▁sou ff
▁fournisse urs
▁eff ets
inté gr
▁ass istance
is ing
▁le quel
▁att rib
▁g all
▁mot s
t c
▁ex tre
▁succ ès
▁di ri
▁ad ver
▁terra in
rid ge
ten ir
re di
▁refer ence
▁c ame
▁me chan
r ées
ful ly
pos ition
▁ad resse
▁r a
▁incl us
and s
h és
▁re ç
▁ro s
▁professionn els
st ar
▁s ain
anc ing
▁la s
▁employ és
▁particul ièrement
▁contr ô
▁h i
▁mil ieu
g l
▁us es
▁f res
▁t ête
▁w ire
ol u
▁parti ci
▁gratu ite
▁p ère
▁vert u
te ments
▁pre vent
▁apart ments
▁ét udes
▁ex iste
▁rés oudre
▁caract ère
▁h ong
▁rece voir
▁sur round
▁o l
▁stre am
▁prov iding
▁mod els
▁v u
▁suiv i
▁tradition al
▁commun ities
as ons
▁hal f
ille d
▁lead er
▁ear th
▁consider ed
▁étr ang
▁ch ron
▁déta ill
▁tak es
ur a
▁chac un
éc onom
▁indep endent
qu et
▁inc or
ir s
▁n our
▁d ry
▁ste ps
▁fam il
▁sû r
a ï
intern et
▁tick ets
▁parli ament
▁quick ly
lo ck
▁reg ul
ru ction
▁ad ult
▁stratég ie
▁compr endre
▁entière ment
▁ma î
▁at mosph
▁app areil
▁sou m
▁r ang
▁beg inning
▁prin t
▁p ou
th ough
▁recomm ended
▁s in
▁ré per
mo bil
▁not es
0 6
▁surve illance
▁b ate
▁import ants
▁règ les
▁strateg y
▁tex te
ct é
▁l oin
▁sh ower
▁s ort
▁bl u
0 7
▁ch ann
▁ch âte
▁lux ury
▁lib re
▁jou er
! !
▁hu ile
▁com ments
▁w ine
] .
▁comfort able
▁vidé os
iter ran
i ans
and a
▁dv d
▁conf identi
▁éc rit
▁st age
▁w id
et o
▁en ough
▁establish ed
▁tr ue
▁a ward
▁spe cies
▁fl u
▁app le
vid ence
▁ch air
▁v ul
▁high er
▁pers ons
▁ex éc
▁c ry
▁s we
▁p ê
▁ ›
▁answ ers
r ations
▁re ti
▁men tion
6 6
▁instit ution
▁am az
at o
▁éto iles
e w
▁fl ash
is l
▁pre fer
ox y
▁innov ation
ro me
▁l arg
▁bal con
▁bal ance
▁sho pping
▁nor mes
u ted
t oy
▁o w
▁eff ects
▁al though
▁ ult
y er
▁inves tig
▁log o
▁pl ais
▁qu an
▁your self
▁demand er
▁b ir
v ie
▁s lo
gr ès
▁ill ust
s w
▁moy ens
▁se em
▁fav oris
▁sor te
0 3
▁quanti té
▁caf é
▁des t
▁7 5
▁cons ist
▁arg ent
aut or
▁change ments
▁recherche z
▁rad i
▁public ation
▁co ast
▁pro ches
ll er
▁utilis és
▁altern ative
is ée
▁princip aux
0 9
▁king dom
▁contrib ution
▁ess ential
▁f ine
▁regard ing
▁accue ill
▁f ather
iss on
▁isra el
▁sec ure
▁ch ers
▁can cer
▁immédi ate
▁o ly
com es
▁étudi ants
▁automatic ally
as c
▁implement ation
▁meas ure
▁corre ct
▁c able
▁a éri
▁esp ace
▁pour raient
▁finance ment
▁soci aux
▁bout on
c am
▁en h
▁sw im
▁déclar ation
▁con clus
▁ter m
a ult
▁g ro
is ant
▁tow ards
▁asse mb
▁rapport s
ov ation
▁esp agne
n y
▁gen e
▁pro s
ou est
app ar
▁l ower
w ood
es prit
▁su mm
▁proper ly
ce ment
▁prés ence
▁é n
▁ins pir
▁cal end
or é
ul er
aly se
as te
b u
▁éc ran
▁prac tice
▁its elf
▁organiz ations
a éroport
qu ée
▁j es
av es
▁f en
▁pro che
▁associ ated
▁piè ce
▁res ponse
▁terr asse
▁dra w
▁p én
▁élect rique
▁par lement
▁l td
▁met al
▁sh ows
s et
▁mod es
▁sé par
▁f u
▁writ ten
ér ences
ill a
▁re çu
6 9
og ne
▁oly mp
▁b ille
▁envoy er
▁th re
▁a éroport
▁200 2
n els
▁situ ée
▁remo ve
▁oper ations
▁ce le
di es
▁électron ique
▁inte gra
▁exp éri
av is
▁trib un
▁allem agne
e aux
▁ver re
▁parten aire
▁j oint
▁c itiz
▁tit le
▁pre c
▁sal les
f in
ch é
▁corre ctement
▁permet tent
▁proté ger
▁fant as
▁sustain able
ge ments
ci pl
▁utilis e
b n
k en
r as
▁instru ments
▁pré visions
im porte
▁19 7
▁car tes
▁prin ci
▁d ru
▁pl ut
▁dev raient
administ ration
▁ass ur
▁diagn os
▁4 8
▁hist oire
▁contr at
▁b ot
▁b ang
▁item s
iv re
▁chois issez
▁esp è
▁sw it
▁av aient
g ing
se c
▁tra ck
▁pan el
▁press ure
p ut
▁us a
eng th
▁spect ac
▁ex pect
4 9
▁as pects
▁her itage
com ing
▁concer ne
tis h
▁th ough
▁mais ons
▁sch ed
▁hos pital
▁t and
▁vari ety
▁se lected
▁vérif ier
é ducation
er o
▁vis ual
▁redu ce
▁squ are
is lation
▁lead ing
▁200 1
▁end roit
▁germ an
▁mag as
▁logici els
▁perman ent
▁good s
▁pr esse
▁histor ique
▁sou h
▁cré é
▁prem ium
▁plann ing
▁instal led
▁fun ctions
activ ité
▁g h
y m
▁table au
▁4 00
▁spécif iques
do or
▁benef it
▁report s
▁complete ly
inté rêt
▁cri min
wh ere
▁im ag
▁de ep
▁mar che
land s
▁en tier
▁net toy
è nes
▁w ed
or ge
▁am end
, ...
▁particular ly
▁déclar é
▁r ain
▁génér alement
ise z
▁accord ance
se e
▁tar ifs
▁econom y
▁souh ait
ri ght
▁pos itive
▁de g
▁ré un
▁mont ant
▁mer c
▁ang el
ag ner
d ire
▁vale urs
▁read y
▁connaiss ance
ol i
▁la m
▁min ute
▁ce ci
▁suiv re
▁dat ab
▁dou che
▁ro t
b b
n aire
▁commer ci
▁compagn ie
▁mo dule
▁dav id
▁ber lin
4 7
▁prof it
▁word s
p c
ag ue
▁is o
▁asse z
▁lo ad
▁mouve ment
ac tive
▁lux e
▁bel ieve
▁prof ile
▁relev ant
▁ouver t
▁voit ures
▁import ance
▁r ig
as soci
▁déc ouver
▁march és
▁st ations
▁l ing
▁cours es
▁ex act
▁sur tout
▁ex pected
us se
▁vis ant
▁con tient
▁pan ier
▁mount ain
en z
▁for ward
anc ouver
ber g
▁w inter
w ell
▁exist ing
ist an
um b
atis ation
▁re tra
▁o ce
▁att ack
b ased
▁af rique
▁part age
▁jap on
▁s ang
8 5
▁micro soft
i as
▁polic ies
▁config uration
y le
▁vo ici
▁obten ez
▁st ory
▁author ities
▁off rir
ord re
▁pe au
▁import ante
ue ur
ob jet
▁w arm
▁w ond
▁bille ts
ul a
av ant
▁inde x
▁need ed
p ack
l ight
m l
▁m l
g in
▁mé l
▁matéri aux
▁st ress
▁l an
▁exper tise
▁ré duction
▁ °
▁nive aux
▁vehic le
▁télécharge ment
▁port able
▁réser ve
explo itation
mo ire
▁appare ils
▁gre ater
▁fam illes
▁li és
c r
▁plut ôt
ct ors
▁star ted
▁co ol
▁a cier
ent rée
▁pr ession
▁ble u
▁ag ents
▁cons ervation
▁aur a
ia ires
▁parf ois
▁dom aines
▁terra ce
▁rec ue
▁é valu
▁l ieux
ve ux
▁ch im
▁ent raî
▁t ap
▁tw itter
▁bedroom s
eff ic
▁cô te
▁w ays
▁pe int
▁moder ne
▁m ys
h ood
▁suiv antes
m ore
▁fabric ation
▁rele ase
zer land
▁m auv
▁rapp el
if y
▁de dic
▁offer ed
équipe ment
▁3 6
ar r
▁b ru
est re
▁rest ric
▁dé g
▁immedi ately
▁be y
▁p aix
▁comm ence
▁j és
d y
an ci
k t
▁prof il
i ant
ér és
▁mat ter
▁car ry
▁ple as
▁sem aines
▁f ight
▁alb um
an alyse
▁v ancouver
▁rég ime
ri ez
▁av oid
en cies
▁cré dit
▁sor tie
▁p ense
▁résult at
▁sec onde
▁offer ing
▁r u
▁fourn it
▁connaiss ances
▁remo te
ot a
▁cit oy
▁demand es
▁sol d
▁mid dle
ra in
▁poss ibil
▁was hing
▁ital ian
▁ban que
am en
▁k ar
▁dom es
▁f é
▁sau ve
▁b ell
▁perform ances
▁diffic ile
▁stat us
è se
▁for est
st ances
▁l ignes
▁compati ble
▁ha ir
4 6
n am
▁bab y
▁équipe ments
4 2
) ;
el ine
for d
e ks
▁avant ages
ex t
▁ref us
al a
▁dire ctive
d ate
ten ces
▁phys ique
▁proper ties
▁f isc
▁con ç
if ier
▁milit ary
▁qu oi
▁inter ven
▁install é
▁st ri
▁consomm ation
è ge
▁oblig ations
d em
▁té mo
▁rég ions
in ves
is és
▁cab in
▁ab ility
▁sn ow
▁ins urance
▁d og
▁ch iff
▁initi atives
▁res pond
▁w ik
▁di alogue
▁div ision
ab ord
m as
▁v ice
▁médi as
es ted
▁3 8
l ande
▁fres h
ta il
▁pre par
▁fournisse ur
▁const ant
▁développ er
▁compé tences
▁multi ple
▁refer red
▁recher ches
▁w orth
▁ins ide
w an
▁conn é
▁learn ing
▁conné cté
▁initi ative
▁rés eaux
▁contin uer
▁rel atives
▁con j
▁so y
▁consult ation
▁infrast ructure
▁consul ter
▁h ô
▁ass ure
▁r y
▁us ually
▁per cent
▁3 3
-- --
▁jes us
▁cé lè
▁camp agne
▁trois ième
▁lik ely
en ed
et é
ti ers
▁cl oth
▁véhic ules
▁invol ved
è che
▁lux em
is tique
▁fam ous
▁vol ont
▁fig ure
▁hyd ro
▁appr endre
ass urer
▁jés us
▁français e
▁inst ant
▁compon ents
▁affich er
▁intel lect
a vez
ass er
▁ur ban
▁transm ission
▁ou i
b c
▁sk ills
▁be c
un a
▁convers ion
▁phys ical
▁incre ased
end u
lo g
▁is su
▁vis iter
▁fru its
ite ur
5 00
▁règ le
▁famil ies
al iment
▁than k
▁anim al
▁ iv
▁se en
▁answ er
▁vide os
▁p ure
▁blo od
ag é
ad resse
▁déf ense
▁dam age
▁t ests
or ient
▁t â
▁canad ienne
▁wh ose
ro l
re l
d is
▁dist rict
▁open ing
▁frame work
ari an
▁ple ine
▁per d
▁dans e
▁régul ières
▁(? ):
▁r and
▁fab ri
▁b é
▁pr êt
▁re pos
▁cert aine
w ise
x x
▁swit zerland
▁s ter
▁ob ser
▁l ength
▁p ow
▁author ity
▁inter view
▁pan ne
mo ine
▁process es
▁lab el
▁phili ps
s i
▁av anc
▁sp an
▁pl ug
▁manufact ur
x te
s m
cl os
▁ext r
ou x
▁administ ration
▁a id
▁petit es
▁fre ed
▁con çu
▁cre ation
w ith
d el
▁a lex
▁dedic ated
▁prem iers
▁lis ted
▁sh a
▁col l
▁compos ants
▁je une
▁enf ant
▁qu ant
▁vo ie
▁ele ments
▁brow ser
▁br it
▁visit ors
éra teur
▁appel é
▁anci ens
occ up
▁gau che
▁ch ale
▁d ream
▁véhic ule
▁incre asing
▁effect u
▁lang ues
▁prac tices
▁found ation
▁y outh
▁ex ter
d or
▁val ues
▁bib li
at ch
▁install ations
▁present ed
▁the ms
▁mo vement
▁dé ch
ff ic
▁assess ment
▁méth ode
▁l g
k o
▁en able
▁é vent
▁thems elves
▁ent ry
▁mad rid
▁cont ains
▁châte au
▁nég o
▁comp l
▁mar ques
or a
▁th ous
ca pe
▁tand is
ab ol
▁appro xim
▁présent er
▁dé te
▁s tim
am i
▁u til
▁ho pe
▁happ y
▁coop ération
▁au dit
▁viv re
▁loc aux
▁pos te
▁m ises
▁co in
u ge
im age
▁bi os
b é
▁giv es
▁transf ert
▁us age
▁présent ation
▁m ut
▁coff ee
▁ot tawa
▁immédiate ment
▁liv es
▁d ark
p o
▁we eks
▁es c
▁di x
id ential
▁air lines
w ide
▁ét ablis
▁s ays
quent ly
▁am en
▁mot her
▁v oul
ra ine
▁de me
▁éta pe
h es
ri el
▁confidenti alité
p oint
en regist
▁complè tement
▁patri moine
▁enf in
k m
am in
ou re
▁app uy
ert ain
g ation
▁f ol
▁u ti
▁mer ci
▁fin ally
▁advance d
▁ex tern
▁work ers
▁norm al
▁bl ess
▁19 5
z y
ér ée
▁ma tières
▁dem onst
▁s ar
id i
▁d os
▁rep air
▁job s
▁cons erv
▁ach ieve
▁c ouv
▁propos ed
▁opportun ities
▁cl ar
a ign
▁pres que
▁suiv ante
lle d
▁autor ités
▁dispos itions
▁w ild
▁k g
▁man age
▁r ather
▁cl ic
▁dist in
▁news let
id ité
4 3
▁réc up
ri ques
▁de te
▁regist ration
▁y es
▁mil es
▁deta iled
▁g ree
anc y
▁develop ing
▁fich e
▁b ol
qu ête
x e
▁fru it
▁works h
éri ques
▁soci ale
▁supérie ure
▁some times
▁belg ique
ign er
9 8
▁pap ier
▁v all
ét ude
acc ue
▁télécharge z
▁cl aire
▁out door
ash ion
▁ =
▁cou ple
▁gen re
▁shi pping
▁camp aign
▁g are
▁r ace
4 1
▁register ed
it a
▁dern iers
abl ir
ien cy
▁p un
▁h und
▁lib r
o pp
▁ital ie
▁acc ur
▁per te
ête ments
b el
▁sec ré
▁dom m
▁app ré
▁chang er
p al
▁procéd ure
▁h our
▁d anger
or i
asse mbl
▁freed om
▁lou is
▁archite cture
a e
ell ow
▁is ol
▁set ting
ri ger
▁automatique ment
▁pati ent
▁datab ase
▁professionn el
▁influ ence
▁w ait
▁aff ili
app r
▁ne igh
▁ent rée
▁res idence
▁hund red
c ks
▁et ats
▁n ort
▁reg ulation
▁re asons
▁s ong
▁afric an
▁inves tisse
▁t elle
l ant
▁cooper ation
▁trou bles
▁col omb
▁qu elles
il ib
▁conte xt
▁avail ability
▁o euv
▁high ly
▁swim ming
▁mark ets
▁b ott
▁activ ité
▁mét al
▁dec or
▁f at
g n
, "
▁partici per
term ine
▁indép end
▁dim in
▁start ing
▁o x
3 00
éc ole
▁mar tin
▁g ain
201 6
▁im mobil
▁sil ver
▁d ic
▁pour su
▁e au
ad ap
▁re mb
▁col our
▁constit ution
▁co ût
▁ré ception
ist a
ed s
▁op ération
▁rais ons
▁cons ci
▁al umin
▁monitor ing
▁préc is
▁w on
▁explo re
▁é cl
▁electron ics
▁ré uss
▁larg est
l as
▁j ose
im m
▁op érations
r ance
▁fr on
▁luxem bourg
n elles
▁challen ges
▁l ance
▁rend u
▁he ar
t v
▁th ing
▁par ad
it re
▁modif ications
▁navig ateur
▁intern al
▁do or
▁wom an
▁ren ouve
▁ann ivers
▁spr ing
cra ft
c ing
▁poss ède
h ips
▁langu ages
▁liber té
▁analy se
▁w ent
ang es
▁l iter
h é
▁reg ar
▁bec ame
▁ser ez
er ation
▁pic tures
▁suiv ants
ign é
ass es
▁support s
in ed
▁trans ition
▁bri tish
▁respons ibility
▁permet tra
▁provin cial
ob je
▁enh ance
▁t ub
▁utilis ateur
el ines
▁a te
6 1
▁com ing
▁c up
▁important es
ab a
▁nature l
▁d ie
▁can on
▁a che
▁ly on
▁every one
▁centr ale
ra ted
▁adj ust
▁3 7
o ise
▁public s
▁détermin er
▁extern al
▁individual s
▁signif ie
p i
▁2 50
▁guarante e
p ap
▁princip ale
d r
▁po che
▁parf ait
▁t i
▁ar c
▁b orn
▁propriéta ire
or ial
g ant
▁b il
▁cont ents
▁attra ctions
▁ult ra
▁he at
▁pack age
▁f ashion
▁mill i
▁p urs
▁acc éder
ron om
▁err or
av a
▁do ig
pr ises
▁ser ious
▁re jo
▁199 9
▁est ate
▁5 5
an ie
en ess
▁dél ai
▁corpor ation
ak ing
▁c ris
▁e vidence
▁ma je
▁ad vis
am our
▁do ctor
▁élev é
▁tour isme
▁atte indre
▁su itable
▁not hing
▁plais ir
p ie
▁ma il
▁encour age
▁fais ant
▁dav antage
▁de venir
ex éc
▁lut te
▁transport s
▁exec utive
▁personn els
▁r i
▁expl orer
f m
▁fa ith
▁économ iques
▁l ost
▁électron iques
▁pl ain
▁t ours
▁financi ère
b al
▁pê che
▁ad s
▁vig ueur
▁man ger
▁k o
he ad
▁mar ine
ar c
▁allow ed
j i
▁h ab
▁certif ication
▁conf ir
eto oth
▁bey ond
p m
▁cons ent
▁su it
▁méth odes
▁chris tian
▁béné f
▁portug al
▁man ifest
▁/ /
rit ure
▁catég ories
▁ren ew
▁comb at
▁vér itable
▁mor ning
g i
▁connect ing
▁f ro
▁hous es
ster dam
▁pres ence
▁p ont
n i
▁trava ille
ur t
aff ich
ar ily
▁pop ulaire
▁a illeurs
▁arr êt
a ments
▁plas tic
▁ara b
me mber
▁symb ol
▁sw iss
ag ence
▁espè ces
▁j un
▁cherche z
an ia
ité es
_ _
▁p y
cl ud
▁dro ite
ur é
▁o m
▁conf lic
térie ure
▁play ers
▁visite urs
g és
▁for ms
▁se igne
▁v oc
▁boî te
▁respons ables
to ire
ri min
▁al ert
▁rencont re
▁ide a
▁cons ac
r êts
ur ent
▁ow ner
▁mar ie
▁nature lle
▁span ish
▁app ort
▁ven ir
▁v ient
▁conc urr
▁gra du
uss els
▁effic ient
p ire
qu is
▁co eur
st and
▁rout es
mé di
▁fund ing
ers e
▁p in
▁tax es
l ong
▁f illes
▁im pression
▁cou pe
▁wond er
▁law s
▁tra ve
▁assemb ly
▁ask ed
▁method s
op tion
▁organis mes
▁med ic
ém a
▁ten u
▁gir ls
▁mon u
▁ach ie
▁lég ère
▁erre urs
▁partners hip
▁manufactur ers
ib a
▁char ges
▁su g
▁in come
▁acad em
▁innov ative
▁cont ac
iz ing
▁blu etooth
▁colle ctive
▁199 8
▁g érer
▁ ut
▁val ley
▁s our
▁de pos
r ices
▁supp liers
économ ie
▁commenc er
ti ble
▁dri vers
▁state ment
▁recue ill
▁bi ens
▁cap able
▁vac ation
▁go al
▁integra ted
▁compe tition
eff ect
▁lo gement
▁de le
▁b os
▁scientif ic
▁m ond
onn er
▁c n
ograph ie
▁facil it
associ ation
▁get ting
▁bir th
ass urance
v c
▁supp rimer
av i
ia ire
▁par ler
kn own
▁territ oire
▁for te
▁h un
▁id en
▁n ic
▁adap té
éra ble
▁3 4
▁per tin
▁carri ed
ph ones
▁mont rer
▁malad ie
▁no v
▁batter y
▁instru ment
â ge
▁ch al
▁mat in
▁br ux
▁g ot
▁simil aires
▁pa id
▁ét apes
▁graph ics
ie use
▁ir on
▁histor ical
▁réalis er
▁spécif ique
ut h
▁contin ent
▁hor iz
▁blo ck
▁m ère
r ants
b ro
▁communaut és
▁y eux
▁discuss ion
▁car s
▁cre ating
ut y
▁k ong
▁doss ier
▁citiz ens
▁gra v
▁b oy
▁understand ing
▁dé par
ad or
▁pie ce
▁rep as
▁eng agement
▁qu ite
▁situ ations
pe ction
▁br un
▁vis a
▁diri ge
is tics
▁arri ve
▁des p
▁m b
▁loc ale
▁z e
▁dom ain
y ear
▁recher cher
▁j a
▁inter ested
off re
▁beh ind
▁ 01
▁t am
▁rem p
▁chaî ne
▁sélection nez
▁part out
▁c ub
▁ ©
▁o k
▁trouv ent
▁res pective
▁m ine
▁acqu is
▁commenc é
è ce
▁p ne
▁rec y
li ve
▁hand s
▁bien ven
▁st ars
▁l od
le ur
▁mag az
▁g a
▁situ ated
▁1 20
▁seigne ur
▁câ ble
▁peu ple
▁me ub
on c
▁wire less
▁dep ending
▁modif ication
ouver ture
▁g ift
▁de ad
▁qui et
▁num er
ex erc
ene ur
▁dé jeuner
▁international es
pl us
ress ion
igne ment
obje ctif
r s
▁c ade
▁y og
▁beaut y
▁b anc
▁conn u
in éra
▁pr oud
▁conte xte
is tic
▁adver tis
▁pro ceed
▁exper t
▁comp ét
tis s
▁jour ney
▁l ines
▁param ètres
t t
▁employ ment
ell a
▁6 5
n s
▁dim ensions
m ed
is co
▁lond res
▁produ ced
▁tr ust
▁cos ta
▁we ak
▁lou er
▁recent ly
accue il
at ta
ave c
9 7
▁agré able
▁annon ces
▁do ing
▁bâti ment
▁rent als
▁f ille
▁mat h
▁g ross
▁ref uge
▁atta ch
▁suff is
▁over all
▁cap tures
qu ées
▁eng age
▁se mble
ô me
▁utilis ée
▁la te
▁challen ge
ç ons
iti me
▁magnif ique
▁pass word
n és
f ree
▁rés olution
▁share d
li quer
▁back ground
▁phil os
▁se pt
▁pa cif
▁ag ent
ins tit
▁ro ll
▁rap ides
n aires
▁k h
▁ét ude
ç ant
▁ré t
di a
▁sh ip
id ers
ab s
ou tez
▁tribun al
ici al
▁ouv rir
▁stock age
▁k en
▁ad vent
▁9 7
ess ions
▁vic tor
▁archite ct
▁stat ut
▁in j
▁le v
il er
▁le cture
▁ro i
o ke
▁pol l
▁class ic
ul s
▁conséqu ent
▁suff it
n d
d its
▁p m
▁la ck
▁pan or
▁sh own
▁run ning
u ie
▁requ ires
▁use ful
▁n ar
rie f
▁appro che
▁tick et
te ad
▁mar ri
▁res er
▁pre uve
▁land s
▁bon us
▁f id
▁r ê
▁bu ff
qu ence
k et
▁e duc
▁1 000
▁depart ure
ob tenir
▁ré el
▁ve get
▁j oy
▁sym pt
end ra
f ield
an im
▁compe ti
▁sw itch
▁pr ic
▁struct ures
ad o
▁intro duction
vo it
fr ance
▁ob jets
▁appar tements
▁hau teur
▁brux elles
é lect
▁b illet
▁relations hip
▁r h
▁conn aître
▁cal me
▁tal k
▁cam ps
ég lise
▁ve ut
▁tra iter
▁indust ries
▁recommend ations
▁promo te
ch arge
▁vo te
▁fonctionn alités
▁exper ien
▁chauss ures
▁dém ocra
▁f if
▁consul tez
▁fran k
▁bill ion
▁dem ocra
▁sec teurs
▁aut ant
▁k ay
▁link ed
z il
ec ted
▁serve ur
▁conc ert
▁pay er
▁arri ver
▁sug ges
ump tion
ie ur
▁sp ot
ers on
▁représ ente
▁télé comm
ro its
▁recommand ations
▁mal gré
▁prote cted
▁barcel ona
▁ch ic
▁is lam
b ul
in al
c as
c op
éra ux
▁w r
▁let ter
▁g ab
▁a z
agn es
▁comp ens
▁identif y
▁gar an
▁newslet ter
▁wind ow
▁voyage urs
▁pri me
9 6
▁mich el
em a
orm ais
▁pop ulaires
▁dou te
▁min or
▁march and
▁appli ed
▁f o
▁contact s
▁pro ph
▁as ia
▁ey e
▁vehic les
onn ées
▁satisf action
f c
▁rem ains
▁déf aut
ill on
▁sp or
v in
▁net works
u a
▁br ussels
j an
▁c iel
▁clim atisation
▁cr ée
▁mé moire
ot te
in iti
r d
▁la ser
▁soy ez
▁pu iss
▁li ées
▁par ent
ex térieur
▁cro is
▁was te
anti ll
▁fle urs
▁rest er
▁pl ants
▁sc ul
if orn
▁divers es
▁friend ly
▁ ice
de aux
▁m g
▁w an
ot o
▁ex ac
ri f
▁dés ormais
▁reven u
▁let tre
effic acité
▁i ii
▁cl és
▁high est
▁corpor ate
▁am sterdam
▁oce an
▁pop ulations
en ue
▁f au
ex per
lic ations
▁p ension
ous se
201 5
▁he ating
ch ant
▁th ème
▁leaders hip
▁ide as
▁fa il
▁siè ge
▁mil an
▁belg ium
▁rec o
▁strateg ic
▁financi ers
▁rec ru
d ra
▁cher cher
te k
▁é tiqu
▁tar get
▁parten ariat
a el
▁p auv
▁condition ing
▁artist s
▁tra ffic
▁rés idence
▁déc isions
▁b ande
▁chauff age
▁f al
et tre
▁se mbl
▁comple ted
▁dispositi fs
▁fin ish
▁déc or
▁administra tive
▁sa w
▁record s
up date
▁serv i
ne w
▁n ap
se ments
▁re member
▁fond ation
ch a
▁jus tif
oy er
▁subst ances
▁6 00
at rice
▁de ll
▁supérie ur
▁en tit
▁demand é
▁int ended
▁dispon ibilité
▁fer me
▁abs ol
▁war rant
aliment ation
u ff
▁opin ion
▁euro s
▁col d
▁dém ont
d ll
▁st one
▁co re
▁w it
us ter
r ing
in king
▁ur b
▁h ire
▁propri étés
id entif
▁al er
af rique
▁sett ings
▁pr ison
▁flex ible
h aps
▁in vent
▁al g
exerc ice
▁foot ball
▁proch aine
n is
▁f ier
▁3 9
ay a
▁install er
▁public ations
00 1
▁chem ical
l or
in os
▁v êtements
▁cl é
u ck
oot ing
▁tr an
▁th ought
▁main s
▁pos ted
▁s oc
w est
au teur
▁instit ute
▁p es
▁expl ain
▁confort able
▁fac teurs
▁ne g
em ploy
▁r ab
▁reli able
▁(? )
▁ét ab
at ri
▁é d
ce mment
▁vir us
▁mex ico
▁th om
▁c oc
▁reco very
▁princip alement
▁circ um
▁rece v
▁f is
▁sat ur
ul ent
▁prov isions
▁tra ite
▁d ang
... ]
▁inter face
▁compos ition
▁je w
▁fond ament
▁eff ort
▁transform ation
▁firm ware
▁util ity
em placement
▁categ ories
▁st ain
▁e valuation
▁ré cemment
▁4 2
end a
at oires
▁pour ra
▁bibli oth
▁laiss er
▁dise ase
▁longue ur
▁adv antage
sh irt
▁tele phone
▁fav our
▁rep orted
▁other wise
▁g i
ctiv ité
▁ph p
f it
▁se ven
om s
▁intern ation
al d
▁island s
▁tele vision
▁comp act
▁pilot es
▁vo ix
6 2
▁cal iforn
▁plas tique
▁libr ary
▁arr ange
▁aliment aire
▁vol un
ente ment
hu ile
▁adv ice
▁fabric ants
inn ovation
ian o
▁génér ales
▁aur ait
av enir
▁mem ory
d on
▁inf érie
▁m ol
▁comp liance
▁provin ces
▁possibil ités
▁p ed
▁f ill
▁dis cipl
ag ent
▁ad ress
▁long temps
▁ré alité
▁p ick
▁cour ant
▁toile t
s pe
▁engine ering
entre tien
▁compar er
ó n
▁approxim ately
▁regar dez
▁hon or
▁tag s
▁de termine
▁nouve l
▁d ent
▁cre ative
▁vari été
▁commit ment
▁act uelle
▁diff us
▁on es
▁el se
▁contra ire
▁conv ient
abil ities
▁br ought
▁paper back
▁perm it
▁inf e
▁v ois
▁proced ures
▁r ing
▁minist ry
▁utilis ées
▁hel ps
▁compare d
c are
val uer
▁ref lect
ru ption
▁indi a
ru p
▁x p
ag en
▁em placement
ous ly
el ess
al i
▁vo ice
▁submit ted
ak er
▁th er
▁arri val
▁austral ia
▁be gan
st ra
▁pass age
az z
▁f el
▁bar s
▁cele b
▁manufact ure
ou til
▁pr ises
▁supplément aire
▁to sh
▁r ural
g ie
▁s ense
lis s
▁g agn
▁trava illeurs
er ver
▁col lè
▁res olution
d ed
▁power ful
▁condu ct
▁jou eurs
▁f ing
in tes
▁célè bre
h r
▁cas h
▁prév u
ac cess
▁équip es
ch ar
▁é lément
▁hom es
▁c ach
5 8
ext ension
6 3
▁p ad
▁tra it
▁m ons
▁grow ing
▁doig ts
▁off rant
▁voy ages
▁rend ez
▁exp edia
▁class ique
▁comm une
▁a it
urg ence
▁exerc ise
import ance
ve ur
▁organ ic
▁bor deaux
▁s as
▁webs ites
h ou
▁champ ion
▁for mes
▁dev ient
au gh
▁trans l
▁effect uer
▁at tem
p it
▁procéd ures
▁ind ications
▁commit ted
agn ol
t ons
▁pat tern
▁document ation
▁produ ce
▁dép enses
▁cam el
t able
▁b urn
▁constit ue
▁un its
▁p ouss
▁dis s
go ti
r and
▁guid elines
▁gar de
z es
▁vi et
▁sain te
le ts
ais es
▁ins tead
▁ch ocol
▁k ids
▁bra zil
▁fe es
▁man que
▁cou cher
▁canad ians
▁desp ite
▁res erv
▁dec ided
it ing
▁colle cted
on ia
▁hon our
▁199 0
▁re pe
▁even ing
▁effic iency
â tre
envir on
▁se at
▁prépar ation
▁é lab
▁tour ism
▁inter ests
▁reg ions
▁w rite
▁sc ène
cl é
▁c élé
▁anim als
és il
▁renfor cer
▁b ah
▁ ign
▁8 00
iti é
▁ca uses
▁offic er
ur b
▁pron on
▁l its
▁la v
▁dé lé
▁re ve
ist ant
an i
ég ard
▁world wide
▁améli or
▁bo at
▁nutri tion
▁tosh iba
▁russ ie
▁cheap est
▁cy cl
ult ural
▁mété or
▁supp orted
▁présent é
▁prof esse
▁sle ep
▁la y
aut om
▁ob st
▁fit ness
ond s
▁prof onde
▁v entes
▁rem pl
▁ch i
▁sc en
▁discuss ions
▁beaut é
▁nom s
▁dur ation
▁por ter
▁pro por
▁a per
um é
app el
▁t s
f ri
▁contrib utions
▁ey es
▁near by
▁trans actions
▁occ ur
▁p ét
ri vez
... )
▁relig ion
ograph y
es te
▁business es
▁loc ales
▁destin ations
▁t unis
▁lab our
▁crit ères
▁stud ent
▁dé di
▁cover ed
▁conf idence
re h
▁sim pl
c ity
ival ent
▁pres c
▁chin ese
▁e gy
▁gener ation
▁statis tiques
▁gal ax
▁re place
▁tra du
▁pied s
▁or ange
▁mom ents
b t
▁own ers
▁g mb
▁accomp agn
▁o h
▁v acc
▁exhib ition
oxy d
▁re tail
▁co ach
▁numer ous
▁b ird
ér ant
ar riv
▁p ant
h ors
▁t an
g ées
▁nort hern
▁gall ery
s l
▁ag encies
▁fri day
▁princip ales
▁incor por
in aires
dic tion
▁annon ce
p u
▁hol y
ag a
▁at lan
▁inté rie
▁separ ate
▁é dition
▁dép end
▁b ern
▁dé n
▁describ ed
▁sur pr
▁compren nent
▁[ ...]
8 7
▁prom ouv
▁extr ême
▁does n
▁rem plac
▁parfa itement
▁m êmes
h l
▁internation aux
▁fact ors
▁dim anche
▁him self
al le
▁to x
▁or gas
▁commun ic
li p
k in
▁arch ive
▁un ies
▁con cep
: :
té r
▁capac ités
ta ire
▁ne goti
▁med ium
▁malad ies
▁po or
▁contac tez
▁thre at
▁t ac
▁sing ap
▁municip al
▁sus cep
▁m ou
▁exp and
▁cu ir
▁as c
▁t ch
ourn er
▁aff airs
▁m ir
▁mo tiv
ho tel
▁tar if
ig er
ut or
▁ven ez
▁v ont
▁issu ed
▁id ées
▁ré d
▁arri ère
▁év iter
▁sau f
▁milli ards
▁imm ig
▁port es
▁indi qué
▁g agner
effect uer
▁sp read
▁plate forme
▁ob ject
for ce
▁under ta
▁le ather
▁bel ie
5 7
▁vill ages
▁ser ved
▁sau v
▁lic ense
▁din ing
▁hy p
▁déta il
▁class es
▁princip es
▁note book
ex position
w ater
8 9
▁circ uit
▁mo tion
▁place d
p el
▁domm ages
▁identif ied
u il
▁prep ared
▁meet ings
▁school s
▁err ors
▁g ig
▁al li
a ci
▁care er
▁e co
▁e aux
▁sc ol
ain c
▁v ég
ex cell
ov o
▁char m
▁h ill
is ent
▁gratu its
en tic
▁a er
▁ing redi
ans ion
▁work ed
▁garanti r
hô tes
▁col on
▁f uel
▁subse ction
▁vendre di
▁read ing
▁a i
▁cons um
▁c ord
▁v aste
sh ip
ri mé
ont ario
▁batter ie
ar ia
ene urs
▁s èche
▁rés istance
▁cath ol
m od
▁writ ing
▁t ables
▁to ld
▁tiss u
▁pal est
ond es
enti ss
▁é valuation
▁conse ill
▁colle ctions
▁ch ain
fe ction
▁fact ory
5 9
▁mont agne
▁rég l
▁sun day
▁sh ops
▁produ ire
êt res
▁initi al
enregist rement
▁vis ible
▁ré n
▁ar gu
m êmes
▁pack aging
▁réalis é
▁gener ally
▁disc rimin
▁c ards
▁tour ist
le ctions
m y
cl am
▁russ ia
▁propos er
ut ation
▁wh om
▁tur qu
hold ers
▁br ésil
▁p on
▁whe el
▁ch rome
ber ry
▁ag re
▁cr ise
ess es
e g
▁b onnes
▁employ ee
a a
▁build ings
appar tement
4 00
▁program m
k ers
▁appro ved
▁rap id
▁p aint
▁le ver
t own
▁hum ains
▁ali ments
▁fund s
▁w ifi
▁deg ree
▁inter ior
▁cri tical
▁obje ctive
▁rais onn
▁199 7
201 2
▁prov ision
i os
ive z
▁cro y
il a
▁second es
▁field s
▁dec isions
et ers
▁num bers
▁mand at
▁sout enir
▁profession als
▁ass ign
us ted
▁char les
▁over view
▁che v
▁conc ours
▁bate au
▁mo z
▁f an
▁beg in
o e
hôtel s
▁team s
▁end roits
h el
▁kilom ètres
▁l ie
▁col ors
▁g ast
▁furn iture
n ote
ill age
▁fa q
▁promouv oir
onn a
▁som me
▁sol ar
▁cl a
er ies
▁mon te
▁certific ate
▁extre m
▁agric ulture
▁act ually
▁report ing
▁us d
▁réalis ation
▁clean ing
▁av ion
▁por n
▁su jets
ob e
▁trans action
iv ing
▁autom ob
▁évé nement
▁l cd
▁vég ét
▁r ares
▁copy right
▁to y
▁réserv ations
▁ris ks
ex amen
▁men tionn
▁syn th
▁advertis ing
▁success ful
▁artist es
▁consomm ateurs
and er
is ées
▁9 5
▁conten us
▁cin éma
▁ab ord
▁dist ing
▁deliver ed
exéc ution
▁ ×
d c
let t
▁giv ing
▁s tic
▁lesqu els
n ot
▁cons umption
▁équip ée
▁é lim
▁sha pe
▁inté rieur
m or
▁pic ture
arriv ée
r its
▁cat alogue
ul é
▁emp ê
ense ignement
▁re b
▁so ph
▁tem ple
▁univers al
▁chap itre
▁cons ol
▁comp lé
av ing
▁e arn
ent y
▁prépar er
▁pouv ant
▁health y
ren cy
201 8
▁cris is
▁poin te
▁chois i
▁proced ure
▁bure aux
▁g ather
g on
▁surve y
▁cons umer
i ée
▁carri ère
▁publi ques
▁vill as
▁c au
▁cabin et
év é
b ra
▁heure ux
▁b ass
end roit
▁auto ch
▁h it
ann on
▁médic aments
▁off rent
▁pe ux
d own
en ant
▁jurid ique
▁un less
▁ouver te
re té
▁prin ce
▁emerg ency
▁upd ated
▁regist re
▁open ed
▁int ens
▁serv ir
▁mainten ir
▁transport ation
▁o d
▁fich es
▁te a
▁pos itions
▁p it
▁mean ing
p our
▁wan ted
▁sn ap
201 3
▁f ans
▁r ati
▁adult es
t u
▁announ ced
▁lesqu elles
▁r ide
▁liqu id
▁bienven ue
▁tr és
▁arch ives
▁b rief
▁integr ation
201 4
▁stain less
▁prim ary
▁viet nam
▁ma ur
inf o
▁port ée
améli orer
▁mél ange
▁h en
od a
▁favor ite
ob a
▁nam es
▁représent ant
▁distrib u
▁virt ual
▁rév olution
▁rev olution
▁cri me
▁al lez
▁puis que
▁comp et
ér ées
f ox
crip t
▁sex e
▁puis se
▁rend ement
os ter
▁pie ces
▁hand ic
▁e at
5 6
7 4
▁test ing
ut ing
▁sélection ner
▁sc an
ro ph
▁héber gement
▁complex e
▁a k
▁inté rêts
te ch
ét r
to e
j ac
ak es
ag ram
l ife
éch elle
▁leg islation
▁t ree
▁sh ar
▁f ou
▁génér ation
▁dé lic
pr és
▁ang le
▁ten ir
▁m ira
▁f era
▁re form
▁char ter
▁rece vez
▁play ing
▁é lè
▁gu ides
▁yog a
▁c ant
▁qu els
▁dim ension
▁t ort
▁ ·
▁spirit ual
▁j er
▁holid ays
ton es
entiss age
r ine
inves tissement
▁fédér al
▁mill iers
▁coord ination
▁ch ief
▁dis que
ti ll
▁rele ased
▁k y
▁comp ter
ik i
▁present ation
▁plan ification
c ons
▁représent ants
ç on
am érique
▁ét ablissement
▁histor ic
al ed
▁inter p
▁clim at
▁erre ur
ati v
ason ic
▁sign ature
▁hyd ra
▁tas k
▁obje ctives
▁déf is
▁communi quer
▁manufact uring
▁bri ght
▁poss ibility
▁cook ie
▁el im
▁pal ais
l ist
▁crit eria
▁im per
▁mar oc
▁spécial es
▁sam edi
tern el
▁differ ence
▁d j
b us
▁car bon
▁res ervation
tien nent
▁major ity
al em
▁sem i
▁déc rit
▁fa its
▁s d
▁é l
▁bé bé
▁mari age
▁m am
▁can al
▁pos iti
ann ique
i am
▁prob ablement
▁redu ced
▁comp reh
▁dépar tement
go ing
▁fen être
▁experien ces
▁met ers
▁b ow
▁riv ière
ch i
▁follow ed
▁cour riel
onn é
w ards
▁kay ak
▁g el
▁s ab
enf ant
▁st able
▁associ és
▁pré occup
▁hum aine
▁coun ter
▁sho es
ion e
▁conflic t
ue ux
▁d û
ut é
▁f oi
▁continu ed
▁b ons
ro g
▁quar ter
▁clos ed
▁esp aces
▁comment aire
▁l ar
al lem
▁e lement
▁conform ité
▁scientif iques
é lab
▁dro p
▁some one
re ts
▁princi pe
c f
▁st ake
▁bel ong
▁l our
▁warrant y
▁la ve
▁coord in
▁g ave
pl ant
▁cl air
duc ing
▁y ellow
▁an t
al f
▁tri m
pir ation
ti ver
▁je un
▁ urg
ques ted
▁quotidi en
clud ing
a o
▁4 7
z ed
f il
g m
ri an
ov a
▁b omb
▁sc ore
▁le cteur
cle ar
▁princip les
▁cons iste
▁re quested
▁spéci ale
9 3
ang le
▁pal ace
▁ord ers
▁russ ian
▁199 6
▁thous ands
▁bro ch
ce au
im pression
▁go als
au di
▁smo king
▁différ ence
ro ll
▁professionn elle
▁bat tle
ric k
▁pren ez
▁requ is
▁parfa ite
ign ant
▁au rez
▁quel qu
▁pra gue
▁gar age
médi aire
▁v int
▁sign ed
▁fa ite
▁imp li
î les
▁comb ien
gra de
ac o
▁de leg
▁neu f
▁major ité
▁cap ture
is mes
▁comp lément
▁play ed
o it
▁ent ertain
▁comp rom
▁p ip
▁p ér
▁gard er
5 1
▁aux qu
h an
▁iden tity
▁oblig ation
▁inter pr
▁bro wn
▁abs or
▁port o
▁broad cast
▁magaz ine
9 2
▁sh aring
▁to i
▁confirm ation
▁comb ination
▁associ ations
▁priv il
▁nour riture
▁v ise
▁tas te
▁qu it
▁relig ious
▁enregist rer
ai rage
ind er
▁the me
▁capit ale
▁conclus ion
▁real tek
▁satur day
az a
▁camel toe
▁command es
ig u
▁champ ions
▁tal ent
▁p el
▁4 4
▁can cel
▁appr ouv
▁éner gé
▁smart phone
▁trans por
▁depos it
▁tra jet
ex ist
▁v el
▁condu ite
▁p eter
in di
▁interest ing
▁couver ture
av ion
▁scul pt
ert o
▁r ule
onn ée
▁real ity
ul l
▁dis able
▁any thing
▁port ant
5 4
▁é co
an ches
▁cult ures
▁citoy ens
▁chale ur
▁tot ale
▁net her
o pe
▁not er
▁in ten
▁comp tes
▁p â
▁washing ton
▁se ctions
▁im press
▁car b
k ok
▁acc us
assembl ée
▁jeun esse
ot y
▁tran qu
▁air craft
▁re duction
▁con g
▁cast le
install er
h d
▁atmosph ere
▁hous ing
he im
▁i ra
▁mar se
▁ex cept
▁vé lo
▁div ided
p n
m c
▁port rait
▁circ ulation
ograph ique
▁regul atory
ic on
▁v ista
▁pro grès
▁sl ow
9 4
▁nettoy age
5 3
▁dipl om
b and
▁dé plac
▁off ices
g ard
▁mer ve
as ions
▁colle ge
ie uses
▁ul tim
▁fil tre
ul ated
▁mos c
▁ic on
▁wal king
▁help ful
▁r io
▁so in
ar o
▁cas a
▁scientif ique
e an
. -
▁précéd ent
▁ch ans
ve t
▁ball s
re w
8 6
▁d or
] ,
e v
▁v s
▁obje cts
▁inter ne
▁chap ter
▁recommand é
▁list en
▁form ats
▁e valu
▁che veux
g ues
▁domes tic
l c
ber ta
▁ro bert
▁prof itez
▁fix ed
▁acc ident
▁particip ate
▁id enti
201 9
5 2
▁médec in
▁he ight
▁vra i
▁regard er
▁civ ile
▁c c
▁wit ness
▁dynam ique
▁am i
al ing
▁réf ug
▁chang ed
▁mus ical
▁ém issions
▁un known
▁ @
▁sc ale
ol is
▁gu it
▁hum aines
▁ment al
▁rec ours
▁que en
▁obten u
▁la it
▁ 00
▁ed ge
▁sex ual
▁indép endant
os en
▁pers pective
▁ex pression
▁specif ications
▁de lic
▁météor ologiques
or de
▁enter prise
î tre
▁cap s
s te
▁inv ite
▁b act
▁ba ign
▁déc idé
▁e ditions
ô mes
ro ad
▁dés ir
▁lim ite
▁sc rip
▁man ner
b li
▁inde ed
▁199 4
▁4 3
▁cham ps
▁k ore
g ée
▁fl ux
▁nether lands
▁call s
té es
in age
▁hor aires
▁long ues
▁g ate
del à
▁far es
off ice
▁prom ot
▁stream ing
▁doss iers
vers e
▁caus ed
▁al co
▁r at
▁découver te
▁defin ed
ha us
▁jose ph
crip tions
▁réf rig
▁di ver
au gment
▁sw ed
▁fis her
▁contempor ary
▁lég isl
▁bou te
1 01
8 00
on ge
ul té
% .
▁b ridge
ag és
▁inst ance
▁vérif ication
▁v enti
▁barcel one
ém atique
imp act
▁m én
intégr ation
▁un s
▁fish ing
7 2
r c
▁govern ments
▁alumin ium
▁app s
us alem
▁ph en
▁ar tif
or igin
▁concern ed
▁cherche urs
▁parc ours
▁u tile
▁sle e
▁n aissance
▁contin ues
▁ac er
▁bed s
ém ie
un ité
▁al one
▁flow ers
id ée
w ire
▁chann el
▁conven ient
▁canadien nes
▁mar ia
▁ind ig
▁pe ine
▁propos ons
▁sp ons
▁public ité
▁fourn i
▁br on
ê ter
our ir
or tement
er ed
ign ée
▁développ é
▁contrib ute
▁défin ition
▁prep are
▁pour ront
▁res erve
▁b m
▁hydra ul
▁dis app
am ic
▁m me
▁a h
é ros
▁concent ration
▁sen ior
▁met res
ri ve
em p
▁mond ay
▁am érique
▁des k
▁tre as
re te
▁p av
▁prac tical
▁rel ating
▁expéri ences
arch ite
ic ile
▁gir l
t age
▁ex cess
l à
▁v ital
▁éc oles
▁c ib
▁cam er
▁adop ted
▁négo ci
▁régul ièrement
au g
▁dru g
▁fire fox
▁certaine ment
▁ab and
▁be comes
▁em plo
▁contro ller
h iver
▁go es
▁ten ue
▁relative ment
al on
ell ing
ing o
▁an ony
oin ted
▁combin ed
▁bar b
▁rappel er
w al
▁pl antes
▁r c
▁supp lier
▁tra ding
▁cre am
▁peint ure
▁compos é
p age
▁absol ute
▁chann els
▁swe et
▁extra ord
▁recher ch
▁lun di
c king
▁mo v
▁circum stances
▁dis par
▁st ru
▁be aux
▁fa veur
▁y e
▁f umer
▁ad ults
▁stratég ique
sh ot
▁4 1
▁potenti el
▁gr ant
▁j os
▁commercial es
▁clear ly
w in
▁ent our
g al
h ai
▁proven ant
▁aff ir
▁repro du
w lett
▁proch ain
x i
av ait
▁any one
▁tou che
▁atte int
▁bas es
▁mar c
▁bre ath
h on
▁br anch
▁t un
▁av enue
▁trave ll
▁c s
▁établis sements
▁ref riger
▁sen ator
▁per du
▁ch ré
r or
ul y
▁un if
stand ing
▁jur is
▁deta il
it ant
▁seem s
▁recy cl
ent ly
ter re
▁requ ests
▁cot ton
é dition
6 00
▁cons entement
▁represent ative
▁fe et
▁a de
▁d ar
f ol
▁imp rim
▁bi ke
▁an ton
▁vie ux
ph on
▁et hn
▁c ock
ét udes
▁territ ory
▁condu cted
▁u pper
▁con ce
▁simil aire
▁br as
ti bles
▁réglement ation
th is
» ,
sc rib
▁destin é
▁angel es
▁mo ving
▁proc ure
▁gouver nements
pl an
ag ric
tis te
▁facil iter
▁volont é
▁auth entic
▁9 9
▁re cip
▁ex er
▁tri al
▁d ies
▁statis tics
▁represent atives
ro ck
▁gr en
▁ îles
ic ient
▁199 5
▁gr is
▁d ose
▁fl ower
▁bar re
▁worksh op
▁n ik
▁al p
▁res ource
▁tou l
ven ess
▁ir an
g b
a che
▁second s
▁reven us
av ance
▁clic king
▁perd re
▁dev riez
il ton
▁prot oc
▁biblioth èque
▁n a
fr ont
▁préc ision
▁ £
ri ers
oir s
▁rich e
▁heav y
▁prov ider
▁determin ed
▁améric ain
▁cur rency
form es
alis m
▁certain ly
▁support ing
améli oration
▁p ix
s k
▁voy ez
▁aff ected
œuv re
▁l if
▁chin ois
▁ac teurs
▁ar bit
alis er
▁sub m
▁commerci aux
▁tur key
▁galax y
e ch
▁res ol
▁tend ance
▁pré vention
▁fer ry
tm l
▁sp l
oun ge
▁t omb
▁christ mas
▁extrem ely
▁app oint
ic y
▁design er
▁pan asonic
▁certific at
▁col umb
▁med iterran
▁secret ary
it ations
i pe
▁handic ap
▁8 5
▁prov iders
ric ité
em ment
▁ten nis
▁obst ac
▁hy per
▁reach ed
▁fund ament
▁cro ati
▁fourn is
▁présent es
l ie
▁plan e
étr anger
▁4 9
▁gen ève
▁sp ent
▁secré taire
ré h
▁fé min
▁dec re
▁par le
▁reserv ations
è tes
▁dev ons
▁rés olu
▁t ension
▁we ar
▁propos ition
▁no ël
▁val u
iner y
▁sched ule
▁poss ibles
▁ch osen
▁tr uth
▁m ist
▁s q
▁prom en
▁marchand ises
fri end
é ternel
▁b ound
▁bas ket
▁store d
▁launch ed
▁troubles h
lo o
▁tre es
▁sp end
▁marse ille
h ow
▁wonder ful
▁res istance
▁co des
en h
in ing
▁mich ael
▁compreh ensive
▁employ er
▁au ber
▁ne ut
▁stand ing
▁bott om
▁c f
▁autoch tones
▁4 6
▁gold en
ent ure
▁light ing
éri es
▁sh ang
▁pl aît
▁allem and
▁r id
▁doll ar
r at
y e
ive d
▁w arn
▁off ert
▁cann ab
▁tra ins
▁m ens
um n
▁a ware
▁thé âtre
▁v ues
▁d ens
▁concern s
▁s ets
▁étab li
app lique
▁specif ically
ins c
▁fonction ner
▁finan cier
ti veness
▁pay ments
▁occ asions
▁lo gements
▁dép ôt
▁cot on
b onne
▁in oxyd
7 1
▁ge orge
li ke
▁bang kok
ag ée
▁specif ied
▁s essions
▁rédu it
o di
▁ach at
▁di et
▁gree ce
▁dis clos
w w
or ing
▁summ ary
n ant
▁pl ages
▁colle cte
▁hard ware
▁pét ro
▁v ast
▁comm iss
▁act uel
is ode
▁con grès
te chn
appr entissage
▁tra velo
▁accep ted
z en
▁prob ably
▁sal v
▁it inéra
▁chang ing
in ée
▁soum is
▁par ole
▁ex ceed
pe ctives
▁la mp
▁per p
▁augment er
▁agre ed
▁f ête
▁méd ical
▁extrême ment
c ut
▁aéri ennes
ctiv ity
▁sh ut
instit ut
▁am d
vision nement
y st
▁sou venir
▁exc urs
▁viol ation
▁ingredi ents
▁diff usion
g age
▁aj outez
cl ass
▁dynam ic
▁certif ied
▁p air
▁pré al
▁fi able
▁m asse
▁d c
▁chac une
▁cir con
7 9
▁bord er
▁cent aines
▁mar itime
pack ard
▁remb our
▁tra duction
▁contrib uer
▁famili ar
▁c ass
ouv rir
▁mo vie
▁inoxyd able
▁nation aux
▁m issions
▁amaz on
▁ um
▁prior ity
p g
▁mount ains
pro of
▁hu ge
▁ind ire
▁méd iterran
▁f ear
▁no ted
▁tâ ches
▁t we
▁reason able
▁ac tifs
▁impro ved
c or
▁cli quant
▁app re
es co
▁consci ence
▁der rière
v re
▁europé ens
▁env ers
k g
▁r av
ent raî
▁el ig
▁sou d
▁ter res
▁hundred s
▁prot ocol
iz es
▁mar y
qu ences
▁élè ves
▁termin al
▁prin ter
is p
▁conv ainc
ro v
as ts
▁p é
▁r ating
▁em o
un der
ien nes
▁stratég ies
ins cription
▁di ab
▁impro ving
▁cour te
▁re in
▁sp ac
▁sa vez
▁ex térieur
▁br ill
▁st ated
▁compl ain
8 4
inst ru
he wlett
▁f asc
▁eas tern
▁lim ites
▁labor atoire
▁3 60
▁man aged
▁aux il
sc reen
▁an c
ux e
▁œuv res
sw ick
▁cop ie
▁t ail
▁rem ise
▁som met
▁arrêt ée
▁organ ized
ii i
én om
▁bro ther
▁hy b
▁nor me
▁lois irs
pos t
▁ext ensions
▁pu erto
▁respect er
▁app orter
▁ach eté
▁comp orte
▁main ly
▁w ars
a ñ
▁allow ing
▁cy l
▁character istics
▁b ap
▁région al
▁indi que
▁compé ti
▁hum id
et at
▁concer ts
▁will iam
▁v ins
▁appré ci
av ons
▁terr or
▁harm on
ag ues
▁solid ar
▁anci ent
▁troublesh ooting
ruct ures
▁he ard
▁dem i
▁lum ine
▁found ed
▁im pr
▁national es
▁réun ions
▁retr ouv
ti ens
▁arm y
▁offici el
▁de hors
▁pal m
▁as pect
é cl
serv ice
▁élev ée
▁balcon y
▁anci en
d p
▁g er
▁strateg ies
ill ing
▁ve ulent
ép oque
▁result ing
▁or ch
▁habit ants
▁thom as
▁comp t
alis te
▁vit am
▁ban ks
▁mob iles
ign on
1 50
▁y a
▁ac ce
▁h ub
▁notif ication
▁financi ères
▁rati o
▁ét age
em ball
▁comp li
▁b elles
▁magas in
▁gre y
▁g ender
7 6
▁conten ant
év olution
ch ester
▁al ph
sh ow
▁crimin al
▁divers ité
▁upd ates
▁comp ortement
▁su ivez
▁ex cl
us c
▁env is
▁clim atique
▁e ight
▁pres tig
▁at ti
di ents
▁client èle
▁mil itaire
ô ne
m un
m al
▁e li
▁mig ration
tr ans
▁c ess
▁franc isco
▁comp réh
▁lands cape
8 2
▁show ing
or able
▁z ur
▁sp aces
▁in gré
▁indic ated
▁essenti el
▁mediterran ean
▁g ps
▁exig e
enti st
w ind
ock et
▁suff icient
▁v ing
▁oper ational
▁competi tive
▁ms i
▁brand s
b ody
autor ité
▁vic times
▁adap ter
id den
ul ée
▁ass ets
▁medic ine
ir ts
▁sy mp
a ille
▁sout hern
▁direct ors
▁bénéfic ier
an es
ag og
▁prepar ation
▁dél iv
▁agric ultural
▁fut ur
▁expéri ment
▁ ire
▁phili ppe
▁bathroom s
▁recogn ized
▁dou ce
▁r an
▁bas é
▁equ al
▁inform atique
ol it
▁1 01
▁ob jet
it z
▁bâti ments
▁exception al
▁envoy é
▁educ ational
. [
j ou
▁dr ink
min ute
av ais
ang lais
▁mil k
▁bro ws
▁fl ag
▁asse mbl
hé ber
▁v ess
▁direct ory
▁g b
u its
▁combin aison
▁nature lles
▁ma ps
h ér
▁dri ving
es is
▁ve gas
▁se ctors
▁exp lic
▁agree ments
agric ulture
8 3
▁plan et
▁be ar
▁hum ain
▁r aw
bl in
tic ally
▁pl uie
▁panne au
▁bra ce
ag on
▁teach ing
▁la issez
▁fisc al
▁bl anche
vid ia
d ney
▁év ol
▁pro long
▁cul tiv
b ed
▁un to
▁fall s
▁susp ension
▁g t
▁déc oration
» .
alis me
▁obtain ed
ass istance
▁fe e
▁sim ult
▁tow er
▁ext ent
▁po ker
▁d ance
▁magas ins
▁ann uel
▁author ized
▁inter vention
▁super ior
▁sim ples
▁cor p
ar eness
▁ag ences
▁sty les
▁envir ons
▁amb ass
c in
▁mo itié
▁consid érable
▁inté gré
f ran
▁smo oth
▁sam ple
▁chau d
▁tr end
ol o
m ond
▁vint age
um s
▁vir gin
▁transpar ent
▁jam es
▁social es
ze ch
▁advent ure
on line
▁claire ment
▁exp lique
▁dang ere
▁jud ic
▁claim s
ace u
▁fig ur
▁rejo indre
d d
▁th ick
end ue
▁déch ets
▁en rich
▁soir ée
gar de
▁fem ale
▁constru ire
▁pleas ant
▁d î
▁tem pl
▁th urs
▁r ise
t an
▁orgas me
▁tr ying
7 3
▁rail way
▁propos é
▁experience d
▁cons ists
▁j ava
▁vér ité
▁p ill
▁cam éra
▁high l
▁et h
▁jou eur
▁ag ence
▁aper çu
▁co al
▁cell ules
ap y
▁fau te
i ale
▁franc oph
▁beach es
% )
▁subst ance
iti m
or me
▁extre me
e lect
au de
▁ind o
ess ai
▁bud g
▁dis h
▁man it
▁ne ige
▁prest ations
▁elim in
▁al liance
▁tas ks
▁gene va
im a
▁vall ée
▁ins pection
▁aut onom
▁pre vention
▁sh er
▁r as
eff et
▁élect riques
▁5 2
w ear
r ator
▁bo ats
h ab
▁tit ulaire
▁étiqu ette
élab oration
t ube
▁nécess ité
▁che fs
▁ins p
▁fin anc
▁ent rance
▁d ol
▁aw areness
▁acc ro
▁cade au
▁deven u
ite urs
p ay
▁s ons
▁ele gant
9 1
▁ch art
▁with dra
▁p ump
▁she et
▁je udi
▁arriv ée
▁investisse ments
▁f usion
h en
▁mass age
▁bas se
▁gal erie
▁expect ations
▁discrimin ation
▁sugg est
▁eas ier
8 1
▁reconn aissance
▁sub je
▁mauv ais
▁fl av
▁disable d
▁entertain ment
▁trouv és
▁supp lement
y ou
▁ext ensive
▁h ond
▁impact s
me ub
▁tit res
▁exp li
ah a
▁travelo city
▁vis ites
l ink
▁pays age
▁cour ts
a cier
▁n vidia
j ud
▁flor ence
▁actual ités
▁g ri
▁restric tions
▁multi ples
▁recommand ons
▁form ule
▁sén ateur
all er
▁min ib
▁port s
be ads
b ai
▁réfug iés
▁g ear
▁b ought
b by
▁compar ison
▁témo ign
▁ens uring
▁ing én
h ous
▁s r
▁annon cé
▁l ose
p d
▁oeuv re
▁ag enda
▁t ôt
▁do ors
▁rés umé
bil ité
▁so i
▁o v
at te
qu ality
▁spécif ications
▁qu ad
▁large ur
▁comb ine
▁sl ight
ti enne
a ider
met tre
▁concurr ence
▁week end
▁chaî nes
▁es prit
comm un
▁progress ive
v ise
▁al loc
▁mun ich
▁l en
▁sé j
▁prov o
▁tax i
▁éco le
▁mobil ity
s ervation
▁franç ois
d ans
us te
▁commerci ale
▁t ube
▁stim ul
▁l ub
ol ine
▁ve ux
▁spa cious
▁exam en
▁decl ar
iss es
▁beh alf
▁cannab is
▁research ers
▁tra ité
om a
▁mul tim
▁acc ounts
▁étrang ers
▁honour able
▁can ap
▁amaz ing
▁trans lation
ri ons
▁gr èce
▁sal t
ch ron
▁fin ale
▁promo tions
che ment
▁prof ess
▁se min
▁dom icile
▁p éd
▁for êt
▁mag ic
v est
▁thurs day
let te
▁defin ition
▁conver t
▁respons abil
c n
ur ies
▁aliment aires
emball age
▁pr êts
▁matéri au
▁instal lez
eng ers
n ée
▁f m
▁wed nes
▁conver ter
▁fin ances
▁mod ules
▁ass urance
part y
▁uti les
▁interp ret
▁say ing
▁indi an
lo ok
▁quan tity
au c
ir ing
▁air es
▁aw ards
▁sy dney
▁bate aux
ps on
▁h oc
ph as
▁dic tionn
▁appro val
l ée
▁règle ments
en ger
▁volun te
▁souha ite
▁propor tion
▁nam ed
▁bas ée
r um
▁entrepr eneurs
▁ord re
▁milit aires
em n
▁man ip
▁constru it
▁accur ate
▁expos ition
▁envoy ez
▁des ire
▁équ ilib
c ers
▁identif ication
▁connect er
▁nu clé
▁m ale
▁const at
di vers
▁vis age
▁bo dies
▁ire land
▁dra ft
app li
▁w a
▁cont est
▁tempor arily
▁s ap
pap er
▁perform ed
▁anne x
▁adop t
▁acce ler
rel ated
r in
f o
origin al
ra is
▁vo il
▁dis co
▁lanc é
▁inform ed
ex pl
▁din ner
▁neg ative
▁199 2
kn ow
dé jeuner
▁c um
hum an
▁voy ager
▁hand le
▁dire ctions
▁conc rete
201 1
▁stor es
▁b ach
▁loc k
▁ent endu
▁dét ru
▁5 7
▁moder nes
▁audi ence
▁cell s
allem agne
▁establish ment
▁cor ner
▁calend ar
▁un ités
▁victor ia
▁effect ué
▁p ush
▁pl aza
▁cr ist
▁colomb ie
▁facil ity
▁merc redi
▁du blin
▁h ung
▁équipe ment
▁mobil ité
p res
ti quer
o ch
▁mi ami
c at
f ond
▁merve ille
▁amen ities
▁spéci alement
in ity
▁pass agers
▁program ming
▁div ul
▁ent rer
▁turqu ie
▁or bit
▁he aring
▁fond ée
▁toile tte
▁propriéta ires
▁regist ry
▁gouver n
v as
▁auxil iaires
li a
t ar
▁w inn
▁in com
▁de ploy
▁0 9
▁rec over
▁con duc
▁c zech
▁l arger
▁cri mes
▁conséqu ences
▁bar bec
m us
▁1 10
▁repro duction
▁aff ord
p y
▁did n
▁go ût
▁num ériques
▁b id
ili ation
▁d un
▁d augh
▁: :
appro visionnement
▁m it
▁excell ence
▁h op
▁at ten
▁tra il
▁l ots
c ard
▁t onnes
▁ex térieure
▁ne ck
▁dies el
▁deme ure
▁pro hib
▁nu clear
▁exact ly
ul f
p ol
▁col ours
▁lib ert
as a
▁inv ités
▁autoris é
▁uk raine
▁mat ters
▁zur ich
▁help ing
▁str as
b ay
▁pre t
▁maî tre
▁our s
os se
or al
s d
▁wednes day
▁lit tér
▁env ie
▁appe al
▁t ier
▁histor iques
▁nu its
at aires
▁p iz
▁count y
▁qual ifi
▁oper ate
▁near ly
▁conf lit
un ciation
▁ser t
▁j ord
ume ur
▁sc ope
▁wood en
▁avant age
▁mar ina
▁p ink
▁fre qu
i ation
▁princi ple
▁br ings
▁perfect ly
d ent
▁anal og
▁out put
▁ac id
arm ée
▁organis é
opp os
▁inten se
▁éch é
hés ion
▁cam b
éch ange
▁retra ite
▁c av
is ra
▁mention ed
▁intellig ence
un ction
▁esp agnol
▁analy tics
▁p iano
▁fig ures
▁n ights
▁cut ting
▁corre ction
▁particul ière
▁eng land
▁péri ph
▁produ cteurs
▁so fa
éri r
abs ence
▁7 00
in tention
▁e gg
▁cat alog
▁govern ance
▁baign oire
▁excell ente
▁compens ation
▁pouv ait
▁appli es
▁inc roy
▁blo c
▁dé ten
▁optim ale
▁conf ront
▁rev ue
identi té
▁t in
▁h uit
▁idé ale
▁su gar
▁for get
ét ais
▁professe ur
▁c ott
▁b ible
▁fle ur
▁dan iel
▁constit uent
▁previous ly
▁stras bourg
▁sugges tions
ar di
ab y
▁t ues
▁ro be
▁cloth ing
▁ju ge
▁japan ese
▁célé b
▁aut oc
▁def ence
▁prob able
▁h iv
▁d il
▁app ren
i ro
▁déf i
▁was h
n at
esp agne
▁constit u
▁énergé tique
p ass
▁investig ation
▁communaut aire
▁ling uis
▁fundament al
▁ry th
cl és
▁w il
ple x
▁divers ity
▁c lo
▁control s
comm er
▁prov ence
▁opin ions
▁m t
▁appear s
▁é valuer
▁electric ity
ul te
▁caus er
m ann
▁mar di
▁con d
▁rem placement
▁jac ques
in de
▁l ift
onne ur
▁pharm aceu
▁fe at
▁batter ies
▁ext ended
▁command er
mo ins
▁all ant
▁pour tant
can ada
▁comp ly
v ia
▁feed back
▁t ank
▁st ories
▁éch antill
ir y
▁hor se
▁design s
▁transm it
u ves
▁an th
in cluding
wor ld
▁suffis amment
ill é
▁consid éré
▁function al
m at
▁web cam
▁sol ide
▁join ed
▁poll ution
ol as
▁p istes
▁lance ment
ograph ic
▁lanc er
▁bi ais
ch o
us age
▁retr ouver
c ars
▁return ed
▁utilis ent
▁app ointed
le c
▁ch ir
▁r al
▁particul iers
▁contain ed
▁en qu
▁log in
▁pric eline
▁pain ting
▁disc ount
▁l ig
▁prin ting
▁esp añ
▁répar ation
▁maxim ale
g est
▁sé min
ér ance
▁ch f
▁s ph
▁ad obe
▁intellect ual
▁del uxe
▁affich ez
▁étrang ères
▁l unch
▁l ights
▁c out
▁réper tor
aim e
▁entit led
▁tex tes
▁graph ique
▁let tres
▁k b
ma x
▁ad équ
201 0
▁fem in
▁0 6
▁ev olution
▁gast ronom
▁con go
▁stake holders
▁sout en
▁observ ations
f p
t ur
▁médec ine
▁b erg
▁atlan tic
▁pre gn
n ées
cess ion
▁ear lier
t al
▁id ée
▁en ables
b ase
▁compréh ension
▁mach inery
▁char ming
▁sub scrib
▁pleas ure
▁aim s
▁shang hai
▁a cts
▁philos oph
▁dé r
▁em ploi
▁lat in
▁augment ation
ak a
▁equ ivalent
▁can nes
ter y
▁snap shot
▁hostel s
▁ath le
▁aust ria
▁0 2
ce aux
in ts
▁améric aine
▁re ception
▁conten ir
▁adm iss
▁re placement
▁mot o
▁g our
dor f
▁trans it
▁rev end
▁carb one
▁implement ed
▁expl os
ment al
f all
▁review ed
▁gard ens
ou pe
▁sa una
▁dec ide
▁cry st
▁top ics
▁s v
ann es
al and
ti les
▁main tien
▁tend ances
▁défin ir
▁ré comp
▁st oc
▁so f
▁famili ale
▁sens ibil
at aire
z one
▁tues day
▁assure z
▁19 80
rich e
os a
av ier
at ric
▁fil ters
▁consult ations
on te
j u
▁significant ly
▁dét ente
▁sas k
▁all ons
▁18 0
▁sp ati
▁d al
▁rempl ir
▁viv ant
▁immobil ier
▁réfrig érateur
▁buy ing
▁invest ments
▁lun ettes
▁compon ent
▁cli p
f ile
▁charact ers
▁v ary
▁insp ired
▁pu issent
r ale
▁m all
▁rés id
▁subst anti
▁manit oba
▁e lection
▁uti li
v an
▁personn elle
▁w ants
▁o ak
▁calend rier
▁cham ber
▁territ oires
▁multi p
▁fail ure
▁c v
▁toul ouse
oun ted
▁for d
ra p
ici ans
mo i
▁oppos ition
▁automob ile
mark et
▁li é
ut ch
▁f as
▁d uty
▁mat ern
▁wall s
▁concep ts
▁st rict
▁contrô ler
c ap
te au
▁ab us
▁man aging
▁j ol
▁fréqu ence
▁pow der
ou c
▁g if
▁glob ale
▁consum ers
▁happ ens
▁exist ence
héber gement
▁préc ise
▁accomp an
▁tour istiques
▁s ad
▁man ches
▁applic ables
i ées
▁dest roy
▁b c
ut ers
▁lég islation
▁n ig
n u
▁res id
▁em issions
▁0 7
▁propos al
▁cy ber
m age
▁inté rêt
▁identif ier
▁sa it
ra d
aiss elle
▁ét ablir
gh an
▁inc onn
▁analys es
▁emb all
▁repres ents
▁read er
▁find ing
▁réf lex
▁colle ctiv
▁associ é
▁av oc
eng agement
or ique
▁ving t
▁jou e
ac te
▁char me
▁bio divers
▁pass ed
▁see k
p od
▁ke pt
2 000
▁ré clam
▁recogn ition
▁pl ats
▁pol and
ord er
▁acc um
▁def ault
▁q c
▁stru gg
▁occ ident
en quête
▁commun es
ro b
▁sc én
ég al
▁conclus ions
▁explo itation
▁egy pt
▁the atre
▁effic aces
▁che val
▁re ar
▁ingré dients
▁prin temps
▁utilis ons
m ade
▁incor re
▁s ag
▁chim iques
▁consol id
▁n ine
▁rec onst
▁circon stances
▁electric al
▁x v
▁v ine
▁annivers aire
pe au
▁d iction
▁m ér
▁fin alement
▁donn ée
... +
ô les
▁pron unciation
▁pos tes
▁5 9
ter ed
▁appre ci
▁y am
▁reven ue
off rir
bi ance
ro ir
▁members hip
▁cr ème
pr un
▁cri tique
ib aba
▁r s
▁g ym
▁pl ong
▁gu y
▁surf aces
▁accep tez
▁consist ent
ne ur
▁in put
ã o
con dition
▁5 4
▁mo tifs
place ments
▁aler te
▁difficult és
▁en for
▁ha iti
▁sign s
200 9
▁br ut
▁imm un
ak i
▁particip ant
as i
▁stra ight
▁dep th
ch ed
▁st ages
▁v ite
▁no ire
▁sell er
▁guarante ed
▁entre tien
▁ferm er
z o
évé nement
ex e
▁wid th
g ary
▁tr ends
▁not ing
ex tra
▁paie ments
▁exp ensive
▁barbec ue
▁typ ical
▁bot tle
lam m
▁em phas
▁dise ases
▁men er
▁accueill ir
▁dest ruction
▁ac tif
▁quan tit
▁introdu ced
lé ch
▁sens or
▁héber gements
▁pers pectives
ky o
▁calcul ated
▁199 3
▁fel t
▁vic t
▁ab stra
▁équip é
▁dirige ants
▁t ire
▁rencont rer
▁rac ing
▁éto ile
▁sol aire
▁res idential
▁care fully
▁c ôt
aiss ent
▁par cs
▁gouvern ance
▁al berta
▁ess ais
é tiques
isp ens
d ge
▁subs tit
▁exac tement
▁évalu ations
▁g rie
▁wat ers
▁qu art
▁fin ancing
u f
ex port
c onne
▁déc ide
activ ités
exist ence
▁p ent
che veux
▁ét ro
▁br û
▁ate lier
▁réc ol
ag ir
it ent
▁tempor ary
▁vul ner
ll a
hol m
▁oper ator
▁mic row
▁anti cip
▁access ibles
▁ache tez
ctif s
▁du al
ate ver
un s
▁exem ples
▁complex es
▁autoris és
anci en
li ed
200 8
▁regular ly
▁inter active
in fr
▁lam pe
▁comp ress
oo p
▁mont agnes
▁par ks
ag as
▁we ap
ak ers
▁prés ents
▁offic ers
▁k et
▁j azz
onn ance
▁qu in
ra ges
u aire
archite cture
▁exam ples
▁v ien
ari um
▁met ro
▁large ment
r ise
én agement
▁ch ien
▁univers ité
▁require ment
▁ha z
▁sor tir
▁monu ments
élect ricité
im pos
est ation
▁infrast ructures
▁5 1
zz i
▁disc ours
▁cons erver
al ys
bn b
▁syn dic
▁l or
▁agric oles
▁programm ation
▁j ér
▁tra fic
▁protoc ole
je ction
▁nature ls
▁ab road
fol io
▁sp lit
▁sc r
▁cro wn
▁un esco
▁hyp oth
▁culture l
▁rais ed
▁ét abl
▁t ient
▁f c
▁disc re
▁serve urs
▁travaill é
▁fib re
e ments
▁j um
▁direc tives
▁h ang
▁liqu ide
▁tra dem
▁por tion
▁fl am
▁bou tiques
it arian
é re
▁sh ad
▁new est
▁fra g
oc co
▁ag oda
▁focus ed
▁pri ze
▁ch asse
▁ret ard
▁tot alement
▁e lev
▁californ ia
▁prév ue
év iter
▁plan ète
▁app art
ue z
▁s ie
pe z
▁som m
▁canap é
▁re ten
▁déb at
▁ba ie
ouv re
▁ind ispens
▁r asse
▁teach ers
m is
a illes
▁palest in
is ted
u ps
o a
▁chal et
▁n y
▁contain ing
▁mo ved
▁différ ente
pe u
▁leg isl
i us
▁mus ées
cep tions
▁dî ner
▁display ed
▁me at
▁reconn u
▁p ak
▁re jet
▁un ité
▁buff et
% ,
▁r af
entre prises
▁on going
▁contro lled
▁7 2
ur re
▁beh avi
▁0 8
▁f roid
▁nom mé
éc u
oure ux
▁5 6
f ait
ad el
▁conséqu ence
▁play a
▁prior ité
▁l ounge
▁declar ation
▁wh atever
iné a
▁feel ing
▁wr ong
▁b ient
▁lic ences
▁columb ia
▁v ect
▁house hold
▁minib ar
▁tch èque
ici ens
▁limit ée
c ad
ô ts
b ut
▁tra ditions
▁th éra
r ates
▁télécomm ande
▁intérie ure
▁n an
h ar
▁ré ve
▁coord onnées
t op
▁s able
▁clin ical
h s
▁la dy
▁nat ur
▁as ie
out s
onn és
ir us
▁situ és
▁man agers
▁dé lais
▁fa ctor
▁re ducing
▁air bnb
ais ons
ér ons
▁s ed
▁labor atory
▁li ability
▁o ise
▁hot wire
é th
▁jurid iques
▁ouver ture
ol s
▁t ang
hés itez
▁vul n
▁c b
▁é lections
▁fr ères
▁tr uly
▁5 3
▁surround ing
▁h an
▁coff re
▁ île
▁bul le
our t
▁plate au
▁chic ago
▁cal gary
▁as h
ir l
▁democra tic
▁in habit
▁clim atiques
aisse z
▁parti s
▁more over
▁ja une
gra d
ê tement
▁all erg
▁ →
▁poursu ivre
▁â ge
▁mét ro
▁co vers
▁bient ôt
ette z
▁communi qué
s uit
▁fe uille
▁chiff res
▁sun set
▁down town
▁collectiv ités
je ux
ie ment
▁horiz ont
▁interven tions
▁pass ant
▁fac ult
▁k ra
▁5 8
▁k am
▁mons ieur
▁record ed
▁s igne
▁expos ure
it ude
h al
▁f ell
▁h us
▁pleine ment
▁for tement
▁reser ved
▁m oul
it o
igh ted
▁bm w
▁tâ che
▁essay ez
▁inv o
is ms
▁optim al
▁he ct
▁instru ction
▁st ade
▁exp ansion
▁microw ave
g am
▁coû te
▁syn chron
ic an
e y
▁pass engers
▁mo teurs
▁kore a
▁côt és
▁offici elle
▁gra de
▁du ties
s ite
▁moz illa
▁gran ted
en ous
. :
▁v oud
▁achie ved
▁rel atifs
▁diagnos tic
ex ception
▁pos e
▁del ay
▁h at
▁form ula
▁ac know
▁k id
ch ent
▁look s
▁rel ief
ét ation
ur age
▁mex ique
▁agric ole
▁ha ï
▁clin ique
n on
▁déb it
▁propos itions
▁v iennent
▁pol ogne
▁r im
▁qual if
▁super be
▁elig ible
▁me ets
en cia
▁abs olu
▁to b
▁réper toire
▁o cé
▁gra ve
▁j on
▁chir urg
▁inform er
ch em
▁vis ited
▁fran ch
▁estim ated
▁bo ost
re f
▁mid i
▁ann uelle
▁y ach
▁impro vement
b ation
▁tir er
▁cru cial
a jour
▁la ur
▁be coming
▁in tit
▁assist ant
in ks
▁car l
▁sac rif
▁9 00
▁annivers ary
▁enter ing
▁particip é
infr ast
▁w et
▁vis itez
m aster
▁state ments
▁pu zz
isra ël
▁remar qu
▁ha usse
▁ach et
▁ch ant
▁rembour sement
▁wed ding
▁conver tir
▁restaur ation
ex pression
▁o ven
▁commission er
a illeurs
---- ----
▁de uts
▁feu illes
▁swed en
▁au d
▁shar p
▁off rons
▁port folio
▁roman tic
▁en quête
▁conse iller
▁199 1
▁per haps
ut en
▁ou est
▁char gé
▁refriger ator
▁donn ant
l its
▁convers ation
▁dés ire
m ans
▁reti rer
▁le aving
▁favoris er
ajour nement
▁effective ly
enti el
▁b ingo
▁españ ol
▁cor ruption
▁médic ament
▁lod ge
▁in tention
in és
▁dele te
▁pla que
▁14 0
c ase
▁candid ats
▁ren ov
▁stre ets
▁a rom
▁par l
▁star ts
▁responsabil ités
friend ly
▁con gress
▁supp os
▁re vis
w as
ar ts
m ain
▁custom s
▁es time
▁déc enn
▁char ger
▁car ib
▁le aves
▁deb t
▁inv ited
▁incl uant
▁aur ont
av ar
app ui
▁appear ance
p are
▁strength en
▁accue ille
▁augment e
▁form al
▁téléch arg
▁ju an
iss ante
▁so il
▁w ife
▁visit ing
di ble
▁seul s
▁ade qu
▁enter ed
qu ette
▁wait ing
▁lim iter
▁améric ains
▁o live
id o
▁se eds
▁lin ux
▁st o
▁lic ens
▁lead s
éta ire
▁se g
▁appuy ez
▁pat ent
▁sc ene
▁cop ies
▁phili pp
▁pe ur
▁w c
▁th inking
▁port ail
▁intellig ent
▁per fection
▁insc rivez
▁ban ques
▁jard ins
▁un i
▁n ich
▁hold ing
▁sh ell
wh at
▁heav en
▁re charge
▁cli quer
▁19 70
ari tion
end e
▁h ay
▁fur ent
▁ense ign
▁f old
▁happ en
▁fac ing
is ure
▁syst ématique
▁représent ation
▁pré voit
▁mouve ments
p ur
▁nécess ite
▁bra in
▁st ret
▁r ur
▁singap ore
c ée
▁special ized
▁ro of
▁al ibaba
▁r aff
▁perm ission
▁d s
▁compar aison
▁offer ts
▁cin ema
▁12 5
▁cook ing
h ome
r ans
anne xe
o ct
▁ad min
▁v ip
t g
▁h ur
▁le x
▁l ith
▁stra p
▁orbit z
▁no va
enf ants
▁po ver
▁mark ed
▁mal heure
n ight
▁tr uck
▁privil ég
▁r ank
adap t
▁p vc
▁se ed
▁co ins
▁th èmes
▁mod alités
▁mul til
▁fédér ale
▁facilit ate
▁neigh bor
▁al arm
▁a head
▁conf érences
▁b ann
▁remain ing
▁mon aco
▁poursu iv
ad m
▁déc ès
▁traite ments
▁des kt
h us
▁habit at
▁express ed
e f
▁tw in
▁bi j
anc a
▁frequ ency
▁compét ence
▁ren v
ant ages
▁char l
is o
em bl
▁direc te
▁rece iving
▁brace let
▁con dam
un ately
▁senti ment
▁n au
ast ing
▁mo on
d ou
▁ré ussi
▁pour cent
▁compos ed
▁préal able
hum idité
▁ref und
▁feat uring
▁intellect uelle
▁acquis ition
at tention
▁comm en
▁incre ases
▁0 5
1 20
▁profonde ur
▁div ine
▁prof ond
▁plann ed
▁employ é
▁cas inos
ac comp
▁x x
tit udes
▁pens er
▁ins cription
▁in tim
co pe
. »
▁turn ed
▁attem pt
▁prin ted
▁pack ages
▁fa cts
▁car di
▁austral ie
▁par all
▁représent ent
▁ne ither
▁mar ra
▁cons om
▁comb us
▁m ast
▁habit uellement
s el
▁tox ic
hy d
▁spéci aux
quis ition
▁pl af
▁indo or
▁pover ty
▁further more
r est
▁ar mes
inter pr
d at
▁for g
▁car bur
▁rén ov
▁pacif ic
▁c ité
▁0 4
▁st abil
▁st ability
▁m onna
▁as pire
▁x box
▁sen ate
▁poly ester
▁p oudre
▁sec rets
▁fr ère
t ariat
▁europé ennes
▁my th
▁mor occo
▁low est
▁k u
▁sur prise
▁s ir
ti ci
▁meub les
bu ild
che z
▁au quel
▁ful f
om et
▁m d
▁ob vious
1 000
organ isme
▁v ais
tel l
s ol
▁6 9
▁porte fe
ti ms
▁d ancing
ing én
▁s ms
▁en seigne
▁la yer
o ted
▁adop té
▁trop ical
▁rou le
▁priv és
és ie
ez e
m t
▁p ir
en os
▁am our
éra teurs
▁bo issons
▁destin és
an moins
▁si zes
▁con forme
▁pos er
▁concl u
▁exam ine
▁conn ue
▁bag s
m g
▁u v
▁cover age
▁ad oles
ro te
▁s ight
▁3 50
▁répertor iés
▁humid ity
▁st abilité
▁br ush
▁kitchen ette
▁abs ence
▁6 6
▁sex y
▁lim its
▁inf ra
▁0 3
d ers
▁en em
▁kind s
▁bou ill
▁anci enne
is ons
▁disc uter
▁p iste
▁h es
▁prior ités
▁photograph y
ag ées
▁res pe
▁c lock
▁fourn ies
▁cou ch
▁club s
▁brow se
ap est
▁di alog
▁contr ats
le ver
▁appoint ment
c tez
▁ha ird
▁vari able
▁né anmoins
▁four th
▁ferm et
▁dru gs
▁la pt
▁in qui
▁cat al
▁x l
▁imag ine
▁vic tims
▁renfor cement
▁pow ers
2 50
▁cons ole
▁éner gie
▁option al
▁isra ël
▁confirm ed
ced es
▁ca pe
▁mechan ical
▁ro d
▁lég umes
▁le isure
▁speak er
▁farm ers
▁her o
▁e ld
g ies
▁fin ished
p ier
▁de ck
▁att entes
▁se p
▁k al
cl aim
g re
▁surround ed
▁presc rib
▁sac s
di um
▁stock holm
▁t c
▁av ions
ren ch
▁trim estre
▁dess in
▁min ing
▁bo b
▁m urs
▁dem ain
own ed
ex pé
▁ref roid
" )
▁ph énom
▁dess us
▁re venir
▁pres ents
▁oeuv res
▁pré venir
▁g on
▁fre quently
▁ev ol
su pp
▁dire cts
▁th y
▁table t
▁f iction
▁diam ètre
ie ties
▁v at
▁keep ing
ra c
▁cor n
▁dev ait
g ance
20 20
ager ie
▁th aï
▁mon ter
▁acc él
f ts
▁th or
st ation
ier a
▁fix e
▁toile ttes
▁no k
▁rés ol
▁ser aient
rop olit
ot es
▁wik ip
▁pne um
t p
▁peu ples
▁c ig
▁ <
▁top ic
▁guid ance
▁ele ctions
▁purs uant
s aint
▁pense z
▁immedi ate
▁charge ment
▁hyb rid
▁rê ve
z hou
▁b rid
ing ton
h and
▁consider ation
▁condu it
▁rais e
▁sens itive
▁res pir
ec d
▁c ens
▁am pl
▁é duc
▁liter ature
▁pal ma
▁dé rou
▁élev és
▁l ifest
▁dé ploy
▁less ons
▁faç ons
▁artis tic
▁tom be
▁mov ies
co ol
am s
▁terr oris
▁essay er
▁vi h
▁tour istique
▁lég er
atri ème
▁te ch
▁fil tres
▁f aster
▁dé vo
▁rem erc
w er
▁ré pon
▁exper iment
te in
▁th ir
▁studi os
▁bl ow
initi ative
▁ord in
▁l oy
▁camp us
▁b ac
▁tra ce
▁personnalis é
▁di ed
▁coup les
as er
inst ruction
▁conf lits
▁lu c
▁sil ence
▁therm al
▁dispos ent
▁sh irt
identif ication
w ar
▁pre dic
▁out standing
▁l iti
▁6 8
▁16 0
inter médiaire
as tic
m ad
▁neigh bour
▁hoc key
▁see king
▁olymp ic
▁rub ber
▁bud apest
▁évent ail
iz a
▁gu ard
▁obstac les
▁e book
b io
lé m
▁affich e
▁place ment
▁norm alement
▁cro w
▁lu ck
▁ ig
▁pro of
▁tur k
▁def end
is ic
▁pu issant
▁prest ation
▁m ouse
▁leg itim
▁sauve gard
▁al leg
▁serv ers
▁un iques
▁st ric
▁cop enh
▁auxqu els
or row
ac le
▁h idden
▁emplo is
▁mig rants
▁camps ite
o ie
▁donn ent
st ock
ar tiste
ai o
▁r ib
im es
autor isation
▁no vel
é dez
▁class ification
▁fin i
▁oblig atoire
eu ros
as ie
▁tax e
word s
▁infe ctions
▁1 30
▁pauv reté
▁ orth
▁gener ic
▁after no
m idi
▁réalis és
▁b ond
▁po isson
▁edit or
▁organis me
et a
▁maintain ed
▁jou é
▁help ed
▁r usse
ac cep
st ream
▁y ah
▁intégr ée
▁act es
▁ont o
▁glo be
▁g ets
▁o re
r us
m atic
▁sh ares
▁exp enses
▁ass et
▁academ ic
voit urage
▁add ing
▁banc aire
ar rêt
▁po issons
▁summ it
▁t au
▁sign é
▁rest ore
▁exem pl
m ique
▁comm od
end o
dom in
▁old er
ier t
▁p ig
▁cou che
▁mar gin
▁gener ated
▁exter nes
▁exter ne
▁chau de
end ence
▁res idents
▁relations hips
▁c ér
▁conj oin
▁system atic
▁dot é
▁t ellement
▁co voiturage
▁alco hol
▁serv ing
▁cour age
▁ref lè
▁b oss
ab eth
g ers
▁priv ile
s ch
▁se gment
▁pos ts
▁jun ior
ach es
s en
p as
la w
▁prec ision
▁connect é
▁différ ent
fran ç
le urs
▁propos és
▁pret ty
▁tom orrow
▁tex as
▁lib res
▁ta illes
ri me
▁nor v
op hy
ol é
▁cor ée
▁load ing
gra ph
▁ve ille
▁profess or
ob lig
▁mys elf
▁éché ant
▁mus cle
▁indic ate
▁pouvoir s
▁ge org
k h
▁continu ous
▁8 8
▁mo tel
▁artis tique
▁ven ice
▁supp ression
▁qu atrième
▁mo tif
▁me al
o h
a ust
▁to kyo
▁imp rimer
▁il leg
▁deskt op
▁littér ature
f x
▁n ick
ut és
▁museum s
▁délé gu
▁mar g
▁is bn
▁g ains
on i
▁cré ée
land ais
▁for êts
x y
d ata
▁9 6
▁reser ves
▁constant ly
▁vend eur
ab e
▁worksh ops
▁cryst al
ran e
▁su ède
▁cour rier
▁médec ins
al ty
aj outer
▁remo val
▁refuge es
▁appli quer
▁fed eration
▁conç us
▁pol ar
▁or ig
▁stand s
▁compé tition
▁b icy
ier ie
▁ac ous
▁ch an
gra m
▁ar bres
▁ser b
▁9 4
▁retr ouvez
▁k l
▁cro ix
▁depart ments
ex em
▁vis its
▁arm ed
▁féd ération
ég alité
ch ang
oc é
▁b ish
mo b
▁vérif iez
expé dition
▁tre ated
▁r w
▁great est
▁n ative
igne z
▁return s
▁mont age
▁disco very
▁g î
▁photograph ie
▁le ague
▁daugh ter
ed y
▁tu y
▁mer cedes
▁r ues
▁flo ors
▁w ave
ke ep
▁h oney
h c
h op
▁s ending
▁dé v
▁sil ic
▁so vi
▁territ ories
loo king
▁remo ved
▁c ree
▁process ed
▁deb ate
▁cal ib
▁ate liers
▁m ille
▁conne ctions
▁suc re
f ig
▁invest ors
▁indig enous
▁haut s
▁prior ities
▁conse quences
▁ret ain
▁measure ment
▁vuln éra
▁ol iv
▁h ills
▁ch ances
▁cele br
▁diam eter
▁d iz
▁médic aux
▁dou x
▁bul gar
▁afterno on
▁gra ves
▁jew el
ém atiques
▁ultim ate
▁month ly
▁enregist ré
▁consult ing
s cript
▁mécan isme
▁d ign
te en
▁vic toire
▁subse quently
▁ste am
▁n it
él im
▁oper ators
h arm
▁ce o
▁role play
▁lis bon
p ers
▁municip ality
▁accompan ied
▁h tml
▁publish ing
▁we alth
▁award ed
▁rés identi
▁poss ession
arch ive
▁am us
▁symp ath
▁v eter
ys tem
on u
▁hand ling
▁and re
onne ments
▁quotidi enne
▁organis er
it ate
▁sé ance
▁ple ased
u ine
ré g
▁m outh
▁infe ction
▁dire cted
▁fron tières
▁autre ment
p ub
in v
▁suscep tibles
▁bird s
ro t
▁pom pe
▁télé phon
bur gh
or ti
ill y
▁tw enty
▁h r
▁tes ted
tif ication
▁do is
▁voil à
▁pour riez
▁b in
▁tri ple
▁reç oit
f rom
▁song s
▁cri tiques
▁cer em
au jourd
▁ré mun
▁parf um
▁k r
qu in
▁trou ble
▁pe ak
á n
h os
▁car ton
▁sav ings
▁bron ze
▁serv es
▁par oles
▁w ines
por ter
▁panne aux
▁chiff re
▁motor cy
équ ilib
▁sh ips
▁mauv aise
▁détaill ée
▁tr ous
▁7 8
▁travaill ent
▁ven ue
ar rière
▁ur l
▁man if
▁address es
▁cre ates
▁hol der
▁é mo
▁sou mettre
▁boute ille
▁app els
u an
▁b aisse
▁rencont res
▁on g
ac er
▁vo ies
▁compren ant
ét udi
▁la isse
▁back up
▁champ agne
▁am ounts
▁efficace ment
▁inc ident
clus ion
▁termin é
▁furn ished
▁réc ente
▁intern es
imp ôt
de v
at ar
▁success fully
▁attack s
per haps
▁big gest
▁op ens
▁toy ota
▁cér ém
or ges
▁sé jours
▁offici als
▁sens ible
▁mécan ique
ry er
▁ind ices
um a
▁6 7
▁inspir ation
▁dec oration
▁dé plo
▁sign es
o tic
▁monu ment
▁w ard
▁al ger
ik a
▁6 3
u zzi
▁peop les
ét ablir
ital ie
▁af ghan
▁al t
wor king
▁conç ue
and re
▁r ug
par avant
▁met tant
è ques
▁réalis ée
▁recogn ize
▁rand onnée
▁ph r
ind ing
▁sympt oms
▁is tan
▁présent ée
▁promot ing
▁minist ers
▁innov ations
▁dou leur
▁z oo
▁to ward
▁leg end
édi a
▁t ip
éro ï
▁ryth me
▁g ent
▁c ogn
om ét
▁fermet ure
te c
▁spe ech
▁up load
che ck
▁li ée
▁istan bul
▁fra î
em ed
▁no ise
▁au teurs
affich age
▁sc re
▁hô te
▁key board
al er
ograph iques
▁vi ande
ér al
ve y
an ément
▁liv ré
▁obser ved
n om
▁imp orte
▁bu enos
▁associ ées
▁véri fi
▁r f
200 7
▁represent ed
u pe
▁sc and
▁am p
ici an
el and
▁priv ées
▁can cell
ast roph
ar me
▁ox y
▁is n
un k
ro be
▁dev ra
ic ent
▁slo v
▁sympt ômes
▁rec re
▁mor ceau
▁divers e
▁teach er
ibil ities
▁altern atives
▁al ign
▁in aug
▁j ump
▁ec os
▁diam ond
b ury
appro che
▁res orts
▁pharm ac
▁ro les
p an
ou le
▁demand ez
▁sy ria
▁investisse urs
ad option
t one
▁li ver
▁br ass
▁7 4
▁sp ray
▁k os
▁accord s
ou bl
í a
▁rich ard
▁cre w
▁récup ération
▁cla use
▁ken ya
▁spl end
▁b n
▁r ack
▁per ce
▁lang age
m aking
▁health care
▁97 80
ex iste
l on
▁w ww
▁p ocket
▁récup érer
▁minist res
▁p ione
p in
▁19 60
▁tv a
▁remplac er
▁nouve aut
ven tions
ac cept
▁médic ale
▁pren nent
▁d ust
m art
▁ban king
▁c ible
ch ées
▁inclus ive
▁bulle tin
mont rer
▁tr ump
▁small er
▁k el
▁chale ure
inter vention
▁spr ings
▁gr as
▁vol umes
▁un fort
be ing
▁to it
ap ed
▁indépend ante
o ù
▁men ace
▁entire ly
▁danger ous
▁9 8
▁tempor aire
▁lim itation
▁lifest yle
▁spectac le
▁mécan ismes
▁thre ats
▁in qu
) (
▁9 2
▁spécial istes
▁ma z
▁sh el
r era
▁t rom
▁p od
▁man chester
▁adv antages
f urt
▁dépos é
▁rob ust
▁l ens
▁k ill
▁économ ie
▁human itarian
h ere
entraî nement
▁z en
ac quisition
w ing
▁slight ly
▁scol aire
f rench
▁négoci ations
▁fonctionn alité
▁propos als
▁purch ased
▁proc éder
▁pourcent age
▁ab original
▁ver ify
▁garan tit
▁kn ows
ach eter
▁dés ign
d ale
▁pou ces
▁rece ip
▁v aio
▁love ly
▁tri ed
▁p ets
▁phys iques
▁dis k
▁correspond ant
▁adop tion
▁p éch
▁design ated
f ra
▁treat y
▁thous and
▁en gra
▁contra cts
▁pub lier
▁insc rit
v ue
▁mass ive
▁increasing ly
▁augment é
ch t
▁loc alisation
▁la kes
▁bos ch
▁industri els
▁cloth es
▁ep isode
▁em prun
▁e g
▁malheure usement
ail s
▁foll ows
▁rece ttes
▁prév ues
▁mechan ism
▁miss ing
▁p end
▁m â
▁écl air
▁host ing
▁val ve
▁adv oc
▁super vis
▁jud ge
▁sol di
▁m old
▁flex ibility
▁k ur
al ie
▁jo ie
▁recueill ir
ur ée
▁en jeux
ual ité
▁( +
▁travell ing
▁to l
▁happ ened
▁brit annique
op tim
gr at
▁transform er
▁respons ibilities
▁f illed
m ic
▁my st
▁continu ing
ke ch
▁s ond
▁g y
▁sén at
▁s ides
▁ro che
▁fantas tic
▁crée z
st r
ail and
▁gra ce
▁détaill ées
▁draw ing
▁ac ry
▁sp ots
▁enfor cement
ac a
▁re j
▁expl or
▁g os
▁pour suit
▁adapt és
gen eral
▁bre ad
y on
térie ures
▁un c
lè ve
▁adap ted
▁es cal
▁de fe
▁ œ
ct es
▁subs idi
▁commiss aire
▁sauve garde
▁jac ob
▁bou che
▁ar ms
olog ies
▁conn us
yl on
▁f us
▁ira q
c uss
▁for es
▁port al
bl ing
▁é vid
▁un f
▁ret ourner
▁differ ences
▁communic ate
▁conf idential
▁cath ed
▁dictionn aire
ad i
▁jo h
ê té
▁download ed
▁7 7
▁end omm
ish ing
ch air
▁de ar
le vel
▁food s
▁broch ures
▁bro thers
om o
▁pne us
unes co
▁acqu ire
lo ir
▁h ier
▁jord an
▁pers ist
▁couver t
écl airage
▁f um
ti ge
is ations
▁inter f
▁account ing
▁senti r
▁juris diction
▁ens ures
▁twe et
▁for th
ak h
▁prote in
éta ient
alis é
▁pr ud
▁gestion naire
ro se
▁dis hes
▁any where
▁ent end
▁cli ps
▁classe ment
▁198 9
inter est
▁gl ace
▁culture lle
b ell
▁sour is
▁sm ith
▁k new
▁hond a
▁trés or
▁fé lic
▁bén év
ü r
▁en ne
▁réuss ite
▁la g
▁fa x
▁cub a
▁compl aint
▁ver tical
▁satisf aire
▁la val
▁ent rées
▁reconn aître
▁arrange ments
▁sci entist
▁k ir
▁oper ated
re es
▁prot est
▁cru z
▁d ir
▁cont amin
▁an avar
▁sit ue
▁mul tic
im o
▁r ond
▁discover ed
▁car rier
▁secré tariat
▁condu ire
▁6 2
▁légère ment
▁applic ant
▁proceed ings
▁éch ange
▁s anti
n ik
▁qual ified
▁o vers
▁diffic iles
▁ég ard
▁lapt op
aby te
▁ép oque
▁appropri é
▁personnalis er
▁act uelles
ex c
▁pays ages
▁st un
▁cat astroph
v é
ri x
ly ing
▁k illed
ound s
▁comp ose
pier re
▁fasc in
uel a
▁sun rise
▁ch iens
▁port ra
océ an
▁let ters
▁économ ies
▁clos ely
ul le
on ction
▁head qu
▁or al
▁attrib u
▁diction ary
ann a
▁maje ure
t agne
d l
▁live d
▁prin cess
t w
lim ited
▁secret ariat
▁lim ité
int ro
id ente
▁sh ot
▁supp lies
f aire
▁én onc
▁pra y
▁mir ror
he ur
▁attem p
▁sén ateurs
▁gu er
op ération
1 10
▁v es
▁cal c
out ch
g ne
▁vie ille
ian a
▁t arg
▁ess ence
ost on
▁be at
t unes
i able
and es
▁conv ince
▁9 3
human ité
▁soul igné
▁appar aît
▁graph ic
▁dér oul
▁head s
erre ur
▁sp are
▁y uk
▁ ue
a ver
▁t um
▁subs cription
▁implement ing
▁n az
▁industri el
▁ze aland
▁jac uzzi
bil ity
a way
▁dev ises
ul ate
pp ers
f oot
infrast ructure
▁pi pe
▁form ations
▁8 9
br un
▁search es
▁men aces
m arch
' .
▁modif ied
▁f aud
▁c t
▁dou bt
m el
▁la mb
l ot
▁ch â
▁app orte
sh op
▁empê cher
▁e pson
▁renouve l
employ eur
▁pétro le
qu ets
▁relax ation
▁qu itter
▁pacif ique
▁m h
▁bl ind
ou red
et ary
▁portefe uille
▁l é
▁inv ité
▁ch ips
▁c p
u tif
at lan
▁lat ter
▁anony m
tr ont
▁s ier
▁raisonn able
c lo
▁sa ved
▁haird ryer
7 00
▁int u
▁fais ons
▁cos me
▁al ent
pl ays
h onneur
▁sustain ability
uc ks
▁nom in
▁panor am
▁aim ed
▁viol ations
o en
▁ver te
▁réserv és
▁every day
▁beg ins
tiv ité
▁platform s
▁chocol ate
▁produ ctivity
▁tal ents
▁se quence
▁navig ateurs
▁effectu ée
i ents
▁( "
ou ch
▁gig abyte
meub le
▁run s
▁démar rage
n c
▁présent ent
▁v ivent
▁recomm ande
▁hect ares
▁m ate
▁environnement ale
▁des ired
or ith
acc ent
▁r us
▁vien na
▁pro sec
▁industri elle
▁chang é
▁arri ved
▁inst agram
▁mand ate
▁delic ious
▁col ogne
p ower
▁char ged
▁s s
co de
▁g em
▁vari ations
▁reg ime
▁well ness
▁file d
▁bat aille
▁academ y
▁mé da
▁incl ut
▁bij oux
▁function ality
▁tra cking
▁de gré
▁n as
▁form ed
▁fly ing
é lis
it ely
▁ta i
▁super vision
▁v aut
▁effec tiveness
▁pe ar
▁v ienne
▁oise aux
▁n one
▁aliment ation
▁sc ar
▁as r
ra i
▁speak ing
▁maî tr
▁for ced
▁a ient
▁équ ival
▁z ip
▁simp lic
p cs
▁l ies
▁marra kech
▁dev oir
lo y
tis me
▁mix ed
▁li aison
ij ing
▁lo ire
▁dra gon
▁anton io
▁ste ph
▁ro ss
▁nok ia
▁silic one
▁grie v
▁period s
▁candid ates
▁fond é
▁but ter
if ic
▁éch anges
est y
▁vie ill
je an
▁wh oles
▁soci o
▁ours elves
▁behavi our
ell er
▁enregist re
▁cad res
ch et
ater al
▁promen ade
▁appel er
v ol
▁transpar ence
▁comp lement
▁carbur ant
▁produ ctivité
▁fron tière
▁forum s
▁sp ok
▁correspond ance
▁lo ved
pr int
b orn
al t
▁s ne
ric s
▁k i
ak ar
was her
▁dev rez
a qu
w ich
▁du bai
▁pré cip
▁may be
▁bern ard
▁attra ctive
ari ats
▁bru it
c ro
▁dédi é
▁th ailand
▁ind ones
▁c ater
▁origin ale
▁g ol
▁bring ing
▁incl ure
ru pt
it ée
ed ing
▁guit ar
w i
▁rou es
ou che
▁norm ally
▁p p
▁move ments
og en
▁sy l
augment ation
▁sup re
▁ha v
▁fac teur
▁discipl ine
ense ur
fl ow
▁effectu ées
▁japon ais
▁coal ition
iti mes
▁ca outch
▁démocra tique
pro du
▁gra in
▁b oston
▁améli ore
▁accur acy
▁( «
m edi
▁remb ours
▁contr ast
mar ily
▁s id
▁dep ends
▁réf érences
▁produ cers
al b
▁elect ro
land o
▁sim ulation
ré m
env oi
▁town s
▁pre v
▁fil t
▁pos ter
▁engage ments
h our
▁out look
▁adoles c
▁address ed
et t
▁proc ès
▁record ing
▁g lis
▁direct rice
▁cu isson
▁univers e
▁individ us
ff e
▁min es
▁déte ct
ay er
▁précis ément
▁pl ates
▁k at
▁favour ite
▁br ise
▁indispens able
▁sell ing
o z
▁f ox
▁indi quant
▁conn aissez
▁contrib u
__ __
▁sen ators
▁approach es
at rices
▁re ct
▁exp end
▁exam ination
▁aider ont
é rez
oun der
▁wat ches
▁tiss us
▁d orm
▁bi ologique
▁appropri ée
▁integr ity
▁pak istan
eng age
▁learn ed
▁design ers
inf lu
. /
▁percent age
agne tic
▁wid ely
▁auth enti
m ost
▁fen êtres
so le
▁sens ation
▁n est
▁def ine
▁concl ud
▁puis qu
▁inter actions
ul teurs
▁mo ist
▁préf érences
▁dro ps
▁accept able
▁n antes
▁ext end
▁considérable ment
▁most ly
▁résult ant
▁disc ounts
▁itinéra ires
▁h iver
▁bour se
ch au
▁tr ic
▁ré action
▁immig ration
▁high light
▁connex es
▁explain ed
▁indi quer
▁ag es
▁ag ri
▁rest ent
▁dep uty
▁f oss
uk et
exper ts
dit ation
commer ce
j s
▁concern ée
am éric
▁ouv re
▁airport s
▁4 50
be an
▁sal ari
▁in u
▁afford able
ch en
▁exclusive ment
▁ erg
▁ré vis
▁fi abilité
ing ham
▁t all
▁effic acité
▁éc rire
z ing
▁excurs ions
▁u ps
▁mal i
▁am én
▁aut riche
hô pital
▁l ip
▁cade aux
▁us ine
▁me als
▁mus c
▁st ad
▁sc ot
▁chois issant
u led
m d
▁special ist
▁distrib uted
▁technolog ical
▁él arg
▁g est
os is
aisse ur
▁valu able
▁l ug
▁y el
▁v ier
▁travel ers
tisse ur
op er
▁cathed ral
os yst
▁param eters
▁har vest
▁expos itions
▁pri ère
▁democra cy
▁couv rir
▁inform é
▁absolu ment
▁sélection né
▁inc ont
▁ca ve
▁download ing
▁discuss ed
▁cir cul
▁cathol ic
prés ident
▁yam aha
▁serv ant
op en
app liquer
▁k a
▁ma h
è lement
▁tradition nelle
us a
excell ence
▁the ory
▁len ovo
▁k im
▁ins pect
▁g ay
▁z ero
▁festiv als
op ter
▁tap is
▁fabri qué
▁ve iller
▁procéd é
▁professionn elles
▁stratég iques
▁r ico
▁o me
▁nor way
▁sk ip
o euv
▁typ ique
▁per tes
▁const ante
ic it
▁sol o
▁a par
▁n urs
▁de t
aw a
▁région ale
▁municip alité
▁in se
▁emp ire
▁déplac er
▁w rote
▁renov ated
▁alent ours
▁ten ant
ron ics
▁sy rie
aut h
▁warn ing
▁sch ol
▁att endre
▁par as
appli quent
▁suscep tible
▁arriv é
▁o sc
▁ach ats
▁as rock
▁therm ique
▁plain te
▁che ese
▁indépend ants
de p
▁ment ale
▁télé vise
▁communaut aires
▁essenti els
jac ulation
▁précéd ente
▁mosc ow
▁del ta
▁sam ples
▁ren ault
ors hip
▁gener ate
▁conven tions
▁emo tion
▁cap teur
▁transfer red
▁in ner
▁br anches
▁b urg
▁a ri
▁ven ise
▁v r
▁femin ine
is a
▁cath éd
▁frank furt
▁ast ronom
d v
▁conne ctez
▁char te
r ue
k ind
▁ret ourn
▁mar in
▁ré vision
outil s
acc ro
▁en ce
▁dep end
▁am ateurs
ib ly
▁au paravant
▁sau ver
▁fing ering
▁dish washer
▁car p
▁cal m
gu ard
▁text ure
▁represent ation
▁hos ts
▁cro ire
▁highl ights
▁desc end
in cl
▁ref use
▁lo bby
▁emerg ing
▁c éré
▁va pe
▁attach ed
▁refer ences
▁pri marily
▁particip ating
▁belg ian
u z
▁k az
▁inv itation
▁chans on
i ales
▁rob ot
▁pul l
▁perman ente
dis cipl
w all
im b
te x
▁absolute ly
▁réf léch
▁fra pp
om en
▁ph uket
▁caoutch ouc
export ation
▁v ern
▁maîtr ise
▁fais ait
▁univers ités
▁w ake
▁transm ettre
▁ar th
b rit
▁land sc
▁carry ing
▁inf os
▁die go
o ble
▁show ed
▁es cape
acc éder
▁alumin um
▁ap i
▁déc oul
▁advis ory
at che
▁ib is
▁proch aines
▁péri odes
▁unfort unately
▁rem ind
▁portra its
▁fal se
' '
▁pra yer
▁dog s
iz er
us er
▁stoc ks
▁ré pé
▁collabor ateurs
▁bas il
▁mechan isms
▁ital ien
▁philipp ines
▁peace ful
▁dig it
el d
ba ï
we ight
▁poli tics
d b
▁graph iques
▁bre ast
▁permit ted
ens er
st yle
ra teur
▁é th
▁interven ants
▁gree k
▁inves tissement
▁gr ille
▁ré al
▁univers ities
▁neu ro
▁ex it
▁act ors
▁lis bonne
▁déc ider
▁occ urr
▁bour ge
▁up grade
▁mont res
▁cott age
o on
▁ob sc
▁w lan
▁t ong
▁satisf ied
▁cr tc
▁accommod ations
▁b ak
h abil
▁rapp ro
▁ch rom
▁repair ing
annon ce
▁sp ending
▁recommend ation
▁fin land
▁pens ée
▁jou ets
wh ich
▁sé quence
▁en l
▁will ing
▁k er
▁hold s
▁différ ences
▁disclos ure
▁pos ez
▁voul ons
▁gr ass
▁dis ney
▁templ ate
▁at titude
▁rel atif
▁mus cles
▁démocra tie
▁partage z
▁rich es
▁nom ination
▁lanc ent
▁lég ales
oc ation
▁tub es
▁réflex ion
▁p interest
▁ex cel
▁negoti ations
▁ind emn
▁spécial isés
u per
ion n
▁ét ages
▁prop ag
▁per f
▁dispos al
b ach
▁re z
▁6 1
▁fa o
v aisselle
l és
com pl
▁re change
▁transpar ency
▁tri ps
▁approuv é
▁sier ra
▁jer usalem
▁r ôles
▁hos ted
▁sy ri
▁tra ités
vis ible
▁modif y
è dent
ari os
▁demand s
▁b b
ér ale
▁d utch
▁rem ark
▁dat ing
▁pl ays
▁é lo
▁comp uters
▁dec ades
or ce
ur ity
▁call ing
▁affich age
▁ca fe
g ate
▁sav ing
▁valid ation
▁magnif icent
el a
▁personn ages
▁couv re
▁mes urer
us ed
▁v io
▁exc iting
▁car pool
▁bal i
▁ground s
▁be ijing
king s
ti a
▁gam ing
200 6
▁parten ariats
▁l end
ac u
▁prefer ences
des ign
▁deuts ch
▁artis an
▁cho ices
▁reli ability
▁préoccup ations
éch antill
▁to ys
▁describ e
▁w are
▁l ind
os ing
es a
▁ordin ateurs
▁develo per
ta it
▁bro ken
▁opportun ités
▁mat ches
st on
t és
▁» )
▁partners hips
▁incorre ct
uis h
▁su pr
l av
e o
▁distrib utor
▁plac er
▁d ash
p ace
▁rév él
▁ha w
▁c éra
▁rédu ite
▁exam iner
y p
▁sit ting
▁bach el
▁announ ce
▁h ack
▁replace d
▁p airs
dat asheet
▁rem port
ap h
▁tra itées
▁custom ized
▁ev il
▁illeg al
▁garan tiss
e ction
▁the mes
room s
▁pré pare
es c
▁auber ges
▁ era
en ci
ativ ité
▁le on
es tim
▁indust rie
▁sav ons
▁présent ant
▁bou lev
▁gén érique
▁2 20
▁second aire
▁candid ate
▁accep té
▁p and
▁norm ale
▁essenti elles
ig ration
em b
▁architect ural
ai ro
▁all datasheet
▁santi ago
▁compar ative
▁h ilton
▁manufact ured
lig ence
▁weap ons
oppos ition
▁tempér atures
ifi é
fa its
▁aéroport s
ac ent
▁spécial isée
▁g un
▁dev rions
▁rég ler
▁ma ker
iv oire
▁im plant
▁ther apy
▁second aires
▁pan ama
▁exception nelle
▁198 5
▁nap les
▁cab ine
▁cer ve
▁a ce
▁tr usted
▁stret ch
▁conv iv
en er
ét end
adap ter
▁environ ments
▁relative ly
le ctive
▁ven u
▁ter ri
▁portug u
▁pres cription
▁regard less
▁enhance d
▁boy s
▁8 4
▁station nement
▁indire ct
▁o z
▁tot alité
▁syn d
▁m iti
▁l ion
▁télécomm un
▁contrib ue
▁app ris
▁déte ction
▁car n
c ie
cl ick
▁en tity
par ti
▁un able
▁impress ive
▁veget ables
▁bi om
▁p aire
▁cant on
▁marri age
▁entrepr eneur
▁dipl ôme
ic ide
▁table aux
▁second ary
ine ment
con c
▁sugges ted
▁reconn aiss
▁contain er
▁maintain ing
▁cré dits
▁rep ly
▁inférie ur
l ang
f re
▁can vas
▁ele cted
▁clin iques
▁dép ass
▁j i
rim és
us ine
▁élé gant
ign ent
▁j erse
▁in val
id as
▁celeb rate
▁confir mer
st one
▁mus ul
▁influ enc
in ent
d ays
▁inter action
▁sp in
lle ment
▁remain ed
▁san ct
▁n ave
c re
▁per ception
▁mo indre
▁lumine ux
▁parad ise
▁f aux
▁ ~
g ger
▁sc ores
▁deg rees
go vern
▁e b
▁du p
▁num éros
▁b onn
▁b au
▁éc rite
▁event ually
▁requ ête
▁adm ir
é tiqu
▁wish es
▁or lando
▁s éries
▁fight ing
insc rire
et es
li b
ign ons
▁mul tif
ou bli
▁ha utes
ang el
▁fréqu ents
▁sched uled
▁7 9
d oc
▁orient ation
▁ath ens
▁g enti
▁caract ères
▁198 8
▁cathéd rale
▁ _
atche wan
▁un limited
▁l ille
▁be er
▁rad iod
▁ré elle
▁aff aire
▁provin ci
w orth
ag ré
▁v pn
▁s che
▁ég lise
▁présent és
▁scrip t
▁cor riger
▁consid érée
▁pl ante
▁8 7
m és
▁suff ering
▁modif ié
▁compos ée
▁amend ments
▁spécial iste
▁inférie ure
ow e
en za
▁class iques
▁aim er
ve ill
▁retr ouve
▁recommand ation
▁brun swick
u ay
▁dam aged
▁dr inking
▁cour ants
▁artif ici
at on
▁radiod iff
▁p t
▁list ing
wind ows
▁cru ise
▁av enture
am ar
▁supre me
▁por no
▁autom atis
▁tal king
▁comp ort
▁ro ot
▁s ig
com me
ar de
al inéa
▁élev ées
▁receip t
▁treas ury
▁culture lles
▁str ing
▁enc oun
▁find ings
▁b iling
▁al bert
▁retrouv ées
▁lux ur
e a
adapt ation
st ate
▁cir cle
art ers
▁collè gues
▁y ield
▁view ed
▁nav ire
▁yuk on
ul ties
▁pat rick
int ure
▁protect ing
▁fantas y
▁réc entes
▁fib res
* ,
▁vol ks
anc er
▁pla ques
▁end s
▁list ening
” )
▁pan els
▁inform atiques
▁colle ctif
▁mus lim
▁minist ères
▁temper atures
▁chocol at
▁brows ing
w agen
▁div isé
▁band es
▁souhait ent
▁flo od
▁abstra ct
▁cent ers
▁in ta
▁ha ven
▁appel ée
e ps
▁région aux
▁govern or
▁direct rices
ène ments
▁v on
▁ré ellement
▁l une
▁puzz le
q l
▁expl ains
▁3 000
ra bles
g io
▁pa quet
▁transf ers
▁tra ils
▁at om
▁act uels
én ie
▁buy er
▁chron ic
▁philos ophy
k tor
▁cérém onie
▁( ...)
▁h ug
▁dépos er
onn age
▁éch elle
▁vac u
▁suc ceed
▁kilom et
pon ents
▁tar iff
▁prescrib ed
▁jack et
▁develop ments
▁cap abilities
ger y
▁hi king
alis ed
c li
b ing
▁r ice
▁v il
▁test er
ic ale
▁res c
fact ory
▁parad is
al cool
▁a ti
▁sever e
ard o
▁exclusive ly
▁cho osing
bour ne
▁fit ted
▁op t
▁ju ifs
▁câ bles
im ages
▁r iz
▁jos é
at ine
▁ro w
▁exéc utif
▁can aux
▁judic iaire
▁ch ate
h ire
▁rat ings
▁view ing
▁hos pit
▁acqu ired
▁accep ter
▁chans ons
▁éc outer
▁adress es
▁sin on
▁men é
▁fon de
ac teur
▁f ame
ge ot
c os
▁se ats
gr és
▁équip ées
▁v ive
▁nuclé aire
▁198 6
▁indic ators
g c
▁fol der
▁bout ons
am ination
▁gu ided
▁fing er
▁continent al
▁indep endence
▁ent hus
▁cycl ing
▁config ur
▁contrô les
▁un is
▁monna ie
ra di
▁diffic ulté
▁con tiennent
▁am ended
▁oper a
▁n ette
▁essenti elle
▁r ated
▁dé placement
▁cap t
▁ca che
▁bel t
▁meas ured
▁fle et
▁vol vo
▁répon du
▁découver t
▁correspond ing
▁( -
▁vend u
▁th ou
▁fut ures
▁bag ages
p ati
▁cour tes
▁broadcast ing
▁sl im
▁interpret ation
▁bénéfic ie
appro bation
▁thé orie
▁bénéf ici
▁act ing
▁gén ie
▁adequ ate
▁ab use
▁h ide
▁parc ourir
▁19 50
▁k on
▁order ed
▁dis plays
▁au teur
▁b ung
9 00
▁v ap
▁sh oot
▁log istics
▁év olution
▁sim ul
▁et ern
▁w is
▁vin cent
f am
▁gr ill
b éc
▁val encia
▁minim al
▁7 6
ativ ity
▁se ating
▁scan ner
▁urb ain
env oyer
▁class ified
al o
▁effect ue
▁sask atchewan
▁mat t
▁b h
▁b ench
▁plac é
▁remar que
▁ind ication
▁feature d
▁decor ated
▁décl are
▁no tion
▁complé ter
▁v ign
▁ill im
we b
▁legisl ative
▁bes ides
g ent
▁h ans
▁commun s
▁rot ation
▁gra m
▁t at
▁sent ence
▁fa ibles
▁démar che
▁afghan istan
▁ ie
▁vot es
▁ré forme
▁8 6
▁s ri
▁é ducation
▁obser ver
▁intéress ant
▁relig ieux
c ore
▁cons cious
▁ma k
▁répar er
brit annique
▁list s
▁collè ge
▁deven ue
▁inf in
▁discre tion
ur rent
▁étudi er
▁l yn
keep ing
▁dou bles
▁quel con
▁out comes
▁al ter
é lev
▁nic olas
▁propos ées
▁cons ens
▁where as
uls ion
▁terra ins
▁quar tiers
▁op tique
▁nav ires
tic a
hon orable
▁st amp
▁tex tile
▁targ ets
▁rental cars
▁pl enty
▁co pper
appro pri
▁méditerran ée
▁sémin aire
▁entraî ner
▁el ite
▁mic ros
▁essenti ellement
▁diffus er
▁disp ute
ad d
▁hor aire
œ urs
▁t ib
b ag
▁al f
or ia
ac tif
) "
▁contempor ain
anci enne
▁r onde
▁mut ual
▁pren ant
▁offici elles
▁lin en
▁pauv res
▁sais ir
▁prév oy
▁mar ks
aff aire
▁strong ly
▁individ uelle
▁cat ch
▁singap our
▁excess ive
▁bicy cle
▁compr ises
▁démar rer
▁g one
▁pier res
▁phys i
▁californ ie
il st
▁7 3
▁demonst rate
▁aj oute
▁whe els
▁organ ise
▁min er
v ide
▁sound s
▁incroy able
v res
▁proté ines
▁mosc ou
▁log ique
▁k ings
▁in con
▁bass in
n ut
im ag
ch rist
▁vine y
▁jew ish
ci o
▁peu geot
s ki
▁pronon ciation
▁maje ur
▁vib er
▁de grés
▁g ang
▁t ém
▁éc ologique
▁déclar ations
▁log istique
▁carib bean
ass y
ac tifs
▁direc teurs
▁ac te
▁cyl ind
▁exist antes
man ie
▁boulev ard
ti ans
lis es
▁sort es
ty pe
▁t ons
▁indones ia
▁f t
se ud
th eless
▁ven us
i est
▁vict ory
▁le ban
▁vo ire
▁gif ts
▁f oster
' ,
▁roy ale
▁boî tier
▁amb iti
aw i
▁sol lic
▁wild life
▁sécur isé
▁prec ise
▁m orts
▁pass enger
▁dra wn
▁t ut
ment ation
an ium
▁remp liss
ian te
▁témo ins
▁p ist
▁la urent
▁illust ration
▁entre z
▁de emed
▁broad com
ri de
▁par venir
▁consider ing
▁sn ack
▁sex uelle
▁p iv
▁har bour
▁look ed
▁jan e
▁conclud ed
▁c ow
▁alg orith
▁occur red
▁lib ération
▁as ian
▁am biance
▁rad ar
ath ers
▁lut ter
▁circ uits
▁te en
on ome
▁sti p
▁p am
▁in k
▁eng aged
200 5
▁ho le
interpr étation
▁val ent
▁thaï lande
r h
▁répar tition
▁e ase
▁post al
▁list es
▁piz za
▁orch est
▁ni ke
▁aéri enne
▁h em
▁never theless
▁la id
▁commer ces
arge ted
▁par lé
▁mont rent
▁jerse y
▁neighbor hood
▁journal istes
ad hésion
▁salv ador
▁new ly
▁wik i
it inéra
▁jack son
▁bl anch
ab ling
ver e
▁con cession
▁p n
▁présent ées
▁disc ré
▁a post
▁cerem ony
▁instit ut
▁argent ina
em atic
b ol
▁déf endre
▁ajout ée
▁ke ys
b et
▁red ire
▁appar tient
autom ne
▁t ente
▁inqu iry
▁tex ts
▁rasse mb
▁c ay
aut o
▁sculpt ure
y es
▁box es
▁fisher ies
▁carpool ing
▁signific ative
▁class é
▁ch ile
▁fourn iture
▁prot oty
▁la ver
▁go û
▁sim on
▁rob in
▁tra ces
▁invol ving
p ot
a id
▁venti l
▁surround ings
▁see ing
▁obser ve
▁g ib
▁c aisse
▁répar ant
igh ter
▁ent endre
h ot
▁r on
▁p are
▁dete ct
▁co te
▁an tiv
f em
ici ous
d ig
▁travaill ant
▁siè cles
▁mul titude
▁accept ance
que ment
▁paul o
▁j ury
▁gate way
▁const amment
▁8 3
è les
▁comm is
▁b og
▁sett lement
▁ph oen
▁li able
▁élim iner
▁s ister
▁recru it
▁nig eria
▁ill ég
▁symb ole
▁qué béc
▁prefer red
▁ouver tes
l ou
g ow
▁rép utation
▁occ urs
lin ed
▁plong ée
▁min eral
▁évalu é
▁dur abilité
ume urs
▁volks wagen
▁déf a
▁adapt ée
▁g oth
ate lier
▁tradition nel
▁prés erver
re c
▁typ ically
▁surve iller
▁enc ry
▁gl as
▁extra ct
▁hes itate
▁do ct
▁destin ia
▁revis ed
▁rec on
▁gen uine
▁jér usalem
▁appe ared
▁distin ction
▁tur b
▁ara bes
▁th read
ér one
om i
▁dam ages
▁surv iv
▁decl ared
▁ad am
▁ren aissance
▁expos ed
▁ch oc
▁th under
▁enseign ants
▁pre view
▁r it
▁ou bli
▁al titude
▁le ts
▁24 0
▁préc ieux
▁culture ls
▁associ ée
▁equ ity
▁key words
onom ic
▁emp ty
pel lier
l at
▁tot ally
▁pre uves
▁hel lo
▁col onne
f ound
▁c ern
▁aler ts
▁dipl ô
end ance
▁st an
▁rand om
▁h ér
▁av enir
▁e jaculation
al g
▁franc is
▁for ests
▁par alle
▁l c
▁bon heur
av ior
▁ferm é
▁em ir
m ap
entre pr
▁gé ographique
▁colle agues
▁b ours
▁dur ables
▁analy ze
▁ent ries
▁citiz en
▁ar n
▁turk ish
▁subscrib e
▁vari ables
▁lab els
▁cancell ation
▁ouver ts
▁sais onn
▁chemin ée
re y
▁enter prises
▁wh ilst
▁subje cts
▁own ed
▁e h
ét on
t est
▁reg rou
▁inhabit ants
▁correct ly
▁fix es
▁be ver
▁dét endre
▁ten us
▁mac ro
▁b olog
▁visit or
▁pres tige
i ors
▁télé phones
▁fa tig
oth éra
atte indre
▁inter medi
▁o em
▁sensibil isation
▁fourn issent
n ame
m h
▁vect or
▁t argeted
▁rest re
▁motor ola
▁camp agnes
▁a ident
▁human ity
▁confer ences
▁mar t
▁fu j
▁gra ines
▁cool ing
▁bre ve
▁3 65
con f
▁spécial isé
el dorf
▁vacu um
▁tw ice
▁v as
? "
▁personal ized
▁o mb
▁candid at
l ad
cl ub
▁cry pt
▁commit ments
▁autom ation
irm ingham
cl ose
▁hus band
▁port é
▁hydraul ic
▁clos er
▁search ed
▁renew able
▁contrib ué
▁rét ro
▁headqu arters
▁dr inks
app uy
il é
▁tra cks
▁lo an
▁d ys
▁compet ent
ia h
▁for ts
▁wind s
▁matéri els
▁rés idents
▁f ern
▁every where
▁en ch
. ).
▁know ing
▁ch ick
em ark
▁meas uring
b lier
▁neut ral
▁g rid
▁tre m
o ivent
ers ion
▁stun ning
im pri
▁reg ards
▁cy cles
i ere
▁argu ments
▁v été
▁ ”
iti s
am o
▁nar row
cip les
▁vra ie
▁road s
▁fr é
i end
▁g ap
▁cour onne
▁indic ateurs
▁incre dible
▁distribu teur
▁di agram
▁mo ham
ud a
fer ence
▁un lock
ud s
▁rencont ré
▁natur ally
▁hist oires
▁studi ed
▁des serv
▁cerve au
ie v
▁chur ches
é valuer
▁siè ges
▁contr ary
▁tes tim
iss ait
exper tise
▁ord onnance
é ph
st an
▁vit amin
▁underst ood
▁in du
op in
▁strugg le
▁possibil ities
▁détermin ation
2 20
▁quelcon que
▁mar qu
se z
▁treat ments
▁app elle
▁adv ise
▁v atic
▁aim ez
▁scientist s
▁fer r
▁euro p
▁d ents
ac qu
▁relax ing
▁p d
▁17 0
o ft
▁dis abilities
ice f
ad er
▁sp ark
▁parc our
▁univers itaire
▁super fic
▁pun ta
▁ph ases
▁eng ines
▁angle terre
aim er
▁positi f
▁198 7
ra dor
ic ante
▁cas tel
ins pection
▁beh avior
artic les
▁sal ons
▁ob servation
▁organis ée
▁lod ging
▁croati a
▁pati o
▁fer rov
ri ver
▁win ner
▁aider a
▁alert es
è nement
▁when ever
▁prof iles
▁limit ations
▁stic k
▁l isez
▁motorcy cle
▁k its
▁gu ér
▁dra g
▁compar able
▁dev ront
▁purch asing
▁style file
▁défin i
▁r iding
▁determin ation
▁c ic
▁inc ap
cuss ions
▁water proof
▁produ ctions
▁ty res
▁guarante es
▁des ert
▁god es
▁consult ant
alis ée
▁artis te
▁aj us
or o
d ite
▁an ten
inter face
▁table tte
ri ra
▁r ica
▁improve ments
▁equ ality
▁cent uries
▁manifest ations
▁c ors
▁in ch
▁tradition nels
▁g ly
▁b ub
▁interview s
! ”
▁philosoph ie
an alys
▁o ecd
▁agric ulteurs
è vres
▁reve aled
▁dete ction
▁chim ique
ac tiver
▁assign ed
▁end ed
▁eli z
op ol
▁technolog ique
▁ag ir
com ponents
▁sud den
▁bu ck
▁s ick
▁r atif
▁den mark
▁bung al
▁pattern s
▁defin itely
lè ne
ach i
▁produ cing
▁gross esse
▁échantill ons
▁la cs
▁comb att
ic tions
▁génér ations
▁sou ligne
s y
▁mand atory
▁anim ation
op t
▁cra ft
▁cancel on
al ia
▁vulner able
▁autoc ar
▁a le
▁de tte
▁charl otte
▁solidar ity
intern ational
▁mentionn é
® ,
a q
▁chall eng
▁cor ros
▁rapid ly
j us
▁somme il
▁sou tient
▁indic ates
▁se al
▁incl uent
▁ag ro
qu ettes
h ad
c ount
▁rép and
▁m ug
e per
▁mont pellier
▁â gées
▁propos ant
▁pat ch
▁par ap
▁gener ations
▁conn aît
▁venti lation
▁re ward
▁norv ège
▁complain ts
▁invent ory
pa ul
h igh
und ry
▁in her
▁b irmingham
▁9 1
▁scre ens
▁sa h
▁repos e
pri x
if ax
est he
▁souvenir s
▁retra it
▁rele ases
▁lib an
▁custom ize
g uer
▁n un
▁ar ising
▁tra iler
▁sur gery
▁notif y
▁def ense
itinéra ire
▁supérie ures
▁r ach
▁w olf
▁transf érer
▁dangere ux
▁accomp any
z i
m ich
▁wor ry
▁rep utation
▁c ed
▁aut onome
▁tr in
z ar
▁dev iennent
▁hard cover
▁r up
▁publi ée
▁20 21
ot tawa
bl er
▁volun t
▁hô tes
▁high way
▁secur ities
▁constru ite
▁champions hip
▁gratuit es
▁d ll
▁ch airs
▁alph a
▁tele commun
▁norm and
▁wholes ale
▁rad ical
▁r t
▁pro sp
▁dé riv
▁auth ors
▁represent ing
▁dis ciples
▁colomb ia
▁d ites
▁san ctions
▁8 2
▁di rig
▁bour g
▁recru tement
▁kilomet res
s ub
▁fire place
▁anne xe
orient ation
▁satisf ait
▁rec all
▁organ ize
▁for fait
▁aim e
▁mor al
▁th in
▁pl ot
▁méditerran é
▁fac ulté
ver t
▁rout ine
▁pric ing
g d
▁n s
▁l lc
▁enable d
▁développ e
▁pregn ancy
olog ue
▁détermin é
▁aff irm
▁r ivers
▁s ul
200 4
▁col umn
▁ins ert
▁week ly
▁un for
▁cl aude
▁app end
▁concent rations
▁adapt ation
▁cover ing
▁bre fs
▁prot ège
▁p ine
▁idé alement
▁human itaire
▁ar en
▁ver d
▁st éroï
▁ch ol
t om
▁ste ering
▁ham burg
c oin
▁in tra
▁bord ers
ti ment
▁rou ges
▁requ ise
▁territ orial
▁le af
éta pe
att end
▁( “
ache teur
▁specif ication
▁bouill oire
▁n in
h em
ue use
▁réserv é
in tel
am ps
▁potenti els
▁vis ibilité
▁accomp lish
▁ ►
pap ers
af ric
▁smart phones
▁institution al
▁eliz abeth
▁supp lied
▁sh ore
▁puiss iez
▁hau tement
r ating
▁fra ud
▁diffic ulties
▁autom ated
▁ „
▁phoen ix
par k
▁special ly
he ures
▁wh irl
▁prote ctive
▁b ros
ati e
▁p ond
▁du plex
▁convince d
▁contraire ment
▁to ler
▁appreci ate
▁amend ment
▁dele ted
▁work place
▁av iation
térie urs
▁technolog iques
▁vol tage
▁cl avier
l ent
▁ém erg
▁exception nel
équilib re
▁vib ro
î t
u ro
ath an
▁perform ing
▁naturelle ment
▁ath lè
intégr ité
ic ien
c entre
ar ks
▁minim ale
té ri
ch ette
▁sou p
ra ham
ill o
▁val ide
▁roman tique
▁sh ield
▁consomm ateur
re b
▁hung ary
’ ,
▁st ays
port s
mar ks
▁g orge
z ation
▁décenn ies
▁ad vers
▁% ,
▁priv ative
▁poly val
um ps
spe ed
▁tort ure
▁ling e
▁réalis ées
ex am
d rive
▁origin ally
▁19 78
▁f êtes
▁aband on
j on
▁réc ents
▁enthus ias
g el
▁défin iti
▁fonctionn aire
▁exist ants
▁maur ice
▁a ther
le e
▁sh ock
▁s ought
▁extraord inary
at om
▁r m
▁exer cer
x l
k it
▁é pr
▁bat t
▁sau ce
▁pri est
▁asc enseur
ag u
▁bon jour
k el
g ro
▁établ ie
▁et her
▁email s
▁charge ur
▁bro ché
▁mas cul
▁journ aux
▁t ay
▁combin ing
book s
qu ick
▁favor ites
▁train ed
▁notif ications
m os
▁journal ists
▁fib er
▁ á
▁t d
▁organis ed
ta x
ifi ée
▁autor isation
oblig ation
▁shut tle
▁fac iles
w atch
▁subm ission
access oires
▁am or
aut hor
▁ann uler
▁inter dit
▁négo ciation
▁ce iling
un t
b in
aust ral
▁g s
▁15 00
▁op tical
▁establish ing
▁fréqu ent
200 3
re v
!! !
▁cal ories
ipe g
eg lise
▁tor re
▁supérie urs
▁gre c
▁as i
▁chair man
▁bachel or
elect ronics
▁soldi ers
▁ch aise
▁fatig ue
▁prestig ious
▁nik on
▁hom mage
▁there by
▁sun ny
▁mor ceaux
▁jo indre
▁an a
▁d ame
▁cig are
1 60
▁é vidence
▁tém oin
▁explo it
or ca
d im
’ .
▁tow els
▁co at
▁bo ot
▁e ating
▁r acc
b at
▁stay ing
▁fer ries
▁pol ish
▁progress ion
▁arrange ment
ci pe
▁av ent
▁fri dge
▁ad idas
▁put ting
▁ather os
▁parliament ary
▁out come
s ant
ins on
▁short cut
▁solidar ité
iss an
▁le go
▁exam in
▁dess ins
gl asses
▁pas tor
▁stri ke
▁imm ense
▁g d
y pte
er ved
ann ées
▁jud icial
▁inj ury
▁ch lor
▁dic t
▁cas ual
▁w inning
y an
az ur
▁ref ers
th r
g ien
▁pa pe
▁m ile
▁consid ers
▁adolesc ents
▁vis ité
▁superfic ie
ette ur
▁prepar ing
r un
▁expl oration
▁analys er
av oc
▁subse quent
▁ré cep
▁ma ill
▁al pes
que mment
▁t x
▁person ally
▁bot an
▁spectac ular
▁ju gement
▁incl usion
l if
k k
▁arch é
▁an tique
ur i
▁comp lic
▁fa iled
▁contrôle ur
▁decre ase
▁autoris ée
▁vape ur
▁ins pe
ub a
▁su its
▁me te
▁bou l
▁alex ander
▁sold ats
▁hen ry
▁reconst ruction
m ay
ig an
▁parti tion
▁country side
▁an ch
▁tri gger
▁s inc
▁rece ives
▁qual ification
▁afric aine
▁b und
m ée
▁but tons
is i
▁inf irm
▁collabor ative
▁blo cks
▁attra ct
▁figur ant
▁7 50
▁d h
▁am ar
▁univers itaires
▁statis tique
▁glas gow
é quip
s im
ing er
influ ence
▁francoph one
rib ution
▁tent ative
▁k as
▁appro fond
▁us ual
▁int ensive
▁install ée
▁enqu êtes
▁h s
▁n ad
▁vo ile
▁délé gation
▁région ales
t ag
▁exec ution
▁dream s
▁contro ll
▁bre vet
re al
▁poss éd
▁politi ci
▁particul ières
af ter
▁remp lis
w c
▁rapp elle
▁ill ness
▁séj ourn
hi op
▁% .
ut ors
▁supr ême
▁imp rimé
▁cra fts
▁atta ques
▁sor ties
▁ris ing
▁stat ue
▁speak ers
▁tai wan
▁vess el
g ène
▁sq l
▁smo ke
habil itation
eng lish
av ail
▁ro ch
▁r ic
▁legitim ate
▁sol ides
b ridge
▁rem ont
▁cour ty
▁budg ets
▁mi roir
▁arr êté
▁alp ine
▁atten tive
▁re wards
▁consens us
▁appli ances
ém ique
▁du o
▁ch ute
▁plaf ond
▁car ré
li x
▁nat o
hol der
▁rou tière
▁met tent
▁ad ri
▁radiodiff usion
▁h ell
▁effectu és
▁comple tion
jud ice
▁vatic an
▁identi té
▁p ia
▁dis ques
ut ée
c our
▁bre f
v ity
▁deal ing
▁carri ers
▁v este
▁simult ane
▁mar io
▁hear ts
▁7 1
▁yel p
▁rémun ération
▁gra isse
▁cu ivre
▁cou per
▁x ix
▁produ cer
▁hen ri
hô ne
bl ack
▁recev rez
▁fantas tique
▁repr ises
▁al ban
▁séj ourner
▁domes tiques
era ient
amp ton
▁rej oint
▁se am
▁olymp iques
▁al ain
▁n go
▁in jection
▁mé tier
▁exp édi
▁cap ables
▁recherch és
▁re act
qu al
▁qu ote
▁sauv age
cl oud
▁mys tery
▁motiv ation
▁individ uels
▁péd agog
▁p ace
▁cré ativité
▁la undry
▁bra ke
? ”
▁le cteurs
▁coun sel
▁b od
▁sh ift
▁o st
▁fut urs
▁ara be
aj out
▁céra mique
▁8 1
▁n er
▁appropri ées
t ains
ling e
▁roman ia
▁sk ys
le ments
▁winn ipeg
▁j im
▁autor ité
▁acknow led
ograph ical
g reg
▁engine ers
▁cer amic
▁méth od
▁en abling
▁and ré
▁evalu ate
su ch
▁transmit ted
▁gén éraux
▁strength ening
▁bre ach
as is
▁jewel ry
▁owners hip
▁proven ance
w he
▁writ er
▁lit res
▁quantit és
▁sie m
▁facil ité
▁er ic
▁anci ennes
▁prom ise
▁comp ass
▁bos n
f u
▁n iger
▁bra v
b ou
▁t ig
▁conce voir
ra ire
n t
ent h
▁mem b
us anne
g p
▁mel bourne
▁fourn ie
▁wel coming
p erson
att an
▁inst ances
▁dist ances
▁consac ré
ul ted
l aur
▁flex ibilité
tis ation
▁so igne
▁précéd ents
▁under ground
▁sol s
▁res istant
▁fondament aux
▁fac es
▁concern ent
▁ch ass
pro gram
d ame
▁life time
▁sc oti
▁paint ings
è vre
it ures
▁g or
ex pri
a us
▁refus er
agas car
▁souha its
▁rés ist
▁pione er
▁fourn issant
▁enjoy ed
▁consid ère
am énagement
▁sa ur
▁prév us
v r
▁éc riv
▁série ux
▁sé ances
▁sal ut
▁ch aises
▁pertin entes
▁special ists
▁fif a
▁com ités
▁cer cle
▁gra y
▁gos pel
▁caps ules
▁rég imes
▁ch anti
▁vari ation
▁tourn er
▁sens ibles
▁inter médiaire
▁he b
g ill
sh irts
▁du re
▁dent al
brun swick
▁magnif iques
▁b éton
▁activ ation
ol ta
▁viol ent
▁pes tic
▁cré és
▁accompagn é
▁specif y
wh ile
▁réve il
▁nouveaut és
▁inc idents
▁fin lande
▁athle tes
▁camer as
é lection
▁souten u
▁s me
▁co d
▁cas c
▁ad ulte
elle d
▁bo ards
▁ag rit
▁mar sh
▁apply ing
▁ré cip
▁n ou
n ic
ant h
▁bi ological
v ic
ph e
▁be aring
▁m au
vent e
ed a
▁log os
oubl iez
▁enti ties
min ation
▁phénom ène
▁loc ate
▁enregist rés
▁co que
▁pronon cé
▁iss us
re uve
▁hor m
▁facult y
▁tribun aux
▁bi ography
ast y
▁expl an
h étique
▁th row
▁m agnetic
▁auxqu elles
▁inf lamm
▁fre der
▁far o
▁m ousse
▁aut umn
▁évid emment
▁servi ettes
imm igration
▁ju ice
▁photograph s
▁e an
onom ie
c b
▁coop éra
ac co
▁rev êtement
▁introdu ce
▁broch ure
▁pol o
▁mod em
▁w ool
▁ch ari
og ram
▁h els
▁but s
▁sal aire
▁r d
▁bri g
▁a igu
exem ple
▁renew al
▁pa use
▁hu a
▁croati e
▁ann a
▁gh ana
▁respective ment
▁real ize
▁per u
▁acc idents
ann ing
▁év ènements
▁respective ly
▁intéress é
ati le
▁propos ée
▁mobil ier
▁achet és
em plo
▁t eneur
bl anc
▁prim aire
▁panor amic
▁gather ed
▁ra id
▁ser re
▁s li
▁r um
▁présent ations
▁rem is
▁oppos ite
▁mé m
▁jou ez
▁cos mé
▁ad mit
▁exist s
▁handicap ées
l ées
in fection
▁sus c
▁ket tle
▁rem ettre
▁prov is
▁déplo iement
▁prof its
▁célè bres
▁sé v
▁distin ct
▁bo ots
▁témoign age
▁in oubli
▁h ood
▁g n
▁cre ativity
▁conven ience
▁men ée
▁expli qué
▁emb ed
▁dan emark
▁conc r
▁c esse
▁allem ande
f are
▁panor ama
▁deleg ation
▁conseill ers
▁clos ing
▁chec king
▁amélior ations
▁committe es
▁continu ent
▁prés idence
▁ib iza
▁avanc ée
m x
ch on
▁whirl pool
▁pre cious
▁hospital ity
▁n ak
▁initi ale
op ath
▁suff er
▁merveille ux
▁cas que
pro v
▁x i
▁res ident
▁aur aient
▁jud gment
▁public ités
▁journ ées
▁je ws
lant a
▁f s
▁maî t
▁over looking
▁neu fs
▁vol can
▁z i
▁donne z
▁do ctors
▁adop ter
▁tr ucks
▁air line
▁respect ing
▁fle uve
▁find s
▁discipl ines
zz a
▁éc rits
▁rein for
▁ret ro
▁cree k
▁chemical s
▁travel ing
▁super b
▁estim ates
cal led
▁vois ins
▁courty ard
▁auber ge
▁évent uellement
▁rou e
igh ten
▁s ouver
▁contrib uted
s he
ich e
▁p ais
ct u
▁éc oute
▁sain ts
et ry
hist orique
▁exp liquer
▁découl ant
c ab
▁ass ume
ph y
▁g agne
▁fourn issons
clud ed
▁struct ural
▁mad agascar
am eric
▁élab or
▁horizont al
▁as pir
tic k
▁spectac les
▁espè ce
int endo
▁and or
a pe
▁rem er
▁pra i
▁de ter
▁volunte ers
▁réserv oir
▁complément aires
▁ome ga
▁mam m
aire d
▁re im
▁has ard
▁ins er
▁r ally
s mo
mar ie
▁difficult y
élim ination
▁tou cher
ém ission
▁ar d
▁fir ms
▁sky pe
▁b amb
▁soph istic
ink i
▁table ts
▁mas k
él ande
cif ic
▁transfer ts
▁rele ver
▁lim a
▁concent rer
▁én orme
▁accommod ate
▁tour istes
▁wish list
▁sor ti
▁permet tront
▁exerc ice
éd é
▁r ive
▁clim atis
▁invol ves
▁flu id
▁diagnos tiquer
▁univers elle
▁sa il
▁pap ers
▁met er
▁neighbour hood
▁haï ti
▁sacrif ice
▁fol k
▁consom mer
mont on
▁hong rie
▁blanc s
identif ier
▁cross ing
ine a
▁sor ry
▁bénéf ices
▁ass u
▁accro ître
k on
at mosph
▁she ets
▁p enn
▁ag ed
▁vis ibility
▁ver rou
▁réser ves
▁dis ant
▁adjust able
u ed
▁yach t
▁laiss é
▁champion nat
ij i
▁for tes
▁re action
▁associ ate
▁re ine
dic tions
▁watch ing
▁relig ions
▁car go
ill ée
▁stad ium
▁pat ron
▁op érateurs
▁os lo
▁gar n
▁confort ables
augment er
▁pos ting
▁mol éc
▁ethn ic
ingén ierie
▁libert és
▁sy ner
▁un us
▁repr ise
▁pay able
▁j ung
ri o
li ques
▁refroid issement
st op
il ation
▁ch ili
▁boî tes
p ira
i at
oeuv re
▁port ent
▁célé br
▁% )
▁repe ated
un di
▁sec ours
▁plain tes
▁car dia
▁return ing
▁ord inary
▁gro wn
▁arm ées
esp èce
av enture
▁appuy er
▁mo lec
instru ctions
▁sp oke
▁bourge ois
▁vou lu
▁tun nel
▁sembl ent
▁car rés
an ée
▁mondi aux
▁bre eze
▁gagn é
▁rend ent
▁marri ed
ec tive
▁d ated
ie val
▁déc rire
ul ing
▁personn age
▁particip ated
▁m ettez
▁italian o
▁comb ines
ish a
▁clean er
am or
▁power ed
▁m ans
▁génér er
▁camer oun
we g
▁h ers
▁work er
▁hal ifax
▁ ●
▁volont aire
▁del hi
▁corp ore
▁pos té
▁ma re
▁merc ure
▁inter pre
▁coast al
▁p cs
▁fif th
ion al
g ru
▁br anche
esp oir
▁tele com
▁personn alité
▁fonctionn aires
▁ros es
▁intégr er
▁dis ent
▁territ ori
▁mass if
▁no ct
▁invol vement
) )
▁thick ness
▁le e
y ers
ign ées
▁inc idence
▁chev aux
▁explic it
▁domm age
▁up coming
24 0
▁tr ente
▁ph ones
ish i
▁pool s
▁jol ie
▁b is
n ow
▁refuge e
▁étro ite
▁plate formes
▁avanc ées
▁urg ent
om on
▁unc ertain
▁situ ées
tit ution
▁st ut
▁m n
▁m k
▁tra m
▁r ough
▁isra éli
▁exerc ices
hy p
▁vess els
▁search ing
▁fond ateur
ic t
▁représent er
▁g il
▁consid érer
te aux
p f
▁se as
▁la usanne
▁remp li
▁app ell
c ir
▁renouve llement
▁ital ienne
▁améli oration
▁mon it
▁ham m
▁gl oss
▁download s
a ie
▁mal aga
▁n intendo
▁ham ilton
▁cra zy
▁char ging
▁l t
▁enregist rement
▁add s
éd ie
b enz
▁venez uela
pr is
▁prépar é
▁rich esse
▁prohib ited
w rit
▁fré quemment
▁encour ager
we i
r oup
▁campaign s
▁rep airs
▁gl uc
▁ce inture
▁des qu
▁repe at
▁ref res
m and
ad os
▁itinéra ire
▁travell ers
▁schol ar
▁integra te
▁horiz on
▁join ts
m ise
g anda
alis tic
équipe ments
▁met tons
▁marri ott
▁argu ment
élé ment
chau ff
▁decl ine
▁con grat
end ie
▁sl ot
▁rob ots
▁mét aux
▁faute uil
▁ ion
ag ra
▁un ity
▁ro bo
▁ch est
ob servation
al liance
▁compos ant
build ing
▁rev ers
▁apprendre z
▁a ids
▁caractér istique
▁al icante
3 50
▁leg ally
▁install és
▁acc rue
par ts
▁tradu it
▁l ite
▁compe tit
▁t asse
▁tom ber
▁n issan
▁intit ulé
k ina
▁turn ing
▁ren owned
▁régl age
▁dés ert
▁déta chées
▁album s
▁stock er
▁mes h
▁gl uten
▁bol iv
▁ad di
and o
▁test ament
▁s ib
it as
▁tradem ark
▁exp édition
▁all ég
ne cess
▁tur bo
ès es
▁vitam ine
▁bul l
▁b ière
▁destin ées
▁tr u
▁ta pe
▁lo vers
oup es
bre ak
▁la ce
pe g
▁cre ator
▁med ieval
uk i
on ic
▁comm issions
▁c isco
▁l enti
▁ent ente
▁correspond ent
▁tradition nelles
▁re tre
ne urs
f ir
▁t l
it ons
▁10 5
▁gar çons
utilis ateurs
o ids
▁sty lish
▁immig rants
▁h il
▁destroy ed
▁cre dits
ad v
ab ri
▁mécan iques
▁thor ough
▁flor al
▁fabri qués
▁class ical
▁v ies
▁lat ine
tif ied
oc de
▁islam ic
abl anca
▁c ables
▁franc fort
▁biodivers ity
▁collect ées
▁bu g
▁up gra
▁express ions
▁a esthe
▁5 000
se ur
b ad
▁exhib itions
▁dens ité
▁is ab
▁hel ic
▁arch ae
par is
▁h ook
▁all ait
▁according ly
▁écl airage
▁chré tiens
▁sa o
▁ar bre
▁adm is
éd iteur
on ce
▁dép asse
▁gar çon
▁fin ition
▁a ig
att ente
▁though ts
▁emb ar
▁disting uish
í n
inté ress
ad ress
▁restric tion
▁dimin ution
▁vis ée
pl ing
l ité
▁sauv ages
▁r hy
▁m ous
▁shad ow
ig ence
▁o c
▁affir me
f ire
che c
em ble
▁j as
tg art
▁em placements
▁christ op
▁paralle l
▁lug gage
▁favor able
▁pal ette
▁consult ants
▁comp lications
▁remport é
▁198 4
▁international ly
▁po pe
▁balance d
o tive
iss age
▁gam bling
▁panoram ique
▁cré ateur
▁accomp agner
are t
ar th
▁entit és
▁gl ory
▁extraord inaire
▁landsc apes
▁exac te
▁art works
12 5
▁obten us
tra it
o ce
▁tiss ue
▁ide ally
▁confir mé
import ation
grad ation
auc un
▁ré cent
▁notif ied
▁leg s
▁fort une
▁équ itable
▁tier ce
▁s ard
▁la p
▁réglement aires
▁w o
▁harm ony
ven ant
ester day
▁emb assy
▁bap tis
hotel s
▁v ec
▁cro issant
▁télécommun ications
▁ir lande
▁cr ises
▁ar ray
▁suiv ent
▁per ç
▁tell s
▁net working
▁2 30
▁produ ces
▁di oc
▁d oses
▁redu ces
▁par a
y t
app er
ac ad
▁sa iling
▁tax ation
▁r aj
▁administra teurs
▁partici pe
œ il
ist ers
▁re de
▁necess arily
▁inconn ue
qué bec
▁function ing
▁caf és
sec ond
ch age
▁peint ures
▁hun ting
▁gent le
▁fre in
▁comp ression
▁étudi ant
▁eld er
j ar
ess ence
▁ko h
▁p ag
▁ou blier
▁fri ed
▁p ois
oc a
▁fa ced
▁car av
▁st m
▁ch ère
▁éc osyst
f ly
f unction
▁cou ches
▁tre k
▁passe z
▁la go
▁décl en
▁cri tic
▁civ ils
▁s b
ci um
▁rou manie
▁cons ume
▁attend ue
it ables
▁tranqu ille
▁optim isé
▁contract ing
▁b ent
se x
▁t ul
▁sub lim
▁sy rian
on au
i endra
▁wikip edia
▁prof ils
▁gr ants
▁dr um
▁b ale
b ains
▁st ones
▁active ly
▁sh orter
01 0
▁o ils
▁disapp ear
oin ts
▁larg ely
▁bou les
▁qual ités
com fort
▁hy gien
d h
b ow
▁n ée
▁imp lications
▁t ira
ent ed
▁elimin ate
t ub
ra ct
▁artif icial
atmosph ère
▁st orm
▁adapté es
▁reven ues
▁gestion naires
▁fre ez
▁bl end
enti r
▁répar ations
▁bl ank
▁ ø
▁y esterday
▁prés idente
▁l uis
▁excurs ion
▁conform es
▁ex haus
▁sub ventions
▁sl ide
▁sh ooting
▁12 00
▁st ro
▁h oll
▁cont amination
▁bet a
ly n
is ely
▁nu age
▁ju me
▁imp lique
▁dispos er
▁dis ability
▁car ol
▁se asons
▁ét onn
▁ib m
▁f ounder
▁dress ing
▁as king
▁cro p
ut able
▁t b
pr é
uff is
▁environnement aux
▁du quel
▁diagn ose
int ens
qui ème
ator ies
▁m ène
▁hous ton
▁ent ra
▁vier ge
▁garanti es
▁along side
▁bou le
habit ude
▁télécharg é
▁riv iera
▁no ble
▁av iv
est a
▁v ain
▁198 1
▁cr ash
▁appart enant
ck er
▁p oul
▁emp ower
h p
▁tourn ée
▁g ulf
▁admin ister
▁x vi
▁le ct
▁install ing
▁special ty
▁sc ott
▁le çons
▁form é
▁no y
re ur
ar bit
▁strong er
▁faç ade
▁emir ates
▁crois ière
▁statis tical
▁ac tiver
f ish
▁reç oivent
