<T> 0
<U> 0
<L> 0
▁d 0
es 0
▁a 0
▁t 0
on 0
en 0
▁p 0
▁l 0
in 0
er 0
▁c 0
▁s 0
re 0
ou 0
ti 0
an 0
▁th 0
is 0
▁de 0
or 0
▁m 0
it 0
▁f 0
ar 0
▁the 0
ent 0
▁e 0
▁b 0
al 0
tion 0
le 0
te 0
qu 0
▁o 0
ro 0
▁w 0
▁in 0
▁n 0
ur 0
▁v 0
il 0
▁an 0
un 0
▁h 0
om 0
ic 0
at 0
our 0
▁of 0
▁la 0
▁r 0
as 0
us 0
ation 0
ve 0
ing 0
▁to 0
▁g 0
▁le 0
▁and 0
▁et 0
ment 0
ce 0
ch 0
el 0
▁re 0
▁en 0
▁un 0
▁les 0
▁qu 0
▁con 0
ra 0
▁à 0
ri 0
et 0
▁des 0
ed 0
▁pro 0
ir 0
os 0
ol 0
ant 0
est 0
ous 0
▁com 0
ag 0
ot 0
id 0
▁y 0
ers 0
ig 0
ct 0
▁par 0
▁ch 0
im 0
▁for 0
ut 0
▁( 0
▁j 0
ans 0
am 0
ul 0
▁on 0
▁1 0
▁pour 0
ad 0
ess 0
▁2 0
és 0
ab 0
pp 0
ie 0
▁é 0
ter 0
▁se 0
▁du 0
ion 0
▁is 0
▁pl 0
ci 0
ate 0
▁au 0
▁st 0
que 0
me 0
ac 0
au 0
ire 0
ne 0
and 0
ay 0
ver 0
▁al 0
▁be 0
▁pr 0
ow 0
ith 0
▁- 0
ort 0
▁su 0
ain 0
▁ex 0
▁sur 0
▁with 0
ill 0
▁dans 0
ly 0
▁mo 0
ont 0
▁or 0
se 0
st 0
▁dé 0
pe 0
if 0
▁ne 0
ure 0
▁as 0
out 0
▁wh 0
▁une 0
age 0
00 0
▁est 0
end 0
▁ac 0
▁que 0
ist 0
▁comp 0
▁it 0
▁you 0
res 0
lo 0
▁k 0
ée 0
di 0
ction 0
em 0
▁vous 0
les 0
um 0
▁ma 0
ite 0
du 0
▁that 0
th 0
iv 0
▁tr 0
▁can 0
▁ré 0
ge 0
li 0
oc 0
ations 0
▁ave 0
▁cont 0
ap 0
▁fa 0
ib 0
.. 0
ance 0
de 0
ine 0
▁ou 0
té 0
ité 0
urs 0
ff 0
▁at 0
▁we 0
▁ser 0
▁pas 0
rom 0
▁are 0
▁qui 0
ale 0
▁avec 0
01 0
ts 0
▁us 0
able 0
for 0
▁sh 0
ons 0
ity 0
igh 0
▁pe 0
▁not 0
ér 0
▁plus 0
▁so 0
ati 0
oo 0
▁app 0
▁tra 0
▁by 0
ue 0
tel 0
▁ad 0
▁gr 0
▁ar 0
lis 0
▁im 0
ard 0
ence 0
▁from 0
og 0
ux 0
▁your 0
▁comm 0
▁this 0
pr 0
▁man 0
▁u 0
ées 0
ens 0
op 0
oun 0
form 0
▁ce 0
ere 0
ques 0
▁il 0
▁3 0
ais 0
ich 0
▁av 0
onn 0
ille 0
all 0
ments 0
▁dis 0
com 0
▁res 0
ice 0
tic 0
▁mar 0
▁ha 0
per 0
ces 0
▁per 0
▁201 0
▁cl 0
ide 0
tre 0
ère 0
iti 0
ust 0
▁he 0
▁me 0
▁all 0
cl 0
ies 0
ins 0
port 0
ted 0
tions 0
▁inter 0
▁produ 0
are 0
▁i 0
ta 0
ier 0
▁nous 0
av 0
ique 0
▁ro 0
ub 0
ign 0
▁vot 0
iss 0
cess 0
ouve 0
▁aut 0
ès 0
▁votre 0
▁te 0
ind 0
ia 0
pos 0
▁cons 0
ld 0
ord 0
ke 0
che 0
▁car 0
▁serv 0
ph 0
ors 0
ru 0
▁am 0
▁will 0
▁sont 0
▁ab 0
ace 0
▁sp 0
aux 0
▁off 0
lic 0
elle 0
air 0
ps 0
oir 0
ond 0
entre 0
▁co 0
ants 0
▁pers 0
aire 0
▁si 0
ang 0
mes 0
▁fr 0
tilis 0
une 0
▁do 0
▁sa 0
ile 0
éri 0
▁aux 0
ents 0
▁4 0
ise 0
art 0
ore 0
mb 0
its 0
ive 0
▁pri 0
▁je 0
act 0
▁no 0
▁sy 0
ien 0
ré 0
▁pre 0
▁pos 0
▁col 0
tif 0
ud 0
▁wor 0
ten 0
ong 0
▁have 0
ven 0
ult 0
▁5 0
so 0
ight 0
ated 0
od 0
▁ho 0
▁ag 0
▁ph 0
▁was 0
▁our 0
pl 0
ook 0
ures 0
der 0
... 0
ail 0
ette 0
ours 0
lé 0
one 0
▁fl 0
ices 0
ase 0
én 0
▁inform 0
▁rés 0
ass 0
▁min 0
ach 0
ions 0
ient 0
être 0
éc 0
▁hotel 0
oin 0
▁tout 0
▁parti 0
cial 0
ell 0
▁new 0
ear 0
ost 0
ez 0
app 0
▁trans 0
▁canad 0
tiv 0
je 0
ays 0
▁mon 0
▁acc 0
her 0
▁19 0
). 0
aires 0
▁af 0
ois 0
ack 0
▁ét 0
ber 0
ak 0
▁reg 0
▁op 0
iff 0
▁ter 0
ry 0
▁has 0
ree 0
gh 0
tit 0
▁ob 0
els 0
▁" 0
ip 0
bre 0
iz 0
▁fin 0
ual 0
▁pol 0
▁son 0
aut 0
ric 0
ast 0
ages 0
ible 0
ern 0
▁loc 0
ait 0
▁which 0
ary 0
▁mais 0
ouv 0
▁6 0
▁vis 0
uss 0
▁more 0
ple 0
oy 0
▁cette 0
ll 0
gra 0
▁part 0
ert 0
▁em 0
ét 0
ex 0
▁eu 0
ould 0
ther 0
▁prov 0
▁sec 0
▁intern 0
velo 0
▁pub 0
▁ont 0
▁utilis 0
▁dire 0
▁conf 0
▁if 0
▁200 0
tes 0
ég 0
▁eff 0
ose 0
▁tim 0
use 0
ound 0
ational 0
▁être 0
▁rec 0
▁supp 0
▁diff 0
▁gu 0
▁its 0
▁but 0
ks 0
ms 0
min 0
ome 0
), 0
lect 0
▁spe 0
ount 0
ouver 0
▁br 0
uis 0
cher 0
mo 0
olog 0
ière 0
tive 0
▁sol 0
ici 0
▁their 0
ats 0
▁fe 0
▁dev 0
lle 0
ari 0
teur 0
▁nouve 0
chn 0
enti 0
ress 0
ec 0
▁z 0
▁cor 0
▁rel 0
▁out 0
onne 0
▁mod 0
gan 0
▁entre 0
ical 0
▁7 0
▁tou 0
king 0
▁été 0
iques 0
▁li 0
ils 0
▁one 0
▁commun 0
ves 0
▁« 0
▁up 0
▁vol 0
▁techn 0
ourn 0
▁inst 0
▁tem 0
ande 0
ame 0
▁mont 0
ets 0
▁also 0
▁– 0
ités 0
▁form 0
vent 0
▁comme 0
▁8 0
▁notre 0
▁ind 0
ème 0
ble 0
par 0
▁prof 0
ôtel 0
iew 0
ange 0
ution 0
▁ann 0
▁bl 0
cep 0
▁conc 0
ood 0
plo 0
▁ins 0
▁mat 0
▁sc 0
▁nom 0
igne 0
rib 0
▁other 0
ough 0
▁services 0
cts 0
own 0
▁déc 0
to 0
▁prés 0
▁mé 0
▁progra 0
▁9 0
▁euro 0
▁go 0
▁ta 0
▁sit 0
▁canada 0
▁di 0
▁they 0
▁personn 0
dition 0
▁any 0
▁“ 0
▁donn 0
▁cap 0
▁& 0
cip 0
▁pré 0
▁10 0
▁main 0
▁information 0
alement 0
▁es 0
ai 0
▁trav 0
▁peut 0
▁there 0
▁env 0
elles 0
anc 0
▁ass 0
▁sou 0
▁char 0
ities 0
▁tous 0
▁time 0
▁ver 0
▁sub 0
ition 0
▁» 0
ates 0
▁perm 0
▁ces 0
▁incl 0
ature 0
▁vers 0
▁use 0
rip 0
▁lo 0
▁dem 0
▁cas 0
▁sim 0
oup 0
élé 0
▁year 0
co 0
▁dep 0
ese 0
▁mem 0
▁site 0
ente 0
▁cli 0
▁sal 0
ory 0
▁web 0
con 0
▁x 0
▁rest 0
▁service 0
▁dur 0
ères 0
▁program 0
lement 0
▁bo 0
▁cham 0
ues 0
▁bu 0
ateur 0
▁about 0
▁how 0
ner 0
ession 0
▁ren 0
▁bas 0
▁fil 0
ick 0
ui 0
▁leur 0
we 0
▁find 0
▁poss 0
ian 0
▁rég 0
ade 0
ivers 0
▁who 0
▁met 0
▁peu 0
▁may 0
▁ses 0
▁ent 0
ings 0
▁air 0
endre 0
ild 0
▁cam 0
▁cent 0
▁cour 0
▁dat 0
ys 0
ights 0
▁qual 0
ix 0
ante 0
tique 0
▁vos 0
ouvez 0
▁prem 0
▁cre 0
ême 0
▁port 0
rit 0
▁| 0
vis 0
ath 0
▁organ 0
▁/ 0
ative 0
als 0
ob 0
ger 0
tem 0
▁when 0
▁inc 0
tis 0
ctions 0
▁hôtel 0
▁prin 0
▁télé 0
▁gen 0
▁import 0
▁long 0
▁imp 0
▁his 0
▁fam 0
▁rem 0
▁sé 0
alis 0
▁eng 0
▁fir 0
▁requ 0
▁rep 0
▁pres 0
ication 0
ck 0
comm 0
▁bien 0
▁ty 0
▁pass 0
ft 0
▁num 0
up 0
aine 0
ances 0
▁recher 0
▁than 0
erv 0
▁vo 0
▁fon 0
ally 0
ish 0
ann 0
ains 0
▁public 0
▁: 0
▁hel 0
▁fait 0
▁po 0
▁deux 0
▁aff 0
▁liv 0
▁access 0
raph 0
ater 0
▁exp 0
tement 0
ines 0
▁ég 0
▁ref 0
▁poin 0
▁ca 0
▁activ 0
▁dro 0
rie 0
agn 0
▁work 0
tra 0
pon 0
▁sign 0
iers 0
▁best 0
▁cal 0
val 0
▁these 0
ron 0
▁tw 0
▁hotels 0
utilis 0
very 0
▁add 0
▁bet 0
▁val 0
▁gre 0
land 0
ission 0
▁over 0
▁my 0
▁inf 0
▁book 0
▁place 0
▁high 0
abil 0
▁non 0
▁nos 0
▁mus 0
▁process 0
▁dist 0
▁been 0
▁cré 0
ences 0
▁lors 0
ating 0
ect 0
▁propos 0
ov 0
▁cha 0
▁rev 0
he 0
vel 0
près 0
bl 0
ros 0
000 0
▁id 0
▁20 0
▁bar 0
oll 0
▁situ 0
ca 0
jet 0
▁conne 0
éd 0
▁prix 0
▁dri 0
▁act 0
▁meille 0
▁sys 0
io 0
▁develo 0
▁jus 0
▁pays 0
▁priv 0
ider 0
▁free 0
estion 0
oth 0
ussi 0
ows 0
arch 0
▁gén 0
gr 0
▁faire 0
ales 0
cif 0
▁soci 0
▁bel 0
▁most 0
ises 0
▁doc 0
▁men 0
▁contact 0
▁first 0
▁cert 0
▁dom 0
ren 0
▁kn 0
wn 0
20 0
▁prote 0
▁bus 0
▁sans 0
▁ains 0
▁applic 0
▁what 0
▁ainsi 0
▁grand 0
50 0
ular 0
ables 0
▁dou 0
▁pra 0
nement 0
▁phot 0
▁même 0
ower 0
▁manu 0
▁world 0
por 0
▁develop 0
▁données 0
arge 0
▁some 0
erg 0
▁only 0
pons 0
▁aussi 0
tim 0
▁également 0
bres 0
▁che 0
▁need 0
lish 0
▁ret 0
▁inv 0
▁[ 0
iter 0
▁permet 0
aur 0
▁ve 0
▁hum 0
▁plan 0
lection 0
▁down 0
cc 0
▁were 0
az 0
▁très 0
▁0 0
▁data 0
▁dispos 0
▁design 0
▁indi 0
▁enc 0
▁docu 0
led 0
▁recherche 0
10 0
▁sk 0
▁cou 0
uit 0
isse 0
▁exper 0
ton 0
▁fonction 0
▁envir 0
▁after 0
▁syst 0
▁contin 0
▁appro 0
▁count 0
qui 0
▁quel 0
▁const 0
▁mes 0
▁18 0
▁peop 0
▁comple 0
▁well 0
cted 0
▁log 0
▁éta 0
▁nombre 0
▁international 0
ense 0
▁thr 0
▁them 0
rent 0
ieu 0
▁under 0
▁prop 0
▁elle 0
▁room 0
ches 0
▁vill 0
▁centre 0
▁her 0
▁temps 0
velopp 0
teurs 0
tiques 0
été 0
▁pouvez 0
iste 0
▁ple 0
▁fun 0
ied 0
nes 0
▁tro 0
▁people 0
▁ans 0
▁toute 0
▁12 0
▁fourn 0
endant 0
▁el 0
▁? 0
line 0
▁comment 0
ibil 0
▁cel 0
▁pop 0
▁produits 0
ited 0
any 0
▁sm 0
▁med 0
ouse 0
▁où 0
▁such 0
▁through 0
ditions 0
▁into 0
ty 0
be 0
▁toutes 0
day 0
▁mal 0
▁rece 0
▁15 0
enc 0
▁direct 0
▁développ 0
▁europe 0
▁rapp 0
acc 0
▁après 0
arm 0
▁see 0
▁spé 0
ved 0
era 0
▁conse 0
▁avail 0
▁bro 0
conom 0
ploy 0
▁includ 0
▁used 0
▁get 0
ude 0
ateurs 0
▁hôtels 0
old 0
ital 0
▁gra 0
▁where 0
▁support 0
▁don 0
▁page 0
▁person 0
▁fich 0
▁france 0
▁fra 0
til 0
part 0
▁leurs 0
udi 0
▁mill 0
▁mark 0
ful 0
▁cro 0
oire 0
▁technolog 0
▁help 0
▁two 0
ily 0
▁pa 0
▁sous 0
▁concern 0
▁vie 0
▁depuis 0
▁bre 0
urn 0
ject 0
ges 0
ting 0
▁déf 0
▁partic 0
▁bi 0
▁avant 0
▁very 0
tin 0
▁ke 0
▁respons 0
ident 0
▁génér 0
ides 0
▁should 0
▁set 0
▁dec 0
▁view 0
▁cat 0
▁grat 0
▁rou 0
▁jour 0
▁vi 0
ris 0
▁install 0
▁gar 0
sh 0
éra 0
▁km 0
▁mer 0
201 0
▁ju 0
▁ste 0
▁every 0
▁important 0
▁restaur 0
fore 0
▁peuvent 0
▁end 0
▁présent 0
get 0
erm 0
▁march 0
▁would 0
▁cho 0
▁wind 0
ards 0
▁gener 0
▁make 0
▁suiv 0
iness 0
▁had 0
▁hist 0
▁conn 0
tern 0
▁search 0
▁disc 0
▁fac 0
▁system 0
▁beau 0
▁net 0
ink 0
ather 0
ock 0
vid 0
▁mil 0
▁years 0
▁éc 0
ween 0
▁play 0
▁lim 0
ah 0
autres 0
▁between 0
ulation 0
▁lib 0
ration 0
isation 0
▁available 0
▁ils 0
▁afin 0
xt 0
entif 0
ife 0
▁sant 0
▁autom 0
asse 0
enne 0
▁ris 0
soci 0
ince 0
utions 0
aines 0
ene 0
▁sch 0
▁like 0
▁nor 0
vez 0
ware 0
▁tour 0
rez 0
utes 0
▁flights 0
▁aj 0
lè 0
agne 0
▁city 0
agement 0
▁cur 0
vers 0
ran 0
▁monde 0
esse 0
duc 0
▁autres 0
▁group 0
▁fran 0
wor 0
ina 0
ement 0
▁national 0
▁né 0
▁dispon 0
pect 0
▁change 0
▁lang 0
▁day 0
alth 0
jour 0
▁enf 0
▁inté 0
▁som 0
▁dern 0
rer 0
▁oper 0
▁vari 0
▁différ 0
▁recomm 0
uer 0
▁chaque 0
eau 0
▁conditions 0
ites 0
▁stand 0
vern 0
pt 0
19 0
atis 0
int 0
▁! 0
▁grou 0
▁possible 0
crip 0
▁cours 0
arn 0
ision 0
ced 0
anti 0
▁order 0
▁home 0
load 0
▁mot 0
▁sw 0
aff 0
ural 0
▁bou 0
▁pay 0
ili 0
▁comb 0
▁nature 0
▁30 0
▁bes 0
▁profession 0
▁trouver 0
▁now 0
▁str 0
▁voy 0
▁cust 0
▁int 0
▁contr 0
▁internet 0
▁cher 0
▁ligne 0
▁offer 0
▁perform 0
ug 0
▁business 0
▁sav 0
xim 0
▁ach 0
antes 0
ute 0
▁read 0
ule 0
pond 0
30 0
▁good 0
▁princip 0
▁199 0
ruct 0
▁sel 0
uelle 0
▁point 0
▁pan 0
▁many 0
▁informations 0
▁cult 0
▁custom 0
▁moins 0
▁type 0
▁made 0
▁indust 0
aint 0
▁products 0
mer 0
▁commer 0
ries 0
▁know 0
▁fond 0
▁pur 0
▁pu 0
▁artic 0
▁foll 0
▁personnes 0
▁anal 0
cle 0
▁esp 0
ograph 0
▁open 0
mar 0
bo 0
▁fem 0
écur 0
ctive 0
uses 0
ager 0
▁fois 0
▁ful 0
iel 0
▁mul 0
▁driver 0
▁differ 0
▁employ 0
dit 0
▁tre 0
▁ess 0
▁back 0
▁soit 0
èmes 0
ières 0
let 0
quipe 0
▁att 0
▁système 0
▁voir 0
▁. 0
▁each 0
ha 0
ieux 0
▁particip 0
érie 0
▁2017 0
▁must 0
▁16 0
mber 0
▁14 0
▁accord 0
▁environ 0
▁table 0
▁travail 0
▁child 0
▁health 0
▁govern 0
ibles 0
▁partie 0
aiss 0
▁gl 0
▁class 0
ium 0
▁11 0
▁protection 0
▁100 0
▁por 0
ral 0
ze 0
▁dont 0
▁sécur 0
ications 0
ém 0
ources 0
▁take 0
ars 0
▁follow 0
▁hand 0
ep 0
▁sci 0
▁cer 0
▁mob 0
▁then 0
▁constru 0
▁proper 0
▁train 0
▁inn 0
utilisation 0
▁entrepr 0
▁mainten 0
▁top 0
▁just 0
▁téléch 0
▁probl 0
▁politi 0
ension 0
ik 0
▁water 0
ception 0
ôle 0
▁look 0
▁webs 0
▁programme 0
▁contro 0
fs 0
▁during 0
ial 0
12 0
▁eas 0
▁$ 0
▁require 0
way 0
▁elect 0
▁even 0
▁pouv 0
▁avez 0
▁exam 0
ator 0
▁produit 0
▁associ 0
▁demand 0
aient 0
▁rapport 0
▁clients 0
aces 0
▁préc 0
room 0
▁second 0
tez 0
▁rap 0
▁ext 0
vous 0
▁fab 0
▁24 0
ler 0
su 0
▁download 0
▁camp 0
▁manual 0
▁lead 0
itement 0
▁moy 0
▁jours 0
▁bon 0
▁number 0
▁dés 0
▁hom 0
lev 0
▁mom 0
entes 0
iment 0
▁review 0
lig 0
▁product 0
▁nouveau 0
ving 0
▁she 0
phone 0
▁power 0
row 0
▁univers 0
oud 0
▁était 0
▁17 0
ics 0
▁pi 0
▁file 0
eter 0
▁lit 0
▁large 0
go 0
quer 0
▁autre 0
▁er 0
atique 0
fe 0
▁qualité 0
▁ban 0
urer 0
pé 0
ister 0
▁occ 0
▁arri 0
tière 0
uv 0
▁finan 0
▁cle 0
▁doit 0
▁imm 0
rait 0
▁base 0
▁cela 0
idé 0
▁tit 0
éro 0
mbre 0
▁here 0
▁paris 0
▁online 0
▁év 0
ious 0
▁list 0
▁colle 0
▁super 0
▁cr 0
place 0
ety 0
illes 0
êt 0
▁blo 0
▁location 0
▁life 0
▁tot 0
▁social 0
ules 0
▁lui 0
▁cet 0
red 0
▁rad 0
▁way 0
▁encore 0
ieurs 0
▁pal 0
ests 0
▁fut 0
▁before 0
▁hol 0
aison 0
▁market 0
▁pil 0
quip 0
▁repr 0
dic 0
oi 0
▁hy 0
▁minutes 0
lique 0
▁bal 0
lab 0
▁leg 0
atic 0
▁gouver 0
▁document 0
▁ang 0
hor 0
▁minist 0
ole 0
tails 0
▁gam 0
oration 0
▁ord 0
▁sera 0
▁report 0
▁franç 0
ool 0
▁bed 0
▁jusqu 0
▁real 0
▁again 0
▁ville 0
▁without 0
▁grande 0
▁modif 0
▁development 0
▁date 0
▁transport 0
cription 0
inst 0
11 0
▁right 0
ave 0
▁pat 0
ized 0
▁found 0
ête 0
▁specif 0
▁13 0
▁mic 0
tle 0
mble 0
fact 0
▁jou 0
bec 0
▁house 0
▁nécess 0
▁déb 0
▁near 0
▁maison 0
the 0
▁special 0
▁mach 0
minist 0
▁résult 0
▁pendant 0
▁contre 0
▁ten 0
fr 0
ness 0
come 0
▁contrib 0
tical 0
▁def 0
▁cad 0
▁commission 0
man 0
▁area 0
év 0
▁sout 0
▁cook 0
▁flight 0
▁groupe 0
▁website 0
▁mess 0
▁question 0
▁ev 0
▁trois 0
▁fer 0
ories 0
▁meet 0
▁développement 0
rir 0
▁production 0
▁avoir 0
▁appar 0
▁faç 0
▁san 0
ote 0
▁company 0
▁rent 0
▁organis 0
▁lég 0
▁within 0
▁sécurité 0
▁25 0
▁del 0
▁tri 0
▁own 0
ode 0
▁face 0
▁avons 0
ely 0
inform 0
▁sens 0
▁2016 0
▁great 0
alité 0
ench 0
▁fri 0
sement 0
▁using 0
▁nive 0
ross 0
▁compte 0
▁compos 0
uter 0
ok 0
▁clim 0
▁unique 0
▁plusieurs 0
igin 0
af 0
▁low 0
▁arch 0
▁lab 0
▁nouvelle 0
▁mor 0
éli 0
▁proble 0
▁glo 0
arg 0
ided 0
▁show 0
▁including 0
▁while 0
reg 0
▁those 0
valu 0
▁santé 0
tien 0
▁div 0
▁opp 0
▁different 0
oss 0
▁sem 0
tice 0
▁projet 0
▁+ 0
▁nav 0
▁chambre 0
ience 0
▁cri 0
▁cy 0
▁puis 0
▁demande 0
pes 0
▁windows 0
▁ques 0
▁destin 0
▁compare 0
▁user 0
▁saint 0
orth 0
ash 0
▁stud 0
▁management 0
ma 0
cept 0
uel 0
inter 0
eng 0
fer 0
équ 0
▁quality 0
▁direc 0
la 0
▁questions 0
▁incre 0
▁same 0
▁simple 0
▁law 0
▁want 0
▁last 0
▁visit 0
vention 0
▁adv 0
▁moment 0
▁cir 0
lles 0
▁wom 0
sc 0
▁vide 0
cer 0
èg 0
iles 0
hip 0
▁human 0
▁dép 0
▁français 0
▁bat 0
éta 0
▁provide 0
▁2018 0
jours 0
tres 0
▁gestion 0
▁carte 0
ération 0
cause 0
▁réf 0
onnement 0
fi 0
▁sty 0
▁50 0
▁élect 0
press 0
▁application 0
ret 0
pro 0
▁€ 0
▁tak 0
▁manufact 0
▁because 0
▁anim 0
▁addition 0
cell 0
olution 0
comp 0
▁country 0
▁conten 0
▁chang 0
ctor 0
pri 0
▁level 0
▁personal 0
▁let 0
▁trava 0
▁obje 0
▁dra 0
▁state 0
▁vue 0
▁him 0
60 0
work 0
▁soft 0
▁polic 0
ek 0
▁vac 0
▁stra 0
▁rend 0
▁seu 0
▁cost 0
ties 0
▁does 0
▁sam 0
▁contra 0
atives 0
ser 0
▁trip 0
ability 0
mm 0
▁apart 0
▁droit 0
▁could 0
▁local 0
▁ital 0
15 0
jets 0
▁selon 0
▁days 0
duction 0
df 0
êtes 0
▁jo 0
▁share 0
bers 0
▁jan 0
▁build 0
▁chois 0
ury 0
▁individ 0
▁resear 0
▁light 0
inté 0
ason 0
▁région 0
▁device 0
▁ven 0
▁auc 0
pte 0
▁exem 0
▁instru 0
▁commit 0
oris 0
book 0
▁vols 0
▁obten 0
▁pap 0
▁origin 0
▁sor 0
▁alors 0
▁aug 0
▁première 0
▁instit 0
▁control 0
less 0
▁experience 0
▁fre 0
clus 0
▁moder 0
ird 0
ture 0
▁bra 0
ulaire 0
inn 0
80 0
ires 0
ctif 0
▁petit 0
▁enfants 0
▁loi 0
rique 0
▁journ 0
vision 0
▁europé 0
▁premier 0
ever 0
▁project 0
ino 0
▁studi 0
action 0
▁ir 0
fort 0
▁econom 0
▁2015 0
▁pot 0
▁team 0
▁quelques 0
urg 0
▁art 0
▁care 0
▁culture 0
▁capac 0
elf 0
▁research 0
eur 0
▁chambres 0
▁small 0
isc 0
▁sun 0
▁fle 0
▁facil 0
▁règ 0
▁price 0
▁seulement 0
▁chez 0
▁% 0
▁cop 0
▁— 0
▁particul 0
▁toujours 0
oot 0
▁cheap 0
▁proc 0
▁partir 0
unis 0
▁voyage 0
orer 0
▁land 0
ép 0
▁façon 0
lu 0
▁engine 0
abit 0
rid 0
▁propri 0
▁french 0
▁initi 0
▁personne 0
▁sport 0
▁effect 0
▁stock 0
▁present 0
▁offers 0
▁both 0
24 0
mp 0
▁government 0
▁lorsque 0
200 0
▁représ 0
hic 0
▁photos 0
▁voit 0
▁sl 0
▁réalis 0
▁conseil 0
▁lux 0
ox 0
▁ici 0
oires 0
ax 0
▁modè 0
ield 0
▁mag 0
▁gratuit 0
▁décl 0
▁réser 0
tier 0
▁vit 0
▁version 0
▁effic 0
▁parf 0
▁société 0
▁sau 0
ones 0
▁respect 0
▁being 0
▁environment 0
▁vidé 0
▁current 0
▁iss 0
▁full 0
▁sti 0
▁test 0
▁péri 0
▁since 0
▁red 0
▁family 0
▁maj 0
▁mise 0
▁oct 0
▁shall 0
ervation 0
▁anti 0
▁mu 0
▁dr 0
▁tax 0
ôt 0
itch 0
▁droits 0
▁fabric 0
▁fact 0
▁glob 0
▁children 0
ased 0
▁hau 0
▁case 0
▁mater 0
▁ress 0
▁distrib 0
▁start 0
hôtel 0
eric 0
▁european 0
▁grâ 0
▁micro 0
▁fav 0
25 0
ency 0
▁parten 0
ane 0
▁sites 0
▁activités 0
▁located 0
▁author 0
▁three 0
▁tv 0
▁black 0
ults 0
ends 0
ource 0
▁month 0
▁salle 0
▁grâce 0
ung 0
▁multi 0
nent 0
▁mois 0
▁q 0
▁nat 0
ential 0
und 0
itation 0
▁cos 0
▁code 0
▁impro 0
▁fichier 0
ody 0
▁gard 0
▁économ 0
read 0
▁adap 0
arger 0
tics 0
▁gouvernement 0
mé 0
18 0
▁giv 0
▁jeu 0
ira 0
▁please 0
itions 0
▁ge 0
▁name 0
▁beach 0
▁buy 0
▁region 0
ination 0
▁meilleur 0
▁certif 0
ids 0
outer 0
▁lieu 0
14 0
▁travel 0
ament 0
▁news 0
ume 0
▁niveau 0
tain 0
▁documents 0
qué 0
▁learn 0
▁membres 0
▁fur 0
face 0
hing 0
16 0
atures 0
▁hos 0
▁station 0
▁sélection 0
▁live 0
▁offici 0
amment 0
▁suc 0
▁tar 0
ructure 0
lément 0
▁secur 0
▁2019 0
▁hor 0
abilité 0
▁2012 0
coup 0
cul 0
oint 0
tention 0
▁piè 0
▁said 0
▁intel 0
▁fore 0
▁identif 0
▁# 0
▁ide 0
▁press 0
ward 0
▁cin 0
cont 0
▁solutions 0
▁divers 0
▁general 0
▁logici 0
yn 0
▁did 0
▁ens 0
▁compar 0
▁prom 0
lier 0
▁ear 0
▁2014 0
▁ci 0
▁receive 0
ison 0
▁cadre 0
occ 0
▁tu 0
▁charge 0
▁inde 0
▁aider 0
▁matéri 0
▁offre 0
mi 0
▁etc 0
cy 0
▁caract 0
▁tool 0
other 0
rée 0
▁constit 0
ducation 0
▁années 0
▁états 0
aî 0
▁quand 0
ana 0
▁stay 0
▁beaucoup 0
▁donc 0
▁client 0
▁four 0
dess 0
▁sex 0
▁prices 0
▁corre 0
eff 0
▁account 0
▁around 0
▁united 0
▁food 0
▁women 0
▁résultats 0
▁jam 0
env 0
ization 0
▁dig 0
▁star 0
▁signif 0
▁manière 0
▁article 0
▁septe 0
▁rapide 0
▁expl 0
termin 0
▁trouv 0
ibilité 0
▁deli 0
isme 0
▁afric 0
▁points 0
▁mas 0
▁double 0
▁sing 0
▁stre 0
13 0
▁avait 0
▁savoir 0
▁simil 0
inateur 0
▁god 0
▁diffic 0
▁west 0
▁mondi 0
▁post 0
▁' 0
▁states 0
▁pack 0
▁note 0
cent 0
▁trouvez 0
asion 0
▁viol 0
▁software 0
bles 0
ivent 0
▁rom 0
▁coun 0
oul 0
ended 0
▁following 0
40 0
▁besoin 0
▁dim 0
▁vale 0
▁performance 0
▁rights 0
▁politique 0
▁vic 0
▁regard 0
esp 0
▁parties 0
▁suite 0
ips 0
▁however 0
▁remo 0
▁pages 0
▁peti 0
seigne 0
rieur 0
▁certain 0
▁dispositi 0
▁sud 0
gg 0
ablis 0
▁total 0
▁lum 0
▁promo 0
▁section 0
hui 0
des 0
regist 0
▁sever 0
▁2013 0
ément 0
▁bath 0
▁address 0
ize 0
▁computer 0
▁administ 0
▁> 0
bour 0
▁langu 0
▁catég 0
▁construction 0
▁spécial 0
ways 0
▁exist 0
▁major 0
ots 0
▁via 0
of 0
▁près 0
▁concernant 0
▁vir 0
jourd 0
▁liste 0
omm 0
▁tur 0
lez 0
▁fund 0
▁private 0
érence 0
iod 0
▁working 0
▁agree 0
▁week 0
▁bud 0
▁faci 0
unes 0
▁refer 0
omb 0
▁love 0
▁histor 0
▁restaurants 0
▁sil 0
▁collab 0
by 0
iller 0
▁communaut 0
▁prendre 0
▁far 0
oles 0
érique 0
▁octo 0
▁wi 0
▁gratu 0
rant 0
▁jet 0
off 0
▁phys 0
ctiv 0
▁suff 0
▁maintenant 0
▁ceux 0
cs 0
▁navig 0
▁processus 0
▁cookies 0
ène 0
ls 0
▁tradition 0
▁security 0
cier 0
▁cô 0
istance 0
▁position 0
rier 0
▁countries 0
▁mode 0
▁head 0
▁activities 0
▁marché 0
œuv 0
▁innov 0
ût 0
▁key 0
▁tant 0
lem 0
▁situation 0
▁solution 0
▁lic 0
▁prac 0
▁coule 0
▁allow 0
▁avis 0
▁english 0
erc 0
install 0
rist 0
70 0
gu 0
▁audi 0
▁22 0
▁against 0
itez 0
idence 0
▁professionn 0
▁cuis 0
iner 0
▁map 0
▁energ 0
▁action 0
▁utiliser 0
▁complete 0
istes 0
▁21 0
▁mesure 0
▁consult 0
▁nove 0
▁lat 0
▁sus 0
▁syn 0
▁roy 0
érer 0
eu 0
ately 0
▁und 0
ior 0
cel 0
▁film 0
iens 0
▁canadian 0
▁meas 0
▁représent 0
▁personnel 0
▁war 0
▁maxim 0
▁description 0
▁condu 0
▁nouvelles 0
▁40 0
▁members 0
▁airport 0
▁style 0
aw 0
▁ill 0
▁compr 0
▁wat 0
▁consid 0
wh 0
issance 0
ième 0
▁restaurant 0
▁bén 0
▁based 0
▁• 0
▁wal 0
▁condition 0
▁americ 0
▁consider 0
▁repres 0
▁park 0
▁chec 0
▁moteur 0
ners 0
prise 0
▁découv 0
▁able 0
▁arr 0
▁ni 0
▁mis 0
▁sn 0
pa 0
▁ur 0
▁still 0
▁policy 0
ationale 0
▁school 0
▁bure 0
▁results 0
▁next 0
▁circ 0
ètres 0
ienne 0
bit 0
▁spécif 0
illet 0
▁disponibles 0
▁weather 0
érience 0
ortun 0
orie 0
acy 0
ii 0
▁publi 0
▁grow 0
él 0
▁inves 0
▁lin 0
play 0
▁nord 0
ples 0
hn 0
▁situé 0
orts 0
▁video 0
▁pati 0
▁connect 0
., 0
▁old 0
▁problèmes 0
▁today 0
ateg 0
▁aim 0
▁continu 0
aim 0
▁prior 0
▁optim 0
ario 0
▁relations 0
vo 0
▁compris 0
▁dit 0
▁music 0
▁mobile 0
information 0
ling 0
▁period 0
▁affich 0
▁aujourd 0
lais 0
▁déclar 0
▁commercial 0
▁télécharger 0
▁aur 0
▁manuel 0
ually 0
▁depart 0
▁équipe 0
▁certains 0
▁enter 0
▁particular 0
▁tor 0
▁traitement 0
▁property 0
▁excell 0
ville 0
▁renseigne 0
▁année 0
▁meilleurs 0
▁less 0
▁accue 0
▁ed 0
va 0
▁bene 0
ark 0
▁standard 0
▁compagn 0
iser 0
▁23 0
▁terra 0
▁extra 0
▁community 0
pression 0
▁content 0
▁femmes 0
▁dém 0
alog 0
▁sup 0
▁holid 0
▁2011 0
-- 0
erst 0
gle 0
▁energy 0
gress 0
▁rédu 0
▁game 0
▁close 0
uille 0
▁break 0
▁germ 0
▁rais 0
▁exemple 0
▁works 0
17 0
▁much 0
▁mm 0
▁coo 0
▁call 0
▁chau 0
): 0
cies 0
▁lu 0
▁flo 0
joy 0
iez 0
▁south 0
▁another 0
▁chem 0
▁email 0
▁civ 0
cover 0
▁few 0
▁réc 0
▁record 0
▁hu 0
▁famille 0
▁types 0
▁rooms 0
▁plat 0
pping 0
tems 0
irm 0
▁several 0
fect 0
ism 0
▁seront 0
▁quick 0
union 0
venir 0
anger 0
▁saf 0
▁options 0
att 0
▁rép 0
▁asse 0
▁member 0
▁cm 0
▁sommes 0
▁envoy 0
▁categ 0
▁card 0
▁arm 0
▁tex 0
▁har 0
▁opportun 0
▁gal 0
▁fix 0
▁haut 0
▁conv 0
▁hard 0
▁appli 0
▁ajouter 0
▁entreprises 0
▁abs 0
▁emb 0
▁moyen 0
▁strat 0
çu 0
▁* 0
ara 0
valuation 0
▁éch 0
▁course 0
▁matière 0
▁global 0
▁pilote 0
équipe 0
tor 0
▁enjoy 0
▁mac 0
▁dieu 0
▁déj 0
udes 0
▁mettre 0
iver 0
▁parc 0
resse 0
placement 0
▁bri 0
▁recommand 0
▁ele 0
▁upd 0
▁ouver 0
uellement 0
▁sale 0
edi 0
▁benef 0
▁machine 0
ablish 0
▁source 0
▁cause 0
▁contrôle 0
▁proje 0
▁véri 0
▁êtes 0
▁further 0
▁provided 0
orn 0
▁click 0
▁transm 0
▁continue 0
▁king 0
▁60 0
▁invest 0
▁améli 0
ists 0
▁appel 0
▁déjà 0
▁oblig 0
▁according 0
pir 0
▁mun 0
▁come 0
▁conform 0
▁island 0
▁doivent 0
▁run 0
22 0
▁guide 0
▁technique 0
aide 0
▁partners 0
▁rich 0
▁easy 0
78 0
▁norm 0
▁cuisine 0
▁siè 0
▁collection 0
▁2010 0
▁apartment 0
fic 0
▁images 0
quent 0
▁body 0
▁qué 0
▁tal 0
▁ay 0
▁white 0
▁viv 0
▁check 0
▁range 0
.” 0
▁necess 0
▁travers 0
▁applications 0
▁word 0
▁répond 0
▁utilisé 0
teg 0
voir 0
▁domaine 0
▁renseignements 0
▁impos 0
ng 0
▁territ 0
▁mid 0
▁return 0
▁communication 0
▁vacances 0
ss 0
▁create 0
▁treat 0
▁success 0
99 0
▁goo 0
view 0
▁champ 0
kes 0
▁photo 0
▁ense 0
▁technology 0
▁jul 0
▁vé 0
▁habit 0
▁anci 0
▁jeux 0
▁establish 0
▁always 0
▁event 0
▁tele 0
areil 0
▁problème 0
tant 0
▁short 0
▁nu 0
▁north 0
▁formation 0
▁office 0
ponse 0
▁details 0
▁users 0
▁represent 0
▁minim 0
▁techniques 0
ibility 0
▁28 0
▁conver 0
▁command 0
ley 0
▁systems 0
▁stat 0
artic 0
▁défin 0
▁third 0
▁cra 0
▁specific 0
▁result 0
▁disponible 0
time 0
▁board 0
▁mass 0
▁ensure 0
▁vidéo 0
▁google 0
cast 0
indre 0
▁brand 0
issions 0
eral 0
▁led 0
▁analy 0
éch 0
▁haute 0
▁cover 0
▁effec 0
tr 0
organ 0
ending 0
enn 0
▁stratég 0
ether 0
▁dispositif 0
▁compan 0
▁terr 0
▁financial 0
▁ép 0
▁sac 0
▁analys 0
▁complè 0
uk 0
ulations 0
▁exig 0
▁ps 0
▁happ 0
▁mi 0
▁center 0
▁network 0
serv 0
▁quar 0
▁fig 0
lin 0
▁beg 0
▁message 0
▁lou 0
▁», 0
▁pic 0
▁below 0
▁individual 0
br 0
▁explo 0
▁visite 0
▁cab 0
ban 0
▁appropri 0
▁consul 0
▁période 0
▁vra 0
▁vente 0
▁inte 0
ove 0
onde 0
▁strateg 0
▁mét 0
do 0
▁heures 0
▁elles 0
▁give 0
23 0
▁surve 0
onom 0
▁industri 0
▁underst 0
▁spir 0
▁village 0
urance 0
plement 0
▁adop 0
tist 0
▁connaiss 0
▁voiture 0
▁26 0
▁industry 0
▁regist 0
▁among 0
▁purpos 0
▁related 0
▁christ 0
▁cu 0
▁books 0
atre 0
▁required 0
ouvent 0
▁rôle 0
▁œuv 0
isions 0
itable 0
▁reconn 0
▁perfect 0
▁temp 0
▁000 0
▁forme 0
▁début 0
▁frais 0
▁ouv 0
gé 0
ee 0
vement 0
▁réseau 0
▁franc 0
▁population 0
▁impact 0
▁nouveaux 0
▁include 0
▁va 0
envir 0
tie 0
▁better 0
quez 0
▁bord 0
▁choose 0
▁image 0
atif 0
▁programmes 0
▁pouvoir 0
▁général 0
▁expos 0
▁color 0
▁ber 0
raient 0
▁needs 0
▁natural 0
ought 0
▁route 0
▁terms 0
▁cann 0
orm 0
▁future 0
▁satis 0
lication 0
▁comfort 0
ification 0
respond 0
▁problems 0
▁hours 0
lation 0
dom 0
▁27 0
▁prob 0
90 0
▁features 0
▁magn 0
ony 0
▁créer 0
▁common 0
▁accomp 0
▁model 0
ators 0
▁graph 0
▁discuss 0
▁force 0
▁six 0
▁proté 0
ters 0
▁utilisateurs 0
▁dam 0
▁catégorie 0
▁villa 0
reen 0
▁modèle 0
▁québec 0
▁implement 0
roid 0
commod 0
▁express 0
▁training 0
▁2009 0
▁équip 0
▁complex 0
▁central 0
▁put 0
▁indic 0
ellement 0
▁technical 0
itaire 0
▁livres 0
tent 0
▁mété 0
▁areas 0
cost 0
hy 0
gement 0
▁equip 0
▁times 0
▁distance 0
da 0
▁aver 0
▁line 0
▁annon 0
▁logiciel 0
▁différents 0
ases 0
▁cell 0
▁accommod 0
tig 0
▁élé 0
▁pdf 0
visor 0
mail 0
▁companies 0
▁bureau 0
tiful 0
▁montre 0
▁whether 0
▁electron 0
▁sea 0
▁enregist 0
▁hon 0
▁court 0
." 0
▁séjour 0
▁spa 0
ott 0
▁pièces 0
mbl 0
hod 0
▁prot 0
▁million 0
▁green 0
▁direction 0
▁field 0
▁198 0
▁select 0
▁little 0
▁digital 0
▁garanti 0
▁rencont 0
▁request 0
▁notamment 0
▁reviews 0
▁, 0
▁projets 0
▁contenu 0
▁zo 0
▁fournisse 0
▁faut 0
▁option 0
▁acqu 0
ump 0
▁satisf 0
▁once 0
▁correspond 0
▁millions 0
▁clear 0
▁heart 0
▁souha 0
▁front 0
▁job 0
▁bill 0
cture 0
▁bonne 0
▁régul 0
▁equ 0
▁livre 0
▁zone 0
▁parag 0
ogn 0
▁fire 0
▁celui 0
▁beautiful 0
▁fichiers 0
▁mount 0
▁club 0
▁wel 0
pped 0
▁history 0
75 0
▁nécessaire 0
ka 0
ham 0
ploi 0
▁termin 0
lim 0
▁example 0
usion 0
▁agric 0
▁vendre 0
▁language 0
▁radio 0
▁link 0
▁mission 0
▁font 0
▁suis 0
▁nations 0
▁russ 0
▁foc 0
▁béné 0
▁accès 0
▁building 0
▁living 0
rage 0
▁purch 0
▁déta 0
▁risk 0
issant 0
▁nombreux 0
▁départ 0
▁présente 0
▁articles 0
▁foot 0
bil 0
activ 0
ming 0
▁dav 0
▁space 0
▁porte 0
▁big 0
▁jap 0
tifs 0
▁series 0
▁aucun 0
▁necessary 0
▁exclus 0
étés 0
▁files 0
▁ask 0
ght 0
▁discover 0
▁modern 0
▁aust 0
▁format 0
▁oil 0
▁télécharge 0
▁secteur 0
▁night 0
▁kitch 0
ettes 0
▁mad 0
oins 0
▁fit 0
▁writ 0
uring 0
ering 0
▁outil 0
▁jetcost 0
édi 0
▁muse 0
▁ressources 0
▁town 0
▁committe 0
▁store 0
éré 0
▁technologies 0
itive 0
ying 0
▁pool 0
cteur 0
▁media 0
▁augment 0
▁mesures 0
▁beh 0
▁plate 0
▁souvent 0
▁supplément 0
▁holiday 0
ablissement 0
28 0
▁interest 0
▁keep 0
▁lis 0
cil 0
▁montré 0
21 0
gré 0
ning 0
exp 0
ney 0
hist 0
▁automatic 0
▁automatique 0
▁idé 0
▁rele 0
▁economic 0
▁size 0
▁understand 0
▁plas 0
éric 0
nements 0
▁propose 0
ready 0
▁combin 0
▁active 0
gether 0
▁fed 0
▁together 0
▁mieux 0
▁jud 0
▁ajout 0
▁tow 0
▁sen 0
▁bag 0
▁choix 0
▁means 0
article 0
▁besoins 0
▁valeur 0
endent 0
▁connex 0
▁safety 0
met 0
zz 0
▁places 0
▁desc 0
ano 0
45 0
unch 0
▁looking 0
▁meeting 0
tte 0
▁atte 0
éroport 0
▁fonctionn 0
▁ec 0
▁bathroom 0
▁vérif 0
▁jur 0
▁kitchen 0
▁intro 0
▁titre 0
ba 0
▁problem 0
▁equipment 0
▁value 0
▁lond 0
▁pc 0
▁structure 0
▁ba 0
▁procéd 0
▁consomm 0
▁clos 0
▁finance 0
▁acheter 0
▁answ 0
▁making 0
ops 0
▁clean 0
▁why 0
▁spirit 0
▁paragraph 0
▁objectif 0
▁road 0
thers 0
▁forum 0
▁turn 0
▁supérie 0
▁prépar 0
amp 0
▁fort 0
▁relig 0
▁doll 0
▁games 0
▁2008 0
▁plans 0
▁méth 0
▁reven 0
▁systèmes 0
▁blanc 0
▁série 0
▁parce 0
▁already 0
▁attra 0
▁raison 0
inf 0
▁away 0
▁say 0
▁chap 0
▁education 0
gar 0
fa 0
roit 0
bourg 0
▁vert 0
tient 0
▁photograph 0
▁financi 0
identi 0
▁prév 0
▁party 0
▁marque 0
tm 0
▁studio 0
▁calcul 0
atory 0
▁sho 0
▁popular 0
side 0
▁customer 0
ares 0
ifi 0
▁propre 0
▁reach 0
▁fais 0
ush 0
▁cand 0
▁various 0
▁seul 0
▁ic 0
quoi 0
▁étudi 0
▁fru 0
vious 0
▁method 0
▁terre 0
▁role 0
▁signific 0
▁appr 0
atiques 0
accès 0
▁29 0
▁regular 0
suite 0
année 0
▁élev 0
▁détails 0
▁young 0
erie 0
▁original 0
hib 0
▁artist 0
ieve 0
▁transform 0
▁cit 0
▁». 0
org 0
▁provides 0
26 0
thing 0
▁vou 0
▁often 0
▁emp 0
▁trouve 0
▁electric 0
▁heure 0
▁étaient 0
▁charact 0
▁progress 0
▁taille 0
▁smart 0
▁box 0
▁gold 0
▁bul 0
mit 0
▁staff 0
ledge 0
35 0
▁jard 0
autre 0
▁designed 0
▁accep 0
bi 0
ga 0
▁until 0
oses 0
▁parmi 0
▁lot 0
iding 0
▁hal 0
▁‘ 0
▁surface 0
▁publish 0
▁become 0
▁poly 0
▁coord 0
▁sole 0
▁scientif 0
▁noir 0
ives 0
ws 0
forme 0
▁sent 0
wa 0
▁council 0
illeurs 0
hom 0
quel 0
▁pourquoi 0
▁bâ 0
utilisateur 0
▁pied 0
oney 0
▁temper 0
▁material 0
▁jean 0
▁menu 0
▁customers 0
tures 0
▁confort 0
▁pier 0
▁31 0
▁2007 0
advisor 0
tionn 0
▁offres 0
ront 0
▁corps 0
▁parts 0
ensive 0
▁events 0
▁ordinateur 0
▁museum 0
état 0
▁belg 0
cé 0
ica 0
▁toile 0
car 0
▁above 0
▁installation 0
ades 0
▁chose 0
▁function 0
▁effective 0
▁touch 0
▁convention 0
▁compe 0
▁bout 0
▁redu 0
▁committee 0
▁jamais 0
▁fes 0
▁président 0
anche 0
▁tick 0
▁allem 0
▁due 0
▁wood 0
erre 0
▁ayant 0
▁ap 0
▁bois 0
▁hyd 0
▁recent 0
▁recommend 0
installation 0
▁paper 0
▁chall 0
▁hous 0
▁coup 0
▁bedroom 0
eurs 0
▁détermin 0
▁config 0
▁trop 0
▁caractér 0
▁send 0
ality 0
rés 0
▁poli 0
▁added 0
ifs 0
ker 0
▁wall 0
▁transf 0
▁zoom 0
▁given 0
rim 0
back 0
▁item 0
▁commenc 0
abl 0
▁capital 0
▁cliquez 0
▁carri 0
▁cru 0
ball 0
▁university 0
issez 0
▁90 0
▁text 0
ork 0
▁transfer 0
▁batter 0
▁passe 0
▁past 0
▁professional 0
▁tel 0
▁projects 0
▁véhic 0
▁subject 0
▁pisc 0
▁tas 0
▁proxim 0
▁mars 0
▁similar 0
▁contain 0
100 0
▁thé 0
▁certaines 0
ift 0
dessous 0
▁gens 0
▁trouverez 0
▁différentes 0
▁hot 0
▁strong 0
vier 0
▁électron 0
▁garden 0
uillez 0
▁speed 0
▁hé 0
▁politiques 0
entreprise 0
▁legal 0
na 0
alités 0
oph 0
▁apply 0
lan 0
▁obtenir 0
inc 0
▁mai 0
▁blue 0
cal 0
▁tom 0
▁invol 0
▁commande 0
▁corpor 0
▁tels 0
27 0
▁parking 0
▁months 0
▁category 0
▁side 0
change 0
aging 0
ically 0
olf 0
▁budget 0
isé 0
▁things 0
▁effet 0
▁caus 0
▁lire 0
gen 0
▁environnement 0
▁dès 0
▁anglais 0
▁enti 0
▁conte 0
▁mr 0
▁feel 0
▁archite 0
▁comité 0
▁répar 0
▁watch 0
▁longue 0
▁directement 0
▁mobil 0
ery 0
▁altern 0
airs 0
▁minister 0
▁single 0
▁dyn 0
▁signal 0
▁tempér 0
▁collect 0
▁adj 0
▁dernière 0
▁contract 0
▁européenne 0
▁province 0
▁provin 0
▁deal 0
▁musique 0
▁wish 0
▁paie 0
▁june 0
▁veuillez 0
▁cep 0
▁subst 0
▁additional 0
▁essenti 0
". 0
65 0
▁serve 0
▁évé 0
▁trade 0
▁semaine 0
▁cherche 0
ennes 0
▁jeunes 0
▁celle 0
▁là 0
▁dernier 0
▁audio 0
tition 0
ensemble 0
▁35 0
quelle 0
antage 0
▁encour 0
net 0
▁ski 0
▁réserv 0
▁spect 0
istiques 0
▁stor 0
▁montréal 0
itter 0
▁join 0
▁téléphone 0
▁sujet 0
▁juin 0
fast 0
sp 0
▁accept 0
orted 0
▁kind 0
▁quatre 0
▁appartement 0
auv 0
rêt 0
lex 0
▁trib 0
▁display 0
rement 0
self 0
ilt 0
▁aliment 0
application 0
▁never 0
", 0
▁hd 0
▁agreement 0
ona 0
▁compé 0
▁phili 0
▁laquelle 0
▁numéro 0
▁auprès 0
zer 0
▁taux 0
▁actions 0
▁resources 0
aly 0
▁médic 0
▁moi 0
▁aucune 0
▁pens 0
▁capacité 0
bon 0
▁final 0
▁created 0
▁festiv 0
itor 0
▁guar 0
▁fall 0
outh 0
▁maximum 0
▁ly 0
ué 0
▁china 0
▁rental 0
emploi 0
ime 0
▁chur 0
▁study 0
êts 0
▁improve 0
tir 0
▁médi 0
▁vision 0
no 0
▁pris 0
▁mand 0
▁ep 0
▁préf 0
▁rob 0
▁quelque 0
▁80 0
▁; 0
▁œuvre 0
▁vend 0
▁recogn 0
titude 0
▁union 0
occasion 0
ièrement 0
▁africa 0
▁reli 0
▁vehic 0
▁rév 0
▁cependant 0
▁exc 0
▁500 0
▁sais 0
▁deb 0
▁ii 0
▁knowledge 0
▁pourrait 0
▁booking 0
utiliser 0
▁assess 0
▁mini 0
fl 0
euro 0
ester 0
▁nuit 0
▁durée 0
heet 0
▁therefore 0
▁issues 0
▁others 0
ho 0
can 0
▁think 0
▁save 0
▁femme 0
▁intégr 0
▁pain 0
▁having 0
▁average 0
▁féd 0
ials 0
▁john 0
pper 0
▁decision 0
ada 0
mont 0
▁sum 0
▁tend 0
▁dét 0
ril 0
œur 0
uary 0
▁apr 0
▁ham 0
▁petite 0
ergie 0
▁mich 0
▁mort 0
▁left 0
▁approach 0
▁couleur 0
▁proch 0
▁statis 0
den 0
▁register 0
▁fournir 0
▁ara 0
▁justice 0
▁piscine 0
▁exception 0
▁hold 0
icip 0
▁broad 0
▁2006 0
▁retr 0
▁dess 0
▁too 0
▁flex 0
osph 0
▁july 0
29 0
▁guests 0
▁sure 0
nous 0
ills 0
▁confer 0
▁hommes 0
▁den 0
▁focus 0
▁excellent 0
▁convers 0
▁subs 0
▁membre 0
▁milit 0
▁mix 0
▁ey 0
▁tools 0
▁décision 0
▁fi 0
▁isra 0
▁retour 0
uy 0
aise 0
▁soutien 0
▁entreprise 0
▁ém 0
issent 0
ariat 0
33 0
aring 0
▁president 0
uration 0
▁mc 0
▁création 0
▁septembre 0
▁kil 0
ocra 0
enses 0
▁directly 0
▁gaz 0
univers 0
▁économique 0
▁devrait 0
▁(? 0
uve 0
▁dece 0
▁facebook 0
▁rate 0
▁conven 0
▁nég 0
▁sû 0
▁ensuite 0
uels 0
bs 0
▁flor 0
▁autor 0
▁municip 0
▁requirements 0
▁fonds 0
▁street 0
▁risque 0
.... 0
▁os 0
▁marketing 0
▁nam 0
▁dernières 0
▁ensemble 0
▁juillet 0
éder 0
vi 0
▁bio 0
▁destination 0
ding 0
▁cross 0
▁bank 0
▁déce 0
ligne 0
▁distribution 0
▁relative 0
▁york 0
▁trou 0
lam 0
▁nombreuses 0
ared 0
▁tourn 0
▁sat 0
▁pratique 0
▁din 0
ède 0
▁concent 0
term 0
rich 0
enir 0
aj 0
orter 0
▁challen 0
▁expérience 0
▁asus 0
▁favor 0
▁sports 0
▁devez 0
▁chac 0
▁allows 0
▁dynam 0
▁amount 0
ologie 0
▁advance 0
atoire 0
▁programs 0
▁least 0
ustain 0
▁roman 0
▁meilleure 0
ico 0
asheet 0
▁coû 0
était 0
raî 0
▁partager 0
▁conseils 0
appro 0
irt 0
iled 0
environnement 0
▁deta 0
aisse 0
▁amb 0
▁bab 0
▁vér 0
nel 0
▁gir 0
▁perman 0
▁exerc 0
▁livra 0
▁simp 0
ulture 0
âte 0
▁efforts 0
▁ministre 0
▁facile 0
▁param 0
▁increase 0
▁match 0
▁atta 0
quant 0
▁known 0
▁along 0
▁speak 0
ival 0
▁cut 0
▁conséqu 0
énergie 0
rice 0
▁proximité 0
ology 0
▁vin 0
aged 0
ither 0
▁64 0
▁participants 0
▁previous 0
▁mig 0
tisse 0
écran 0
uc 0
▁2000 0
rite 0
▁pren 0
▁donner 0
▁infr 0
▁propriété 0
aster 0
rou 0
▁director 0
▁september 0
▁collaboration 0
▁janvier 0
▁confirm 0
alogue 0
▁sector 0
ds 0
tile 0
▁adapt 0
▁reason 0
ake 0
za 0
▁eux 0
▁defin 0
▁groupes 0
▁hp 0
▁age 0
▁accommodation 0
▁frame 0
alisation 0
imp 0
55 0
▁auto 0
histoire 0
yl 0
▁bor 0
▁ben 0
▁côté 0
▁précéd 0
▁sustain 0
▁technologie 0
▁students 0
onst 0
▁règlement 0
rop 0
bru 0
▁sound 0
▁donné 0
▁manufacturer 0
rig 0
▁soient 0
▁décembre 0
▁upon 0
▁master 0
▁influ 0
orte 0
▁appear 0
dec 0
▁squ 0
pective 0
oudre 0
▁compagnies 0
▁might 0
▁adm 0
aume 0
▁character 0
▁concer 0
▁science 0
▁connexion 0
leg 0
▁sein 0
▁secret 0
pital 0
▁forces 0
▁coff 0
jo 0
▁communauté 0
▁météo 0
▁rendre 0
▁motor 0
▁teach 0
▁ul 0
64 0
▁nut 0
▁journée 0
▁nice 0
▁jardin 0
▁alm 0
▁facilities 0
ensions 0
indust 0
▁deliver 0
tives 0
▁candid 0
ça 0
▁clin 0
ceed 0
riv 0
▁across 0
▁spr 0
èrent 0
▁ip 0
ired 0
▁artis 0
▁estim 0
▁ontario 0
▁err 0
▁renfor 0
▁session 0
atifs 0
▁donne 0
▁commerce 0
▁instal 0
▁ast 0
pecial 0
▁strip 0
edia 0
▁aw 0
ky 0
atell 0
▁bur 0
▁included 0
asing 0
▁administra 0
▁sand 0
▁rac 0
▁lorsqu 0
ola 0
inning 0
ini 0
▁instructions 0
▁responsable 0
▁safe 0
▁steel 0
▁éto 0
homme 0
▁october 0
▁police 0
▁institutions 0
▁organiz 0
▁rue 0
▁croissance 0
ably 0
▁five 0
▁gamme 0
ète 0
.) 0
▁octobre 0
igine 0
cd 0
son 0
▁materials 0
▁ball 0
▁sell 0
▁delivery 0
▁participation 0
né 0
▁particulier 0
▁changes 0
▁cannot 0
prit 0
▁taken 0
▁rapidement 0
▁monitor 0
▁lois 0
▁manuals 0
upart 0
▁drive 0
▁plupart 0
bes 0
dam 0
▁température 0
cra 0
▁temperature 0
▁lac 0
▁leaders 0
▁treatment 0
tise 0
▁ferm 0
▁pie 0
▁december 0
▁assist 0
▁deuxième 0
▁partenaires 0
ena 0
▁bay 0
▁améric 0
▁certific 0
▁association 0
▁issue 0
▁privacy 0
odes 0
▁outre 0
fois 0
▁plage 0
▁dél 0
▁pouvons 0
▁farm 0
▁caf 0
▁ms 0
▁maintain 0
▁autoris 0
▁phone 0
▁diam 0
▁january 0
▁screen 0
▁groups 0
▁partner 0
▁permettre 0
▁august 0
aît 0
actions 0
▁couver 0
aître 0
▁bring 0
▁thanks 0
▁quelle 0
eux 0
oti 0
▁lanc 0
▁remain 0
▁novembre 0
▁mur 0
▁neu 0
▁â 0
▁grands 0
▁cœur 0
▁dv 0
▁ble 0
▁crit 0
▁plant 0
▁spain 0
▁autour 0
▁sony 0
▁70 0
▁contacter 0
32 0
▁van 0
▁society 0
ulaires 0
▁resort 0
times 0
▁lumière 0
▁church 0
ublic 0
▁friend 0
▁labor 0
board 0
▁germany 0
over 0
▁smo 0
▁limit 0
▁livraison 0
cteurs 0
▁called 0
umer 0
▁pen 0
▁guarante 0
▁uk 0
heure 0
▁juste 0
ama 0
▁difficult 0
▁april 0
▁internationale 0
tières 0
▁attention 0
▁exec 0
▁2005 0
▁terme 0
▁relev 0
house 0
dez 0
48 0
▁malad 0
▁phil 0
ych 0
▁beaut 0
ube 0
rict 0
▁growth 0
▁passer 0
▁held 0
▁belle 0
liance 0
ream 0
▁satell 0
▁guid 0
kn 0
▁mondiale 0
▁salon 0
▁paul 0
▁responsible 0
▁utilisez 0
▁yet 0
agit 0
▁blog 0
▁civil 0
▁plein 0
▁gros 0
êmes 0
▁gé 0
▁fish 0
▁patients 0
▁climate 0
ees 0
iés 0
▁political 0
intern 0
▁durant 0
▁money 0
ram 0
ij 0
▁étant 0
▁breakfast 0
key 0
ouss 0
▁journal 0
▁équ 0
▁matériel 0
oût 0
▁gas 0
▁floor 0
▁ground 0
liers 0
▁costs 0
ël 0
▁cot 0
mon 0
▁received 0
▁locations 0
gth 0
▁facilement 0
▁der 0
▁fonctions 0
▁hors 0
▁ton 0
▁soins 0
▁compati 0
▁ment 0
▁fév 0
▁cases 0
▁harm 0
▁usb 0
ured 0
▁faites 0
▁protect 0
ised 0
aud 0
▁cart 0
▁virt 0
▁significant 0
▁sén 0
rength 0
pected 0
▁connection 0
gas 0
▁tempor 0
ption 0
▁tiss 0
▁developed 0
▁alb 0
▁devant 0
pects 0
▁confi 0
▁lut 0
▁langue 0
▁includes 0
▁limited 0
▁plann 0
hu 0
▁éléments 0
▁fast 0
▁arg 0
▁ing 0
sur 0
▁chat 0
▁peace 0
pad 0
▁45 0
▁prim 0
ank 0
▁department 0
▁utilisant 0
▁devices 0
▁indep 0
▁rome 0
▁reste 0
▁really 0
▁sources 0
▁vitesse 0
▁classe 0
▁succ 0
▁copy 0
▁capit 0
▁pla 0
uner 0
▁soleil 0
▁lord 0
▁casino 0
▁méc 0
▁cath 0
▁currently 0
▁musée 0
même 0
cm 0
▁band 0
▁homme 0
ray 0
uelles 0
▁serait 0
▁november 0
▁makes 0
▁pierre 0
cte 0
▁indép 0
▁glass 0
▁strength 0
enf 0
▁directeur 0
▁guest 0
▁vib 0
▁try 0
ria 0
▁contem 0
▁communi 0
▁travaill 0
▁exclusive 0
▁simplement 0
▁étr 0
▁moyenne 0
▁modèles 0
▁lake 0
▁ot 0
▁erre 0
▁dan 0
▁entière 0
▁choisir 0
roy 0
▁edition 0
pecially 0
▁spéci 0
▁activity 0
erez 0
▁pron 0
,” 0
▁cinq 0
europe 0
▁promotion 0
▁ib 0
box 0
▁whole 0
eria 0
▁́ 0
▁passion 0
▁commentaires 0
▁later 0
▁référence 0
▁tes 0
▁bains 0
▁intéress 0
▁avril 0
td 0
▁imposs 0
▁actuellement 0
ged 0
▁medical 0
burg 0
hum 0
▁disp 0
plac 0
▁everything 0
ata 0
▁-- 0
▁personnelles 0
▁river 0
hold 0
industrie 0
▁ideal 0
mark 0
▁chine 0
▁info 0
▁east 0
▁submit 0
▁février 0
avoir 0
ological 0
▁guerre 0
▁chef 0
dé 0
ctives 0
▁american 0
oid 0
▁attend 0
▁festival 0
men 0
▁dollars 0
▁tag 0
▁cul 0
▁villes 0
95 0
iction 0
▁standards 0
▁mouve 0
onnes 0
iné 0
tiqu 0
▁claim 0
lines 0
▁austral 0
▁canadien 0
▁affaires 0
hi 0
▁built 0
▁proced 0
tity 0
sa 0
tissement 0
▁état 0
▁obtain 0
térie 0
▁fully 0
▁easily 0
▁magnif 0
lise 0
▁mean 0
aries 0
▁thus 0
▁sle 0
amb 0
▁efficace 0
onto 0
▁complet 0
▁sales 0
▁famili 0
▁golf 0
elves 0
urr 0
▁lien 0
▁répondre 0
▁platform 0
▁souhaitez 0
▁cd 0
bas 0
▁réponse 0
▁bénéfic 0
▁dispose 0
▁publié 0
▁mex 0
▁season 0
▁senti 0
▁compon 0
▁doss 0
ablement 0
▁datasheet 0
cles 0
▁ath 0
ttes 0
▁outils 0
▁lun 0
▁chin 0
▁update 0
▁capacity 0
▁payment 0
▁android 0
hô 0
établissement 0
▁mind 0
▁générale 0
▁notif 0
informations 0
▁parfa 0
▁pet 0
▁basic 0
issement 0
ologiques 0
bruary 0
▁liqu 0
▁solve 0
▁valid 0
▁choses 0
▁bâti 0
chan 0
▁voulez 0
▁infrast 0
36 0
▁maintenance 0
▁pourrez 0
▁conference 0
▁héber 0
gment 0
▁centr 0
▁entire 0
38 0
▁cast 0
▁conception 0
”. 0
rons 0
▁operating 0
▁nation 0
▁barcel 0
ié 0
idents 0
▁anne 0
▁occup 0
▁coop 0
▁seule 0
▁organization 0
soft 0
umin 0
▁especially 0
térieur 0
▁médec 0
▁ram 0
▁tiers 0
▁aide 0
origine 0
▁300 0
▁modifier 0
▁impossible 0
ief 0
▁immedi 0
▁chauff 0
▁siècle 0
▁agency 0
visions 0
▁cloud 0
mosph 0
▁vent 0
▁paiement 0
▁grandes 0
uts 0
uent 0
illance 0
appareil 0
▁riv 0
▁mos 0
▁fair 0
▁comprend 0
▁chris 0
▁manuels 0
word 0
▁walk 0
▁going 0
▁concept 0
34 0
apes 0
▁boî 0
nelle 0
▁regional 0
▁early 0
ignes 0
▁suisse 0
▁permis 0
▁rates 0
77 0
▁analysis 0
▁jac 0
ified 0
▁gran 0
▁petits 0
▁environmental 0
bert 0
▁measures 0
rimer 0
▁friends 0
▁pilot 0
▁soul 0
uant 0
▁choice 0
▁publique 0
▁typ 0
hol 0
▁decl 0
▁durable 0
▁août 0
▁télévision 0
▁fins 0
▁volume 0
ciation 0
▁step 0
ige 0
▁brow 0
▁susp 0
▁integr 0
▁feature 0
▁meilleures 0
affaires 0
iling 0
cia 0
▁tips 0
▁february 0
lit 0
▁faible 0
▁toutefois 0
▁win 0
erve 0
▁parents 0
▁notice 0
▁réservation 0
▁nationale 0
▁accessoires 0
▁bain 0
▁extension 0
aissance 0
ponses 0
▁licence 0
▁accueil 0
▁wide 0
▁portug 0
▁ax 0
▁export 0
▁minimum 0
ya 0
▁federal 0
▁kilom 0
▁dates 0
▁conformément 0
▁possibilité 0
anne 0
▁soir 0
usement 0
▁sky 0
▁therm 0
▁organisation 0
aps 0
▁simply 0
▁official 0
▁solid 0
▁supply 0
▁réservez 0
▁fonctionne 0
▁agré 0
▁plac 0
▁découvrir 0
île 0
▁sciences 0
ground 0
▁observ 0
▁accessible 0
▁summer 0
dessus 0
▁rare 0
▁arriv 0
▁personnalis 0
ja 0
▁fréqu 0
▁taking 0
▁symb 0
▁satellite 0
▁rock 0
▁london 0
▁throughout 0
▁century 0
ki 0
▁outside 0
▁réponses 0
▁bad 0
temps 0
▁repro 0
loc 0
▁italy 0
▁exigences 0
▁accessories 0
itage 0
ething 0
▁organisations 0
▁sugg 0
▁subse 0
rate 0
▁caractéristiques 0
èque 0
▁ministère 0
oque 0
porte 0
▁ajouté 0
▁transpar 0
▁nutri 0
▁server 0
pre 0
▁host 0
▁rien 0
▁forecast 0
works 0
administ 0
▁gratuitement 0
ologique 0
anch 0
▁messages 0
▁quebec 0
ects 0
▁surv 0
▁cooper 0
▁communications 0
▁bour 0
▁2004 0
▁complète 0
▁propriéta 0
▁republic 0
▁foreign 0
▁fant 0
▁levels 0
ublique 0
▁immédi 0
▁prest 0
▁cé 0
▁mécan 0
▁purchase 0
▁edit 0
▁machines 0
▁pratiques 0
▁exchange 0
▁potenti 0
▁self 0
▁arts 0
▁prep 0
▁tard 0
ster 0
▁insc 0
▁separ 0
▁firm 0
▁chance 0
agers 0
▁comparez 0
▁rout 0
▁violence 0
▁concl 0
▁chauss 0
▁découvrez 0
quipped 0
▁something 0
▁réglement 0
▁done 0
”, 0
▁surf 0
▁toronto 0
argent 0
▁experts 0
▁utilisation 0
68 0
aily 0
accord 0
▁prise 0
▁selection 0
▁struct 0
▁réduire 0
inary 0
▁principal 0
enligne 0
dle 0
▁miss 0
▁royal 0
tian 0
▁films 0
▁chaî 0
▁move 0
05 0
▁mari 0
▁diagn 0
44 0
▁announ 0
▁nécessaires 0
▁compren 0
import 0
▁ever 0
▁mondial 0
lected 0
▁vraiment 0
round 0
▁hall 0
▁rouge 0
▁credit 0
évaluation 0
▁disposition 0
▁couleurs 0
▁changement 0
▁canadiens 0
▁poids 0
▁améliorer 0
acité 0
▁welcome 0
▁death 0
▁cultural 0
▁america 0
iture 0
▁... 0
▁concerning 0
▁réunion 0
▁relation 0
▁domin 0
▁rub 0
▁jurid 0
▁trouvé 0
▁connected 0
▁fils 0
▁tell 0
▁vig 0
iennent 0
▁lesqu 0
ores 0
col 0
▁quanti 0
▁risques 0
▁processing 0
▁manager 0
èle 0
▁investment 0
tease 0
ender 0
▁aller 0
▁opportunity 0
▁relax 0
▁electronic 0
▁flow 0
▁cycle 0
▁confiance 0
rire 0
▁mètres 0
▁mel 0
▁ray 0
▁numérique 0
▁pom 0
▁shop 0
▁puissance 0
jeuner 0
ocol 0
▁affect 0
▁deals 0
▁kit 0
inte 0
▁path 0
▁gau 0
▁published 0
intérieur 0
▁comes 0
▁exhib 0
▁appropriate 0
▁saison 0
▁almost 0
▁launch 0
▁striptease 0
explo 0
▁privé 0
tout 0
lies 0
▁suivant 0
▁employees 0
▁var 0
issons 0
▁ago 0
pdf 0
▁daily 0
gy 0
▁benefits 0
apr 0
▁pharm 0
▁round 0
▁éner 0
▁weight 0
▁filter 0
▁hostel 0
▁câ 0
▁aqu 0
▁operation 0
▁objectifs 0
▁collabor 0
▁longer 0
▁travaux 0
▁celles 0
▁purposes 0
▁pul 0
ored 0
tices 0
▁max 0
espace 0
▁describ 0
ordinateur 0
▁took 0
gs 0
31 0
▁feu 0
▁versions 0
▁basis 0
▁termes 0
sung 0
▁emerg 0
▁paragraphe 0
▁ça 0
▁formulaire 0
ppe 0
▁sett 0
érations 0
améli 0
umes 0
▁conférence 0
▁dépos 0
▁psych 0
▁studies 0
▁remar 0
uni 0
▁intellig 0
▁idéal 0
▁fonctionnement 0
utive 0
expérience 0
▁mp 0
▁actual 0
▁either 0
▁latest 0
▁rose 0
ifest 0
▁loss 0
gue 0
▁zones 0
▁furn 0
▁jack 0
39 0
▁potential 0
▁feed 0
ève 0
▁offic 0
▁lik 0
hern 0
02 0
onie 0
▁bit 0
ads 0
▁flat 0
▁oppos 0
▁eur 0
37 0
▁equipped 0
▁prend 0
habit 0
mment 0
▁978 0
▁orient 0
▁uniquement 0
▁western 0
▁tir 0
▁rail 0
▁travailler 0
▁unit 0
▁rules 0
achat 0
67 0
ening 0
▁skin 0
qués 0
▁tent 0
▁passé 0
▁former 0
nez 0
▁leave 0
▁chemin 0
▁shi 0
08 0
▁fabricant 0
bur 0
▁ali 0
▁sym 0
▁navigation 0
ility 0
▁auth 0
▁sociétés 0
▁liber 0
▁appare 0
▁bib 0
▁profiter 0
ago 0
rière 0
▁méd 0
▁responsabilité 0
▁permettant 0
▁dipl 0
▁essay 0
▁contempor 0
ished 0
après 0
▁propres 0
▁montreal 0
▁patri 0
▁dress 0
▁suites 0
▁événements 0
▁applicable 0
▁démar 0
▁samsung 0
▁parli 0
itiz 0
inaire 0
▁player 0
▁cities 0
▁laiss 0
▁européen 0
▁boutique 0
▁appe 0
▁santa 0
université 0
▁telles 0
▁tab 0
▁phase 0
▁camping 0
▁acad 0
ètre 0
▁opin 0
bor 0
▁proven 0
88 0
▁storage 0
▁république 0
pool 0
▁introdu 0
▁liens 0
▁premières 0
▁assurer 0
▁fib 0
otidi 0
▁réserver 0
▁2003 0
▁animaux 0
▁stop 0
▁industrial 0
▁32 0
bar 0
▁coûts 0
▁150 0
▁regulations 0
04 0
▁royaume 0
▁fédér 0
eth 0
itaires 0
▁annual 0
ctement 0
▁fly 0
ounts 0
▁quotidi 0
▁determin 0
euv 0
▁deven 0
▁camera 0
▁purpose 0
▁amis 0
oute 0
▁centres 0
étique 0
2017 0
▁supplémentaires 0
cious 0
▁dise 0
▁occasion 0
▁japan 0
▁té 0
▁whe 0
▁views 0
ida 0
▁soon 0
▁links 0
tawa 0
▁button 0
▁quartier 0
▁da 0
▁dot 0
organisation 0
▁heav 0
▁2020 0
aix 0
▁privée 0
▁garantie 0
▁los 0
dule 0
▁souff 0
▁fournisseurs 0
▁effets 0
intégr 0
▁assistance 0
ising 0
▁lequel 0
▁attrib 0
▁gall 0
▁mots 0
tc 0
▁extre 0
▁succès 0
▁diri 0
▁adver 0
▁terrain 0
ridge 0
tenir 0
redi 0
▁reference 0
▁came 0
▁mechan 0
rées 0
fully 0
position 0
▁adresse 0
▁ra 0
▁inclus 0
ands 0
hés 0
▁reç 0
▁ros 0
▁professionnels 0
star 0
▁sain 0
ancing 0
▁las 0
▁employés 0
▁particulièrement 0
▁contrô 0
▁hi 0
▁milieu 0
gl 0
▁uses 0
▁fres 0
▁tête 0
▁wire 0
olu 0
▁partici 0
▁gratuite 0
▁père 0
▁vertu 0
tements 0
▁prevent 0
▁apartments 0
▁études 0
▁existe 0
▁résoudre 0
▁caractère 0
▁hong 0
▁recevoir 0
▁surround 0
▁ol 0
▁stream 0
▁providing 0
▁models 0
▁vu 0
▁suivi 0
▁traditional 0
▁communities 0
asons 0
▁half 0
illed 0
▁leader 0
▁earth 0
▁considered 0
▁étrang 0
▁chron 0
▁détaill 0
▁takes 0
ura 0
▁chacun 0
économ 0
▁independent 0
quet 0
▁incor 0
irs 0
▁nour 0
▁dry 0
▁steps 0
▁famil 0
▁sûr 0
aï 0
internet 0
▁tickets 0
▁parliament 0
▁quickly 0
lock 0
▁regul 0
ruction 0
▁adult 0
▁stratégie 0
▁comprendre 0
▁entièrement 0
▁maî 0
▁atmosph 0
▁appareil 0
▁soum 0
▁rang 0
▁beginning 0
▁print 0
▁pou 0
though 0
▁recommended 0
▁sin 0
▁réper 0
mobil 0
▁notes 0
06 0
▁surveillance 0
▁bate 0
▁importants 0
▁règles 0
▁strategy 0
▁texte 0
cté 0
▁loin 0
▁shower 0
▁sort 0
▁blu 0
07 0
▁chann 0
▁châte 0
▁luxury 0
▁libre 0
▁jouer 0
!! 0
▁huile 0
▁comments 0
▁wine 0
]. 0
▁comfortable 0
▁vidéos 0
iterran 0
ians 0
anda 0
▁dvd 0
▁confidenti 0
▁écrit 0
▁stage 0
▁wid 0
eto 0
▁enough 0
▁established 0
▁true 0
▁award 0
▁species 0
▁flu 0
▁apple 0
vidence 0
▁chair 0
▁vul 0
▁higher 0
▁persons 0
▁exéc 0
▁cry 0
▁swe 0
▁pê 0
▁› 0
▁answers 0
rations 0
▁reti 0
▁mention 0
66 0
▁institution 0
▁amaz 0
ato 0
▁étoiles 0
ew 0
▁flash 0
isl 0
▁prefer 0
oxy 0
▁innovation 0
rome 0
▁larg 0
▁balcon 0
▁balance 0
▁shopping 0
▁normes 0
uted 0
toy 0
▁ow 0
▁effects 0
▁although 0
▁ult 0
yer 0
▁investig 0
▁logo 0
▁plais 0
▁quan 0
▁yourself 0
▁demander 0
▁bir 0
vie 0
▁slo 0
grès 0
▁illust 0
sw 0
▁moyens 0
▁seem 0
▁favoris 0
▁sorte 0
03 0
▁quantité 0
▁café 0
▁dest 0
▁75 0
▁consist 0
▁argent 0
autor 0
▁changements 0
▁recherchez 0
▁radi 0
▁publication 0
▁coast 0
▁proches 0
ller 0
▁utilisés 0
▁alternative 0
isée 0
▁principaux 0
09 0
▁kingdom 0
▁contribution 0
▁essential 0
▁fine 0
▁regarding 0
▁accueill 0
▁father 0
isson 0
▁israel 0
▁secure 0
▁chers 0
▁cancer 0
▁immédiate 0
▁oly 0
comes 0
▁étudiants 0
▁automatically 0
asc 0
▁implementation 0
▁measure 0
▁correct 0
▁cable 0
▁aéri 0
▁espace 0
▁pourraient 0
▁financement 0
▁sociaux 0
▁bouton 0
cam 0
▁enh 0
▁swim 0
▁déclaration 0
▁conclus 0
▁term 0
ault 0
▁gro 0
isant 0
▁towards 0
▁assemb 0
▁rapports 0
ovation 0
▁espagne 0
ny 0
▁gene 0
▁pros 0
ouest 0
appar 0
▁lower 0
wood 0
esprit 0
▁summ 0
▁properly 0
cement 0
▁présence 0
▁én 0
▁inspir 0
▁calend 0
oré 0
uler 0
alyse 0
aste 0
bu 0
▁écran 0
▁practice 0
▁itself 0
▁organizations 0
aéroport 0
quée 0
▁jes 0
aves 0
▁fen 0
▁proche 0
▁associated 0
▁pièce 0
▁response 0
▁terrasse 0
▁draw 0
▁pén 0
▁électrique 0
▁parlement 0
▁ltd 0
▁metal 0
▁shows 0
set 0
▁modes 0
▁sépar 0
▁fu 0
▁written 0
érences 0
illa 0
▁reçu 0
69 0
ogne 0
▁olymp 0
▁bille 0
▁envoyer 0
▁thre 0
▁aéroport 0
▁2002 0
nels 0
▁située 0
▁remove 0
▁operations 0
▁cele 0
dies 0
▁électronique 0
▁integra 0
▁expéri 0
avis 0
▁tribun 0
▁allemagne 0
eaux 0
▁verre 0
▁partenaire 0
▁joint 0
▁citiz 0
▁title 0
▁prec 0
▁salles 0
fin 0
ché 0
▁correctement 0
▁permettent 0
▁protéger 0
▁fantas 0
▁sustainable 0
gements 0
cipl 0
▁utilise 0
bn 0
ken 0
ras 0
▁instruments 0
▁prévisions 0
importe 0
▁197 0
▁cartes 0
▁princi 0
▁dru 0
▁plut 0
▁devraient 0
administration 0
▁assur 0
▁diagnos 0
▁48 0
▁histoire 0
▁contrat 0
▁bot 0
▁bang 0
▁items 0
ivre 0
▁choisissez 0
▁espè 0
▁swit 0
▁avaient 0
ging 0
sec 0
▁track 0
▁panel 0
▁pressure 0
put 0
▁usa 0
ength 0
▁spectac 0
▁expect 0
49 0
▁aspects 0
▁heritage 0
coming 0
▁concerne 0
tish 0
▁though 0
▁maisons 0
▁sched 0
▁hospital 0
▁tand 0
▁variety 0
▁selected 0
▁vérifier 0
éducation 0
ero 0
▁visual 0
▁reduce 0
▁square 0
islation 0
▁leading 0
▁2001 0
▁endroit 0
▁german 0
▁magas 0
▁logiciels 0
▁permanent 0
▁goods 0
▁presse 0
▁historique 0
▁souh 0
▁créé 0
▁premium 0
▁planning 0
▁installed 0
▁functions 0
activité 0
▁gh 0
ym 0
▁tableau 0
▁400 0
▁spécifiques 0
door 0
▁benefit 0
▁reports 0
▁completely 0
intérêt 0
▁crimin 0
where 0
▁imag 0
▁deep 0
▁marche 0
lands 0
▁entier 0
▁nettoy 0
ènes 0
▁wed 0
orge 0
▁amend 0
,... 0
▁particularly 0
▁déclaré 0
▁rain 0
▁généralement 0
isez 0
▁accordance 0
see 0
▁tarifs 0
▁economy 0
▁souhait 0
right 0
▁positive 0
▁deg 0
▁réun 0
▁montant 0
▁merc 0
▁angel 0
agner 0
dire 0
▁valeurs 0
▁ready 0
▁connaissance 0
oli 0
▁lam 0
▁minute 0
▁ceci 0
▁suivre 0
▁datab 0
▁douche 0
▁rot 0
bb 0
naire 0
▁commerci 0
▁compagnie 0
▁module 0
▁david 0
▁berlin 0
47 0
▁profit 0
▁words 0
pc 0
ague 0
▁iso 0
▁assez 0
▁load 0
▁mouvement 0
active 0
▁luxe 0
▁believe 0
▁profile 0
▁relevant 0
▁ouvert 0
▁voitures 0
▁importance 0
▁rig 0
associ 0
▁découver 0
▁marchés 0
▁stations 0
▁ling 0
▁courses 0
▁exact 0
▁surtout 0
▁expected 0
usse 0
▁visant 0
▁contient 0
▁panier 0
▁mountain 0
enz 0
▁forward 0
ancouver 0
berg 0
▁winter 0
well 0
▁existing 0
istan 0
umb 0
atisation 0
▁retra 0
▁oce 0
▁attack 0
based 0
▁afrique 0
▁partage 0
▁japon 0
▁sang 0
85 0
▁microsoft 0
ias 0
▁policies 0
▁configuration 0
yle 0
▁voici 0
▁obtenez 0
▁story 0
▁authorities 0
▁offrir 0
ordre 0
▁peau 0
▁importante 0
ueur 0
objet 0
▁warm 0
▁wond 0
▁billets 0
ula 0
avant 0
▁index 0
▁needed 0
pack 0
light 0
ml 0
▁ml 0
gin 0
▁mél 0
▁matériaux 0
▁stress 0
▁lan 0
▁expertise 0
▁réduction 0
▁° 0
▁niveaux 0
▁vehicle 0
▁téléchargement 0
▁portable 0
▁réserve 0
exploitation 0
moire 0
▁appareils 0
▁greater 0
▁familles 0
▁liés 0
cr 0
▁plutôt 0
ctors 0
▁started 0
▁cool 0
▁acier 0
entrée 0
▁pression 0
▁bleu 0
▁agents 0
▁conservation 0
▁aura 0
iaires 0
▁parfois 0
▁domaines 0
▁terrace 0
▁recue 0
▁évalu 0
▁lieux 0
veux 0
▁chim 0
▁entraî 0
▁tap 0
▁twitter 0
▁bedrooms 0
effic 0
▁côte 0
▁ways 0
▁peint 0
▁moderne 0
▁mys 0
hood 0
▁suivantes 0
more 0
▁fabrication 0
▁release 0
zerland 0
▁mauv 0
▁rappel 0
ify 0
▁dedic 0
▁offered 0
équipement 0
▁36 0
arr 0
▁bru 0
estre 0
▁restric 0
▁dég 0
▁immediately 0
▁bey 0
▁paix 0
▁commence 0
▁jés 0
dy 0
anci 0
kt 0
▁profil 0
iant 0
érés 0
▁matter 0
▁carry 0
▁pleas 0
▁semaines 0
▁fight 0
▁album 0
analyse 0
▁vancouver 0
▁régime 0
riez 0
▁avoid 0
encies 0
▁crédit 0
▁sortie 0
▁pense 0
▁résultat 0
▁seconde 0
▁offering 0
▁ru 0
▁fournit 0
▁connaissances 0
▁remote 0
ota 0
▁citoy 0
▁demandes 0
▁sold 0
▁middle 0
rain 0
▁possibil 0
▁washing 0
▁italian 0
▁banque 0
amen 0
▁kar 0
▁domes 0
▁fé 0
▁sauve 0
▁bell 0
▁performances 0
▁difficile 0
▁status 0
èse 0
▁forest 0
stances 0
▁lignes 0
▁compatible 0
▁hair 0
46 0
nam 0
▁baby 0
▁équipements 0
42 0
); 0
eline 0
ford 0
eks 0
▁avantages 0
ext 0
▁refus 0
ala 0
▁directive 0
date 0
tences 0
▁physique 0
▁properties 0
▁fisc 0
▁conç 0
ifier 0
▁military 0
▁quoi 0
▁interven 0
▁installé 0
▁stri 0
▁consommation 0
ège 0
▁obligations 0
dem 0
▁témo 0
▁régions 0
inves 0
isés 0
▁cabin 0
▁ability 0
▁snow 0
▁insurance 0
▁dog 0
▁chiff 0
▁initiatives 0
▁respond 0
▁wik 0
▁dialogue 0
▁division 0
abord 0
mas 0
▁vice 0
▁médias 0
ested 0
▁38 0
lande 0
▁fresh 0
tail 0
▁prepar 0
▁fournisseur 0
▁constant 0
▁développer 0
▁compétences 0
▁multiple 0
▁referred 0
▁recherches 0
▁worth 0
▁inside 0
wan 0
▁conné 0
▁learning 0
▁connécté 0
▁initiative 0
▁réseaux 0
▁continuer 0
▁relatives 0
▁conj 0
▁soy 0
▁consultation 0
▁infrastructure 0
▁consulter 0
▁hô 0
▁assure 0
▁ry 0
▁usually 0
▁percent 0
▁33 0
---- 0
▁jesus 0
▁célè 0
▁campagne 0
▁troisième 0
▁likely 0
ened 0
eté 0
tiers 0
▁cloth 0
▁véhicules 0
▁involved 0
èche 0
▁luxem 0
istique 0
▁famous 0
▁volont 0
▁figure 0
▁hydro 0
▁apprendre 0
assurer 0
▁jésus 0
▁française 0
▁instant 0
▁components 0
▁afficher 0
▁intellect 0
avez 0
asser 0
▁urban 0
▁transmission 0
▁oui 0
bc 0
▁skills 0
▁bec 0
una 0
▁conversion 0
▁physical 0
▁increased 0
endu 0
log 0
▁issu 0
▁visiter 0
▁fruits 0
iteur 0
500 0
▁règle 0
▁families 0
aliment 0
▁thank 0
▁animal 0
▁iv 0
▁seen 0
▁answer 0
▁videos 0
▁pure 0
▁blood 0
agé 0
adresse 0
▁défense 0
▁damage 0
▁tests 0
orient 0
▁tâ 0
▁canadienne 0
▁whose 0
rol 0
rel 0
dis 0
▁district 0
▁opening 0
▁framework 0
arian 0
▁pleine 0
▁perd 0
▁danse 0
▁régulières 0
▁(?): 0
▁rand 0
▁fabri 0
▁bé 0
▁prêt 0
▁repos 0
▁certaine 0
wise 0
xx 0
▁switzerland 0
▁ster 0
▁obser 0
▁length 0
▁pow 0
▁authority 0
▁interview 0
▁panne 0
moine 0
▁processes 0
▁label 0
▁philips 0
si 0
▁avanc 0
▁span 0
▁plug 0
▁manufactur 0
xte 0
sm 0
clos 0
▁extr 0
oux 0
▁administration 0
▁aid 0
▁petites 0
▁freed 0
▁conçu 0
▁creation 0
with 0
del 0
▁alex 0
▁dedicated 0
▁premiers 0
▁listed 0
▁sha 0
▁coll 0
▁composants 0
▁jeune 0
▁enfant 0
▁quant 0
▁voie 0
▁elements 0
▁browser 0
▁brit 0
▁visitors 0
érateur 0
▁appelé 0
▁anciens 0
occup 0
▁gauche 0
▁chale 0
▁dream 0
▁véhicule 0
▁increasing 0
▁effectu 0
▁langues 0
▁practices 0
▁foundation 0
▁youth 0
▁exter 0
dor 0
▁values 0
▁bibli 0
atch 0
▁installations 0
▁presented 0
▁thems 0
▁movement 0
▁déch 0
ffic 0
▁assessment 0
▁méthode 0
▁lg 0
ko 0
▁enable 0
▁évent 0
▁themselves 0
▁entry 0
▁madrid 0
▁contains 0
▁château 0
▁négo 0
▁compl 0
▁marques 0
ora 0
▁thous 0
cape 0
▁tandis 0
abol 0
▁approxim 0
▁présenter 0
▁déte 0
▁stim 0
ami 0
▁util 0
▁hope 0
▁happy 0
▁coopération 0
▁audit 0
▁vivre 0
▁locaux 0
▁poste 0
▁mises 0
▁coin 0
uge 0
image 0
▁bios 0
bé 0
▁gives 0
▁transfert 0
▁usage 0
▁présentation 0
▁mut 0
▁coffee 0
▁ottawa 0
▁immédiatement 0
▁lives 0
▁dark 0
po 0
▁weeks 0
▁esc 0
▁dix 0
idential 0
▁airlines 0
wide 0
▁établis 0
▁says 0
quently 0
▁amen 0
▁mother 0
▁voul 0
raine 0
▁deme 0
▁étape 0
hes 0
riel 0
▁confidentialité 0
point 0
enregist 0
▁complètement 0
▁patrimoine 0
▁enfin 0
km 0
amin 0
oure 0
▁appuy 0
ertain 0
gation 0
▁fol 0
▁uti 0
▁merci 0
▁finally 0
▁advanced 0
▁extern 0
▁workers 0
▁normal 0
▁bless 0
▁195 0
zy 0
érée 0
▁matières 0
▁demonst 0
▁sar 0
idi 0
▁dos 0
▁repair 0
▁jobs 0
▁conserv 0
▁achieve 0
▁couv 0
▁proposed 0
▁opportunities 0
▁clar 0
aign 0
▁presque 0
▁suivante 0
lled 0
▁autorités 0
▁dispositions 0
▁wild 0
▁kg 0
▁manage 0
▁rather 0
▁clic 0
▁distin 0
▁newslet 0
idité 0
43 0
▁récup 0
riques 0
▁dete 0
▁registration 0
▁yes 0
▁miles 0
▁detailed 0
▁gree 0
ancy 0
▁developing 0
▁fiche 0
▁bol 0
quête 0
xe 0
▁fruit 0
▁worksh 0
ériques 0
▁sociale 0
▁supérieure 0
▁sometimes 0
▁belgique 0
igner 0
98 0
▁papier 0
▁vall 0
étude 0
accue 0
▁téléchargez 0
▁claire 0
▁outdoor 0
ashion 0
▁= 0
▁couple 0
▁genre 0
▁shipping 0
▁campaign 0
▁gare 0
▁race 0
41 0
▁registered 0
ita 0
▁derniers 0
ablir 0
iency 0
▁pun 0
▁hund 0
▁libr 0
opp 0
▁italie 0
▁accur 0
▁perte 0
êtements 0
bel 0
▁secré 0
▁domm 0
▁appré 0
▁changer 0
pal 0
▁procédure 0
▁hour 0
▁danger 0
ori 0
assembl 0
▁freedom 0
▁louis 0
▁architecture 0
ae 0
ellow 0
▁isol 0
▁setting 0
riger 0
▁automatiquement 0
▁patient 0
▁database 0
▁professionnel 0
▁influence 0
▁wait 0
▁affili 0
appr 0
▁neigh 0
▁entrée 0
▁residence 0
▁hundred 0
cks 0
▁etats 0
▁nort 0
▁regulation 0
▁reasons 0
▁song 0
▁african 0
▁investisse 0
▁telle 0
lant 0
▁cooperation 0
▁troubles 0
▁colomb 0
▁quelles 0
ilib 0
▁context 0
▁availability 0
▁oeuv 0
▁highly 0
▁swimming 0
▁markets 0
▁bott 0
▁activité 0
▁métal 0
▁decor 0
▁fat 0
gn 0
," 0
▁participer 0
termine 0
▁indépend 0
▁dimin 0
▁starting 0
▁ox 0
300 0
école 0
▁martin 0
▁gain 0
2016 0
▁immobil 0
▁silver 0
▁dic 0
▁poursu 0
▁eau 0
adap 0
▁remb 0
▁colour 0
▁constitution 0
▁coût 0
▁réception 0
ista 0
eds 0
▁opération 0
▁raisons 0
▁consci 0
▁alumin 0
▁monitoring 0
▁précis 0
▁won 0
▁explore 0
▁écl 0
▁electronics 0
▁réuss 0
▁largest 0
las 0
▁jose 0
imm 0
▁opérations 0
rance 0
▁fron 0
▁luxembourg 0
nelles 0
▁challenges 0
▁lance 0
▁rendu 0
▁hear 0
tv 0
▁thing 0
▁parad 0
itre 0
▁modifications 0
▁navigateur 0
▁internal 0
▁door 0
▁woman 0
▁renouve 0
▁annivers 0
▁spring 0
craft 0
cing 0
▁possède 0
hips 0
▁languages 0
▁liberté 0
▁analyse 0
▁went 0
anges 0
▁liter 0
hé 0
▁regar 0
▁became 0
▁serez 0
eration 0
▁pictures 0
▁suivants 0
igné 0
asses 0
▁supports 0
ined 0
▁transition 0
▁british 0
▁responsibility 0
▁permettra 0
▁provincial 0
obje 0
▁enhance 0
▁tub 0
▁utilisateur 0
elines 0
▁ate 0
61 0
▁coming 0
▁cup 0
▁importantes 0
aba 0
▁naturel 0
▁die 0
▁canon 0
▁ache 0
▁lyon 0
▁everyone 0
▁centrale 0
rated 0
▁adjust 0
▁37 0
oise 0
▁publics 0
▁déterminer 0
▁external 0
▁individuals 0
▁signifie 0
pi 0
▁250 0
▁guarantee 0
pap 0
▁principale 0
dr 0
▁poche 0
▁parfait 0
▁ti 0
▁arc 0
▁born 0
▁propriétaire 0
orial 0
gant 0
▁bil 0
▁contents 0
▁attractions 0
▁ultra 0
▁heat 0
▁package 0
▁fashion 0
▁milli 0
▁purs 0
▁accéder 0
ronom 0
▁error 0
ava 0
▁doig 0
prises 0
▁serious 0
▁rejo 0
▁1999 0
▁estate 0
▁55 0
anie 0
eness 0
▁délai 0
▁corporation 0
aking 0
▁cris 0
▁evidence 0
▁maje 0
▁advis 0
amour 0
▁doctor 0
▁élevé 0
▁tourisme 0
▁atteindre 0
▁suitable 0
▁nothing 0
▁plaisir 0
pie 0
▁mail 0
▁encourage 0
▁faisant 0
▁davantage 0
▁devenir 0
exéc 0
▁lutte 0
▁transports 0
▁executive 0
▁personnels 0
▁ri 0
▁explorer 0
fm 0
▁faith 0
▁économiques 0
▁lost 0
▁électroniques 0
▁plain 0
▁tours 0
▁financière 0
bal 0
▁pêche 0
▁ads 0
▁vigueur 0
▁manger 0
▁ko 0
head 0
▁marine 0
arc 0
▁allowed 0
ji 0
▁hab 0
▁certification 0
▁confir 0
etooth 0
▁beyond 0
pm 0
▁consent 0
▁suit 0
▁méthodes 0
▁christian 0
▁bénéf 0
▁portugal 0
▁manifest 0
▁// 0
riture 0
▁catégories 0
▁renew 0
▁combat 0
▁véritable 0
▁morning 0
gi 0
▁connecting 0
▁fro 0
▁houses 0
sterdam 0
▁presence 0
▁pont 0
ni 0
▁travaille 0
urt 0
affich 0
arily 0
▁populaire 0
▁ailleurs 0
▁arrêt 0
aments 0
▁plastic 0
▁arab 0
member 0
▁symbol 0
▁swiss 0
agence 0
▁espèces 0
▁jun 0
▁cherchez 0
ania 0
itées 0
__ 0
▁py 0
clud 0
▁droite 0
uré 0
▁om 0
▁conflic 0
térieure 0
▁players 0
▁visiteurs 0
gés 0
▁forms 0
▁seigne 0
▁voc 0
▁boîte 0
▁responsables 0
toire 0
rimin 0
▁alert 0
▁rencontre 0
▁idea 0
▁consac 0
rêts 0
urent 0
▁owner 0
▁marie 0
▁naturelle 0
▁spanish 0
▁apport 0
▁venir 0
▁vient 0
▁concurr 0
▁gradu 0
ussels 0
▁efficient 0
pire 0
quis 0
▁coeur 0
stand 0
▁routes 0
médi 0
▁funding 0
erse 0
▁pin 0
▁taxes 0
long 0
▁filles 0
▁impression 0
▁coupe 0
▁wonder 0
▁laws 0
▁trave 0
▁assembly 0
▁asked 0
▁methods 0
option 0
▁organismes 0
▁medic 0
éma 0
▁tenu 0
▁girls 0
▁monu 0
▁achie 0
▁légère 0
▁erreurs 0
▁partnership 0
▁manufacturers 0
iba 0
▁charges 0
▁sug 0
▁income 0
▁academ 0
▁innovative 0
▁contac 0
izing 0
▁bluetooth 0
▁collective 0
▁1998 0
▁gérer 0
▁ut 0
▁valley 0
▁sour 0
▁depos 0
rices 0
▁suppliers 0
économie 0
▁commencer 0
tible 0
▁drivers 0
▁statement 0
▁recueill 0
▁biens 0
▁capable 0
▁vacation 0
▁goal 0
▁integrated 0
▁competition 0
effect 0
▁logement 0
▁dele 0
▁bos 0
▁scientific 0
▁mond 0
onner 0
▁cn 0
ographie 0
▁facilit 0
association 0
▁getting 0
▁birth 0
assurance 0
vc 0
▁supprimer 0
avi 0
iaire 0
▁parler 0
known 0
▁territoire 0
▁forte 0
▁hun 0
▁iden 0
▁nic 0
▁adapté 0
érable 0
▁34 0
▁pertin 0
▁carried 0
phones 0
▁montrer 0
▁maladie 0
▁nov 0
▁battery 0
▁instrument 0
âge 0
▁chal 0
▁matin 0
▁brux 0
▁got 0
▁similaires 0
▁paid 0
▁étapes 0
▁graphics 0
ieuse 0
▁iron 0
▁historical 0
▁réaliser 0
▁spécifique 0
uth 0
▁continent 0
▁horiz 0
▁block 0
▁mère 0
rants 0
bro 0
▁communautés 0
▁yeux 0
▁discussion 0
▁cars 0
▁creating 0
uty 0
▁kong 0
▁dossier 0
▁citizens 0
▁grav 0
▁boy 0
▁understanding 0
▁dépar 0
ador 0
▁piece 0
▁repas 0
▁engagement 0
▁quite 0
▁situations 0
pection 0
▁brun 0
▁visa 0
▁dirige 0
istics 0
▁arrive 0
▁desp 0
▁mb 0
▁locale 0
▁ze 0
▁domain 0
year 0
▁rechercher 0
▁ja 0
▁interested 0
offre 0
▁behind 0
▁01 0
▁tam 0
▁remp 0
▁chaîne 0
▁sélectionnez 0
▁partout 0
▁cub 0
▁© 0
▁ok 0
▁trouvent 0
▁respective 0
▁mine 0
▁acquis 0
▁commencé 0
èce 0
▁pne 0
▁recy 0
live 0
▁hands 0
▁bienven 0
▁stars 0
▁lod 0
leur 0
▁magaz 0
▁ga 0
▁situated 0
▁120 0
▁seigneur 0
▁câble 0
▁peuple 0
▁meub 0
onc 0
▁wireless 0
▁depending 0
▁modification 0
ouverture 0
▁gift 0
▁dead 0
▁quiet 0
▁numer 0
exerc 0
eneur 0
▁déjeuner 0
▁internationales 0
plus 0
ression 0
ignement 0
objectif 0
rs 0
▁cade 0
▁yog 0
▁beauty 0
▁banc 0
▁connu 0
inéra 0
▁proud 0
▁contexte 0
istic 0
▁advertis 0
▁proceed 0
▁expert 0
▁compét 0
tiss 0
▁journey 0
▁lines 0
▁paramètres 0
tt 0
▁employment 0
ella 0
▁65 0
ns 0
▁dimensions 0
med 0
isco 0
▁londres 0
▁produced 0
▁trust 0
▁costa 0
▁weak 0
▁louer 0
▁recently 0
accueil 0
atta 0
avec 0
97 0
▁agréable 0
▁annonces 0
▁doing 0
▁bâtiment 0
▁rentals 0
▁fille 0
▁math 0
▁gross 0
▁refuge 0
▁attach 0
▁suffis 0
▁overall 0
▁captures 0
quées 0
▁engage 0
▁semble 0
ôme 0
▁utilisée 0
▁late 0
▁challenge 0
çons 0
itime 0
▁magnifique 0
▁password 0
nés 0
free 0
▁résolution 0
▁shared 0
liquer 0
▁background 0
▁philos 0
▁sept 0
▁pacif 0
▁agent 0
instit 0
▁roll 0
▁rapides 0
naires 0
▁kh 0
▁étude 0
çant 0
▁rét 0
dia 0
▁ship 0
iders 0
abs 0
outez 0
▁tribunal 0
icial 0
▁ouvrir 0
▁stockage 0
▁ken 0
▁advent 0
▁97 0
essions 0
▁victor 0
▁architect 0
▁statut 0
▁inj 0
▁lev 0
iler 0
▁lecture 0
▁roi 0
oke 0
▁poll 0
▁classic 0
uls 0
▁conséquent 0
▁suffit 0
nd 0
dits 0
▁pm 0
▁lack 0
▁panor 0
▁shown 0
▁running 0
uie 0
▁requires 0
▁useful 0
▁nar 0
rief 0
▁approche 0
▁ticket 0
tead 0
▁marri 0
▁reser 0
▁preuve 0
▁lands 0
▁bonus 0
▁fid 0
▁rê 0
▁buff 0
quence 0
ket 0
▁educ 0
▁1000 0
▁departure 0
obtenir 0
▁réel 0
▁veget 0
▁joy 0
▁sympt 0
endra 0
field 0
anim 0
▁competi 0
▁switch 0
▁pric 0
▁structures 0
ado 0
▁introduction 0
voit 0
france 0
▁objets 0
▁appartements 0
▁hauteur 0
▁bruxelles 0
élect 0
▁billet 0
▁relationship 0
▁rh 0
▁connaître 0
▁calme 0
▁talk 0
▁camps 0
église 0
▁veut 0
▁traiter 0
▁industries 0
▁recommendations 0
▁promote 0
charge 0
▁vote 0
▁fonctionnalités 0
▁experien 0
▁chaussures 0
▁démocra 0
▁fif 0
▁consultez 0
▁frank 0
▁billion 0
▁democra 0
▁secteurs 0
▁autant 0
▁kay 0
▁linked 0
zil 0
ected 0
▁serveur 0
▁concert 0
▁payer 0
▁arriver 0
▁sugges 0
umption 0
ieur 0
▁spot 0
erson 0
▁représente 0
▁télécomm 0
roits 0
▁recommandations 0
▁malgré 0
▁protected 0
▁barcelona 0
▁chic 0
▁islam 0
bul 0
inal 0
cas 0
cop 0
éraux 0
▁wr 0
▁letter 0
▁gab 0
▁az 0
agnes 0
▁compens 0
▁identify 0
▁garan 0
▁newsletter 0
▁window 0
▁voyageurs 0
▁prime 0
96 0
▁michel 0
ema 0
ormais 0
▁populaires 0
▁doute 0
▁minor 0
▁marchand 0
▁applied 0
▁fo 0
▁contacts 0
▁proph 0
▁asia 0
▁eye 0
▁vehicles 0
onnées 0
▁satisfaction 0
fc 0
▁remains 0
▁défaut 0
illon 0
▁spor 0
vin 0
▁networks 0
ua 0
▁brussels 0
jan 0
▁ciel 0
▁climatisation 0
▁crée 0
▁mémoire 0
otte 0
initi 0
rd 0
▁laser 0
▁soyez 0
▁puiss 0
▁liées 0
▁parent 0
extérieur 0
▁crois 0
▁waste 0
antill 0
▁fleurs 0
▁rester 0
▁plants 0
▁scul 0
iforn 0
▁diverses 0
▁friendly 0
▁ice 0
deaux 0
▁mg 0
▁wan 0
oto 0
▁exac 0
rif 0
▁désormais 0
▁revenu 0
▁lettre 0
efficacité 0
▁iii 0
▁clés 0
▁highest 0
▁corporate 0
▁amsterdam 0
▁ocean 0
▁populations 0
enue 0
▁fau 0
exper 0
lications 0
▁pension 0
ousse 0
2015 0
▁heating 0
chant 0
▁thème 0
▁leadership 0
▁ideas 0
▁fail 0
▁siège 0
▁milan 0
▁belgium 0
▁reco 0
▁strategic 0
▁financiers 0
▁recru 0
dra 0
▁chercher 0
tek 0
▁étiqu 0
▁target 0
▁partenariat 0
ael 0
▁pauv 0
▁conditioning 0
▁artists 0
▁traffic 0
▁résidence 0
▁décisions 0
▁bande 0
▁chauffage 0
▁fal 0
ettre 0
▁sembl 0
▁completed 0
▁dispositifs 0
▁finish 0
▁décor 0
▁administrative 0
▁saw 0
▁records 0
update 0
▁servi 0
new 0
▁nap 0
sements 0
▁remember 0
▁fondation 0
cha 0
▁justif 0
oyer 0
▁substances 0
▁600 0
atrice 0
▁dell 0
▁supérieur 0
▁entit 0
▁demandé 0
▁intended 0
▁disponibilité 0
▁ferme 0
▁absol 0
▁warrant 0
alimentation 0
uff 0
▁opinion 0
▁euros 0
▁cold 0
▁démont 0
dll 0
▁stone 0
▁core 0
▁wit 0
uster 0
ring 0
inking 0
▁urb 0
▁hire 0
▁propriétés 0
identif 0
▁aler 0
afrique 0
▁settings 0
▁prison 0
▁flexible 0
haps 0
▁invent 0
▁alg 0
exercice 0
▁football 0
▁prochaine 0
nis 0
▁fier 0
▁39 0
aya 0
▁installer 0
▁publications 0
001 0
▁chemical 0
lor 0
inos 0
▁vêtements 0
▁clé 0
uck 0
ooting 0
▁tran 0
▁thought 0
▁mains 0
▁posted 0
▁soc 0
west 0
auteur 0
▁institute 0
▁pes 0
▁explain 0
▁confortable 0
▁facteurs 0
▁neg 0
employ 0
▁rab 0
▁reliable 0
▁(?) 0
▁étab 0
atri 0
▁éd 0
cemment 0
▁virus 0
▁mexico 0
▁thom 0
▁coc 0
▁recovery 0
▁principalement 0
▁circum 0
▁recev 0
▁fis 0
▁satur 0
ulent 0
▁provisions 0
▁traite 0
▁dang 0
...] 0
▁interface 0
▁composition 0
▁jew 0
▁fondament 0
▁effort 0
▁transformation 0
▁firmware 0
▁utility 0
emplacement 0
▁categories 0
▁stain 0
▁evaluation 0
▁récemment 0
▁42 0
enda 0
atoires 0
▁pourra 0
▁biblioth 0
▁laisser 0
▁disease 0
▁longueur 0
▁advantage 0
shirt 0
▁telephone 0
▁favour 0
▁reported 0
▁otherwise 0
▁gi 0
ctivité 0
▁php 0
fit 0
▁seven 0
oms 0
▁internation 0
ald 0
▁islands 0
▁television 0
▁compact 0
▁pilotes 0
▁voix 0
62 0
▁californ 0
▁plastique 0
▁library 0
▁arrange 0
▁alimentaire 0
▁volun 0
entement 0
huile 0
▁advice 0
▁fabricants 0
innovation 0
iano 0
▁générales 0
▁aurait 0
avenir 0
▁memory 0
don 0
▁inférie 0
▁mol 0
▁compliance 0
▁provinces 0
▁possibilités 0
▁ped 0
▁fill 0
▁discipl 0
agent 0
▁adress 0
▁longtemps 0
▁réalité 0
▁pick 0
▁courant 0
▁toilet 0
spe 0
▁engineering 0
entretien 0
▁comparer 0
ón 0
▁approximately 0
▁regardez 0
▁honor 0
▁tags 0
▁determine 0
▁nouvel 0
▁dent 0
▁creative 0
▁variété 0
▁commitment 0
▁actuelle 0
▁diffus 0
▁ones 0
▁else 0
▁contraire 0
▁convient 0
abilities 0
▁brought 0
▁paperback 0
▁permit 0
▁infe 0
▁vois 0
▁procedures 0
▁ring 0
▁ministry 0
▁utilisées 0
▁helps 0
▁compared 0
care 0
valuer 0
▁reflect 0
ruption 0
▁india 0
rup 0
▁xp 0
agen 0
▁emplacement 0
ously 0
eless 0
ali 0
▁voice 0
▁submitted 0
aker 0
▁ther 0
▁arrival 0
▁australia 0
▁began 0
stra 0
▁passage 0
azz 0
▁fel 0
▁bars 0
▁celeb 0
▁manufacture 0
outil 0
▁prises 0
▁supplémentaire 0
▁tosh 0
▁rural 0
gie 0
▁sense 0
liss 0
▁gagn 0
▁travailleurs 0
erver 0
▁collè 0
▁resolution 0
ded 0
▁powerful 0
▁conduct 0
▁joueurs 0
▁fing 0
intes 0
▁célèbre 0
hr 0
▁cash 0
▁prévu 0
access 0
▁équipes 0
char 0
▁élément 0
▁homes 0
▁cach 0
58 0
extension 0
63 0
▁pad 0
▁trait 0
▁mons 0
▁growing 0
▁doigts 0
▁offrant 0
▁voyages 0
▁rendez 0
▁expedia 0
▁classique 0
▁commune 0
▁ait 0
urgence 0
▁exercise 0
importance 0
veur 0
▁organic 0
▁bordeaux 0
▁sas 0
▁websites 0
hou 0
▁champion 0
▁formes 0
▁devient 0
augh 0
▁transl 0
▁effectuer 0
▁attem 0
pit 0
▁procédures 0
▁indications 0
▁committed 0
agnol 0
tons 0
▁pattern 0
▁documentation 0
▁produce 0
▁dépenses 0
▁camel 0
table 0
▁burn 0
▁constitue 0
▁units 0
▁pouss 0
▁diss 0
goti 0
rand 0
▁guidelines 0
▁garde 0
zes 0
▁viet 0
▁sainte 0
lets 0
aises 0
▁instead 0
▁chocol 0
▁kids 0
▁brazil 0
▁fees 0
▁manque 0
▁coucher 0
▁canadians 0
▁despite 0
▁reserv 0
▁decided 0
iting 0
▁collected 0
onia 0
▁honour 0
▁1990 0
▁repe 0
▁evening 0
▁efficiency 0
âtre 0
environ 0
▁seat 0
▁préparation 0
▁élab 0
▁tourism 0
▁interests 0
▁regions 0
▁write 0
▁scène 0
clé 0
▁célé 0
▁animals 0
ésil 0
▁renforcer 0
▁bah 0
▁ign 0
▁800 0
itié 0
▁causes 0
▁officer 0
urb 0
▁pronon 0
▁lits 0
▁lav 0
▁délé 0
▁reve 0
istant 0
ani 0
égard 0
▁worldwide 0
▁amélior 0
▁boat 0
▁nutrition 0
▁toshiba 0
▁russie 0
▁cheapest 0
▁cycl 0
ultural 0
▁météor 0
▁supported 0
▁présenté 0
▁professe 0
▁sleep 0
▁lay 0
autom 0
▁obst 0
▁fitness 0
onds 0
▁profonde 0
▁ventes 0
▁rempl 0
▁chi 0
▁scen 0
▁discussions 0
▁beauté 0
▁noms 0
▁duration 0
▁porter 0
▁propor 0
▁aper 0
umé 0
appel 0
▁ts 0
fri 0
▁contributions 0
▁eyes 0
▁nearby 0
▁transactions 0
▁occur 0
▁pét 0
rivez 0
...) 0
▁religion 0
ography 0
este 0
▁businesses 0
▁locales 0
▁destinations 0
▁tunis 0
▁labour 0
▁critères 0
▁student 0
▁dédi 0
▁covered 0
▁confidence 0
reh 0
▁simpl 0
city 0
ivalent 0
▁presc 0
▁chinese 0
▁egy 0
▁generation 0
▁statistiques 0
▁galax 0
▁replace 0
▁tradu 0
▁pieds 0
▁orange 0
▁moments 0
bt 0
▁owners 0
▁gmb 0
▁accompagn 0
▁oh 0
▁vacc 0
▁exhibition 0
oxyd 0
▁retail 0
▁coach 0
▁numerous 0
▁bird 0
érant 0
arriv 0
▁pant 0
hors 0
▁tan 0
gées 0
▁northern 0
▁gallery 0
sl 0
▁agencies 0
▁friday 0
▁principales 0
▁incorpor 0
inaires 0
diction 0
▁annonce 0
pu 0
▁holy 0
aga 0
▁atlan 0
▁intérie 0
▁separate 0
▁édition 0
▁dépend 0
▁bern 0
▁dén 0
▁described 0
▁surpr 0
▁comprennent 0
▁[...] 0
87 0
▁promouv 0
▁extrême 0
▁doesn 0
▁remplac 0
▁parfaitement 0
▁mêmes 0
hl 0
▁internationaux 0
▁factors 0
▁dimanche 0
▁himself 0
alle 0
▁tox 0
▁orgas 0
▁communic 0
lip 0
kin 0
▁archive 0
▁unies 0
▁concep 0
:: 0
tér 0
▁capacités 0
taire 0
▁negoti 0
▁medium 0
▁maladies 0
▁poor 0
▁contactez 0
▁threat 0
▁tac 0
▁singap 0
▁municipal 0
▁suscep 0
▁mou 0
▁expand 0
▁cuir 0
▁asc 0
▁tch 0
ourner 0
▁affairs 0
▁mir 0
▁motiv 0
hotel 0
▁tarif 0
iger 0
utor 0
▁venez 0
▁vont 0
▁issued 0
▁idées 0
▁réd 0
▁arrière 0
▁éviter 0
▁sauf 0
▁milliards 0
▁immig 0
▁portes 0
▁indiqué 0
▁gagner 0
effectuer 0
▁spread 0
▁plateforme 0
▁object 0
force 0
▁underta 0
▁leather 0
▁belie 0
57 0
▁villages 0
▁served 0
▁sauv 0
▁license 0
▁dining 0
▁hyp 0
▁détail 0
▁classes 0
▁principes 0
▁notebook 0
exposition 0
water 0
89 0
▁circuit 0
▁motion 0
▁placed 0
pel 0
▁dommages 0
▁identified 0
uil 0
▁prepared 0
▁meetings 0
▁schools 0
▁errors 0
▁gig 0
▁alli 0
aci 0
▁career 0
▁eco 0
▁eaux 0
▁scol 0
ainc 0
▁vég 0
excell 0
ovo 0
▁charm 0
▁hill 0
isent 0
▁gratuits 0
entic 0
▁aer 0
▁ingredi 0
ansion 0
▁worked 0
▁garantir 0
hôtes 0
▁colon 0
▁fuel 0
▁subsection 0
▁vendredi 0
▁reading 0
▁ai 0
▁consum 0
▁cord 0
▁vaste 0
ship 0
rimé 0
ontario 0
▁batterie 0
aria 0
eneurs 0
▁sèche 0
▁résistance 0
▁cathol 0
mod 0
▁writing 0
▁tables 0
▁told 0
▁tissu 0
▁palest 0
ondes 0
entiss 0
▁évaluation 0
▁conseill 0
▁collections 0
▁chain 0
fection 0
▁factory 0
59 0
▁montagne 0
▁régl 0
▁sunday 0
▁shops 0
▁produire 0
êtres 0
▁initial 0
enregistrement 0
▁visible 0
▁rén 0
▁argu 0
mêmes 0
▁packaging 0
▁réalisé 0
▁generally 0
▁discrimin 0
▁cards 0
▁tourist 0
lections 0
my 0
clam 0
▁russia 0
▁proposer 0
utation 0
▁whom 0
▁turqu 0
holders 0
▁brésil 0
▁pon 0
▁wheel 0
▁chrome 0
berry 0
▁agre 0
▁crise 0
esses 0
eg 0
▁bonnes 0
▁employee 0
aa 0
▁buildings 0
appartement 0
400 0
▁programm 0
kers 0
▁approved 0
▁rapid 0
▁paint 0
▁lever 0
town 0
▁humains 0
▁aliments 0
▁funds 0
▁wifi 0
▁degree 0
▁interior 0
▁critical 0
▁objective 0
▁raisonn 0
▁1997 0
2012 0
▁provision 0
ios 0
ivez 0
▁croy 0
ila 0
▁secondes 0
▁fields 0
▁decisions 0
eters 0
▁numbers 0
▁mandat 0
▁soutenir 0
▁professionals 0
▁assign 0
usted 0
▁charles 0
▁overview 0
▁chev 0
▁concours 0
▁bateau 0
▁moz 0
▁fan 0
▁begin 0
oe 0
hôtels 0
▁teams 0
▁endroits 0
hel 0
▁kilomètres 0
▁lie 0
▁colors 0
▁gast 0
▁furniture 0
note 0
illage 0
▁faq 0
▁promouvoir 0
onna 0
▁somme 0
▁solar 0
▁cla 0
eries 0
▁monte 0
▁certificate 0
▁extrem 0
▁agriculture 0
▁actually 0
▁reporting 0
▁usd 0
▁réalisation 0
▁cleaning 0
▁avion 0
▁porn 0
▁sujets 0
obe 0
▁transaction 0
iving 0
▁automob 0
▁événement 0
▁lcd 0
▁végét 0
▁rares 0
▁copyright 0
▁toy 0
▁réservations 0
▁risks 0
examen 0
▁mentionn 0
▁synth 0
▁advertising 0
▁successful 0
▁artistes 0
▁consommateurs 0
ander 0
isées 0
▁95 0
▁contenus 0
▁cinéma 0
▁abord 0
▁disting 0
▁delivered 0
exécution 0
▁× 0
dc 0
lett 0
▁giving 0
▁stic 0
▁lesquels 0
not 0
▁consumption 0
▁équipée 0
▁élim 0
▁shape 0
▁intérieur 0
mor 0
▁picture 0
arrivée 0
rits 0
▁catalogue 0
ulé 0
▁empê 0
enseignement 0
▁reb 0
▁soph 0
▁temple 0
▁universal 0
▁chapitre 0
▁consol 0
▁complé 0
aving 0
▁earn 0
enty 0
▁préparer 0
▁pouvant 0
▁healthy 0
rency 0
2018 0
▁crisis 0
▁pointe 0
▁choisi 0
▁procedure 0
▁bureaux 0
▁gather 0
gon 0
▁survey 0
▁consumer 0
iée 0
▁carrière 0
▁publiques 0
▁villas 0
▁cau 0
▁cabinet 0
évé 0
bra 0
▁heureux 0
▁bass 0
endroit 0
▁autoch 0
▁hit 0
annon 0
▁médicaments 0
▁offrent 0
▁peux 0
down 0
enant 0
▁juridique 0
▁unless 0
▁ouverte 0
reté 0
▁prince 0
▁emergency 0
▁updated 0
▁registre 0
▁opened 0
▁intens 0
▁servir 0
▁maintenir 0
▁transportation 0
▁od 0
▁fiches 0
▁tea 0
▁positions 0
▁pit 0
▁meaning 0
pour 0
▁wanted 0
▁snap 0
2013 0
▁fans 0
▁rati 0
▁adultes 0
tu 0
▁announced 0
▁lesquelles 0
▁ride 0
▁liquid 0
▁bienvenue 0
▁trés 0
▁archives 0
▁brief 0
▁integration 0
2014 0
▁stainless 0
▁primary 0
▁vietnam 0
▁maur 0
info 0
▁portée 0
améliorer 0
▁mélange 0
▁hen 0
oda 0
▁favorite 0
oba 0
▁names 0
▁représentant 0
▁distribu 0
▁virtual 0
▁révolution 0
▁revolution 0
▁crime 0
▁allez 0
▁puisque 0
▁compet 0
érées 0
fox 0
cript 0
▁sexe 0
▁puisse 0
▁rendement 0
oster 0
▁pieces 0
▁handic 0
▁eat 0
56 0
74 0
▁testing 0
uting 0
▁sélectionner 0
▁scan 0
roph 0
▁hébergement 0
▁complexe 0
▁ak 0
▁intérêts 0
tech 0
étr 0
toe 0
jac 0
akes 0
agram 0
life 0
échelle 0
▁legislation 0
▁tree 0
▁shar 0
▁fou 0
▁génération 0
▁délic 0
prés 0
▁angle 0
▁tenir 0
▁mira 0
▁fera 0
▁reform 0
▁charter 0
▁recevez 0
▁playing 0
▁élè 0
▁guides 0
▁yoga 0
▁cant 0
▁quels 0
▁dimension 0
▁tort 0
▁· 0
▁spiritual 0
▁jer 0
▁holidays 0
tones 0
entissage 0
rine 0
investissement 0
▁fédéral 0
▁milliers 0
▁coordination 0
▁chief 0
▁disque 0
till 0
▁released 0
▁ky 0
▁compter 0
iki 0
▁presentation 0
▁planification 0
cons 0
▁représentants 0
çon 0
amérique 0
▁établissement 0
▁historic 0
aled 0
▁interp 0
▁climat 0
▁erreur 0
ativ 0
asonic 0
▁signature 0
▁hydra 0
▁task 0
▁objectives 0
▁défis 0
▁communiquer 0
▁manufacturing 0
▁bright 0
▁possibility 0
▁cookie 0
▁elim 0
▁palais 0
list 0
▁criteria 0
▁imper 0
▁maroc 0
▁spéciales 0
▁samedi 0
ternel 0
▁difference 0
▁dj 0
bus 0
▁carbon 0
▁reservation 0
tiennent 0
▁majority 0
alem 0
▁semi 0
▁décrit 0
▁faits 0
▁sd 0
▁él 0
▁bébé 0
▁mariage 0
▁mam 0
▁canal 0
▁positi 0
annique 0
iam 0
▁probablement 0
▁reduced 0
▁compreh 0
▁département 0
going 0
▁fenêtre 0
▁experiences 0
▁meters 0
▁bow 0
▁rivière 0
chi 0
▁followed 0
▁courriel 0
onné 0
wards 0
▁kayak 0
▁gel 0
▁sab 0
enfant 0
▁stable 0
▁associés 0
▁préoccup 0
▁humaine 0
▁counter 0
▁shoes 0
ione 0
▁conflict 0
ueux 0
▁dû 0
uté 0
▁foi 0
▁continued 0
▁bons 0
rog 0
▁quarter 0
▁closed 0
▁espaces 0
▁commentaire 0
▁lar 0
allem 0
▁element 0
▁conformité 0
▁scientifiques 0
élab 0
▁drop 0
▁someone 0
rets 0
▁principe 0
cf 0
▁stake 0
▁belong 0
▁lour 0
▁warranty 0
▁lave 0
▁coordin 0
▁gave 0
plant 0
▁clair 0
ducing 0
▁yellow 0
▁ant 0
alf 0
▁trim 0
piration 0
tiver 0
▁jeun 0
▁urg 0
quested 0
▁quotidien 0
cluding 0
ao 0
▁47 0
zed 0
fil 0
gm 0
rian 0
ova 0
▁bomb 0
▁score 0
▁lecteur 0
clear 0
▁principles 0
▁consiste 0
▁requested 0
▁spéciale 0
93 0
angle 0
▁palace 0
▁orders 0
▁russian 0
▁1996 0
▁thousands 0
▁broch 0
ceau 0
impression 0
▁goals 0
audi 0
▁smoking 0
▁différence 0
roll 0
▁professionnelle 0
▁battle 0
rick 0
▁prenez 0
▁requis 0
▁parfaite 0
ignant 0
▁aurez 0
▁quelqu 0
▁prague 0
▁garage 0
médiaire 0
▁vint 0
▁signed 0
▁faite 0
▁impli 0
îles 0
▁combien 0
grade 0
aco 0
▁deleg 0
▁neuf 0
▁majorité 0
▁capture 0
ismes 0
▁complément 0
▁played 0
oit 0
▁entertain 0
▁comprom 0
▁pip 0
▁pér 0
▁garder 0
51 0
▁auxqu 0
han 0
▁identity 0
▁obligation 0
▁interpr 0
▁brown 0
▁absor 0
▁porto 0
▁broadcast 0
▁magazine 0
92 0
▁sharing 0
▁toi 0
▁confirmation 0
▁combination 0
▁associations 0
▁privil 0
▁nourriture 0
▁vise 0
▁taste 0
▁quit 0
▁religious 0
▁enregistrer 0
airage 0
inder 0
▁theme 0
▁capitale 0
▁conclusion 0
▁realtek 0
▁saturday 0
aza 0
▁cameltoe 0
▁commandes 0
igu 0
▁champions 0
▁talent 0
▁pel 0
▁44 0
▁cancel 0
▁approuv 0
▁énergé 0
▁smartphone 0
▁transpor 0
▁deposit 0
▁trajet 0
exist 0
▁vel 0
▁conduite 0
▁peter 0
indi 0
▁interesting 0
▁couverture 0
avion 0
▁sculpt 0
erto 0
▁rule 0
onnée 0
▁reality 0
ull 0
▁disable 0
▁anything 0
▁portant 0
54 0
▁éco 0
anches 0
▁cultures 0
▁citoyens 0
▁chaleur 0
▁totale 0
▁nether 0
ope 0
▁noter 0
▁inten 0
▁comptes 0
▁pâ 0
▁washington 0
▁sections 0
▁impress 0
▁carb 0
kok 0
▁accus 0
assemblée 0
▁jeunesse 0
oty 0
▁tranqu 0
▁aircraft 0
▁reduction 0
▁cong 0
▁castle 0
installer 0
hd 0
▁atmosphere 0
▁housing 0
heim 0
▁ira 0
▁marse 0
▁except 0
▁vélo 0
▁divided 0
pn 0
mc 0
▁portrait 0
▁circulation 0
ographique 0
▁regulatory 0
icon 0
▁vista 0
▁progrès 0
▁slow 0
94 0
▁nettoyage 0
53 0
▁diplom 0
band 0
▁déplac 0
▁offices 0
gard 0
▁merve 0
asions 0
▁college 0
ieuses 0
▁ultim 0
▁filtre 0
ulated 0
▁mosc 0
▁icon 0
▁walking 0
▁helpful 0
▁rio 0
▁soin 0
aro 0
▁casa 0
▁scientifique 0
ean 0
.- 0
▁précédent 0
▁chans 0
vet 0
▁balls 0
rew 0
86 0
▁dor 0
], 0
ev 0
▁vs 0
▁objects 0
▁interne 0
▁chapter 0
▁recommandé 0
▁listen 0
▁formats 0
▁evalu 0
▁cheveux 0
gues 0
▁domestic 0
lc 0
berta 0
▁robert 0
▁profitez 0
▁fixed 0
▁accident 0
▁participate 0
▁identi 0
2019 0
52 0
▁médecin 0
▁height 0
▁vrai 0
▁regarder 0
▁civile 0
▁cc 0
▁witness 0
▁dynamique 0
▁ami 0
aling 0
▁réfug 0
▁changed 0
▁musical 0
▁émissions 0
▁unknown 0
▁@ 0
▁scale 0
olis 0
▁guit 0
▁humaines 0
▁mental 0
▁recours 0
▁queen 0
▁obtenu 0
▁lait 0
▁00 0
▁edge 0
▁sexual 0
▁indépendant 0
osen 0
▁perspective 0
▁expression 0
▁specifications 0
▁delic 0
▁météorologiques 0
orde 0
▁enterprise 0
ître 0
▁caps 0
ste 0
▁invite 0
▁bact 0
▁baign 0
▁décidé 0
▁editions 0
ômes 0
road 0
▁désir 0
▁limite 0
▁scrip 0
▁manner 0
bli 0
▁indeed 0
▁1994 0
▁43 0
▁champs 0
▁kore 0
gée 0
▁flux 0
▁netherlands 0
▁calls 0
tées 0
inage 0
▁horaires 0
▁longues 0
▁gate 0
delà 0
▁fares 0
office 0
▁promot 0
▁streaming 0
▁dossiers 0
verse 0
▁caused 0
▁alco 0
▁rat 0
▁découverte 0
▁defined 0
haus 0
▁joseph 0
criptions 0
▁réfrig 0
▁diver 0
augment 0
▁swed 0
▁fisher 0
▁contemporary 0
▁législ 0
▁boute 0
101 0
800 0
onge 0
ulté 0
%. 0
▁bridge 0
agés 0
▁instance 0
▁vérification 0
▁venti 0
▁barcelone 0
ématique 0
impact 0
▁mén 0
intégration 0
▁uns 0
▁fishing 0
72 0
rc 0
▁governments 0
▁aluminium 0
▁apps 0
usalem 0
▁phen 0
▁artif 0
origin 0
▁concerned 0
▁chercheurs 0
▁parcours 0
▁utile 0
▁slee 0
▁naissance 0
▁continues 0
▁acer 0
▁beds 0
émie 0
unité 0
▁alone 0
▁flowers 0
idée 0
wire 0
▁channel 0
▁convenient 0
▁canadiennes 0
▁maria 0
▁indig 0
▁peine 0
▁proposons 0
▁spons 0
▁publicité 0
▁fourni 0
▁bron 0
êter 0
ourir 0
ortement 0
ered 0
ignée 0
▁développé 0
▁contribute 0
▁définition 0
▁prepare 0
▁pourront 0
▁reserve 0
▁bm 0
▁hydraul 0
▁disapp 0
amic 0
▁mme 0
▁ah 0
éros 0
▁concentration 0
▁senior 0
▁metres 0
rive 0
emp 0
▁monday 0
▁amérique 0
▁desk 0
▁treas 0
rete 0
▁pav 0
▁practical 0
▁relating 0
▁expériences 0
archite 0
icile 0
▁girl 0
tage 0
▁excess 0
là 0
▁vital 0
▁écoles 0
▁cib 0
▁camer 0
▁adopted 0
▁négoci 0
▁régulièrement 0
aug 0
▁drug 0
▁firefox 0
▁certainement 0
▁aband 0
▁becomes 0
▁emplo 0
▁controller 0
hiver 0
▁goes 0
▁tenue 0
▁relativement 0
alon 0
elling 0
ingo 0
▁anony 0
ointed 0
▁combined 0
▁barb 0
▁rappeler 0
wal 0
▁plantes 0
▁rc 0
▁supplier 0
▁trading 0
▁cream 0
▁peinture 0
▁composé 0
page 0
▁absolute 0
▁channels 0
▁sweet 0
▁extraord 0
▁recherch 0
▁lundi 0
cking 0
▁mov 0
▁circumstances 0
▁dispar 0
▁stru 0
▁beaux 0
▁faveur 0
▁ye 0
▁fumer 0
▁adults 0
▁stratégique 0
shot 0
▁41 0
▁potentiel 0
▁grant 0
▁jos 0
▁commerciales 0
▁clearly 0
win 0
▁entour 0
gal 0
hai 0
▁provenant 0
▁affir 0
▁reprodu 0
wlett 0
▁prochain 0
xi 0
avait 0
▁anyone 0
▁touche 0
▁atteint 0
▁bases 0
▁marc 0
▁breath 0
hon 0
▁branch 0
▁tun 0
▁avenue 0
▁travell 0
▁cs 0
▁établissements 0
▁refriger 0
▁senator 0
▁perdu 0
▁chré 0
ror 0
uly 0
▁unif 0
standing 0
▁juris 0
▁detail 0
itant 0
▁seems 0
▁recycl 0
ently 0
terre 0
▁requests 0
▁cotton 0
édition 0
600 0
▁consentement 0
▁representative 0
▁feet 0
▁ade 0
▁dar 0
fol 0
▁imprim 0
▁bike 0
▁anton 0
▁vieux 0
phon 0
▁ethn 0
▁cock 0
études 0
▁territory 0
▁conducted 0
▁upper 0
▁conce 0
▁similaire 0
▁bras 0
tibles 0
▁réglementation 0
this 0
», 0
scrib 0
▁destiné 0
▁angeles 0
▁moving 0
▁procure 0
▁gouvernements 0
plan 0
agric 0
tiste 0
▁faciliter 0
▁volonté 0
▁authentic 0
▁99 0
▁recip 0
▁exer 0
▁trial 0
▁dies 0
▁statistics 0
▁representatives 0
rock 0
▁gren 0
▁îles 0
icient 0
▁1995 0
▁gris 0
▁dose 0
▁flower 0
▁barre 0
▁workshop 0
▁nik 0
▁alp 0
▁resource 0
▁toul 0
veness 0
▁iran 0
gb 0
ache 0
▁seconds 0
▁revenus 0
avance 0
▁clicking 0
▁perdre 0
▁devriez 0
ilton 0
▁protoc 0
▁bibliothèque 0
▁na 0
front 0
▁précision 0
▁£ 0
riers 0
oirs 0
▁riche 0
▁heavy 0
▁provider 0
▁determined 0
▁américain 0
▁currency 0
formes 0
alism 0
▁certainly 0
▁supporting 0
amélioration 0
▁pix 0
sk 0
▁voyez 0
▁affected 0
œuvre 0
▁lif 0
▁chinois 0
▁acteurs 0
▁arbit 0
aliser 0
▁subm 0
▁commerciaux 0
▁turkey 0
▁galaxy 0
ech 0
▁resol 0
▁tendance 0
▁prévention 0
▁ferry 0
tml 0
▁spl 0
ounge 0
▁tomb 0
▁christmas 0
▁extremely 0
▁appoint 0
icy 0
▁designer 0
▁panasonic 0
▁certificat 0
▁columb 0
▁mediterran 0
▁secretary 0
itations 0
ipe 0
▁handicap 0
▁85 0
▁providers 0
ricité 0
emment 0
▁tennis 0
▁obstac 0
▁hyper 0
▁reached 0
▁fundament 0
▁croati 0
▁fournis 0
▁présentes 0
lie 0
▁plane 0
étranger 0
▁49 0
▁genève 0
▁spent 0
▁secrétaire 0
réh 0
▁fémin 0
▁decre 0
▁parle 0
▁reservations 0
ètes 0
▁devons 0
▁résolu 0
▁tension 0
▁wear 0
▁proposition 0
▁noël 0
▁valu 0
inery 0
▁schedule 0
▁possibles 0
▁chosen 0
▁truth 0
▁mist 0
▁sq 0
▁promen 0
▁marchandises 0
friend 0
éternel 0
▁bound 0
▁basket 0
▁stored 0
▁launched 0
▁troublesh 0
loo 0
▁trees 0
▁spend 0
▁marseille 0
how 0
▁wonderful 0
▁resistance 0
▁codes 0
enh 0
ining 0
▁michael 0
▁comprehensive 0
▁employer 0
▁auber 0
▁neut 0
▁standing 0
▁bottom 0
▁cf 0
▁autochtones 0
▁46 0
▁golden 0
enture 0
▁lighting 0
éries 0
▁shang 0
▁plaît 0
▁allemand 0
▁rid 0
▁dollar 0
rat 0
ye 0
ived 0
▁warn 0
▁offert 0
▁cannab 0
▁trains 0
▁mens 0
umn 0
▁aware 0
▁théâtre 0
▁vues 0
▁dens 0
▁concerns 0
▁sets 0
▁établi 0
applique 0
▁specifically 0
insc 0
▁fonctionner 0
▁financier 0
tiveness 0
▁payments 0
▁occasions 0
▁logements 0
▁dépôt 0
▁coton 0
bonne 0
▁inoxyd 0
71 0
▁george 0
like 0
▁bangkok 0
agée 0
▁specified 0
▁sessions 0
▁réduit 0
odi 0
▁achat 0
▁diet 0
▁greece 0
▁disclos 0
ww 0
oring 0
▁summary 0
nant 0
▁plages 0
▁collecte 0
▁hardware 0
▁pétro 0
▁vast 0
▁commiss 0
▁actuel 0
isode 0
▁congrès 0
techn 0
apprentissage 0
▁travelo 0
▁accepted 0
zen 0
▁probably 0
▁salv 0
▁itinéra 0
▁changing 0
inée 0
▁soumis 0
▁parole 0
▁exceed 0
pectives 0
▁lamp 0
▁perp 0
▁augmenter 0
▁agreed 0
▁fête 0
▁médical 0
▁extrêmement 0
cut 0
▁aériennes 0
ctivity 0
▁shut 0
institut 0
▁amd 0
visionnement 0
yst 0
▁souvenir 0
▁excurs 0
▁violation 0
▁ingredients 0
▁diffusion 0
gage 0
▁ajoutez 0
class 0
▁dynamic 0
▁certified 0
▁pair 0
▁préal 0
▁fiable 0
▁masse 0
▁dc 0
▁chacune 0
▁circon 0
79 0
▁border 0
▁centaines 0
▁maritime 0
packard 0
▁rembour 0
▁traduction 0
▁contribuer 0
▁familiar 0
▁cass 0
ouvrir 0
▁movie 0
▁inoxydable 0
▁nationaux 0
▁missions 0
▁amazon 0
▁um 0
▁priority 0
pg 0
▁mountains 0
proof 0
▁huge 0
▁indire 0
▁méditerran 0
▁fear 0
▁noted 0
▁tâches 0
▁twe 0
▁reasonable 0
▁actifs 0
▁improved 0
cor 0
▁cliquant 0
▁appre 0
esco 0
▁conscience 0
▁derrière 0
vre 0
▁européens 0
▁envers 0
kg 0
▁rav 0
entraî 0
▁elig 0
▁soud 0
▁terres 0
▁hundreds 0
▁protocol 0
izes 0
▁mary 0
quences 0
▁élèves 0
▁terminal 0
▁printer 0
isp 0
▁convainc 0
rov 0
asts 0
▁pé 0
▁rating 0
▁emo 0
under 0
iennes 0
▁stratégies 0
inscription 0
▁diab 0
▁improving 0
▁courte 0
▁rein 0
▁spac 0
▁savez 0
▁extérieur 0
▁brill 0
▁stated 0
▁complain 0
84 0
instru 0
hewlett 0
▁fasc 0
▁eastern 0
▁limites 0
▁laboratoire 0
▁360 0
▁managed 0
▁auxil 0
screen 0
▁anc 0
uxe 0
▁œuvres 0
swick 0
▁copie 0
▁tail 0
▁remise 0
▁sommet 0
▁arrêtée 0
▁organized 0
iii 0
énom 0
▁brother 0
▁hyb 0
▁norme 0
▁loisirs 0
post 0
▁extensions 0
▁puerto 0
▁respecter 0
▁apporter 0
▁acheté 0
▁comporte 0
▁mainly 0
▁wars 0
añ 0
▁allowing 0
▁cyl 0
▁characteristics 0
▁bap 0
▁régional 0
▁indique 0
▁compéti 0
▁humid 0
etat 0
▁concerts 0
▁william 0
▁vins 0
▁appréci 0
avons 0
▁terror 0
▁harmon 0
agues 0
▁solidar 0
▁ancient 0
▁troubleshooting 0
ructures 0
▁heard 0
▁demi 0
▁lumine 0
▁founded 0
▁impr 0
▁nationales 0
▁réunions 0
▁retrouv 0
tiens 0
▁army 0
▁officiel 0
▁dehors 0
▁palm 0
▁aspect 0
écl 0
service 0
▁élevée 0
▁balcony 0
▁ancien 0
dp 0
▁ger 0
▁strategies 0
illing 0
▁veulent 0
époque 0
▁resulting 0
▁orch 0
▁habitants 0
▁thomas 0
▁compt 0
aliste 0
▁vitam 0
▁banks 0
▁mobiles 0
ignon 0
150 0
▁ya 0
▁acce 0
▁hub 0
▁notification 0
▁financières 0
▁ratio 0
▁étage 0
emball 0
▁compli 0
▁belles 0
▁magasin 0
▁grey 0
▁gender 0
76 0
▁contenant 0
évolution 0
chester 0
▁alph 0
show 0
▁criminal 0
▁diversité 0
▁updates 0
▁comportement 0
▁suivez 0
▁excl 0
usc 0
▁envis 0
▁climatique 0
▁eight 0
▁prestig 0
▁atti 0
dients 0
▁clientèle 0
▁militaire 0
ône 0
mun 0
mal 0
▁eli 0
▁migration 0
trans 0
▁cess 0
▁francisco 0
▁compréh 0
▁landscape 0
82 0
▁showing 0
orable 0
▁zur 0
▁spaces 0
▁ingré 0
▁indicated 0
▁essentiel 0
▁mediterranean 0
▁gps 0
▁exige 0
entist 0
wind 0
ocket 0
▁sufficient 0
▁ving 0
▁operational 0
▁competitive 0
▁msi 0
▁brands 0
body 0
autorité 0
▁victimes 0
▁adapter 0
idden 0
ulée 0
▁assets 0
▁medicine 0
irts 0
▁symp 0
aille 0
▁southern 0
▁directors 0
▁bénéficier 0
anes 0
agog 0
▁preparation 0
▁déliv 0
▁agricultural 0
▁futur 0
▁expériment 0
▁ire 0
▁philippe 0
▁bathrooms 0
▁recognized 0
▁douce 0
▁ran 0
▁basé 0
▁equal 0
▁informatique 0
olit 0
▁101 0
▁objet 0
itz 0
▁bâtiments 0
▁exceptional 0
▁envoyé 0
▁educational 0
.[ 0
jou 0
▁drink 0
minute 0
avais 0
anglais 0
▁milk 0
▁brows 0
▁flag 0
▁assembl 0
héber 0
▁vess 0
▁directory 0
▁gb 0
uits 0
▁combinaison 0
▁naturelles 0
▁maps 0
hér 0
▁driving 0
esis 0
▁vegas 0
▁sectors 0
▁explic 0
▁agreements 0
agriculture 0
83 0
▁planet 0
▁bear 0
▁humain 0
▁raw 0
blin 0
tically 0
▁pluie 0
▁panneau 0
▁brace 0
agon 0
▁teaching 0
▁laissez 0
▁fiscal 0
▁blanche 0
vidia 0
dney 0
▁évol 0
▁prolong 0
▁cultiv 0
bed 0
▁unto 0
▁falls 0
▁suspension 0
▁gt 0
▁décoration 0
». 0
alisme 0
▁obtained 0
assistance 0
▁fee 0
▁simult 0
▁tower 0
▁extent 0
▁poker 0
▁dance 0
▁magasins 0
▁annuel 0
▁authorized 0
▁intervention 0
▁superior 0
▁simples 0
▁corp 0
areness 0
▁agences 0
▁styles 0
▁environs 0
▁ambass 0
cin 0
▁moitié 0
▁considérable 0
▁intégré 0
fran 0
▁smooth 0
▁sample 0
▁chaud 0
▁trend 0
olo 0
mond 0
▁vintage 0
ums 0
▁virgin 0
▁transparent 0
▁james 0
▁sociales 0
zech 0
▁adventure 0
online 0
▁clairement 0
▁explique 0
▁dangere 0
▁judic 0
▁claims 0
aceu 0
▁figur 0
▁rejoindre 0
dd 0
▁thick 0
endue 0
▁déchets 0
▁enrich 0
▁soirée 0
garde 0
▁female 0
▁construire 0
▁pleasant 0
▁dî 0
▁templ 0
▁thurs 0
▁rise 0
tan 0
▁orgasme 0
▁trying 0
73 0
▁railway 0
▁proposé 0
▁experienced 0
▁consists 0
▁java 0
▁vérité 0
▁pill 0
▁caméra 0
▁highl 0
▁eth 0
▁joueur 0
▁agence 0
▁aperçu 0
▁coal 0
▁cellules 0
apy 0
▁faute 0
iale 0
▁francoph 0
▁beaches 0
%) 0
▁substance 0
itim 0
orme 0
▁extreme 0
elect 0
aude 0
▁indo 0
essai 0
▁budg 0
▁dish 0
▁manit 0
▁neige 0
▁prestations 0
▁elimin 0
▁alliance 0
▁tasks 0
▁geneva 0
ima 0
▁vallée 0
▁inspection 0
▁autonom 0
▁prevention 0
▁sher 0
▁ras 0
effet 0
▁électriques 0
▁52 0
wear 0
rator 0
▁boats 0
hab 0
▁titulaire 0
▁étiquette 0
élaboration 0
tube 0
▁nécessité 0
▁chefs 0
▁insp 0
▁financ 0
▁entrance 0
▁dol 0
▁awareness 0
▁accro 0
▁cadeau 0
▁devenu 0
iteurs 0
pay 0
▁sons 0
▁elegant 0
91 0
▁chart 0
▁withdra 0
▁pump 0
▁sheet 0
▁jeudi 0
▁arrivée 0
▁investissements 0
▁fusion 0
hen 0
▁massage 0
▁basse 0
▁galerie 0
▁expectations 0
▁discrimination 0
▁suggest 0
▁easier 0
81 0
▁reconnaissance 0
▁subje 0
▁mauvais 0
▁flav 0
▁disabled 0
▁entertainment 0
▁trouvés 0
▁supplement 0
you 0
▁extensive 0
▁hond 0
▁impacts 0
meub 0
▁titres 0
▁expli 0
aha 0
▁travelocity 0
▁visites 0
link 0
▁paysage 0
▁courts 0
acier 0
▁nvidia 0
jud 0
▁florence 0
▁actualités 0
▁gri 0
▁restrictions 0
▁multiples 0
▁recommandons 0
▁formule 0
▁sénateur 0
aller 0
▁minib 0
▁ports 0
beads 0
bai 0
▁réfugiés 0
▁gear 0
▁bought 0
bby 0
▁comparison 0
▁témoign 0
▁ensuring 0
▁ingén 0
hous 0
▁sr 0
▁annoncé 0
▁lose 0
pd 0
▁oeuvre 0
▁agenda 0
▁tôt 0
▁doors 0
▁résumé 0
bilité 0
▁soi 0
▁ov 0
atte 0
quality 0
▁spécifications 0
▁quad 0
▁largeur 0
▁combine 0
▁slight 0
tienne 0
aider 0
mettre 0
▁concurrence 0
▁weekend 0
▁chaînes 0
▁esprit 0
commun 0
▁progressive 0
vise 0
▁alloc 0
▁munich 0
▁len 0
▁séj 0
▁provo 0
▁taxi 0
▁école 0
▁mobility 0
servation 0
▁françois 0
dans 0
uste 0
▁commerciale 0
▁tube 0
▁stimul 0
▁lub 0
oline 0
▁veux 0
▁spacious 0
▁examen 0
▁declar 0
isses 0
▁behalf 0
▁cannabis 0
▁researchers 0
▁traité 0
oma 0
▁multim 0
▁accounts 0
▁étrangers 0
▁honourable 0
▁canap 0
▁amazing 0
▁translation 0
rions 0
▁grèce 0
▁salt 0
chron 0
▁finale 0
▁promotions 0
chement 0
▁profess 0
▁semin 0
▁domicile 0
▁péd 0
▁forêt 0
▁magic 0
vest 0
▁thursday 0
lette 0
▁definition 0
▁convert 0
▁responsabil 0
cn 0
uries 0
▁alimentaires 0
emballage 0
▁prêts 0
▁matériau 0
▁installez 0
engers 0
née 0
▁fm 0
▁wednes 0
▁converter 0
▁finances 0
▁modules 0
▁assurance 0
party 0
▁utiles 0
▁interpret 0
▁saying 0
▁indian 0
look 0
▁quantity 0
auc 0
iring 0
▁aires 0
▁awards 0
▁sydney 0
▁bateaux 0
pson 0
▁hoc 0
phas 0
▁dictionn 0
▁approval 0
lée 0
▁règlements 0
enger 0
▁volunte 0
▁souhaite 0
▁proportion 0
▁named 0
▁basée 0
rum 0
▁entrepreneurs 0
▁ordre 0
▁militaires 0
emn 0
▁manip 0
▁construit 0
▁accurate 0
▁exposition 0
▁envoyez 0
▁desire 0
▁équilib 0
cers 0
▁identification 0
▁connecter 0
▁nuclé 0
▁male 0
▁constat 0
divers 0
▁visage 0
▁bodies 0
▁ireland 0
▁draft 0
appli 0
▁wa 0
▁contest 0
▁temporarily 0
▁sap 0
paper 0
▁performed 0
▁annex 0
▁adopt 0
▁acceler 0
related 0
rin 0
fo 0
original 0
rais 0
▁voil 0
▁disco 0
▁lancé 0
▁informed 0
expl 0
▁dinner 0
▁negative 0
▁1992 0
know 0
déjeuner 0
▁cum 0
human 0
▁voyager 0
▁handle 0
▁directions 0
▁concrete 0
2011 0
▁stores 0
▁bach 0
▁lock 0
▁entendu 0
▁détru 0
▁57 0
▁modernes 0
▁audience 0
▁cells 0
allemagne 0
▁establishment 0
▁corner 0
▁calendar 0
▁unités 0
▁victoria 0
▁effectué 0
▁push 0
▁plaza 0
▁crist 0
▁colombie 0
▁facility 0
▁mercredi 0
▁dublin 0
▁hung 0
▁équipement 0
▁mobilité 0
pres 0
tiquer 0
och 0
▁miami 0
cat 0
fond 0
▁merveille 0
▁amenities 0
▁spécialement 0
inity 0
▁passagers 0
▁programming 0
▁divul 0
▁entrer 0
▁turquie 0
▁orbit 0
▁hearing 0
▁fondée 0
▁toilette 0
▁propriétaires 0
▁registry 0
▁gouvern 0
vas 0
▁auxiliaires 0
lia 0
tar 0
▁winn 0
▁incom 0
▁deploy 0
▁09 0
▁recover 0
▁conduc 0
▁czech 0
▁larger 0
▁crimes 0
▁conséquences 0
▁barbec 0
mus 0
▁110 0
▁reproduction 0
▁afford 0
py 0
▁didn 0
▁goût 0
▁numériques 0
▁bid 0
iliation 0
▁dun 0
▁daugh 0
▁:: 0
approvisionnement 0
▁mit 0
▁excellence 0
▁hop 0
▁atten 0
▁trail 0
▁lots 0
card 0
▁tonnes 0
▁extérieure 0
▁neck 0
▁diesel 0
▁demeure 0
▁prohib 0
▁nuclear 0
▁exactly 0
ulf 0
pol 0
▁colours 0
▁libert 0
asa 0
▁invités 0
▁autorisé 0
▁ukraine 0
▁matters 0
▁zurich 0
▁helping 0
▁stras 0
bay 0
▁pret 0
▁maître 0
▁ours 0
osse 0
oral 0
sd 0
▁wednesday 0
▁littér 0
▁envie 0
▁appeal 0
▁tier 0
▁historiques 0
▁nuits 0
ataires 0
▁piz 0
▁county 0
▁qualifi 0
▁operate 0
▁nearly 0
▁conflit 0
unciation 0
▁sert 0
▁jord 0
umeur 0
▁scope 0
▁wooden 0
▁avantage 0
▁marina 0
▁pink 0
▁frequ 0
iation 0
▁principle 0
▁brings 0
▁perfectly 0
dent 0
▁analog 0
▁output 0
▁acid 0
armée 0
▁organisé 0
oppos 0
▁intense 0
▁éché 0
hésion 0
▁camb 0
échange 0
▁retraite 0
▁cav 0
isra 0
▁mentioned 0
▁intelligence 0
unction 0
▁espagnol 0
▁analytics 0
▁piano 0
▁figures 0
▁nights 0
▁cutting 0
▁correction 0
▁particulière 0
▁england 0
▁périph 0
▁producteurs 0
▁sofa 0
érir 0
absence 0
▁700 0
intention 0
▁egg 0
▁catalog 0
▁governance 0
▁baignoire 0
▁excellente 0
▁compensation 0
▁pouvait 0
▁applies 0
▁incroy 0
▁bloc 0
▁déten 0
▁optimale 0
▁confront 0
▁revue 0
identité 0
▁tin 0
▁huit 0
▁idéale 0
▁sugar 0
▁forget 0
étais 0
▁professeur 0
▁cott 0
▁bible 0
▁fleur 0
▁daniel 0
▁constituent 0
▁previously 0
▁strasbourg 0
▁suggestions 0
ardi 0
aby 0
▁tues 0
▁robe 0
▁clothing 0
▁juge 0
▁japanese 0
▁céléb 0
▁autoc 0
▁defence 0
▁probable 0
▁hiv 0
▁dil 0
▁appren 0
iro 0
▁défi 0
▁wash 0
nat 0
espagne 0
▁constitu 0
▁énergétique 0
pass 0
▁investigation 0
▁communautaire 0
▁linguis 0
▁fundamental 0
▁ryth 0
clés 0
▁wil 0
plex 0
▁diversity 0
▁clo 0
▁controls 0
commer 0
▁provence 0
▁opinions 0
▁mt 0
▁appears 0
▁évaluer 0
▁electricity 0
ulte 0
▁causer 0
mann 0
▁mardi 0
▁cond 0
▁remplacement 0
▁jacques 0
inde 0
▁lift 0
onneur 0
▁pharmaceu 0
▁feat 0
▁batteries 0
▁extended 0
▁commander 0
moins 0
▁allant 0
▁pourtant 0
canada 0
▁comply 0
via 0
▁feedback 0
▁tank 0
▁stories 0
▁échantill 0
iry 0
▁horse 0
▁designs 0
▁transmit 0
uves 0
▁anth 0
including 0
world 0
▁suffisamment 0
illé 0
▁considéré 0
▁functional 0
mat 0
▁webcam 0
▁solide 0
▁joined 0
▁pollution 0
olas 0
▁pistes 0
▁lancement 0
ographic 0
▁lancer 0
▁biais 0
cho 0
usage 0
▁retrouver 0
cars 0
▁returned 0
▁utilisent 0
▁appointed 0
lec 0
▁chir 0
▁ral 0
▁particuliers 0
▁contained 0
▁enqu 0
▁login 0
▁priceline 0
▁painting 0
▁discount 0
▁lig 0
▁printing 0
▁españ 0
▁réparation 0
▁maximale 0
gest 0
▁sémin 0
érance 0
▁chf 0
▁sph 0
▁adobe 0
▁intellectual 0
▁deluxe 0
▁affichez 0
▁étrangères 0
▁lunch 0
▁lights 0
▁cout 0
▁répertor 0
aime 0
▁entitled 0
▁textes 0
▁graphique 0
▁lettres 0
▁kb 0
max 0
▁adéqu 0
2010 0
▁femin 0
▁06 0
▁evolution 0
▁gastronom 0
▁congo 0
▁stakeholders 0
▁souten 0
▁observations 0
fp 0
tur 0
▁médecine 0
▁berg 0
▁atlantic 0
▁pregn 0
nées 0
cession 0
▁earlier 0
tal 0
▁idée 0
▁enables 0
base 0
▁compréhension 0
▁machinery 0
▁charming 0
▁subscrib 0
▁pleasure 0
▁aims 0
▁shanghai 0
▁acts 0
▁philosoph 0
▁dér 0
▁emploi 0
▁latin 0
▁augmentation 0
aka 0
▁equivalent 0
▁cannes 0
tery 0
▁snapshot 0
▁hostels 0
▁athle 0
▁austria 0
▁02 0
ceaux 0
ints 0
▁américaine 0
▁reception 0
▁contenir 0
▁admiss 0
▁replacement 0
▁moto 0
▁gour 0
dorf 0
▁transit 0
▁revend 0
▁carbone 0
▁implemented 0
▁explos 0
mental 0
fall 0
▁reviewed 0
▁gardens 0
oupe 0
▁sauna 0
▁decide 0
▁cryst 0
▁topics 0
▁sv 0
annes 0
aland 0
tiles 0
▁maintien 0
▁tendances 0
▁définir 0
▁récomp 0
▁stoc 0
▁sof 0
▁familiale 0
▁sensibil 0
ataire 0
zone 0
▁tuesday 0
▁assurez 0
▁1980 0
riche 0
osa 0
avier 0
atric 0
▁filters 0
▁consultations 0
onte 0
ju 0
▁significantly 0
▁détente 0
▁sask 0
▁allons 0
▁180 0
▁spati 0
▁dal 0
▁remplir 0
▁vivant 0
▁immobilier 0
▁réfrigérateur 0
▁buying 0
▁investments 0
▁lunettes 0
▁component 0
▁clip 0
file 0
▁characters 0
▁vary 0
▁inspired 0
▁puissent 0
rale 0
▁mall 0
▁résid 0
▁substanti 0
▁manitoba 0
▁election 0
▁utili 0
van 0
▁personnelle 0
▁wants 0
▁oak 0
▁calendrier 0
▁chamber 0
▁territoires 0
▁multip 0
▁failure 0
▁cv 0
▁toulouse 0
ounted 0
▁ford 0
rap 0
icians 0
moi 0
▁opposition 0
▁automobile 0
market 0
▁lié 0
utch 0
▁fas 0
▁duty 0
▁matern 0
▁walls 0
▁concepts 0
▁strict 0
▁contrôler 0
cap 0
teau 0
▁abus 0
▁managing 0
▁jol 0
▁fréquence 0
▁powder 0
ouc 0
▁gif 0
▁globale 0
▁consumers 0
▁happens 0
▁existence 0
hébergement 0
▁précise 0
▁accompan 0
▁touristiques 0
▁sad 0
▁manches 0
▁applicables 0
iées 0
▁destroy 0
▁bc 0
uters 0
▁législation 0
▁nig 0
nu 0
▁resid 0
▁emissions 0
▁07 0
▁proposal 0
▁cyber 0
mage 0
▁intérêt 0
▁identifier 0
▁sait 0
rad 0
aisselle 0
▁établir 0
ghan 0
▁inconn 0
▁analyses 0
▁emball 0
▁represents 0
▁reader 0
▁finding 0
▁réflex 0
▁collectiv 0
▁associé 0
▁avoc 0
engagement 0
orique 0
▁vingt 0
▁joue 0
acte 0
▁charme 0
▁biodivers 0
▁passed 0
▁seek 0
pod 0
▁kept 0
2000 0
▁réclam 0
▁recognition 0
▁plats 0
▁poland 0
order 0
▁accum 0
▁default 0
▁qc 0
▁strugg 0
▁occident 0
enquête 0
▁communes 0
rob 0
▁scén 0
égal 0
▁conclusions 0
▁exploitation 0
▁egypt 0
▁theatre 0
▁efficaces 0
▁cheval 0
▁rear 0
▁ingrédients 0
▁printemps 0
▁utilisons 0
made 0
▁incorre 0
▁sag 0
▁chimiques 0
▁consolid 0
▁nine 0
▁reconst 0
▁circonstances 0
▁electrical 0
▁xv 0
▁vine 0
▁anniversaire 0
peau 0
▁diction 0
▁mér 0
▁finalement 0
▁donnée 0
...+ 0
ôles 0
▁pronunciation 0
▁postes 0
▁59 0
tered 0
▁appreci 0
▁yam 0
▁revenue 0
offrir 0
biance 0
roir 0
▁membership 0
▁crème 0
prun 0
▁critique 0
ibaba 0
▁rs 0
▁gym 0
▁plong 0
▁guy 0
▁surfaces 0
▁acceptez 0
▁consistent 0
neur 0
▁input 0
ão 0
condition 0
▁54 0
▁motifs 0
placements 0
▁alerte 0
▁difficultés 0
▁enfor 0
▁haiti 0
▁signs 0
2009 0
▁brut 0
▁immun 0
aki 0
▁participant 0
asi 0
▁straight 0
▁depth 0
ched 0
▁stages 0
▁vite 0
▁noire 0
▁seller 0
▁guaranteed 0
▁entretien 0
▁fermer 0
zo 0
événement 0
exe 0
▁width 0
gary 0
▁trends 0
▁noting 0
extra 0
▁paiements 0
▁expensive 0
▁barbecue 0
▁typical 0
▁bottle 0
lamm 0
▁emphas 0
▁diseases 0
▁mener 0
▁accueillir 0
▁destruction 0
▁actif 0
▁quantit 0
▁introduced 0
léch 0
▁sensor 0
▁hébergements 0
▁perspectives 0
kyo 0
▁calculated 0
▁1993 0
▁felt 0
▁vict 0
▁abstra 0
▁équipé 0
▁dirigeants 0
▁tire 0
▁rencontrer 0
▁racing 0
▁étoile 0
▁solaire 0
▁residential 0
▁carefully 0
▁côt 0
aissent 0
▁parcs 0
▁gouvernance 0
▁alberta 0
▁essais 0
étiques 0
ispens 0
dge 0
▁substit 0
▁exactement 0
▁évaluations 0
▁grie 0
▁waters 0
▁quart 0
▁financing 0
uf 0
export 0
conne 0
▁décide 0
activités 0
existence 0
▁pent 0
cheveux 0
▁étro 0
▁brû 0
▁atelier 0
▁récol 0
agir 0
itent 0
▁temporary 0
▁vulner 0
lla 0
holm 0
▁operator 0
▁microw 0
▁anticip 0
▁accessibles 0
▁achetez 0
ctifs 0
▁dual 0
atever 0
uns 0
▁exemples 0
▁complexes 0
▁autorisés 0
ancien 0
lied 0
2008 0
▁regularly 0
▁interactive 0
infr 0
▁lampe 0
▁compress 0
oop 0
▁montagnes 0
▁parks 0
agas 0
▁weap 0
akers 0
▁présents 0
▁officers 0
▁ket 0
▁jazz 0
onnance 0
▁quin 0
rages 0
uaire 0
architecture 0
▁examples 0
▁vien 0
arium 0
▁metro 0
▁largement 0
rise 0
énagement 0
▁chien 0
▁université 0
▁requirement 0
▁haz 0
▁sortir 0
▁monuments 0
électricité 0
impos 0
estation 0
▁infrastructures 0
▁51 0
zzi 0
▁discours 0
▁conserver 0
alys 0
bnb 0
▁syndic 0
▁lor 0
▁agricoles 0
▁programmation 0
▁jér 0
▁trafic 0
▁protocole 0
jection 0
▁naturels 0
▁abroad 0
folio 0
▁split 0
▁scr 0
▁crown 0
▁unesco 0
▁hypoth 0
▁culturel 0
▁raised 0
▁établ 0
▁tient 0
▁fc 0
▁discre 0
▁serveurs 0
▁travaillé 0
▁fibre 0
ements 0
▁jum 0
▁directives 0
▁hang 0
▁liquide 0
▁tradem 0
▁portion 0
▁flam 0
▁boutiques 0
itarian 0
ére 0
▁shad 0
▁newest 0
▁frag 0
occo 0
▁agoda 0
▁focused 0
▁prize 0
▁chasse 0
▁retard 0
▁totalement 0
▁elev 0
▁california 0
▁prévue 0
éviter 0
▁planète 0
▁appart 0
uez 0
▁sie 0
pez 0
▁somm 0
▁canapé 0
▁reten 0
▁débat 0
▁baie 0
ouvre 0
▁indispens 0
▁rasse 0
▁teachers 0
mis 0
ailles 0
▁palestin 0
isted 0
ups 0
oa 0
▁chalet 0
▁ny 0
▁containing 0
▁moved 0
▁différente 0
peu 0
▁legisl 0
ius 0
▁musées 0
ceptions 0
▁dîner 0
▁displayed 0
▁meat 0
▁reconnu 0
▁pak 0
▁rejet 0
▁unité 0
▁buffet 0
%, 0
▁raf 0
entreprises 0
▁ongoing 0
▁controlled 0
▁72 0
urre 0
▁behavi 0
▁08 0
▁froid 0
▁nommé 0
écu 0
oureux 0
▁56 0
fait 0
adel 0
▁conséquence 0
▁playa 0
▁priorité 0
▁lounge 0
▁declaration 0
▁whatever 0
inéa 0
▁feeling 0
▁wrong 0
▁bient 0
▁licences 0
▁columbia 0
▁vect 0
▁household 0
▁minibar 0
▁tchèque 0
iciens 0
▁limitée 0
cad 0
ôts 0
but 0
▁traditions 0
▁théra 0
rates 0
▁télécommande 0
▁intérieure 0
▁nan 0
har 0
▁réve 0
▁coordonnées 0
top 0
▁sable 0
▁clinical 0
hs 0
▁lady 0
▁natur 0
▁asie 0
outs 0
onnés 0
irus 0
▁situés 0
▁managers 0
▁délais 0
▁factor 0
▁reducing 0
▁airbnb 0
aisons 0
érons 0
▁sed 0
▁laboratory 0
▁liability 0
▁oise 0
▁hotwire 0
éth 0
▁juridiques 0
▁ouverture 0
ols 0
▁tang 0
hésitez 0
▁vuln 0
▁cb 0
▁élections 0
▁frères 0
▁truly 0
▁53 0
▁surrounding 0
▁han 0
▁coffre 0
▁île 0
▁bulle 0
ourt 0
▁plateau 0
▁chicago 0
▁calgary 0
▁ash 0
irl 0
▁democratic 0
▁inhabit 0
▁climatiques 0
aissez 0
▁partis 0
▁moreover 0
▁jaune 0
grad 0
êtement 0
▁allerg 0
▁→ 0
▁poursuivre 0
▁âge 0
▁métro 0
▁covers 0
▁bientôt 0
ettez 0
▁communiqué 0
suit 0
▁feuille 0
▁chiffres 0
▁sunset 0
▁downtown 0
▁collectivités 0
jeux 0
iement 0
▁horizont 0
▁interventions 0
▁passant 0
▁facult 0
▁kra 0
▁58 0
▁kam 0
▁monsieur 0
▁recorded 0
▁signe 0
▁exposure 0
itude 0
hal 0
▁fell 0
▁hus 0
▁pleinement 0
▁fortement 0
▁reserved 0
▁moul 0
ito 0
ighted 0
▁bmw 0
▁tâche 0
▁essayez 0
▁invo 0
isms 0
▁optimal 0
▁hect 0
▁instruction 0
▁stade 0
▁expansion 0
▁microwave 0
gam 0
▁coûte 0
▁synchron 0
ican 0
ey 0
▁passengers 0
▁moteurs 0
▁korea 0
▁côtés 0
▁officielle 0
▁grade 0
▁duties 0
site 0
▁mozilla 0
▁granted 0
enous 0
.: 0
▁voud 0
▁achieved 0
▁relatifs 0
▁diagnostic 0
exception 0
▁pose 0
▁delay 0
▁hat 0
▁formula 0
▁acknow 0
▁kid 0
chent 0
▁looks 0
▁relief 0
étation 0
urage 0
▁mexique 0
▁agricole 0
▁haï 0
▁clinique 0
non 0
▁débit 0
▁propositions 0
▁viennent 0
▁pologne 0
▁rim 0
▁qualif 0
▁superbe 0
▁eligible 0
▁meets 0
encia 0
▁absolu 0
▁tob 0
▁répertoire 0
▁océ 0
▁grave 0
▁jon 0
▁chirurg 0
▁informer 0
chem 0
▁visited 0
▁franch 0
▁estimated 0
▁boost 0
ref 0
▁midi 0
▁annuelle 0
▁yach 0
▁improvement 0
bation 0
▁tirer 0
▁crucial 0
ajour 0
▁laur 0
▁becoming 0
▁intit 0
▁assistant 0
inks 0
▁carl 0
▁sacrif 0
▁900 0
▁anniversary 0
▁entering 0
▁participé 0
infrast 0
▁wet 0
▁visitez 0
master 0
▁statements 0
▁puzz 0
israël 0
▁remarqu 0
▁hausse 0
▁achet 0
▁chant 0
▁remboursement 0
▁wedding 0
▁convertir 0
▁restauration 0
expression 0
▁oven 0
▁commissioner 0
ailleurs 0
-------- 0
▁deuts 0
▁feuilles 0
▁sweden 0
▁aud 0
▁sharp 0
▁offrons 0
▁portfolio 0
▁romantic 0
▁enquête 0
▁conseiller 0
▁1991 0
▁perhaps 0
uten 0
▁ouest 0
▁chargé 0
▁refrigerator 0
▁donnant 0
lits 0
▁conversation 0
▁désire 0
mans 0
▁retirer 0
▁leaving 0
▁favoriser 0
ajournement 0
▁effectively 0
entiel 0
▁bingo 0
▁español 0
▁corruption 0
▁médicament 0
▁lodge 0
▁intention 0
inés 0
▁delete 0
▁plaque 0
▁140 0
case 0
▁candidats 0
▁renov 0
▁streets 0
▁arom 0
▁parl 0
▁starts 0
▁responsabilités 0
friendly 0
▁congress 0
▁suppos 0
▁revis 0
was 0
arts 0
main 0
▁customs 0
▁estime 0
▁décenn 0
▁charger 0
▁carib 0
▁leaves 0
▁debt 0
▁invited 0
▁incluant 0
▁auront 0
avar 0
appui 0
▁appearance 0
pare 0
▁strengthen 0
▁accueille 0
▁augmente 0
▁formal 0
▁télécharg 0
▁juan 0
issante 0
▁soil 0
▁wife 0
▁visiting 0
dible 0
▁seuls 0
▁adequ 0
▁entered 0
quette 0
▁waiting 0
▁limiter 0
▁américains 0
▁olive 0
ido 0
▁seeds 0
▁linux 0
▁sto 0
▁licens 0
▁leads 0
étaire 0
▁seg 0
▁appuyez 0
▁patent 0
▁scene 0
▁copies 0
▁philipp 0
▁peur 0
▁wc 0
▁thinking 0
▁portail 0
▁intelligent 0
▁perfection 0
▁inscrivez 0
▁banques 0
▁jardins 0
▁uni 0
▁nich 0
▁holding 0
▁shell 0
what 0
▁heaven 0
▁recharge 0
▁cliquer 0
▁1970 0
arition 0
ende 0
▁hay 0
▁furent 0
▁enseign 0
▁fold 0
▁happen 0
▁facing 0
isure 0
▁systématique 0
▁représentation 0
▁prévoit 0
▁mouvements 0
pur 0
▁nécessite 0
▁brain 0
▁stret 0
▁rur 0
▁singapore 0
cée 0
▁specialized 0
▁roof 0
▁alibaba 0
▁raff 0
▁permission 0
▁ds 0
▁comparaison 0
▁offerts 0
▁cinema 0
▁125 0
▁cooking 0
home 0
rans 0
annexe 0
oct 0
▁admin 0
▁vip 0
tg 0
▁hur 0
▁lex 0
▁lith 0
▁strap 0
▁orbitz 0
▁nova 0
enfants 0
▁pover 0
▁marked 0
▁malheure 0
night 0
▁truck 0
▁privilég 0
▁rank 0
adapt 0
▁pvc 0
▁seed 0
▁coins 0
▁thèmes 0
▁modalités 0
▁multil 0
▁fédérale 0
▁facilitate 0
▁neighbor 0
▁alarm 0
▁ahead 0
▁conférences 0
▁bann 0
▁remaining 0
▁monaco 0
▁poursuiv 0
adm 0
▁décès 0
▁traitements 0
▁deskt 0
hus 0
▁habitat 0
▁expressed 0
ef 0
▁twin 0
▁bij 0
anca 0
▁frequency 0
▁compétence 0
▁renv 0
antages 0
▁charl 0
iso 0
embl 0
▁directe 0
▁receiving 0
▁bracelet 0
▁condam 0
unately 0
▁sentiment 0
▁nau 0
asting 0
▁moon 0
dou 0
▁réussi 0
▁pourcent 0
▁composed 0
▁préalable 0
humidité 0
▁refund 0
▁featuring 0
▁intellectuelle 0
▁acquisition 0
attention 0
▁commen 0
▁increases 0
▁05 0
120 0
▁profondeur 0
▁divine 0
▁profond 0
▁planned 0
▁employé 0
▁casinos 0
accomp 0
▁xx 0
titudes 0
▁penser 0
▁inscription 0
▁intim 0
cope 0
.» 0
▁turned 0
▁attempt 0
▁printed 0
▁packages 0
▁facts 0
▁cardi 0
▁australie 0
▁parall 0
▁représentent 0
▁neither 0
▁marra 0
▁consom 0
▁combus 0
▁mast 0
▁habituellement 0
sel 0
▁toxic 0
hyd 0
▁spéciaux 0
quisition 0
▁plaf 0
▁indoor 0
▁poverty 0
▁furthermore 0
rest 0
▁armes 0
interpr 0
dat 0
▁forg 0
▁carbur 0
▁rénov 0
▁pacific 0
▁cité 0
▁04 0
▁stabil 0
▁stability 0
▁monna 0
▁aspire 0
▁xbox 0
▁senate 0
▁polyester 0
▁poudre 0
▁secrets 0
▁frère 0
tariat 0
▁européennes 0
▁myth 0
▁morocco 0
▁lowest 0
▁ku 0
▁surprise 0
▁sir 0
tici 0
▁meubles 0
build 0
chez 0
▁auquel 0
▁fulf 0
omet 0
▁md 0
▁obvious 0
1000 0
organisme 0
▁vais 0
tell 0
sol 0
▁69 0
▁portefe 0
tims 0
▁dancing 0
ingén 0
▁sms 0
▁enseigne 0
▁layer 0
oted 0
▁adopté 0
▁tropical 0
▁roule 0
▁privés 0
ésie 0
eze 0
mt 0
▁pir 0
enos 0
▁amour 0
érateurs 0
▁boissons 0
▁destinés 0
anmoins 0
▁sizes 0
▁conforme 0
▁poser 0
▁conclu 0
▁examine 0
▁connue 0
▁bags 0
mg 0
▁uv 0
▁coverage 0
▁adoles 0
rote 0
▁sight 0
▁350 0
▁répertoriés 0
▁humidity 0
▁stabilité 0
▁brush 0
▁kitchenette 0
▁absence 0
▁66 0
▁sexy 0
▁limits 0
▁infra 0
▁03 0
ders 0
▁enem 0
▁kinds 0
▁bouill 0
▁ancienne 0
isons 0
▁discuter 0
▁piste 0
▁hes 0
▁priorités 0
▁photography 0
agées 0
▁respe 0
▁clock 0
▁fournies 0
▁couch 0
▁clubs 0
▁browse 0
apest 0
▁dialog 0
▁contrats 0
lever 0
▁appointment 0
ctez 0
▁haird 0
▁variable 0
▁néanmoins 0
▁fourth 0
▁fermet 0
▁drugs 0
▁lapt 0
▁inqui 0
▁catal 0
▁xl 0
▁imagine 0
▁victims 0
▁renforcement 0
▁powers 0
250 0
▁console 0
▁énergie 0
▁optional 0
▁israël 0
▁confirmed 0
cedes 0
▁cape 0
▁mechanical 0
▁rod 0
▁légumes 0
▁leisure 0
▁speaker 0
▁farmers 0
▁hero 0
▁eld 0
gies 0
▁finished 0
pier 0
▁deck 0
▁attentes 0
▁sep 0
▁kal 0
claim 0
gre 0
▁surrounded 0
▁prescrib 0
▁sacs 0
dium 0
▁stockholm 0
▁tc 0
▁avions 0
rench 0
▁trimestre 0
▁dessin 0
▁mining 0
▁bob 0
▁murs 0
▁demain 0
owned 0
expé 0
▁refroid 0
") 0
▁phénom 0
▁dessus 0
▁revenir 0
▁presents 0
▁oeuvres 0
▁prévenir 0
▁gon 0
▁frequently 0
▁evol 0
supp 0
▁directs 0
▁thy 0
▁tablet 0
▁fiction 0
▁diamètre 0
ieties 0
▁vat 0
▁keeping 0
rac 0
▁corn 0
▁devait 0
gance 0
2020 0
agerie 0
▁thaï 0
▁monter 0
▁accél 0
fts 0
▁thor 0
station 0
iera 0
▁fixe 0
▁toilettes 0
▁nok 0
▁résol 0
▁seraient 0
ropolit 0
otes 0
▁wikip 0
▁pneum 0
tp 0
▁peuples 0
▁cig 0
▁< 0
▁topic 0
▁guidance 0
▁elections 0
▁pursuant 0
saint 0
▁pensez 0
▁immediate 0
▁chargement 0
▁hybrid 0
▁rêve 0
zhou 0
▁brid 0
ington 0
hand 0
▁consideration 0
▁conduit 0
▁raise 0
▁sensitive 0
▁respir 0
ecd 0
▁cens 0
▁ampl 0
▁éduc 0
▁literature 0
▁palma 0
▁dérou 0
▁élevés 0
▁lifest 0
▁déploy 0
▁lessons 0
▁façons 0
▁artistic 0
▁tombe 0
▁movies 0
cool 0
ams 0
▁terroris 0
▁essayer 0
▁vih 0
▁touristique 0
▁léger 0
atrième 0
▁tech 0
▁filtres 0
▁faster 0
▁dévo 0
▁remerc 0
wer 0
▁répon 0
▁experiment 0
tein 0
▁thir 0
▁studios 0
▁blow 0
initiative 0
▁ordin 0
▁loy 0
▁campus 0
▁bac 0
▁trace 0
▁personnalisé 0
▁died 0
▁couples 0
aser 0
instruction 0
▁conflits 0
▁luc 0
▁silence 0
▁thermal 0
▁disposent 0
▁shirt 0
identification 0
war 0
▁predic 0
▁outstanding 0
▁liti 0
▁68 0
▁160 0
intermédiaire 0
astic 0
mad 0
▁neighbour 0
▁hockey 0
▁seeking 0
▁olympic 0
▁rubber 0
▁budapest 0
▁éventail 0
iza 0
▁guard 0
▁obstacles 0
▁ebook 0
bio 0
lém 0
▁affiche 0
▁placement 0
▁normalement 0
▁crow 0
▁luck 0
▁ig 0
▁proof 0
▁turk 0
▁defend 0
isic 0
▁puissant 0
▁prestation 0
▁mouse 0
▁legitim 0
▁sauvegard 0
▁alleg 0
▁servers 0
▁uniques 0
▁stric 0
▁copenh 0
▁auxquels 0
orrow 0
acle 0
▁hidden 0
▁emplois 0
▁migrants 0
▁campsite 0
oie 0
▁donnent 0
stock 0
artiste 0
aio 0
▁rib 0
imes 0
autorisation 0
▁novel 0
édez 0
▁classification 0
▁fini 0
▁obligatoire 0
euros 0
asie 0
▁taxe 0
words 0
▁infections 0
▁130 0
▁pauvreté 0
▁orth 0
▁generic 0
▁afterno 0
midi 0
▁réalisés 0
▁bond 0
▁poisson 0
▁editor 0
▁organisme 0
eta 0
▁maintained 0
▁joué 0
▁helped 0
▁russe 0
accep 0
stream 0
▁yah 0
▁intégrée 0
▁actes 0
▁onto 0
▁globe 0
▁gets 0
▁ore 0
rus 0
matic 0
▁shares 0
▁expenses 0
▁asset 0
▁academic 0
voiturage 0
▁adding 0
▁bancaire 0
arrêt 0
▁poissons 0
▁summit 0
▁tau 0
▁signé 0
▁restore 0
▁exempl 0
mique 0
▁commod 0
endo 0
domin 0
▁older 0
iert 0
▁pig 0
▁couche 0
▁margin 0
▁generated 0
▁externes 0
▁externe 0
▁chaude 0
endence 0
▁residents 0
▁relationships 0
▁cér 0
▁conjoin 0
▁systematic 0
▁doté 0
▁tellement 0
▁covoiturage 0
▁alcohol 0
▁serving 0
▁courage 0
▁reflè 0
▁boss 0
abeth 0
gers 0
▁privile 0
sch 0
▁segment 0
▁posts 0
▁junior 0
aches 0
sen 0
pas 0
law 0
▁precision 0
▁connecté 0
▁différent 0
franç 0
leurs 0
▁proposés 0
▁pretty 0
▁tomorrow 0
▁texas 0
▁libres 0
▁tailles 0
rime 0
▁norv 0
ophy 0
olé 0
▁corée 0
▁loading 0
graph 0
▁veille 0
▁professor 0
oblig 0
▁myself 0
▁échéant 0
▁muscle 0
▁indicate 0
▁pouvoirs 0
▁georg 0
kh 0
▁continuous 0
▁88 0
▁motel 0
▁artistique 0
▁venice 0
▁suppression 0
▁quatrième 0
▁motif 0
▁meal 0
oh 0
aust 0
▁tokyo 0
▁imprimer 0
▁illeg 0
▁desktop 0
▁littérature 0
fx 0
▁nick 0
utés 0
▁museums 0
▁délégu 0
▁marg 0
▁isbn 0
▁gains 0
oni 0
▁créée 0
landais 0
▁forêts 0
xy 0
data 0
▁96 0
▁reserves 0
▁constantly 0
▁vendeur 0
abe 0
▁workshops 0
▁crystal 0
rane 0
▁suède 0
▁courrier 0
▁médecins 0
alty 0
ajouter 0
▁removal 0
▁refugees 0
▁appliquer 0
▁federation 0
▁conçus 0
▁polar 0
▁orig 0
▁stands 0
▁compétition 0
▁bicy 0
ierie 0
▁acous 0
▁chan 0
gram 0
▁arbres 0
▁serb 0
▁94 0
▁retrouvez 0
▁kl 0
▁croix 0
▁departments 0
exem 0
▁visits 0
▁armed 0
▁fédération 0
égalité 0
chang 0
océ 0
▁bish 0
mob 0
▁vérifiez 0
expédition 0
▁treated 0
▁rw 0
▁greatest 0
▁native 0
ignez 0
▁returns 0
▁montage 0
▁discovery 0
▁gî 0
▁photographie 0
▁league 0
▁daughter 0
edy 0
▁tuy 0
▁mercedes 0
▁rues 0
▁floors 0
▁wave 0
keep 0
▁honey 0
hc 0
hop 0
▁sending 0
▁dév 0
▁silic 0
▁sovi 0
▁territories 0
looking 0
▁removed 0
▁cree 0
▁processed 0
▁debate 0
▁calib 0
▁ateliers 0
▁mille 0
▁connections 0
▁sucre 0
fig 0
▁investors 0
▁indigenous 0
▁hauts 0
▁priorities 0
▁consequences 0
▁retain 0
▁measurement 0
▁vulnéra 0
▁oliv 0
▁hills 0
▁chances 0
▁celebr 0
▁diameter 0
▁diz 0
▁médicaux 0
▁doux 0
▁bulgar 0
▁afternoon 0
▁graves 0
▁jewel 0
ématiques 0
▁ultimate 0
▁monthly 0
▁enregistré 0
▁consulting 0
script 0
▁mécanisme 0
▁dign 0
teen 0
▁victoire 0
▁subsequently 0
▁steam 0
▁nit 0
élim 0
▁operators 0
harm 0
▁ceo 0
▁roleplay 0
▁lisbon 0
pers 0
▁municipality 0
▁accompanied 0
▁html 0
▁publishing 0
▁wealth 0
▁awarded 0
▁résidenti 0
▁possession 0
archive 0
▁amus 0
▁sympath 0
▁veter 0
ystem 0
onu 0
▁handling 0
▁andre 0
onnements 0
▁quotidienne 0
▁organiser 0
itate 0
▁séance 0
▁pleased 0
uine 0
rég 0
▁mouth 0
▁infection 0
▁directed 0
▁frontières 0
▁autrement 0
pub 0
inv 0
▁susceptibles 0
▁birds 0
rot 0
▁pompe 0
▁téléphon 0
burgh 0
orti 0
illy 0
▁twenty 0
▁hr 0
▁tested 0
tification 0
▁dois 0
▁voilà 0
▁pourriez 0
▁bin 0
▁triple 0
▁reçoit 0
from 0
▁songs 0
▁critiques 0
▁cerem 0
aujourd 0
▁rémun 0
▁parfum 0
▁kr 0
quin 0
▁trouble 0
▁peak 0
án 0
hos 0
▁carton 0
▁savings 0
▁bronze 0
▁serves 0
▁paroles 0
▁wines 0
porter 0
▁panneaux 0
▁chiffre 0
▁motorcy 0
équilib 0
▁ships 0
▁mauvaise 0
▁détaillée 0
▁trous 0
▁78 0
▁travaillent 0
▁venue 0
arrière 0
▁url 0
▁manif 0
▁addresses 0
▁creates 0
▁holder 0
▁émo 0
▁soumettre 0
▁bouteille 0
▁appels 0
uan 0
▁baisse 0
▁rencontres 0
▁ong 0
acer 0
▁voies 0
▁comprenant 0
étudi 0
▁laisse 0
▁backup 0
▁champagne 0
▁amounts 0
▁efficacement 0
▁incident 0
clusion 0
▁terminé 0
▁furnished 0
▁récente 0
▁internes 0
impôt 0
dev 0
atar 0
▁successfully 0
▁attacks 0
perhaps 0
▁biggest 0
▁opens 0
▁toyota 0
▁cérém 0
orges 0
▁séjours 0
▁officials 0
▁sensible 0
▁mécanique 0
ryer 0
▁indices 0
uma 0
▁67 0
▁inspiration 0
▁decoration 0
▁déplo 0
▁signes 0
otic 0
▁monument 0
▁ward 0
▁alger 0
ika 0
▁63 0
uzzi 0
▁peoples 0
établir 0
italie 0
▁afghan 0
▁alt 0
working 0
▁conçue 0
andre 0
▁rug 0
paravant 0
▁mettant 0
èques 0
▁réalisée 0
▁recognize 0
▁randonnée 0
▁phr 0
inding 0
▁symptoms 0
▁istan 0
▁présentée 0
▁promoting 0
▁ministers 0
▁innovations 0
▁douleur 0
▁zoo 0
▁toward 0
▁legend 0
édia 0
▁tip 0
éroï 0
▁rythme 0
▁gent 0
▁cogn 0
omét 0
▁fermeture 0
tec 0
▁speech 0
▁upload 0
check 0
▁liée 0
▁istanbul 0
▁fraî 0
emed 0
▁noise 0
▁auteurs 0
affichage 0
▁scre 0
▁hôte 0
▁keyboard 0
aler 0
ographiques 0
▁viande 0
éral 0
vey 0
anément 0
▁livré 0
▁observed 0
nom 0
▁importe 0
▁buenos 0
▁associées 0
▁vérifi 0
▁rf 0
2007 0
▁represented 0
upe 0
▁scand 0
▁amp 0
ician 0
eland 0
▁privées 0
▁cancell 0
astroph 0
arme 0
▁oxy 0
▁isn 0
unk 0
robe 0
▁devra 0
icent 0
▁slov 0
▁symptômes 0
▁recre 0
▁morceau 0
▁diverse 0
▁teacher 0
ibilities 0
▁alternatives 0
▁align 0
▁inaug 0
▁jump 0
▁ecos 0
▁diamond 0
bury 0
approche 0
▁resorts 0
▁pharmac 0
▁roles 0
pan 0
oule 0
▁demandez 0
▁syria 0
▁investisseurs 0
adoption 0
tone 0
▁liver 0
▁brass 0
▁74 0
▁spray 0
▁kos 0
▁accords 0
oubl 0
ía 0
▁richard 0
▁crew 0
▁récupération 0
▁clause 0
▁kenya 0
▁splend 0
▁bn 0
▁rack 0
▁perce 0
▁langage 0
making 0
▁healthcare 0
▁9780 0
existe 0
lon 0
▁www 0
▁pocket 0
▁récupérer 0
▁ministres 0
▁pione 0
pin 0
▁1960 0
▁tva 0
▁remplacer 0
▁nouveaut 0
ventions 0
accept 0
▁médicale 0
▁prennent 0
▁dust 0
mart 0
▁banking 0
▁cible 0
chées 0
▁inclusive 0
▁bulletin 0
montrer 0
▁trump 0
▁smaller 0
▁kel 0
▁chaleure 0
intervention 0
▁springs 0
▁gras 0
▁volumes 0
▁unfort 0
being 0
▁toit 0
aped 0
▁indépendante 0
où 0
▁menace 0
▁entirely 0
▁dangerous 0
▁98 0
▁temporaire 0
▁limitation 0
▁lifestyle 0
▁spectacle 0
▁mécanismes 0
▁threats 0
▁inqu 0
)( 0
▁92 0
▁spécialistes 0
▁maz 0
▁shel 0
rera 0
▁trom 0
▁pod 0
▁manchester 0
▁advantages 0
furt 0
▁déposé 0
▁robust 0
▁lens 0
▁kill 0
▁économie 0
▁humanitarian 0
here 0
entraînement 0
▁zen 0
acquisition 0
wing 0
▁slightly 0
▁scolaire 0
french 0
▁négociations 0
▁fonctionnalité 0
▁proposals 0
▁purchased 0
▁procéder 0
▁pourcentage 0
▁aboriginal 0
▁verify 0
▁garantit 0
▁knows 0
acheter 0
▁désign 0
dale 0
▁pouces 0
▁receip 0
▁vaio 0
▁lovely 0
▁tried 0
▁pets 0
▁physiques 0
▁disk 0
▁correspondant 0
▁adoption 0
▁péch 0
▁designated 0
fra 0
▁treaty 0
▁thousand 0
▁engra 0
▁contracts 0
▁publier 0
▁inscrit 0
vue 0
▁massive 0
▁increasingly 0
▁augmenté 0
cht 0
▁localisation 0
▁lakes 0
▁bosch 0
▁industriels 0
▁clothes 0
▁episode 0
▁emprun 0
▁eg 0
▁malheureusement 0
ails 0
▁follows 0
▁recettes 0
▁prévues 0
▁mechanism 0
▁missing 0
▁pend 0
▁mâ 0
▁éclair 0
▁hosting 0
▁valve 0
▁advoc 0
▁supervis 0
▁judge 0
▁soldi 0
▁mold 0
▁flexibility 0
▁kur 0
alie 0
▁joie 0
▁recueillir 0
urée 0
▁enjeux 0
ualité 0
▁(+ 0
▁travelling 0
▁tol 0
▁happened 0
▁britannique 0
optim 0
grat 0
▁transformer 0
▁responsibilities 0
▁filled 0
mic 0
▁myst 0
▁continuing 0
kech 0
▁sond 0
▁gy 0
▁sénat 0
▁sides 0
▁roche 0
▁fantastic 0
▁créez 0
str 0
ailand 0
▁grace 0
▁détaillées 0
▁drawing 0
▁acry 0
▁spots 0
▁enforcement 0
aca 0
▁rej 0
▁explor 0
▁gos 0
▁poursuit 0
▁adaptés 0
general 0
▁bread 0
yon 0
térieures 0
▁unc 0
lève 0
▁adapted 0
▁escal 0
▁defe 0
▁œ 0
ctes 0
▁subsidi 0
▁commissaire 0
▁sauvegarde 0
▁jacob 0
▁bouche 0
▁arms 0
ologies 0
▁connus 0
ylon 0
▁fus 0
▁iraq 0
cuss 0
▁fores 0
▁portal 0
bling 0
▁évid 0
▁unf 0
▁retourner 0
▁differences 0
▁communicate 0
▁confidential 0
▁cathed 0
▁dictionnaire 0
adi 0
▁joh 0
êté 0
▁downloaded 0
▁77 0
▁endomm 0
ishing 0
chair 0
▁dear 0
level 0
▁foods 0
▁brochures 0
▁brothers 0
omo 0
▁pneus 0
unesco 0
▁acquire 0
loir 0
▁hier 0
▁jordan 0
▁persist 0
▁couvert 0
éclairage 0
▁fum 0
tige 0
isations 0
▁interf 0
▁accounting 0
▁sentir 0
▁jurisdiction 0
▁ensures 0
▁tweet 0
▁forth 0
akh 0
▁protein 0
étaient 0
alisé 0
▁prud 0
▁gestionnaire 0
rose 0
▁dishes 0
▁anywhere 0
▁entend 0
▁clips 0
▁classement 0
▁1989 0
interest 0
▁glace 0
▁culturelle 0
bell 0
▁souris 0
▁smith 0
▁knew 0
▁honda 0
▁trésor 0
▁félic 0
▁bénév 0
ür 0
▁enne 0
▁réussite 0
▁lag 0
▁fax 0
▁cuba 0
▁complaint 0
▁vertical 0
▁satisfaire 0
▁laval 0
▁entrées 0
▁reconnaître 0
▁arrangements 0
▁scientist 0
▁kir 0
▁operated 0
rees 0
▁protest 0
▁cruz 0
▁dir 0
▁contamin 0
▁anavar 0
▁situe 0
▁multic 0
imo 0
▁rond 0
▁discovered 0
▁carrier 0
▁secrétariat 0
▁conduire 0
▁62 0
▁légèrement 0
▁applicant 0
▁proceedings 0
▁échange 0
▁santi 0
nik 0
▁qualified 0
▁overs 0
▁difficiles 0
▁égard 0
▁laptop 0
abyte 0
▁époque 0
▁approprié 0
▁personnaliser 0
▁actuelles 0
exc 0
▁paysages 0
▁stun 0
▁catastroph 0
vé 0
rix 0
lying 0
▁killed 0
ounds 0
▁compose 0
pierre 0
▁fascin 0
uela 0
▁sunrise 0
▁chiens 0
▁portra 0
océan 0
▁letters 0
▁économies 0
▁closely 0
ulle 0
onction 0
▁headqu 0
▁oral 0
▁attribu 0
▁dictionary 0
anna 0
▁majeure 0
tagne 0
dl 0
▁lived 0
▁princess 0
tw 0
limited 0
▁secretariat 0
▁limité 0
intro 0
idente 0
▁shot 0
▁supplies 0
faire 0
▁énonc 0
▁pray 0
▁mirror 0
heur 0
▁attemp 0
▁sénateurs 0
▁guer 0
opération 0
110 0
▁ves 0
▁calc 0
outch 0
gne 0
▁vieille 0
iana 0
▁targ 0
▁essence 0
oston 0
▁beat 0
tunes 0
iable 0
andes 0
▁convince 0
▁93 0
humanité 0
▁souligné 0
▁apparaît 0
▁graphic 0
▁déroul 0
▁heads 0
erreur 0
▁spare 0
▁yuk 0
▁ue 0
aver 0
▁tum 0
▁subscription 0
▁implementing 0
▁naz 0
▁industriel 0
▁zealand 0
▁jacuzzi 0
bility 0
away 0
▁devises 0
ulate 0
ppers 0
foot 0
infrastructure 0
▁pipe 0
▁formations 0
▁89 0
brun 0
▁searches 0
▁menaces 0
march 0
'. 0
▁modified 0
▁faud 0
▁ct 0
▁doubt 0
mel 0
▁lamb 0
lot 0
▁châ 0
▁apporte 0
shop 0
▁empêcher 0
▁epson 0
▁renouvel 0
employeur 0
▁pétrole 0
quets 0
▁relaxation 0
▁quitter 0
▁pacifique 0
▁mh 0
▁blind 0
oured 0
etary 0
▁portefeuille 0
▁lé 0
▁invité 0
▁chips 0
▁cp 0
utif 0
atlan 0
▁latter 0
▁anonym 0
tront 0
▁sier 0
▁raisonnable 0
clo 0
▁saved 0
▁hairdryer 0
700 0
▁intu 0
▁faisons 0
▁cosme 0
▁alent 0
plays 0
honneur 0
▁sustainability 0
ucks 0
▁nomin 0
▁panoram 0
▁aimed 0
▁violations 0
oen 0
▁verte 0
▁réservés 0
▁everyday 0
▁begins 0
tivité 0
▁platforms 0
▁chocolate 0
▁productivity 0
▁talents 0
▁sequence 0
▁navigateurs 0
▁effectuée 0
ients 0
▁(" 0
ouch 0
▁gigabyte 0
meuble 0
▁runs 0
▁démarrage 0
nc 0
▁présentent 0
▁vivent 0
▁recommande 0
▁hectares 0
▁mate 0
▁environnementale 0
▁desired 0
orith 0
accent 0
▁rus 0
▁vienna 0
▁prosec 0
▁industrielle 0
▁changé 0
▁arrived 0
▁instagram 0
▁mandate 0
▁delicious 0
▁cologne 0
power 0
▁charged 0
▁ss 0
code 0
▁gem 0
▁variations 0
▁regime 0
▁wellness 0
▁filed 0
▁bataille 0
▁academy 0
▁méda 0
▁inclut 0
▁bijoux 0
▁functionality 0
▁tracking 0
▁degré 0
▁nas 0
▁formed 0
▁flying 0
élis 0
itely 0
▁tai 0
▁supervision 0
▁vaut 0
▁effectiveness 0
▁pear 0
▁vienne 0
▁oiseaux 0
▁none 0
▁alimentation 0
▁scar 0
▁asr 0
rai 0
▁speaking 0
▁maîtr 0
▁forced 0
▁aient 0
▁équival 0
▁zip 0
▁simplic 0
pcs 0
▁lies 0
▁marrakech 0
▁devoir 0
loy 0
tisme 0
▁mixed 0
▁liaison 0
ijing 0
▁loire 0
▁dragon 0
▁antonio 0
▁steph 0
▁ross 0
▁nokia 0
▁silicone 0
▁griev 0
▁periods 0
▁candidates 0
▁fondé 0
▁butter 0
ific 0
▁échanges 0
esty 0
▁vieill 0
jean 0
▁wholes 0
▁socio 0
▁ourselves 0
▁behaviour 0
eller 0
▁enregistre 0
▁cadres 0
chet 0
ateral 0
▁promenade 0
▁appeler 0
vol 0
▁transparence 0
▁complement 0
▁carburant 0
▁productivité 0
▁frontière 0
▁forums 0
▁spok 0
▁correspondance 0
▁loved 0
print 0
born 0
alt 0
▁sne 0
rics 0
▁ki 0
akar 0
washer 0
▁devrez 0
aqu 0
wich 0
▁dubai 0
▁précip 0
▁maybe 0
▁bernard 0
▁attractive 0
ariats 0
▁bruit 0
cro 0
▁dédié 0
▁thailand 0
▁indones 0
▁cater 0
▁originale 0
▁gol 0
▁bringing 0
▁inclure 0
rupt 0
itée 0
eding 0
▁guitar 0
wi 0
▁roues 0
ouche 0
▁normally 0
▁pp 0
▁movements 0
ogen 0
▁syl 0
augmentation 0
▁supre 0
▁hav 0
▁facteur 0
▁discipline 0
enseur 0
flow 0
▁effectuées 0
▁japonais 0
▁coalition 0
itimes 0
▁caoutch 0
▁démocratique 0
produ 0
▁grain 0
▁boston 0
▁améliore 0
▁accuracy 0
▁(« 0
medi 0
▁rembours 0
▁contrast 0
marily 0
▁sid 0
▁depends 0
▁références 0
▁producers 0
alb 0
▁electro 0
lando 0
▁simulation 0
rém 0
envoi 0
▁towns 0
▁prev 0
▁filt 0
▁poster 0
▁engagements 0
hour 0
▁outlook 0
▁adolesc 0
▁addressed 0
ett 0
▁procès 0
▁recording 0
▁glis 0
▁directrice 0
▁cuisson 0
▁universe 0
▁individus 0
ffe 0
▁mines 0
▁détect 0
ayer 0
▁précisément 0
▁plates 0
▁kat 0
▁favourite 0
▁brise 0
▁indispensable 0
▁selling 0
oz 0
▁fox 0
▁indiquant 0
▁connaissez 0
▁contribu 0
____ 0
▁senators 0
▁approaches 0
atrices 0
▁rect 0
▁expend 0
▁examination 0
▁aideront 0
érez 0
ounder 0
▁watches 0
▁tissus 0
▁dorm 0
▁biologique 0
▁appropriée 0
▁integrity 0
▁pakistan 0
engage 0
▁learned 0
▁designers 0
influ 0
./ 0
▁percentage 0
agnetic 0
▁widely 0
▁authenti 0
most 0
▁fenêtres 0
sole 0
▁sensation 0
▁nest 0
▁define 0
▁conclud 0
▁puisqu 0
▁interactions 0
ulteurs 0
▁moist 0
▁préférences 0
▁drops 0
▁acceptable 0
▁nantes 0
▁extend 0
▁considérablement 0
▁mostly 0
▁résultant 0
▁discounts 0
▁itinéraires 0
▁hiver 0
▁bourse 0
chau 0
▁tric 0
▁réaction 0
▁immigration 0
▁highlight 0
▁connexes 0
▁explained 0
▁indiquer 0
▁ages 0
▁agri 0
▁restent 0
▁deputy 0
▁foss 0
uket 0
experts 0
ditation 0
commerce 0
js 0
▁concernée 0
améric 0
▁ouvre 0
▁airports 0
▁450 0
bean 0
▁salari 0
▁inu 0
▁affordable 0
chen 0
▁exclusivement 0
▁erg 0
▁révis 0
▁fiabilité 0
ingham 0
▁tall 0
▁efficacité 0
▁écrire 0
zing 0
▁excursions 0
▁ups 0
▁mali 0
▁amén 0
▁autriche 0
hôpital 0
▁lip 0
▁cadeaux 0
▁usine 0
▁meals 0
▁musc 0
▁stad 0
▁scot 0
▁choisissant 0
uled 0
md 0
▁specialist 0
▁distributed 0
▁technological 0
▁élarg 0
▁gest 0
osis 0
aisseur 0
▁valuable 0
▁lug 0
▁yel 0
▁vier 0
▁travelers 0
tisseur 0
oper 0
▁cathedral 0
osyst 0
▁parameters 0
▁harvest 0
▁expositions 0
▁prière 0
▁democracy 0
▁couvrir 0
▁informé 0
▁absolument 0
▁sélectionné 0
▁incont 0
▁cave 0
▁downloading 0
▁discussed 0
▁circul 0
▁catholic 0
président 0
▁yamaha 0
▁servant 0
open 0
appliquer 0
▁ka 0
▁mah 0
èlement 0
▁traditionnelle 0
usa 0
excellence 0
▁theory 0
▁lenovo 0
▁kim 0
▁inspect 0
▁gay 0
▁zero 0
▁festivals 0
opter 0
▁tapis 0
▁fabriqué 0
▁veiller 0
▁procédé 0
▁professionnelles 0
▁stratégiques 0
▁rico 0
▁ome 0
▁norway 0
▁skip 0
oeuv 0
▁typique 0
▁pertes 0
▁constante 0
icit 0
▁solo 0
▁apar 0
▁nurs 0
▁det 0
awa 0
▁régionale 0
▁municipalité 0
▁inse 0
▁empire 0
▁déplacer 0
▁wrote 0
▁renovated 0
▁alentours 0
▁tenant 0
ronics 0
▁syrie 0
auth 0
▁warning 0
▁schol 0
▁attendre 0
▁paras 0
appliquent 0
▁susceptible 0
▁arrivé 0
▁osc 0
▁achats 0
▁asrock 0
▁thermique 0
▁plainte 0
▁cheese 0
▁indépendants 0
dep 0
▁mentale 0
▁télévise 0
▁communautaires 0
▁essentiels 0
jaculation 0
▁précédente 0
▁moscow 0
▁delta 0
▁samples 0
▁renault 0
orship 0
▁generate 0
▁conventions 0
▁emotion 0
▁capteur 0
▁transferred 0
▁inner 0
▁branches 0
▁burg 0
▁ari 0
▁venise 0
▁vr 0
▁feminine 0
isa 0
▁cathéd 0
▁frankfurt 0
▁astronom 0
dv 0
▁connectez 0
▁charte 0
rue 0
kind 0
▁retourn 0
▁marin 0
▁révision 0
outils 0
accro 0
▁ence 0
▁depend 0
▁amateurs 0
ibly 0
▁auparavant 0
▁sauver 0
▁fingering 0
▁dishwasher 0
▁carp 0
▁calm 0
guard 0
▁texture 0
▁representation 0
▁hosts 0
▁croire 0
▁highlights 0
▁descend 0
incl 0
▁refuse 0
▁lobby 0
▁emerging 0
▁céré 0
▁vape 0
▁attached 0
▁references 0
▁primarily 0
▁participating 0
▁belgian 0
uz 0
▁kaz 0
▁invitation 0
▁chanson 0
iales 0
▁robot 0
▁pull 0
▁permanente 0
discipl 0
wall 0
imb 0
tex 0
▁absolutely 0
▁réfléch 0
▁frapp 0
omen 0
▁phuket 0
▁caoutchouc 0
exportation 0
▁vern 0
▁maîtrise 0
▁faisait 0
▁universités 0
▁wake 0
▁transmettre 0
▁arth 0
brit 0
▁landsc 0
▁carrying 0
▁infos 0
▁diego 0
oble 0
▁showed 0
▁escape 0
accéder 0
▁aluminum 0
▁api 0
▁découl 0
▁advisory 0
atche 0
▁ibis 0
▁prochaines 0
▁périodes 0
▁unfortunately 0
▁remind 0
▁portraits 0
▁false 0
'' 0
▁prayer 0
▁dogs 0
izer 0
user 0
▁stocks 0
▁répé 0
▁collaborateurs 0
▁basil 0
▁mechanisms 0
▁italien 0
▁philippines 0
▁peaceful 0
▁digit 0
eld 0
baï 0
weight 0
▁politics 0
db 0
▁graphiques 0
▁breast 0
▁permitted 0
enser 0
style 0
rateur 0
▁éth 0
▁intervenants 0
▁greek 0
▁investissement 0
▁grille 0
▁réal 0
▁universities 0
▁neuro 0
▁exit 0
▁actors 0
▁lisbonne 0
▁décider 0
▁occurr 0
▁bourge 0
▁upgrade 0
▁montres 0
▁cottage 0
oon 0
▁obsc 0
▁wlan 0
▁tong 0
▁satisfied 0
▁crtc 0
▁accommodations 0
▁bak 0
habil 0
▁rappro 0
▁chrom 0
▁repairing 0
annonce 0
▁spending 0
▁recommendation 0
▁finland 0
▁pensée 0
▁jouets 0
which 0
▁séquence 0
▁enl 0
▁willing 0
▁ker 0
▁holds 0
▁différences 0
▁disclosure 0
▁posez 0
▁voulons 0
▁grass 0
▁disney 0
▁template 0
▁attitude 0
▁relatif 0
▁muscles 0
▁démocratie 0
▁partagez 0
▁riches 0
▁nomination 0
▁lancent 0
▁légales 0
ocation 0
▁tubes 0
▁réflexion 0
▁pinterest 0
▁excel 0
▁negotiations 0
▁indemn 0
▁spécialisés 0
uper 0
ionn 0
▁étages 0
▁propag 0
▁perf 0
▁disposal 0
bach 0
▁rez 0
▁61 0
▁fao 0
vaisselle 0
lés 0
compl 0
▁rechange 0
▁transparency 0
▁trips 0
▁approuvé 0
▁sierra 0
▁jerusalem 0
▁rôles 0
▁hosted 0
▁syri 0
▁traités 0
visible 0
▁modify 0
èdent 0
arios 0
▁demands 0
▁bb 0
érale 0
▁dutch 0
▁remark 0
▁dating 0
▁plays 0
▁élo 0
▁computers 0
▁decades 0
orce 0
urity 0
▁calling 0
▁affichage 0
▁cafe 0
gate 0
▁saving 0
▁validation 0
▁magnificent 0
ela 0
▁personnages 0
▁couvre 0
▁mesurer 0
used 0
▁vio 0
▁exciting 0
▁carpool 0
▁bali 0
▁grounds 0
▁beijing 0
kings 0
tia 0
▁gaming 0
2006 0
▁partenariats 0
▁lend 0
acu 0
▁preferences 0
design 0
▁deutsch 0
▁artisan 0
▁choices 0
▁reliability 0
▁préoccupations 0
échantill 0
▁toys 0
▁describe 0
▁ware 0
▁lind 0
osing 0
esa 0
▁ordinateurs 0
▁developer 0
tait 0
▁broken 0
▁opportunités 0
▁matches 0
ston 0
tés 0
▁») 0
▁partnerships 0
▁incorrect 0
uish 0
▁supr 0
lav 0
eo 0
▁distributor 0
▁placer 0
▁dash 0
pace 0
▁révél 0
▁haw 0
▁céra 0
▁réduite 0
▁examiner 0
yp 0
▁sitting 0
▁bachel 0
▁announce 0
▁hack 0
▁replaced 0
▁pairs 0
datasheet 0
▁remport 0
aph 0
▁traitées 0
▁customized 0
▁evil 0
▁illegal 0
▁garantiss 0
ection 0
▁themes 0
rooms 0
▁prépare 0
esc 0
▁auberges 0
▁era 0
enci 0
ativité 0
▁leon 0
estim 0
▁industrie 0
▁savons 0
▁présentant 0
▁boulev 0
▁générique 0
▁220 0
▁secondaire 0
▁candidate 0
▁accepté 0
▁pand 0
▁normale 0
▁essentielles 0
igration 0
emb 0
▁architectural 0
airo 0
▁alldatasheet 0
▁santiago 0
▁comparative 0
▁hilton 0
▁manufactured 0
ligence 0
▁weapons 0
opposition 0
▁températures 0
ifié 0
faits 0
▁aéroports 0
acent 0
▁spécialisée 0
▁gun 0
▁devrions 0
▁régler 0
▁maker 0
ivoire 0
▁implant 0
▁therapy 0
▁secondaires 0
▁panama 0
▁exceptionnelle 0
▁1985 0
▁naples 0
▁cabine 0
▁cerve 0
▁ace 0
▁trusted 0
▁stretch 0
▁conviv 0
ener 0
étend 0
adapter 0
▁environments 0
▁relatively 0
lective 0
▁venu 0
▁terri 0
▁portugu 0
▁prescription 0
▁regardless 0
▁enhanced 0
▁boys 0
▁84 0
▁stationnement 0
▁indirect 0
▁oz 0
▁totalité 0
▁synd 0
▁miti 0
▁lion 0
▁télécommun 0
▁contribue 0
▁appris 0
▁détection 0
▁carn 0
cie 0
click 0
▁entity 0
parti 0
▁unable 0
▁impressive 0
▁vegetables 0
▁biom 0
▁paire 0
▁canton 0
▁marriage 0
▁entrepreneur 0
▁diplôme 0
icide 0
▁tableaux 0
▁secondary 0
inement 0
conc 0
▁suggested 0
▁reconnaiss 0
▁container 0
▁maintaining 0
▁crédits 0
▁reply 0
▁inférieur 0
lang 0
fre 0
▁canvas 0
▁elected 0
▁cliniques 0
▁dépass 0
▁ji 0
rimés 0
usine 0
▁élégant 0
ignent 0
▁jerse 0
▁inval 0
idas 0
▁celebrate 0
▁confirmer 0
stone 0
▁musul 0
▁influenc 0
inent 0
days 0
▁interaction 0
▁spin 0
llement 0
▁remained 0
▁sanct 0
▁nave 0
cre 0
▁perception 0
▁moindre 0
▁lumineux 0
▁paradise 0
▁faux 0
▁~ 0
gger 0
▁scores 0
▁degrees 0
govern 0
▁eb 0
▁dup 0
▁numéros 0
▁bonn 0
▁bau 0
▁écrite 0
▁eventually 0
▁requête 0
▁admir 0
étiqu 0
▁wishes 0
▁orlando 0
▁séries 0
▁fighting 0
inscrire 0
etes 0
lib 0
ignons 0
▁multif 0
oubli 0
▁hautes 0
angel 0
▁fréquents 0
▁scheduled 0
▁79 0
doc 0
▁orientation 0
▁athens 0
▁genti 0
▁caractères 0
▁1988 0
▁cathédrale 0
▁_ 0
atchewan 0
▁unlimited 0
▁lille 0
▁beer 0
▁radiod 0
▁réelle 0
▁affaire 0
▁provinci 0
worth 0
agré 0
▁vpn 0
▁sche 0
▁église 0
▁présentés 0
▁script 0
▁corriger 0
▁considérée 0
▁plante 0
▁87 0
més 0
▁suffering 0
▁modifié 0
▁composée 0
▁amendments 0
▁spécialiste 0
▁inférieure 0
owe 0
enza 0
▁classiques 0
▁aimer 0
veill 0
▁retrouve 0
▁recommandation 0
▁brunswick 0
uay 0
▁damaged 0
▁drinking 0
▁courants 0
▁artifici 0
aton 0
▁radiodiff 0
▁pt 0
▁listing 0
windows 0
▁cruise 0
▁aventure 0
amar 0
▁supreme 0
▁porno 0
▁automatis 0
▁talking 0
▁comport 0
▁root 0
▁sig 0
comme 0
arde 0
alinéa 0
▁élevées 0
▁receipt 0
▁treasury 0
▁culturelles 0
▁string 0
▁encoun 0
▁findings 0
▁biling 0
▁albert 0
▁retrouvées 0
▁luxur 0
ea 0
adaptation 0
state 0
▁circle 0
arters 0
▁collègues 0
▁yield 0
▁viewed 0
▁navire 0
▁yukon 0
ulties 0
▁patrick 0
inture 0
▁protecting 0
▁fantasy 0
▁récentes 0
▁fibres 0
*, 0
▁volks 0
ancer 0
▁plaques 0
▁ends 0
▁listening 0
”) 0
▁panels 0
▁informatiques 0
▁collectif 0
▁muslim 0
▁ministères 0
▁temperatures 0
▁chocolat 0
▁browsing 0
wagen 0
▁divisé 0
▁bandes 0
▁souhaitent 0
▁flood 0
▁abstract 0
▁centers 0
▁inta 0
▁haven 0
▁appelée 0
eps 0
▁régionaux 0
▁governor 0
▁directrices 0
ènements 0
▁von 0
▁réellement 0
▁lune 0
▁puzzle 0
ql 0
▁explains 0
▁3000 0
rables 0
gio 0
▁paquet 0
▁transfers 0
▁trails 0
▁atom 0
▁actuels 0
énie 0
▁buyer 0
▁chronic 0
▁philosophy 0
ktor 0
▁cérémonie 0
▁(...) 0
▁hug 0
▁déposer 0
onnage 0
▁échelle 0
▁vacu 0
▁succeed 0
▁kilomet 0
ponents 0
▁tariff 0
▁prescribed 0
▁jacket 0
▁developments 0
▁capabilities 0
gery 0
▁hiking 0
alised 0
cli 0
bing 0
▁rice 0
▁vil 0
▁tester 0
icale 0
▁resc 0
factory 0
▁paradis 0
alcool 0
▁ati 0
▁severe 0
ardo 0
▁exclusively 0
▁choosing 0
bourne 0
▁fitted 0
▁opt 0
▁juifs 0
▁câbles 0
images 0
▁riz 0
▁josé 0
atine 0
▁row 0
▁exécutif 0
▁canaux 0
▁judiciaire 0
▁chate 0
hire 0
▁ratings 0
▁viewing 0
▁hospit 0
▁acquired 0
▁accepter 0
▁chansons 0
▁écouter 0
▁adresses 0
▁sinon 0
▁mené 0
▁fonde 0
acteur 0
▁fame 0
geot 0
cos 0
▁seats 0
grés 0
▁équipées 0
▁vive 0
▁nucléaire 0
▁1986 0
▁indicators 0
gc 0
▁folder 0
▁boutons 0
amination 0
▁guided 0
▁finger 0
▁continental 0
▁independence 0
▁enthus 0
▁cycling 0
▁configur 0
▁contrôles 0
▁unis 0
▁monnaie 0
radi 0
▁difficulté 0
▁contiennent 0
▁amended 0
▁opera 0
▁nette 0
▁essentielle 0
▁rated 0
▁déplacement 0
▁capt 0
▁cache 0
▁belt 0
▁measured 0
▁fleet 0
▁volvo 0
▁répondu 0
▁découvert 0
▁corresponding 0
▁(- 0
▁vendu 0
▁thou 0
▁futures 0
▁bagages 0
pati 0
▁courtes 0
▁broadcasting 0
▁slim 0
▁interpretation 0
▁bénéficie 0
approbation 0
▁théorie 0
▁bénéfici 0
▁acting 0
▁génie 0
▁adequate 0
▁abuse 0
▁hide 0
▁parcourir 0
▁1950 0
▁kon 0
▁ordered 0
▁displays 0
▁auteur 0
▁bung 0
900 0
▁vap 0
▁shoot 0
▁logistics 0
▁évolution 0
▁simul 0
▁etern 0
▁wis 0
▁vincent 0
fam 0
▁grill 0
béc 0
▁valencia 0
▁minimal 0
▁76 0
ativity 0
▁seating 0
▁scanner 0
▁urbain 0
envoyer 0
▁classified 0
alo 0
▁effectue 0
▁saskatchewan 0
▁matt 0
▁bh 0
▁bench 0
▁placé 0
▁remarque 0
▁indication 0
▁featured 0
▁decorated 0
▁déclare 0
▁notion 0
▁compléter 0
▁vign 0
▁illim 0
web 0
▁legislative 0
▁besides 0
gent 0
▁hans 0
▁communs 0
▁rotation 0
▁gram 0
▁tat 0
▁sentence 0
▁faibles 0
▁démarche 0
▁afghanistan 0
▁ie 0
▁votes 0
▁réforme 0
▁86 0
▁sri 0
▁éducation 0
▁observer 0
▁intéressant 0
▁religieux 0
core 0
▁conscious 0
▁mak 0
▁réparer 0
britannique 0
▁lists 0
▁collège 0
▁devenue 0
▁infin 0
▁discretion 0
urrent 0
▁étudier 0
▁lyn 0
keeping 0
▁doubles 0
▁quelcon 0
▁outcomes 0
▁alter 0
élev 0
▁nicolas 0
▁proposées 0
▁consens 0
▁whereas 0
ulsion 0
▁terrains 0
▁quartiers 0
▁optique 0
▁navires 0
tica 0
honorable 0
▁stamp 0
▁textile 0
▁targets 0
▁rentalcars 0
▁plenty 0
▁copper 0
appropri 0
▁méditerranée 0
▁séminaire 0
▁entraîner 0
▁elite 0
▁micros 0
▁essentiellement 0
▁diffuser 0
▁dispute 0
add 0
▁horaire 0
œurs 0
▁tib 0
bag 0
▁alf 0
oria 0
actif 0
)" 0
▁contemporain 0
ancienne 0
▁ronde 0
▁mutual 0
▁prenant 0
▁officielles 0
▁linen 0
▁pauvres 0
▁saisir 0
▁prévoy 0
▁marks 0
affaire 0
▁strongly 0
▁individuelle 0
▁catch 0
▁singapour 0
▁excessive 0
▁bicycle 0
▁comprises 0
▁démarrer 0
▁gone 0
▁pierres 0
▁physi 0
▁californie 0
ilst 0
▁73 0
▁demonstrate 0
▁ajoute 0
▁wheels 0
▁organise 0
▁miner 0
vide 0
▁sounds 0
▁incroyable 0
vres 0
▁protéines 0
▁moscou 0
▁logique 0
▁kings 0
▁incon 0
▁bassin 0
nut 0
imag 0
christ 0
▁viney 0
▁jewish 0
cio 0
▁peugeot 0
ski 0
▁prononciation 0
▁majeur 0
▁viber 0
▁degrés 0
▁gang 0
▁tém 0
▁écologique 0
▁déclarations 0
▁logistique 0
▁caribbean 0
assy 0
actifs 0
▁directeurs 0
▁acte 0
▁cylind 0
▁existantes 0
manie 0
▁boulevard 0
tians 0
lises 0
▁sortes 0
type 0
▁tons 0
▁indonesia 0
▁ft 0
seud 0
theless 0
▁venus 0
iest 0
▁victory 0
▁leban 0
▁voire 0
▁gifts 0
▁foster 0
', 0
▁royale 0
▁boîtier 0
▁ambiti 0
awi 0
▁sollic 0
▁wildlife 0
▁sécurisé 0
▁precise 0
▁morts 0
▁passenger 0
▁drawn 0
▁tut 0
mentation 0
anium 0
▁rempliss 0
iante 0
▁témoins 0
▁pist 0
▁laurent 0
▁illustration 0
▁entrez 0
▁deemed 0
▁broadcom 0
ride 0
▁parvenir 0
▁considering 0
▁snack 0
▁sexuelle 0
▁piv 0
▁harbour 0
▁looked 0
▁jane 0
▁concluded 0
▁cow 0
▁algorith 0
▁occurred 0
▁libération 0
▁asian 0
▁ambiance 0
▁radar 0
athers 0
▁lutter 0
▁circuits 0
▁teen 0
onome 0
▁stip 0
▁pam 0
▁ink 0
▁engaged 0
2005 0
▁hole 0
interprétation 0
▁valent 0
▁thaïlande 0
rh 0
▁répartition 0
▁ease 0
▁postal 0
▁listes 0
▁pizza 0
▁orchest 0
▁nike 0
▁aérienne 0
▁hem 0
▁nevertheless 0
▁laid 0
▁commerces 0
argeted 0
▁parlé 0
▁montrent 0
▁jersey 0
▁neighborhood 0
▁journalistes 0
adhésion 0
▁salvador 0
▁newly 0
▁wiki 0
itinéra 0
▁jackson 0
▁blanch 0
abling 0
vere 0
▁concession 0
▁pn 0
▁présentées 0
▁discré 0
▁apost 0
▁ceremony 0
▁institut 0
▁argentina 0
ematic 0
bol 0
▁défendre 0
▁ajoutée 0
▁keys 0
bet 0
▁redire 0
▁appartient 0
automne 0
▁tente 0
▁inquiry 0
▁texts 0
▁rassemb 0
▁cay 0
auto 0
▁sculpture 0
yes 0
▁boxes 0
▁fisheries 0
▁carpooling 0
▁significative 0
▁classé 0
▁chile 0
▁fourniture 0
▁prototy 0
▁laver 0
▁goû 0
▁simon 0
▁robin 0
▁traces 0
▁involving 0
pot 0
aid 0
▁ventil 0
▁surroundings 0
▁seeing 0
▁observe 0
▁gib 0
▁caisse 0
▁réparant 0
ighter 0
▁entendre 0
hot 0
▁ron 0
▁pare 0
▁detect 0
▁cote 0
▁antiv 0
fem 0
icious 0
dig 0
▁travaillant 0
▁siècles 0
▁multitude 0
▁acceptance 0
quement 0
▁paulo 0
▁jury 0
▁gateway 0
▁constamment 0
▁83 0
èles 0
▁commis 0
▁bog 0
▁settlement 0
▁phoen 0
▁liable 0
▁éliminer 0
▁sister 0
▁recruit 0
▁nigeria 0
▁illég 0
▁symbole 0
▁québéc 0
▁preferred 0
▁ouvertes 0
lou 0
gow 0
▁réputation 0
▁occurs 0
lined 0
▁plongée 0
▁mineral 0
▁évalué 0
▁durabilité 0
umeurs 0
▁volkswagen 0
▁défa 0
▁adaptée 0
▁goth 0
atelier 0
▁traditionnel 0
▁préserver 0
rec 0
▁typically 0
▁surveiller 0
▁encry 0
▁glas 0
▁extract 0
▁hesitate 0
▁doct 0
▁destinia 0
▁revised 0
▁recon 0
▁genuine 0
▁jérusalem 0
▁appeared 0
▁distinction 0
▁turb 0
▁arabes 0
▁thread 0
érone 0
omi 0
▁damages 0
▁surviv 0
▁declared 0
▁adam 0
▁renaissance 0
▁exposed 0
▁choc 0
▁thunder 0
▁enseignants 0
▁preview 0
▁rit 0
▁oubli 0
▁altitude 0
▁lets 0
▁240 0
▁précieux 0
▁culturels 0
▁associée 0
▁equity 0
▁keywords 0
onomic 0
▁empty 0
pellier 0
lat 0
▁totally 0
▁preuves 0
▁hello 0
▁colonne 0
found 0
▁cern 0
▁alerts 0
▁diplô 0
endance 0
▁stan 0
▁random 0
▁hér 0
▁avenir 0
▁ejaculation 0
alg 0
▁francis 0
▁forests 0
▁paralle 0
▁lc 0
▁bonheur 0
avior 0
▁fermé 0
▁emir 0
map 0
entrepr 0
▁géographique 0
▁colleagues 0
▁bours 0
▁durables 0
▁analyze 0
▁entries 0
▁citizen 0
▁arn 0
▁turkish 0
▁subscribe 0
▁variables 0
▁labels 0
▁cancellation 0
▁ouverts 0
▁saisonn 0
▁cheminée 0
rey 0
▁enterprises 0
▁whilst 0
▁subjects 0
▁owned 0
▁eh 0
éton 0
test 0
▁regrou 0
▁inhabitants 0
▁correctly 0
▁fixes 0
▁bever 0
▁détendre 0
▁tenus 0
▁macro 0
▁bolog 0
▁visitor 0
▁prestige 0
iors 0
▁téléphones 0
▁fatig 0
othéra 0
atteindre 0
▁intermedi 0
▁oem 0
▁sensibilisation 0
▁fournissent 0
name 0
mh 0
▁vector 0
▁targeted 0
▁restre 0
▁motorola 0
▁campagnes 0
▁aident 0
▁humanity 0
▁conferences 0
▁mart 0
▁fuj 0
▁graines 0
▁cooling 0
▁breve 0
▁365 0
conf 0
▁spécialisé 0
eldorf 0
▁vacuum 0
▁twice 0
▁vas 0
?" 0
▁personalized 0
▁omb 0
▁candidat 0
lad 0
club 0
▁crypt 0
▁commitments 0
▁automation 0
irmingham 0
close 0
▁husband 0
▁porté 0
▁hydraulic 0
▁closer 0
▁searched 0
▁renewable 0
▁contribué 0
▁rétro 0
▁headquarters 0
▁drinks 0
appuy 0
ilé 0
▁tracks 0
▁loan 0
▁dys 0
▁competent 0
iah 0
▁forts 0
▁winds 0
▁matériels 0
▁résidents 0
▁fern 0
▁everywhere 0
▁ench 0
.). 0
▁knowing 0
▁chick 0
emark 0
▁measuring 0
blier 0
▁neutral 0
▁grid 0
▁trem 0
oivent 0
ersion 0
▁stunning 0
impri 0
▁regards 0
▁cycles 0
iere 0
▁arguments 0
▁vété 0
▁” 0
itis 0
amo 0
▁narrow 0
ciples 0
▁vraie 0
▁roads 0
▁fré 0
iend 0
▁gap 0
▁couronne 0
▁indicateurs 0
▁incredible 0
▁distributeur 0
▁diagram 0
▁moham 0
uda 0
ference 0
▁unlock 0
uds 0
▁rencontré 0
▁naturally 0
▁histoires 0
▁studied 0
▁desserv 0
▁cerveau 0
iev 0
▁churches 0
évaluer 0
▁sièges 0
▁contrary 0
▁testim 0
issait 0
expertise 0
▁ordonnance 0
éph 0
stan 0
▁vitamin 0
▁understood 0
▁indu 0
opin 0
▁struggle 0
▁possibilities 0
▁détermination 0
220 0
▁quelconque 0
▁marqu 0
sez 0
▁treatments 0
▁appelle 0
▁advise 0
▁vatic 0
▁aimez 0
▁scientists 0
▁ferr 0
▁europ 0
▁dents 0
acqu 0
▁relaxing 0
▁pd 0
▁170 0
oft 0
▁disabilities 0
icef 0
ader 0
▁spark 0
▁parcour 0
▁universitaire 0
▁superfic 0
▁punta 0
▁phases 0
▁engines 0
▁angleterre 0
aimer 0
▁positif 0
▁1987 0
rador 0
icante 0
▁castel 0
inspection 0
▁behavior 0
articles 0
▁salons 0
▁observation 0
▁organisée 0
▁lodging 0
▁croatia 0
▁patio 0
▁ferrov 0
river 0
▁winner 0
▁aidera 0
▁alertes 0
ènement 0
▁whenever 0
▁profiles 0
▁limitations 0
▁stick 0
▁lisez 0
▁motorcycle 0
▁kits 0
▁guér 0
▁drag 0
▁comparable 0
▁devront 0
▁purchasing 0
▁stylefile 0
▁défini 0
▁riding 0
▁determination 0
▁cic 0
▁incap 0
cussions 0
▁waterproof 0
▁productions 0
▁tyres 0
▁guarantees 0
▁desert 0
▁godes 0
▁consultant 0
alisée 0
▁artiste 0
▁ajus 0
oro 0
dite 0
▁anten 0
interface 0
▁tablette 0
rira 0
▁rica 0
▁improvements 0
▁equality 0
▁centuries 0
▁manifestations 0
▁cors 0
▁inch 0
▁traditionnels 0
▁gly 0
▁bub 0
▁interviews 0
!” 0
▁philosophie 0
analys 0
▁oecd 0
▁agriculteurs 0
èvres 0
▁revealed 0
▁detection 0
▁chimique 0
activer 0
▁assigned 0
▁ended 0
▁eliz 0
opol 0
▁technologique 0
▁agir 0
components 0
▁sudden 0
▁buck 0
▁sick 0
▁ratif 0
▁denmark 0
▁bungal 0
▁patterns 0
▁definitely 0
lène 0
achi 0
▁producing 0
▁grossesse 0
▁échantillons 0
▁lacs 0
▁combatt 0
ictions 0
▁générations 0
▁souligne 0
sy 0
▁mandatory 0
▁animation 0
opt 0
▁craft 0
▁cancelon 0
alia 0
▁vulnerable 0
▁autocar 0
▁ale 0
▁dette 0
▁charlotte 0
▁solidarity 0
international 0
▁mentionné 0
®, 0
aq 0
▁challeng 0
▁corros 0
▁rapidly 0
jus 0
▁sommeil 0
▁soutient 0
▁indicates 0
▁seal 0
▁incluent 0
▁agro 0
quettes 0
had 0
count 0
▁répand 0
▁mug 0
eper 0
▁montpellier 0
▁âgées 0
▁proposant 0
▁patch 0
▁parap 0
▁generations 0
▁connaît 0
▁ventilation 0
▁reward 0
▁norvège 0
▁complaints 0
▁inventory 0
paul 0
high 0
undry 0
▁inher 0
▁birmingham 0
▁91 0
▁screens 0
▁sah 0
▁repose 0
prix 0
ifax 0
esthe 0
▁souvenirs 0
▁retrait 0
▁releases 0
▁liban 0
▁customize 0
guer 0
▁nun 0
▁arising 0
▁trailer 0
▁surgery 0
▁notify 0
▁defense 0
itinéraire 0
▁supérieures 0
▁rach 0
▁wolf 0
▁transférer 0
▁dangereux 0
▁accompany 0
zi 0
mich 0
▁worry 0
▁reputation 0
▁ced 0
▁autonome 0
▁trin 0
zar 0
▁deviennent 0
▁hardcover 0
▁rup 0
▁publiée 0
▁2021 0
ottawa 0
bler 0
▁volunt 0
▁hôtes 0
▁highway 0
▁securities 0
▁construite 0
▁championship 0
▁gratuites 0
▁dll 0
▁chairs 0
▁alpha 0
▁telecommun 0
▁normand 0
▁wholesale 0
▁radical 0
▁rt 0
▁prosp 0
▁dériv 0
▁authors 0
▁representing 0
▁disciples 0
▁colombia 0
▁dites 0
▁sanctions 0
▁82 0
▁dirig 0
▁bourg 0
▁recrutement 0
▁kilometres 0
sub 0
▁fireplace 0
▁annexe 0
orientation 0
▁satisfait 0
▁recall 0
▁organize 0
▁forfait 0
▁aime 0
▁moral 0
▁thin 0
▁plot 0
▁méditerrané 0
▁faculté 0
vert 0
▁routine 0
▁pricing 0
gd 0
▁ns 0
▁llc 0
▁enabled 0
▁développe 0
▁pregnancy 0
ologue 0
▁déterminé 0
▁affirm 0
▁rivers 0
▁sul 0
2004 0
▁column 0
▁insert 0
▁weekly 0
▁unfor 0
▁claude 0
▁append 0
▁concentrations 0
▁adaptation 0
▁covering 0
▁brefs 0
▁protège 0
▁pine 0
▁idéalement 0
▁humanitaire 0
▁aren 0
▁verd 0
▁stéroï 0
▁chol 0
tom 0
▁steering 0
▁hamburg 0
coin 0
▁intra 0
▁borders 0
timent 0
▁rouges 0
▁requise 0
▁territorial 0
▁leaf 0
étape 0
attend 0
▁(“ 0
acheteur 0
▁specification 0
▁bouilloire 0
▁nin 0
hem 0
ueuse 0
▁réservé 0
intel 0
amps 0
▁potentiels 0
▁visibilité 0
▁accomplish 0
▁► 0
papers 0
afric 0
▁smartphones 0
▁institutional 0
▁elizabeth 0
▁supplied 0
▁shore 0
▁puissiez 0
▁hautement 0
rating 0
▁fraud 0
▁difficulties 0
▁automated 0
▁„ 0
▁phoenix 0
park 0
▁specially 0
heures 0
▁whirl 0
▁protective 0
▁bros 0
atie 0
▁pond 0
▁duplex 0
▁convinced 0
▁contrairement 0
▁toler 0
▁appreciate 0
▁amendment 0
▁deleted 0
▁workplace 0
▁aviation 0
térieurs 0
▁technologiques 0
▁voltage 0
▁clavier 0
lent 0
▁émerg 0
▁exceptionnel 0
équilibre 0
▁vibro 0
ît 0
uro 0
athan 0
▁performing 0
▁naturellement 0
▁athlè 0
intégrité 0
icien 0
centre 0
arks 0
▁minimale 0
téri 0
chette 0
▁soup 0
raham 0
illo 0
▁valide 0
▁romantique 0
▁shield 0
▁consommateur 0
reb 0
▁hungary 0
’, 0
▁stays 0
ports 0
marks 0
▁gorge 0
zation 0
▁décennies 0
▁advers 0
▁%, 0
▁privative 0
▁polyval 0
umps 0
speed 0
▁torture 0
▁linge 0
▁réalisées 0
exam 0
drive 0
▁originally 0
▁1978 0
▁fêtes 0
▁abandon 0
jon 0
▁récents 0
▁enthusias 0
gel 0
▁définiti 0
▁fonctionnaire 0
▁existants 0
▁maurice 0
▁ather 0
lee 0
▁shock 0
▁sought 0
▁extraordinary 0
atom 0
▁rm 0
▁exercer 0
xl 0
kit 0
▁épr 0
▁batt 0
▁sauce 0
▁priest 0
▁ascenseur 0
agu 0
▁bonjour 0
kel 0
gro 0
▁établie 0
▁ether 0
▁emails 0
▁chargeur 0
▁broché 0
▁mascul 0
▁journaux 0
▁tay 0
▁combining 0
books 0
quick 0
▁favorites 0
▁trained 0
▁notifications 0
mos 0
▁journalists 0
▁fiber 0
▁á 0
▁td 0
▁organised 0
tax 0
ifiée 0
▁autorisation 0
obligation 0
▁shuttle 0
▁faciles 0
watch 0
▁submission 0
accessoires 0
▁amor 0
author 0
▁annuler 0
▁interdit 0
▁négociation 0
▁ceiling 0
unt 0
bin 0
austral 0
▁gs 0
▁1500 0
▁optical 0
▁establishing 0
▁fréquent 0
2003 0
rev 0
!!! 0
▁calories 0
ipeg 0
eglise 0
▁torre 0
▁supérieurs 0
▁grec 0
▁asi 0
▁chairman 0
▁bachelor 0
electronics 0
▁soldiers 0
▁chaise 0
▁fatigue 0
▁prestigious 0
▁nikon 0
▁hommage 0
▁thereby 0
▁sunny 0
▁morceaux 0
▁joindre 0
▁ana 0
▁dame 0
▁cigare 0
160 0
▁évidence 0
▁témoin 0
▁exploit 0
orca 0
dim 0
’. 0
▁towels 0
▁coat 0
▁boot 0
▁eating 0
▁racc 0
bat 0
▁staying 0
▁ferries 0
▁polish 0
▁progression 0
▁arrangement 0
cipe 0
▁avent 0
▁fridge 0
▁adidas 0
▁putting 0
▁atheros 0
▁parliamentary 0
▁outcome 0
sant 0
inson 0
▁shortcut 0
▁solidarité 0
issan 0
▁lego 0
▁examin 0
▁dessins 0
glasses 0
▁pastor 0
▁strike 0
▁immense 0
▁gd 0
ypte 0
erved 0
années 0
▁judicial 0
▁injury 0
▁chlor 0
▁dict 0
▁casual 0
▁winning 0
yan 0
azur 0
▁refers 0
thr 0
gien 0
▁pape 0
▁mile 0
▁considers 0
▁adolescents 0
▁visité 0
▁superficie 0
etteur 0
▁preparing 0
run 0
▁exploration 0
▁analyser 0
avoc 0
▁subsequent 0
▁récep 0
▁maill 0
▁alpes 0
quemment 0
▁tx 0
▁personally 0
▁botan 0
▁spectacular 0
▁jugement 0
▁inclusion 0
lif 0
kk 0
▁arché 0
▁antique 0
uri 0
▁complic 0
▁failed 0
▁contrôleur 0
▁decrease 0
▁autorisée 0
▁vapeur 0
▁inspe 0
uba 0
▁suits 0
▁mete 0
▁boul 0
▁alexander 0
▁soldats 0
▁henry 0
▁reconstruction 0
may 0
igan 0
▁partition 0
▁countryside 0
▁anch 0
▁trigger 0
▁sinc 0
▁receives 0
▁qualification 0
▁africaine 0
▁bund 0
mée 0
▁buttons 0
isi 0
▁infirm 0
▁collaborative 0
▁blocks 0
▁attract 0
▁figurant 0
▁750 0
▁dh 0
▁amar 0
▁universitaires 0
▁statistique 0
▁glasgow 0
équip 0
sim 0
inger 0
influence 0
▁francophone 0
ribution 0
▁tentative 0
▁kas 0
▁approfond 0
▁usual 0
▁intensive 0
▁installée 0
▁enquêtes 0
▁hs 0
▁nad 0
▁voile 0
▁délégation 0
▁régionales 0
tag 0
▁execution 0
▁dreams 0
▁controll 0
▁brevet 0
real 0
▁posséd 0
▁politici 0
▁particulières 0
after 0
▁remplis 0
wc 0
▁rappelle 0
▁illness 0
▁séjourn 0
hiop 0
▁%. 0
utors 0
▁suprême 0
▁imprimé 0
▁crafts 0
▁attaques 0
▁sorties 0
▁rising 0
▁statue 0
▁speakers 0
▁taiwan 0
▁vessel 0
gène 0
▁sql 0
▁smoke 0
habilitation 0
english 0
avail 0
▁roch 0
▁ric 0
▁legitimate 0
▁solides 0
bridge 0
▁remont 0
▁courty 0
▁budgets 0
▁miroir 0
▁arrêté 0
▁alpine 0
▁attentive 0
▁rewards 0
▁consensus 0
▁appliances 0
émique 0
▁duo 0
▁chute 0
▁plafond 0
▁carré 0
lix 0
▁nato 0
holder 0
▁routière 0
▁mettent 0
▁adri 0
▁radiodiffusion 0
▁hell 0
▁effectués 0
▁completion 0
judice 0
▁vatican 0
▁identité 0
▁pia 0
▁disques 0
utée 0
cour 0
▁bref 0
vity 0
▁dealing 0
▁carriers 0
▁veste 0
▁simultane 0
▁mario 0
▁hearts 0
▁71 0
▁yelp 0
▁rémunération 0
▁graisse 0
▁cuivre 0
▁couper 0
▁xix 0
▁producer 0
▁henri 0
hône 0
black 0
▁recevrez 0
▁fantastique 0
▁reprises 0
▁alban 0
▁séjourner 0
▁domestiques 0
eraient 0
ampton 0
▁rejoint 0
▁seam 0
▁olympiques 0
▁alain 0
▁ngo 0
▁injection 0
▁métier 0
▁expédi 0
▁capables 0
▁recherchés 0
▁react 0
qual 0
▁quote 0
▁sauvage 0
cloud 0
▁mystery 0
▁motivation 0
▁individuels 0
▁pédagog 0
▁pace 0
▁créativité 0
▁laundry 0
▁brake 0
?” 0
▁lecteurs 0
▁counsel 0
▁bod 0
▁shift 0
▁ost 0
▁futurs 0
▁arabe 0
ajout 0
▁céramique 0
▁81 0
▁ner 0
▁appropriées 0
tains 0
linge 0
▁romania 0
▁skys 0
lements 0
▁winnipeg 0
▁jim 0
▁autorité 0
▁acknowled 0
ographical 0
greg 0
▁engineers 0
▁ceramic 0
▁méthod 0
▁enabling 0
▁andré 0
▁evaluate 0
such 0
▁transmitted 0
▁généraux 0
▁strengthening 0
▁breach 0
asis 0
▁jewelry 0
▁ownership 0
▁provenance 0
whe 0
▁writer 0
▁litres 0
▁quantités 0
▁siem 0
▁facilité 0
▁eric 0
▁anciennes 0
▁promise 0
▁compass 0
▁bosn 0
fu 0
▁niger 0
▁brav 0
bou 0
▁tig 0
▁concevoir 0
raire 0
nt 0
enth 0
▁memb 0
usanne 0
gp 0
▁melbourne 0
▁fournie 0
▁welcoming 0
person 0
attan 0
▁instances 0
▁distances 0
▁consacré 0
ulted 0
laur 0
▁flexibilité 0
tisation 0
▁soigne 0
▁précédents 0
▁underground 0
▁sols 0
▁resistant 0
▁fondamentaux 0
▁faces 0
▁concernent 0
▁chass 0
program 0
dame 0
▁lifetime 0
▁scoti 0
▁paintings 0
èvre 0
itures 0
▁gor 0
expri 0
aus 0
▁refuser 0
agascar 0
▁souhaits 0
▁résist 0
▁pioneer 0
▁fournissant 0
▁enjoyed 0
▁considère 0
aménagement 0
▁saur 0
▁prévus 0
vr 0
▁écriv 0
▁sérieux 0
▁séances 0
▁salut 0
▁chaises 0
▁pertinentes 0
▁specialists 0
▁fifa 0
▁comités 0
▁cercle 0
▁gray 0
▁gospel 0
▁capsules 0
▁régimes 0
▁chanti 0
▁variation 0
▁tourner 0
▁sensibles 0
▁intermédiaire 0
▁heb 0
gill 0
shirts 0
▁dure 0
▁dental 0
brunswick 0
▁magnifiques 0
▁béton 0
▁activation 0
olta 0
▁violent 0
▁pestic 0
▁créés 0
▁accompagné 0
▁specify 0
while 0
▁réveil 0
▁nouveautés 0
▁incidents 0
▁finlande 0
▁athletes 0
▁cameras 0
élection 0
▁soutenu 0
▁sme 0
▁cod 0
▁casc 0
▁adulte 0
elled 0
▁boards 0
▁agrit 0
▁marsh 0
▁applying 0
▁récip 0
▁nou 0
nic 0
anth 0
▁biological 0
vic 0
phe 0
▁bearing 0
▁mau 0
vente 0
eda 0
▁logos 0
oubliez 0
▁entities 0
mination 0
▁phénomène 0
▁locate 0
▁enregistrés 0
▁coque 0
▁prononcé 0
▁issus 0
reuve 0
▁horm 0
▁faculty 0
▁tribunaux 0
▁biography 0
asty 0
▁explan 0
hétique 0
▁throw 0
▁magnetic 0
▁auxquelles 0
▁inflamm 0
▁freder 0
▁faro 0
▁mousse 0
▁autumn 0
▁évidemment 0
▁serviettes 0
immigration 0
▁juice 0
▁photographs 0
▁ean 0
onomie 0
cb 0
▁coopéra 0
acco 0
▁revêtement 0
▁introduce 0
▁brochure 0
▁polo 0
▁modem 0
▁wool 0
▁chari 0
ogram 0
▁hels 0
▁buts 0
▁salaire 0
▁rd 0
▁brig 0
▁aigu 0
exemple 0
▁renewal 0
▁pause 0
▁hua 0
▁croatie 0
▁anna 0
▁ghana 0
▁respectivement 0
▁realize 0
▁peru 0
▁accidents 0
anning 0
▁évènements 0
▁respectively 0
▁intéressé 0
atile 0
▁proposée 0
▁mobilier 0
▁achetés 0
emplo 0
▁teneur 0
blanc 0
▁primaire 0
▁panoramic 0
▁gathered 0
▁raid 0
▁serre 0
▁sli 0
▁rum 0
▁présentations 0
▁remis 0
▁opposite 0
▁mém 0
▁jouez 0
▁cosmé 0
▁admit 0
▁exists 0
▁handicapées 0
lées 0
infection 0
▁susc 0
▁kettle 0
▁remettre 0
▁provis 0
▁déploiement 0
▁profits 0
▁célèbres 0
▁sév 0
▁distinct 0
▁boots 0
▁témoignage 0
▁inoubli 0
▁hood 0
▁gn 0
▁creativity 0
▁convenience 0
▁menée 0
▁expliqué 0
▁embed 0
▁danemark 0
▁concr 0
▁cesse 0
▁allemande 0
fare 0
▁panorama 0
▁delegation 0
▁conseillers 0
▁closing 0
▁checking 0
▁améliorations 0
▁committees 0
▁continuent 0
▁présidence 0
▁ibiza 0
▁avancée 0
mx 0
chon 0
▁whirlpool 0
▁precious 0
▁hospitality 0
▁nak 0
▁initiale 0
opath 0
▁suffer 0
▁merveilleux 0
▁casque 0
prov 0
▁xi 0
▁resident 0
▁auraient 0
▁judgment 0
▁publicités 0
▁journées 0
▁jews 0
lanta 0
▁fs 0
▁maît 0
▁overlooking 0
▁neufs 0
▁volcan 0
▁zi 0
▁donnez 0
▁doctors 0
▁adopter 0
▁trucks 0
▁airline 0
▁respecting 0
▁fleuve 0
▁finds 0
▁disciplines 0
zza 0
▁écrits 0
▁reinfor 0
▁retro 0
▁creek 0
▁chemicals 0
▁traveling 0
▁superb 0
▁estimates 0
called 0
▁voisins 0
▁courtyard 0
▁auberge 0
▁éventuellement 0
▁roue 0
ighten 0
▁souver 0
▁contributed 0
she 0
iche 0
▁pais 0
ctu 0
▁écoute 0
▁saints 0
etry 0
historique 0
▁expliquer 0
▁découlant 0
cab 0
▁assume 0
phy 0
▁gagne 0
▁fournissons 0
cluded 0
▁structural 0
▁madagascar 0
americ 0
▁élabor 0
▁horizontal 0
▁aspir 0
tick 0
▁spectacles 0
▁espèce 0
intendo 0
▁andor 0
ape 0
▁remer 0
▁prai 0
▁deter 0
▁volunteers 0
▁réservoir 0
▁complémentaires 0
▁omega 0
▁mamm 0
aired 0
▁reim 0
▁hasard 0
▁inser 0
▁rally 0
smo 0
marie 0
▁difficulty 0
élimination 0
▁toucher 0
émission 0
▁ard 0
▁firms 0
▁skype 0
▁bamb 0
▁sophistic 0
inki 0
▁tablets 0
▁mask 0
élande 0
cific 0
▁transferts 0
▁relever 0
▁lima 0
▁concentrer 0
▁énorme 0
▁accommodate 0
▁touristes 0
▁wishlist 0
▁sorti 0
▁permettront 0
▁exercice 0
édé 0
▁rive 0
▁climatis 0
▁involves 0
▁fluid 0
▁diagnostiquer 0
▁universelle 0
▁sail 0
▁papers 0
▁meter 0
▁neighbourhood 0
▁haïti 0
▁sacrifice 0
▁folk 0
▁consommer 0
monton 0
▁hongrie 0
▁blancs 0
identifier 0
▁crossing 0
inea 0
▁sorry 0
▁bénéfices 0
▁assu 0
▁accroître 0
kon 0
atmosph 0
▁sheets 0
▁penn 0
▁aged 0
▁visibility 0
▁verrou 0
▁réserves 0
▁disant 0
▁adjustable 0
ued 0
▁yacht 0
▁laissé 0
▁championnat 0
iji 0
▁fortes 0
▁reaction 0
▁associate 0
▁reine 0
dictions 0
▁watching 0
▁religions 0
▁cargo 0
illée 0
▁stadium 0
▁patron 0
▁opérateurs 0
▁oslo 0
▁garn 0
▁confortables 0
augmenter 0
▁posting 0
▁moléc 0
▁ethnic 0
ingénierie 0
▁libertés 0
▁syner 0
▁unus 0
▁reprise 0
▁payable 0
▁jung 0
rio 0
liques 0
▁refroidissement 0
stop 0
ilation 0
▁chili 0
▁boîtes 0
pira 0
iat 0
oeuvre 0
▁portent 0
▁célébr 0
▁%) 0
▁repeated 0
undi 0
▁secours 0
▁plaintes 0
▁cardia 0
▁returning 0
▁ordinary 0
▁grown 0
▁armées 0
espèce 0
aventure 0
▁appuyer 0
▁molec 0
instructions 0
▁spoke 0
▁bourgeois 0
▁voulu 0
▁tunnel 0
▁semblent 0
▁carrés 0
anée 0
▁mondiaux 0
▁breeze 0
▁gagné 0
▁rendent 0
▁married 0
ective 0
▁dated 0
ieval 0
▁décrire 0
uling 0
▁personnage 0
▁participated 0
▁mettez 0
▁italiano 0
▁combines 0
isha 0
▁cleaner 0
amor 0
▁powered 0
▁mans 0
▁générer 0
▁cameroun 0
weg 0
▁hers 0
▁worker 0
▁halifax 0
▁● 0
▁volontaire 0
▁delhi 0
▁corpore 0
▁posté 0
▁mare 0
▁mercure 0
▁interpre 0
▁coastal 0
▁pcs 0
▁fifth 0
ional 0
gru 0
▁branche 0
espoir 0
▁telecom 0
▁personnalité 0
▁fonctionnaires 0
▁roses 0
▁intégrer 0
▁disent 0
▁territori 0
▁massif 0
▁noct 0
▁involvement 0
)) 0
▁thickness 0
▁lee 0
yers 0
ignées 0
▁incidence 0
▁chevaux 0
▁explicit 0
▁dommage 0
▁upcoming 0
240 0
▁trente 0
▁phones 0
ishi 0
▁pools 0
▁jolie 0
▁bis 0
now 0
▁refugee 0
▁étroite 0
▁plateformes 0
▁avancées 0
▁urgent 0
omon 0
▁uncertain 0
▁situées 0
titution 0
▁stut 0
▁mn 0
▁mk 0
▁tram 0
▁rough 0
▁israéli 0
▁exercices 0
hyp 0
▁vessels 0
▁searching 0
▁fondateur 0
ict 0
▁représenter 0
▁gil 0
▁considérer 0
teaux 0
pf 0
▁seas 0
▁lausanne 0
▁rempli 0
▁appell 0
cir 0
▁renouvellement 0
▁italienne 0
▁amélioration 0
▁monit 0
▁hamm 0
▁gloss 0
▁downloads 0
aie 0
▁malaga 0
▁nintendo 0
▁hamilton 0
▁crazy 0
▁charging 0
▁lt 0
▁enregistrement 0
▁adds 0
édie 0
benz 0
▁venezuela 0
pris 0
▁préparé 0
▁richesse 0
▁prohibited 0
writ 0
▁fréquemment 0
▁encourager 0
wei 0
roup 0
▁campaigns 0
▁repairs 0
▁gluc 0
▁ceinture 0
▁desqu 0
▁repeat 0
▁refres 0
mand 0
ados 0
▁itinéraire 0
▁travellers 0
▁scholar 0
▁integrate 0
▁horizon 0
▁joints 0
mise 0
ganda 0
alistic 0
équipements 0
▁mettons 0
▁marriott 0
▁argument 0
élément 0
chauff 0
▁decline 0
▁congrat 0
endie 0
▁slot 0
▁robots 0
▁métaux 0
▁fauteuil 0
▁ion 0
agra 0
▁unity 0
▁robo 0
▁chest 0
observation 0
alliance 0
▁composant 0
building 0
▁revers 0
▁apprendrez 0
▁aids 0
▁caractéristique 0
▁alicante 0
350 0
▁legally 0
▁installés 0
▁accrue 0
parts 0
▁traduit 0
▁lite 0
▁competit 0
▁tasse 0
▁tomber 0
▁nissan 0
▁intitulé 0
kina 0
▁turning 0
▁renowned 0
▁réglage 0
▁désert 0
▁détachées 0
▁albums 0
▁stocker 0
▁mesh 0
▁gluten 0
▁boliv 0
▁addi 0
ando 0
▁testament 0
▁sib 0
itas 0
▁trademark 0
▁expédition 0
▁allég 0
necess 0
▁turbo 0
èses 0
▁vitamine 0
▁bull 0
▁bière 0
▁destinées 0
▁tru 0
▁tape 0
▁lovers 0
oupes 0
break 0
▁lace 0
peg 0
▁creator 0
▁medieval 0
uki 0
onic 0
▁commissions 0
▁cisco 0
▁lenti 0
▁entente 0
▁correspondent 0
▁traditionnelles 0
▁retre 0
neurs 0
fir 0
▁tl 0
itons 0
▁105 0
▁garçons 0
utilisateurs 0
oids 0
▁stylish 0
▁immigrants 0
▁hil 0
▁destroyed 0
▁credits 0
adv 0
abri 0
▁mécaniques 0
▁thorough 0
▁floral 0
▁fabriqués 0
▁classical 0
▁vies 0
▁latine 0
tified 0
ocde 0
▁islamic 0
ablanca 0
▁cables 0
▁francfort 0
▁biodiversity 0
▁collectées 0
▁bug 0
▁upgra 0
▁expressions 0
▁aesthe 0
▁5000 0
seur 0
bad 0
▁exhibitions 0
▁densité 0
▁isab 0
▁helic 0
▁archae 0
paris 0
▁hook 0
▁allait 0
▁accordingly 0
▁éclairage 0
▁chrétiens 0
▁sao 0
▁arbre 0
▁admis 0
éditeur 0
once 0
▁dépasse 0
▁garçon 0
▁finition 0
▁aig 0
attente 0
▁thoughts 0
▁embar 0
▁distinguish 0
ín 0
intéress 0
adress 0
▁restriction 0
▁diminution 0
▁visée 0
pling 0
lité 0
▁sauvages 0
▁rhy 0
▁mous 0
▁shadow 0
igence 0
▁oc 0
▁affirme 0
fire 0
chec 0
emble 0
▁jas 0
tgart 0
▁emplacements 0
▁christop 0
▁parallel 0
▁luggage 0
▁favorable 0
▁palette 0
▁consultants 0
▁complications 0
▁remporté 0
▁1984 0
▁internationally 0
▁pope 0
▁balanced 0
otive 0
issage 0
▁gambling 0
▁panoramique 0
▁créateur 0
▁accompagner 0
aret 0
arth 0
▁entités 0
▁glory 0
▁extraordinaire 0
▁landscapes 0
▁exacte 0
▁artworks 0
125 0
▁obtenus 0
trait 0
oce 0
▁tissue 0
▁ideally 0
▁confirmé 0
importation 0
gradation 0
aucun 0
▁récent 0
▁notified 0
▁legs 0
▁fortune 0
▁équitable 0
▁tierce 0
▁sard 0
▁lap 0
▁réglementaires 0
▁wo 0
▁harmony 0
venant 0
esterday 0
▁embassy 0
▁baptis 0
hotels 0
▁vec 0
▁croissant 0
▁télécommunications 0
▁irlande 0
▁crises 0
▁array 0
▁suivent 0
▁perç 0
▁tells 0
▁networking 0
▁230 0
▁produces 0
▁dioc 0
▁doses 0
▁reduces 0
▁para 0
yt 0
apper 0
acad 0
▁sailing 0
▁taxation 0
▁raj 0
▁administrateurs 0
▁participe 0
œil 0
isters 0
▁rede 0
▁necessarily 0
▁inconnue 0
québec 0
▁functioning 0
▁cafés 0
second 0
chage 0
▁peintures 0
▁hunting 0
▁gentle 0
▁frein 0
▁compression 0
▁étudiant 0
▁elder 0
jar 0
essence 0
▁koh 0
▁pag 0
▁oublier 0
▁fried 0
▁pois 0
oca 0
▁faced 0
▁carav 0
▁stm 0
▁chère 0
▁écosyst 0
fly 0
function 0
▁couches 0
▁trek 0
▁passez 0
▁lago 0
▁déclen 0
▁critic 0
▁civils 0
▁sb 0
cium 0
▁roumanie 0
▁consume 0
▁attendue 0
itables 0
▁tranquille 0
▁optimisé 0
▁contracting 0
▁bent 0
sex 0
▁tul 0
▁sublim 0
▁syrian 0
onau 0
iendra 0
▁wikipedia 0
▁profils 0
▁grants 0
▁drum 0
▁bale 0
bains 0
▁stones 0
▁actively 0
▁shorter 0
010 0
▁oils 0
▁disappear 0
oints 0
▁largely 0
▁boules 0
▁qualités 0
comfort 0
▁hygien 0
dh 0
bow 0
▁née 0
▁implications 0
▁tira 0
ented 0
▁eliminate 0
tub 0
ract 0
▁artificial 0
atmosphère 0
▁storm 0
▁adaptées 0
▁revenues 0
▁gestionnaires 0
▁freez 0
▁blend 0
entir 0
▁réparations 0
▁blank 0
▁ø 0
▁yesterday 0
▁présidente 0
▁luis 0
▁excursion 0
▁conformes 0
▁exhaus 0
▁subventions 0
▁slide 0
▁shooting 0
▁1200 0
▁stro 0
▁holl 0
▁contamination 0
▁beta 0
lyn 0
isely 0
▁nuage 0
▁jume 0
▁implique 0
▁disposer 0
▁disability 0
▁carol 0
▁seasons 0
▁étonn 0
▁ibm 0
▁founder 0
▁dressing 0
▁asking 0
▁crop 0
utable 0
▁tb 0
pré 0
uffis 0
▁environnementaux 0
▁duquel 0
▁diagnose 0
intens 0
quième 0
atories 0
▁mène 0
▁houston 0
▁entra 0
▁vierge 0
▁garanties 0
▁alongside 0
▁boule 0
habitude 0
▁téléchargé 0
▁riviera 0
▁noble 0
▁aviv 0
esta 0
▁vain 0
▁1981 0
▁crash 0
▁appartenant 0
cker 0
▁poul 0
▁empower 0
hp 0
▁tournée 0
▁gulf 0
▁administer 0
▁xvi 0
▁lect 0
▁installing 0
▁specialty 0
▁scott 0
▁leçons 0
▁formé 0
▁noy 0
reur 0
arbit 0
▁stronger 0
▁façade 0
▁emirates 0
▁croisière 0
▁statistical 0
▁activer 0
fish 0
▁reçoivent 0
▁ 363994385
e 238456861
t 143830921
a 140610292
s 134246467
i 133762025
n 129853374
o 125038680
r 124199326
l 87632166
u 78658186
d 69616694
c 66361153
p 50155732
m 48566321
h 43109939
f 30697378
g 27527326
v 25839500
é 22489057
b 22186199
, 19284236
y 17407882
. 16921635
w 13704852
q 9058781
k 7288734
x 6527255
0 6347396
- 6193757
1 5662126
' 5365085
’ 4708612
2 4552272
j 4498906
à 4295639
z 3680379
è 3069552
) 2996414
( 2952942
: 2249895
3 2217917
5 2211050
4 1927526
9 1870541
6 1594224
8 1589878
7 1514607
ê 1170080
/ 1065098
" 809569
ô 717861
? 667013
; 646470
! 512596
ç 409469
» 343615
– 334960
% 332077
« 326439
& 325963
â 316403
“ 297406
” 293199
î 274045
| 239976
[ 221314
] 220952
û 170549
ù 165847
+ 157782
$ 146550
œ 124496
€ 113194
— 111539
* 102503
ï 90007
_ 84845
# 83726
> 83450
° 81077
® 65068
• 61048
‘ 50415
@ 48693
á 44490
ë 40139
ü 38810
í 32901
ó 32208
= 30195
́ 29135
ö 28081
› 24105
` 23062
ñ 20400
© 18217
ä 18010
× 15741
‐ 14448
· 13624
£ 12969
ã 12683
\ 12248
~ 11828
< 10508
ø 9491
→ 8506
š 8424
ú 8361
č 7492
å 5243
„ 5142
► 5139
ā 5014
● 4541
± 4097
← 4072
⁄ 4012
′ 4003
ž 3537
ă 3426
} 3421
{ 3400
ć 3335
ß 3330
ł 3278
§ 3145
ō 3004
μ 2987
ı 2881
ş 2795
‹ 2793
^ 2771
↑ 2470
− 2357
★ 2340
õ 2316
† 2270
æ 2139
ò 2075
¶ 2060
⚇ 2025
ī 1963
█ 1962
¢ 1878
ř 1866
■ 1687
ý 1615
₹ 1598
✓ 1453
ū 1444
ğ 1414
ń 1395
₱ 1382
✔ 1356
⇱ 1347
ș 1336
ě 1323
ˆ 1318
ę 1230
♥ 1174
ś 1164
▼ 1159
ì 1148
√ 1130
ʼ 1029
≥ 992
♦ 950
☰ 948
ż 944
✈ 935
↓ 903
̇ 897
ṇ 806
▪ 790
⋆ 759
ṣ 739
≤ 709
▲ 686
🙂 683
ő 677
─ 669
・ 657
ą 640
ð 636
☆ 629
ṛ 620
̈ 588
ē 573
ţ 565
ė 561
ț 554
¥ 547
đ 535
😉 531
‚ 529
⇒ 521
¿ 515
≈ 512
▶ 493
― 488
‡ 488
└ 487
⚓ 446
├ 446
↔ 444
▒ 441
¡ 438
⚡ 432
ň 420
▸ 408
○ 405
‒ 379
ů 373
▷ 370
ÿ 356
≫ 348
ơ 347
¤ 346
฿ 345
‟ 343
❤ 331
ə 331
◄ 315
◆ 302
¦ 299
ź 291
✕ 289
⇢ 286
ˈ 284
ľ 267
♪ 261
ḥ 255
¬ 252
∙ 252
│ 244
̊ 244
ŕ 243
✅ 234
₪ 221
∫ 218
⭐ 214
ṭ 211
∞ 202
ļ 197
▌ 195
ệ 186
ế 185
÷ 180
➤ 179
≡ 178
ʹ 177
₩ 162
ặ 162
☛ 156
※ 156
ņ 153
ŭ 153
➔ 151
þ 144
□ 144
ạ 142
ď 139
☐ 139
♫ 138
♡ 136
й 136
ħ 131
ḩ 128
☎ 126
↳ 126
ɛ 123
ų 122
ả 121
ư 120
ː 120
г 116
▾ 115
‰ 115
į 114
의 113
̄ 113
ộ 113
ω 112
⋅ 104
》 102
⌃ 101
<term> 0
</term> 0
<DATE> 0
<DDMY> 0
<DMDY> 0
<DT> 0
<DYMD> 0
<NN> 0
<NW> 0
<QCM> 0
<QKM> 0
<QL> 0
<QM> 0
<QS> 0
<monotonous> 0
<monotonish> 0
<finance> 0
<it_science> 0
<kpop> 0
<law> 0
<medical> 0
<news> 0
<patent> 0
<shopping> 0
<sports> 0
<travel> 0
<lang:en> 0
<lang:fr> 0
madeupword0028 0
madeupword0029 0
madeupword0030 0
madeupword0031 0
madeupword0032 0
madeupword0033 0
madeupword0034 0
madeupword0035 0
madeupword0036 0
madeupword0037 0
madeupword0038 0
madeupword0039 0
madeupword0040 0
madeupword0041 0
madeupword0042 0
madeupword0043 0
madeupword0044 0
madeupword0045 0
madeupword0046 0
madeupword0047 0
madeupword0048 0
madeupword0049 0
madeupword0050 0
madeupword0051 0
madeupword0052 0
madeupword0053 0
madeupword0054 0
madeupword0055 0
madeupword0056 0
madeupword0057 0
madeupword0058 0
madeupword0059 0
madeupword0060 0
madeupword0061 0
madeupword0062 0
madeupword0063 0
madeupword0064 0
madeupword0065 0
madeupword0066 0
madeupword0067 0
madeupword0068 0
madeupword0069 0
madeupword0070 0
madeupword0071 0
madeupword0072 0
madeupword0073 0
madeupword0074 0
madeupword0075 0
madeupword0076 0
madeupword0077 0
madeupword0078 0
madeupword0079 0
madeupword0080 0
madeupword0081 0
madeupword0082 0
madeupword0083 0
madeupword0084 0
madeupword0085 0
madeupword0086 0
madeupword0087 0
madeupword0088 0
madeupword0089 0
madeupword0090 0
madeupword0091 0
madeupword0092 0
madeupword0093 0
madeupword0094 0
madeupword0095 0
madeupword0096 0
madeupword0097 0
madeupword0098 0
madeupword0099 0
madeupword0100 0
madeupword0101 0
madeupword0102 0
madeupword0103 0
madeupword0104 0
