# {"tokenization": 2, "inline_case": true, "protect_regex": null, "nfkc": false}
▁ t
e n
e r
▁ a
i n
▁ w
▁ ,
▁t h
▁ s
▁ d
c h
▁ .
▁ i
n d
e s
▁ m
▁ o
a t
▁ b
▁th e
▁ h
r e
i e
o n
a n
▁ f
▁ g
a s
o u
▁ e
▁ u
▁ p
i t
l l
s t
▁ in
▁ c
▁ n
▁ l
in g
o r
▁a nd
a r
▁t o
i s
▁ '
i ch
▁o f
e d
▁ v
a l
▁ k
l e
o m
▁ "
▁w e
▁b e
▁ y
i r
u t
▁th at
▁e in
e t
▁u nd
i g
▁y ou
en t
i on
▁w h
▁ z
▁i t
u s
u r
▁h a
▁d ie
v e
i c
r o
t e
▁d as
u n
er e
▁s o
▁i s
r a
o w
t er
▁s e
o t
▁a n
▁ re
l d
▁s t
e m
▁d i
▁w ir
▁ j
▁o n
e l
▁s ie
c t
▁th is
a m
▁d er
a ll
▁a b
▁w as
▁i ch
d e
a y
▁z u
▁v er
k e
▁ es
t en
▁u n
h r
▁i st
g e
a ch
i m
i l
▁m e
in d
v er
▁a l
▁ r
▁f or
ich t
o l
g en
▁ er
i er
▁ ?
l ich
c e
b en
▁a u
s e
s ch
o p
▁d o
▁a ll
▁the y
▁n e
▁l i
▁di es
at ion
a u
i d
u m
▁p ro
c k
t h
l y
it h
h t
▁ —
▁s ch
▁g o
▁a re
▁h e
▁g e
un g
▁ :
es s
▁m o
▁l e
es t
▁d en
a us
a nd
all y
▁w ith
▁al s
▁ha ve
▁b ut
▁wh at
i ll
▁a s
p p
▁c an
▁i m
▁ ch
b er
f f
▁m an
▁w or
d en
b e
▁c om
ü r
n en
▁ )
▁ (
▁n icht
▁s h
▁s p
ou t
u l
an t
in e
▁a t
er s
a g
▁v on
▁f r
▁ein e
▁au f
u st
▁o r
▁e x
▁das s
▁n ot
▁a r
ou ld
▁m it
a d
i st
▁th ere
▁ab out
ar t
▁t e
▁w ie
a b
▁m y
▁s om
o s
▁w ar
an n
o o
▁d e
en d
es e
g h
▁un s
u ch
▁p e
▁ 1
aus e
ig ht
i es
▁m a
s en
i b
is ch
▁c on
h en
q u
▁on e
d er
or t
f t
w e
▁pe op
▁peop le
i ve
k t
▁s ich
m en
h er
it y
en n
▁be c
at e
▁t r
o g
▁u s
0 0
▁li ke
▁i f
▁o ur
i v
▁k n
▁a us
ü ber
▁fr om
in k
er n
▁s a
u nd
▁p l
z e
▁als o
▁n o
▁d es
▁s ind
▁u m
u re
▁n ow
ö n
▁j ust
▁ab er
▁f ür
e ct
▁o ut
▁ha ben
▁i h
st e
▁th ese
▁ en
▁wh en
▁w enn
▁h at
▁g et
▁kn ow
oo k
i k
o d
▁the m
▁w er
i en
▁wh o
▁v ie
e ar
▁th ing
▁a m
▁ über
a p
▁bec ause
▁d a
i ld
▁th ink
▁k ön
▁d em
▁h ow
as t
▁u p
▁h er
▁dies e
▁b y
a hr
▁ver y
▁som e
o ll
ou nd
on e
h e
h l
▁se e
▁e ver
▁g es
▁ ent
an g
▁g r
▁go ing
▁a ct
▁you r
▁mo re
a in
▁t im
▁ha d
▁com p
▁ 2
▁a pp
▁v or
▁m en
▁in ter
ou r
▁y ear
▁w ould
p er
▁g en
a ck
am e
ig en
▁the ir
▁w ere
i z
n e
i de
i al
▁l ook
▁f e
▁p r
f e
▁w ill
an s
et z
as s
m ent
▁wor k
▁wh ich
▁l au
▁w ant
t o
ic k
▁h ere
ou s
▁th an
ar d
re at
▁s u
▁ qu
o se
▁z e
▁ ro
▁k e
▁re ally
▁f a
▁t a
▁wor ld
l t
p t
▁ever y
▁p er
▁k ind
f or
▁e v
u ally
p l
h ing
ol og
▁th en
gh ter
▁w ay
▁ein en
it e
m er
▁n ach
it t
r u
▁tim e
▁kön nen
▁m ach
▁h as
▁h ier
a ge
▁d on
ion s
a re
ä ch
▁lau ghter
ut e
ier en
i f
▁o th
o nd
on g
u e
▁pro b
▁g l
▁b l
▁o der
ou gh
▁b r
▁men sch
▁wer den
▁c ould
▁m us
▁ ra
t w
en s
▁a g
▁wh ere
▁d ar
ier t
▁s c
▁s te
un gen
▁in to
▁g ro
▁be t
▁se in
w o
i p
a h
is e
▁act ually
▁ne w
u d
▁di d
d u
▁s ay
▁app l
k en
▁me in
o re
n t
▁oth er
al k
▁k ann
▁year s
ig n
▁som et
▁thing s
▁au ch
▁c l
at er
ig e
er t
▁a f
er en
▁f l
▁ein er
▁an y
ch n
▁we ll
▁f ir
▁ ♫
sch a
▁n ur
▁s y
ic al
▁be en
ll e
le m
▁sh e
s el
▁r ight
z en
▁p art
i a
▁ma ke
st en
▁i hr
ll en
ch en
ä nd
▁ein em
ib t
▁c o
▁t ra
▁se hr
▁e tw
▁d ann
▁ne ed
▁di ff
ä t
▁wir d
▁l o
▁st art
▁p h
▁b ra
r en
▁f ra
▁ha pp
a c
▁b u
▁o ver
ul t
▁m ich
▁i de
▁d ur
r y
▁th ose
a ce
▁un ter
isch en
o b
▁prob lem
▁p o
▁in d
ic e
▁mensch en
▁g ot
▁fir st
▁o b
▁somet hing
▁im p
a k
ü ck
re e
▁b es
▁k om
▁sa id
for m
st em
z u
▁t wo
▁ –
or y
▁te chn
ke it
▁le ben
ou nt
p le
▁ih nen
▁b ack
f en
▁g ibt
▁k on
p h
▁w ur
e in
▁j ahr
▁sp e
is sen
▁m uch
ab le
▁vie l
▁d is
▁c all
p r
▁r es
▁ges ch
▁p re
h al
▁be g
▁mo st
▁se hen
▁w o
▁a d
▁a c
ie l
▁we lt
om e
i ent
▁j ed
ation s
▁no ch
he it
▁ev en
ow n
▁dies er
▁p ers
▁l ot
c ent
▁l itt
▁f ind
▁etw as
▁litt le
w ay
▁m ar
l ie
▁h um
▁ar t
▁dur ch
scha ft
▁m ir
v es
▁m ö
▁m ill
▁t alk
▁re al
▁me hr
an ge
m al
▁li fe
▁ ;
▁on ly
▁ih re
▁se l
ch t
▁h is
▁ha be
v ing
be it
▁und er
▁n at
i le
od y
▁d ay
ve l
▁z ur
m e
▁man y
▁l et
ä n
at ed
as e
▁ta ke
▁w issen
ö r
i ver
f l
y s
an ce
ie d
▁con t
▁all e
▁ 3
etz t
▁e m
b l
g ht
an k
▁gro ß
▁d r
▁th r
isch e
re d
er ent
▁be i
▁st ud
▁techn olog
▁h o
▁go od
▁sy stem
lich en
▁z we
▁do es
oo d
in t
00 0
▁diff erent
▁of f
▁appl ause
g er
w n
ic t
w er
▁s ag
u g
▁zu m
st and
▁m ay
at h
s p
▁ha nd
el y
is h
ch e
▁com m
▁wir k
▁wh y
lich e
▁g an
▁uns ere
▁ar ound
▁ze it
ent s
▁thr ough
g et
a ct
▁p ol
it ion
h n
c ess
ot her
▁te ll
▁w ä
▁d own
or s
ü s
t y
or d
▁p ut
al s
▁ein f
d ay
▁me ine
ur n
x t
▁be f
▁w ür
▁be ing
▁g ra
▁sh ow
it er
▁pers on
▁ex per
g an
ing e
in n
▁in c
ib le
ien ce
▁wur de
▁we il
▁g el
▁to o
re i
▁ver s
▁wirk lich
el t
▁u se
▁f ü
▁p ar
▁s ame
▁h el
▁m ed
ou ght
i ous
▁c ar
▁dies es
▁m on
al e
▁s m
▁c ount
▁re g
k ing
▁in v
ar n
▁einf ach
▁so l
▁n un
▁com e
ig h
▁des ign
on s
▁pro du
▁happ en
▁d at
▁2 0
▁hum an
▁b o
ar y
▁k le
g es
j ect
▁tr y
ter n
▁st r
c es
▁t un
▁mach en
m t
▁g reat
f ü
▁1 9
▁d am
▁b ig
ut ion
ung s
▁de c
f ul
b st
▁e le
▁fa ct
▁s ur
at s
om men
ow er
▁im mer
a ut
as sen
▁th ree
▁s im
▁g u
▁f am
▁ver b
g t
▁w om
▁ar beit
ch te
▁ end
▁l ie
▁than k
▁l and
r i
▁do ing
is s
o c
▁g er
▁b is
▁j etzt
▁p ass
▁ag ain
r ie
▁ !
v ed
ach en
ra m
▁se c
e p
t ing
▁ch ild
▁b as
▁p u
▁b ed
▁uns er
▁tr ans
▁pl an
▁o k
▁w oll
os s
▁re l
▁ge w
ff en
er g
▁bu ild
▁ 5
▁re m
ig er
r ic
▁ -
▁m et
ing en
▁per cent
▁p at
is m
▁g ut
ic ally
▁1 0
▁af ter
u al
▁g em
▁b it
th ing
i re
▁to day
▁k l
i ze
▁qu est
▁mill ion
▁m üs
▁m al
▁b est
▁in s
▁d u
n et
▁l ong
▁h in
c ial
b ody
h men
el n
▁ke ine
▁hat te
it ies
▁in form
▁call ed
s s
sel f
▁a ut
▁m om
i an
▁comp ut
▁vie le
ä r
▁le arn
▁fam il
▁ma de
▁f un
ic s
▁ge b
▁sel bst
g r
▁den n
▁e ar
▁m in
▁o wn
▁f in
▁f re
▁sh ould
▁h im
▁be h
g l
▁am er
▁o h
n te
▁w r
u en
▁imp ort
p e
▁st at
le ich
▁z us
g lich
▁n or
hl en
▁ 4
▁b i
▁re c
▁dies em
kt ion
i ß
at ing
▁h al
▁müs sen
▁b ild
n er
ct ion
▁fe el
▁le ute
s er
▁so ll
▁t urn
▁war en
▁did n
▁e l
▁ch ange
▁ein es
▁zwe i
▁l ast
▁c oll
▁as k
▁dies en
b r
uch en
▁i r
ach t
▁b in
e ll
▁in st
b ar
▁all es
t ra
▁te il
▁and ere
in en
ig keit
▁bef ore
▁import ant
▁wie der
▁un iver
▁th ought
▁d inge
▁it s
▁or gan
▁an other
▁st ill
▁ent w
▁jahr en
o ol
k s
▁me an
▁ne ver
▁t er
▁ge h
▁sa gen
▁start ed
▁f ar
▁b en
▁be lie
▁c our
▁c reat
▁under stand
▁ide a
▁bra in
▁hel p
v or
op e
id en
gen d
▁gl au
▁bet ter
▁im ag
und en
c on
▁n um
ul ar
a z
▁sch w
▁inform ation
am men
▁m ight
l es
▁l ang
p en
▁inter est
▁for m
▁ex am
▁e ff
▁s l
▁sag te
il ity
▁g ive
▁f ound
▁pl ay
▁l a
▁be k
▁comm un
▁ab le
ist s
ation al
▁p ower
▁en erg
it s
▁s er
▁do ll
ar s
▁to get
▁toget her
i x
icht ig
te l
▁po int
▁p a
▁w ent
▁er f
ah re
v en
▁and eren
▁zus ammen
ß en
▁st ory
▁wür de
▁dam it
▁gen er
au f
ing s
▁her aus
au en
▁c r
in es
▁ne xt
▁h igh
▁sch ool
▁k id
it ät
▁n ie
us s
▁vie lle
▁vielle icht
f ä
▁s k
▁c ent
▁ex p
▁e ach
k es
▁ver sch
▁w en
▁gesch ich
▁mom ent
▁w a
ist en
▁v ide
▁t ats
al th
▁an s
▁b ot
ig t
or k
it al
o st
te ll
▁j ahre
▁wom en
▁ge ht
at her
▁cour se
a de
▁j a
it ed
▁appl aus
▁num ber
▁da v
▁plan et
▁z w
▁w ater
at en
p s
▁ag o
▁fe w
▁we l
▁c ame
b t
ge b
▁he ute
o ck
at ive
▁us ed
▁con s
▁pl ace
▁m at
ar ch
▁k am
äch ter
▁technolog y
u ll
▁zur ück
▁l achen
we en
w ard
vel op
▁st and
▁s it
▁gel ächter
▁b ill
▁dat a
iz ed
▁lo ve
re ad
c o
▁entw ick
▁sch l
▁pol it
p ro
▁quest ion
▁g leich
▁bet ween
▁s ort
▁w ahr
▁de velop
▁sec ond
c ed
al t
▁comp le
n is
st r
▁gl ob
▁v is
▁f all
▁may be
a il
▁pu bl
▁gr und
▁comput er
▁ex pl
way s
▁2 00
ü n
▁k r
▁mus s
▁d an
ut z
▁c re
▁st u
▁f our
▁o ld
▁gan z
ur es
u es
▁sm all
▁we iter
t z
äch lich
uch t
▁b us
▁amer ic
i o
hal ten
▁li ve
▁gro w
ä u
▁war um
b s
▁m ag
▁m or
d s
▁c are
z ent
et e
▁ein z
if ic
▁does n
ol ution
ce pt
c y
▁gen au
▁c ell
▁sch on
▁f il
g ram
▁exam ple
is p
▁re ad
▁part ic
▁t y
on t
ö ß
l er
▁mö chte
s y
▁c or
▁ ö
a ve
▁d one
in s
▁look ing
▁ 6
m s
og ra
▁ein ige
▁mo ve
hr en
▁s en
em ber
▁l ar
▁ch ang
▁en g
▁c ap
▁. .
▁t ag
▁b ro
▁j o
▁he alth
▁child ren
▁ph ys
n ten
▁ro b
ab ly
t s
▁b ere
▁want ed
a v
▁kind er
n ess
in ess
▁vide o
▁ver w
▁al ways
▁l ight
▁tats ächlich
▁r un
sel ves
▁.. .
ess en
con om
ste ll
▁who le
▁l ess
▁j ob
▁ac c
f er
▁st ru
▁m ind
▁be isp
g s
▁mö glich
ver s
▁er st
▁ch ar
▁mach t
▁su pp
▁l etz
one y
▁h und
▁ge gen
in a
▁a way
▁e conom
▁p oss
▁re as
▁g iv
e ut
▁d ort
▁try ing
▁dav on
▁t re
▁univer s
k l
ro ss
▁z ie
▁res p
▁work ing
ier te
▁glob al
▁belie ve
g est
▁count ry
l and
▁c ou
el s
▁ke in
it en
at ch
▁tim es
▁s ing
an gen
▁mo d
z ie
ind en
▁every thing
▁pro ject
▁be we
▁d rei
ie den
▁ok ay
▁pat ient
ent lich
▁geschich te
▁e igen
▁ 9
h ip
▁pr es
ä d
▁sp ace
sch e
▁st re
▁den ken
i end
ur al
▁ver änd
▁fr iend
▁s et
▁as s
▁br ing
ment s
▁h ard
▁us ing
▁o pen
j e
▁s uch
▁h ome
▁an g
il t
m a
hal b
ch ten
▁pa ar
▁hat ten
ver n
▁j em
▁le ad
g ar
▁comp an
▁1 5
▁g ese
▁c le
n ect
▁ver l
at t
▁nat ür
▁3 0
▁an im
▁kön nte
at es
▁n am
▁mar k
▁gr öß
▁ab s
▁1 00
r ies
▁af ric
▁we g
▁think ing
▁f ut
all en
z ä
▁me ans
▁b er
▁m oney
▁h ö
▁f ive
▁c am
▁ver ste
▁m ater
▁s ign
▁ 7
▁bed eut
▁t ed
▁d ra
▁bes ch
▁d re
▁5 0
st er
o v
▁b ook
at z
▁pro gram
m lich
▁mus ic
or en
▁viel en
▁ 8
ter s
▁mein er
▁in n
▁di re
▁c ity
ent ion
▁pro f
▁g re
▁at t
▁p ict
▁so nd
▁kid s
▁dar über
▁we iß
▁ih n
▁cre ate
▁too k
▁go vern
▁w alk
▁woll en
we ise
▁l ab
id er
re ich
▁ge hen
▁b ess
▁in t
▁inter net
k te
et er
▁beisp iel
▁pro cess
re chen
▁ [
▁de f
en ce
▁ ]
ach e
o ff
▁h ist
▁se ine
i um
▁st ar
▁spe c
w h
k r
▁p op
▁r est
▁m il
▁ge f
et s
▁so cial
▁st op
▁wur den
▁g ab
▁st ra
▁en ough
▁bec ome
or ies
▁wer de
and er
▁c ur
▁ihr en
be i
▁le ft
▁jed er
▁he ad
▁sich er
am m
n a
a hl
▁b re
en nen
▁gr ou
▁in f
▁l assen
h a
▁ear th
▁fut ure
an z
u ge
ou se
▁with out
▁c a
▁v ir
▁sond ern
ut zen
▁te ach
▁c ol
▁get ting
▁con nect
▁unser er
▁ar ch
▁fun ktion
▁mon th
k ommen
▁w ichtig
▁a ir
r ik
▁you n
▁ex t
▁so c
hr t
o ld
▁u r
▁ma king
▁m ot
▁ad d
hr end
c er
sch ein
es en
▁sc ience
▁interest ing
▁f ood
m an
▁wä re
▁com es
▁j e
ne hmen
it ing
▁sp iel
▁h ar
▁b ody
▁ ä
c le
i ally
▁qu ite
▁f ol
▁s on
▁r is
▁sch ne
▁inter ess
▁fa ce
▁an t
▁prob ably
▁t est
▁natür lich
l ed
v ir
▁sen se
▁ne ue
▁energ y
▁do ch
▁am az
p ort
▁er zä
ond er
▁hal f
ic es
▁talk ing
▁mater ial
▁s in
ck en
im m
▁li ves
▁v om
▁happen ed
▁s w
▁s ound
▁ke ep
m it
sch en
▁wä hrend
y ing
▁e as
▁so gar
▁f ast
ert ain
▁ele ct
▁kom men
▁build ing
▁ch e
▁cont ro
f ür
▁k o
▁to ld
ir d
ess ion
▁leben s
ir n
▁da zu
ro w
p ar
▁exper im
at ely
▁ro om
▁we e
▁we it
▁pre t
e ver
▁zw ischen
▁fra ge
▁er ste
te il
▁p ie
du c
ac es
▁e ur
ier ung
▁inv est
ir l
▁den ke
▁sch a
▁was ser
▁count ries
▁o pp
▁pro te
▁p ra
▁any thing
ul ation
▁se em
▁f as
▁r ese
▁pret ty
▁all ow
▁n äch
iv id
ut en
ü nd
▁rese arch
▁imag ine
▁find en
p f
▁famil y
▁beg in
▁be aut
▁s ide
▁nicht s
▁stu ff
▁ac ross
▁k ur
▁oh ne
▁ger ade
▁glau be
▁ein mal
ogra ph
▁sc ient
▁ph ot
▁n et
▁reas on
▁rem ember
a gen
▁jem and
▁f ig
v ie
▁com ing
▁bus iness
▁ch r
er ung
▁wh ile
▁b ad
▁re t
▁ir gend
n ing
▁te am
▁to p
▁p os
▁el se
▁m ust
u le
▁su b
▁i d
▁den en
▁w onder
▁f ä
▁ter r
▁ge ben
vir on
m ost
▁h ät
▁gem acht
▁doll ars
ar beit
t schaft
▁h ope
▁ind ivid
▁v al
▁m id
▁youn g
▁m ut
▁ihr er
▁en viron
▁l ö
▁sa w
▁m as
▁l ater
▁ha ving
um ent
▁d ru
s am
▁y es
▁letz ten
▁e y
▁kom mt
▁g ar
▁on ce
▁ma kes
im es
im e
▁ra d
▁er w
▁y ork
l os
▁da für
▁se x
▁re f
▁ze igen
co ver
▁sim ple
▁exper ience
▁g irl
am ent
▁f und
▁ask ed
▁y et
▁wissen schaft
ro p
i ar
▁li ving
▁b ab
al ity
▁way s
▁l u
▁se en
▁pro zent
▁nor mal
▁wür den
ge ben
▁h our
et en
us e
kt iv
i or
▁versch ieden
▁fil m
▁c ult
il y
b o
▁c ase
ot s
id ed
▁soc ie
▁e duc
▁al most
ze it
ste llen
et her
▁m ath
i ft
▁ne ur
▁s ure
▁gem ein
g el
d em
it ive
in ed
en den
▁un t
▁inn ov
▁sh are
▁ind ust
▁not hing
▁bi olog
▁sie ht
▁publ ic
▁s ix
▁day s
▁bill ion
▁d et
▁eff ect
▁be w
▁partic ular
ant s
▁etw a
▁verste hen
ort un
ie f
▁g ed
iz ation
▁some one
▁m iss
▁e qu
▁problem s
ap s
ous and
ör t
▁d ank
▁commun ity
ge w
▁pass iert
▁ex c
▁le vel
▁h y
▁kon nte
▁d ise
g ed
▁sing le
▁v o
b le
un kt
ahr en
▁e ig
▁say s
▁million en
▁ans wer
▁th ousand
▁ste llen
▁of ten
ff e
▁d ach
▁p ap
▁happ ens
▁comple te
read y
im mt
▁go es
ß er
▁bot h
▁ar m
▁w atch
▁er sten
▁dar an
e w
eren ce
▁bess er
▁stat es
wh ere
▁ch allen
▁al ready
▁fra uen
▁d ig
ation en
▁v ier
▁ins ide
und er
ch er
▁wh ether
▁afric a
ra ft
▁sp ra
an e
f ten
▁pict ure
▁geh irn
▁su c
▁groß e
▁he ar
id ent
▁lo c
▁sy m
▁t reat
▁environ ment
l ine
▁dis cover
▁re d
▁ty p
▁con f
au b
▁s ou
▁p ain
▁c ertain
▁schne ll
▁with in
▁mat ter
▁gan ze
▁res ult
▁hist ory
▁w ind
w are
▁da bei
▁ge ld
▁abs ol
▁say ing
▁in tell
▁amaz ing
än g
▁experim ent
or n
▁mus ik
d le
▁su per
▁ide e
▁spe ak
ste ad
ü t
▁st a
▁au d
u er
▁fra gen
ä s
pp e
▁ex act
▁p ot
▁ne hmen
ur y
▁soll te
▁in stead
at or
▁ch em
▁my self
▁co st
▁poss ible
z ial
iv es
▁z er
▁zie mlich
▁4 0
▁kön nten
o gen
▁k re
etz en
▁cont in
▁unter sch
▁an f
▁bas ically
em ent
u p
▁somet imes
▁soll ten
▁look ed
▁ch ina
▁n ight
▁doll ar
▁k ör
as es
▁wr ong
▁is s
ur s
▁ad v
▁dat en
ze ug
▁n ä
▁la w
▁sel f
▁a ff
os ed
im ate
▁d el
▁contro l
▁l ine
▁every body
▁id ent
un ch
▁n ame
ist er
▁arbeit en
▁im m
▁le g
u b
▁ex ist
o ot
▁dan ke
▁1 8
▁ra um
▁inc red
▁o pt
▁er inn
▁ext re
ad t
▁produ ct
▁month s
ie ld
fä hr
▁inst it
▁k ill
je kt
▁bl ack
▁kon t
l ung
▁wor ds
▁ho ch
ich ten
▁p sy
▁re v
▁he art
▁govern ment
▁g ing
▁b ar
▁de v
▁c al
isch er
▁woll te
▁m ic
▁cell s
▁sp rechen
▁or der
s ide
m ö
▁un ited
▁zu k
▁can cer
▁beaut if
▁a ge
an ken
▁m ass
▁ex tra
▁bes te
al d
▁wel che
▁unt il
▁se it
▁mein en
is en
▁1 2
▁was n
▁me isten
g ung
▁mein em
▁tra d
▁m ess
▁r icht
▁pr in
▁tr ue
▁pr iv
▁hund red
▁au ßer
▁lang u
▁grou p
ag es
▁ide as
▁en gl
▁look s
l ess
▁o per
▁is n
▁friend s
änd ern
f all
▁sin ce
▁psy ch
▁f u
▁y e
▁wom an
▁f ull
▁ent ire
▁cl ass
kt ur
un ft
▁t em
▁t w
▁gu y
le gen
er nen
lich er
▁en de
▁and er
og n
▁fr ont
▁bek ommen
t t
▁n ational
ag t
▁h ouse
fü hl
▁n a
▁in sp
▁sp end
st off
▁man n
▁nat ure
▁kle inen
▁he ard
on es
ar k
g a
c ing
▁work s
st änd
▁sag t
▁l os
▁m em
ch es
ct ure
▁inc re
▁a v
ut es
▁re cht
▁coll e
i red
er ing
c l
▁v ar
▁dar auf
ap e
▁rel ig
▁p ay
▁af rik
▁wen iger
▁and ers
▁j our
ra cht
▁gl ück
sch l
▁eig entlich
▁app ro
s c
▁mid dle
▁de p
▁c ond
se hen
▁for t
oll ow
▁beg an
te m
ann t
▁ver g
▁sit u
▁mod el
▁he iß
▁fig ure
▁every one
▁v oll
▁e d
▁bu ilt
▁beautif ul
▁ch o
▁c ra
ü h
▁sch ön
▁con st
▁ye ah
▁some body
o y
▁sch le
schein lich
▁g est
▁st ories
und e
▁technolog ie
ier ten
▁to t
▁jed en
iv ity
▁inter n
▁eng ine
ge hen
f te
em at
▁un gl
▁to ol
▁p ast
▁uns eren
ges ch
▁learn ed
▁em ot
▁cou ple
p ect
▁v i
▁glau ben
i ans
v ious
hal t
▁th ough
ll t
ate g
▁l iter
▁kle ine
▁f ollow
ck t
▁bedeut et
z t
r icht
▁pl aces
▁kn ew
▁coll ect
▁beg inn
ä ter
t on
▁stud y
c ke
▁mark et
▁ ♪
▁be l
▁2 5
om es
as h
is ion
▁w under
▁mic ro
▁st ate
▁exact ly
▁qu ick
▁pie ce
▁ob ject
▁socie ty
r ess
▁un ge
der n
▁w es
▁suc cess
▁di st
▁dec ided
▁bec ame
▁l ernen
▁again st
ö t
l i
▁pro v
▁jed es
▁go d
▁ta king
▁cle ar
▁wor d
▁ent sche
um e
▁möglich keit
ent ial
▁nat ur
in ation
▁spec ies
▁groß en
ä lt
▁amer ik
▁quest ions
r on
▁ev olution
re t
▁ar g
n ah
▁compan y
i ere
▁complete ly
▁math emat
ä ft
rei ben
▁s ache
▁d na
k ten
▁lar ge
▁br ingen
▁vers uch
▁m other
▁americ a
▁wir tschaft
▁f al
▁an tw
▁an al
▁new s
▁me et
▁s ens
▁b uch
enn t
▁l ink
v oll
▁ih m
▁gan zen
qu e
▁tra in
▁kör per
▁h or
u f
▁them selves
▁kom ple
▁our selves
▁ö ff
▁happen ing
▁fü n
▁f ree
▁e ben
it ten
a ir
ic ult
▁educ ation
▁bra uchen
end er
▁wahr scheinlich
▁gre en
i pp
g ing
are d
▁beh ind
änd er
▁e g
▁energ ie
ct or
▁mo le
▁ges und
r ib
ac ter
▁r ather
▁st adt
▁rel ations
▁get s
▁trad ition
▁ ü
o ch
ion al
ig es
ab ility
th er
w ir
o te
hl t
▁p ick
▁k ar
▁gese hen
▁dise ase
▁de ep
▁b au
▁turn s
▁oth ers
▁on es
▁zuk unft
▁vie w
w ork
▁langu age
▁ein s
▁c ir
▁we ise
▁kind s
▁absol ut
▁sou th
▁s or
▁d au
▁o ce
▁li sten
▁6 0
▁it self
▁b le
▁system s
▁se ite
▁al ong
▁hour s
os p
oc us
ib ly
s h
▁rev olution
iv en
in al
▁n utzen
▁f est
▁diff icult
▁de al
id es
▁t ro
g n
▁univer se
▁pre d
▁in de
▁could n
▁be im
us h
qu en
▁vers uchen
al a
▁ihre m
▁es sen
▁ho ld
▁hin ter
a pp
▁opp ortun
▁m än
▁h il
▁an ge
f ace
▁wen ig
ism us
ern e
▁work ed
h in
▁so zial
▁gr u
au fen
▁h uge
▁me as
▁f ocus
us st
▁r ich
▁creat ed
um p
▁fra u
om en
▁w in
▁untersch ied
▁anim als
itt ing
▁kle in
scha ften
▁dis c
▁de ath
▁p le
▁m ult
▁w on
▁te le
▁fün f
ern t
▁ %
ish ed
ach sen
▁ver k
▁s ter
▁dach te
▁v ol
▁thousand s
▁th ird
▁re pr
▁n on
▁ear ly
▁l im
n ot
ut ions
▁men ge
▁comple x
un e
lie ß
ward s
▁k op
▁ne in
pl es
▁f ield
▁fin ally
▁f ing
h aps
▁s un
▁per haps
▁ungl aub
▁sp äter
▁exp ect
▁stud ents
▁ „
▁gra nd
▁mill iar
▁irgend w
u de
c c
▁ser v
▁re cent
▁of t
▁def in
f ort
▁s end
le ben
▁f ot
▁learn ing
▁c y
▁beh av
ist ic
un ter
▁ent de
▁d est
▁min utes
▁al t
ch an
▁ind em
pt ion
▁relations hip
▁met h
▁b all
▁1 1
on y
ith er
▁inc l
▁f ly
▁s il
▁mach ine
▁or t
▁nat ural
▁gese ll
et ic
▁a p
▁w all
▁le ast
▁ke inen
wo hl
ur ch
iv il
▁i ll
▁bot t
▁bes ond
r al
er a
and en
▁fa il
▁co ol
ä m
ne y
▁er de
h ol
ein ander
i ff
▁scha ffen
▁sa h
▁kur z
▁pop ulation
▁dur ing
▁jed e
stell ung
b ild
▁imp ro
▁happ y
▁dre am
c om
▁vi ol
▁hät te
▁t as
▁go og
▁po or
ck s
▁supp ort
ü tz
▁lot s
un st
▁her z
e llen
▁ph il
▁gener ation
▁so ft
▁g ave
ang er
▁out side
▁ges agt
▁rec ord
▁au gen
▁re p
▁americ an
ä us
z ahl
ent en
▁c ities
▁ta ken
▁chang ed
▁am ount
▁ver d
c ul
▁st im
▁20 1
tell t
▁wee k
▁k rie
▁g ute
▁eigen en
▁ta kes
▁mut ter
▁ev ent
▁funktion iert
▁8 0
▁in ner
▁ma j
▁h ol
▁extre m
▁d ro
h igkeit
f ect
▁wh ite
▁sch auen
▁dig ital
b ed
▁ac cess
ie t
▁l icht
▁erf ol
▁compan ies
▁c ut
y n
ion en
▁real ity
▁pres ent
▁gesund heit
▁ ’
p id
▁nor th
▁cl ose
os ph
▁situ ation
▁need s
▁gu ys
▁g ame
▁cent ury
ol ved
mit tel
at ic
▁s um
▁comm on
rie ben
r itt
▁le ave
▁giv en
z y
▁person al
▁med ia
▁diff erence
▁see ing
▁kon nten
n ung
g ang
▁f ear
ze ich
gr ess
ere in
▁er kl
it ions
▁se ven
as ed
▁ind ia
▁bab y
▁eas y
▁commun ic
our ce
▁unge fähr
▁te xt
▁fl ie
un k
▁wo hl
▁all er
is on
▁ey es
▁cult ure
▁all en
▁eur ope
▁re ach
▁heiß t
▁f ant
m in
a f
▁des c
▁aud ience
▁par ents
▁schw ier
▁b ank
▁ne ar
▁bre ak
▁st ay
▁sp r
▁bl ue
reich en
▁sh ort
▁e ing
▁on line
▁dem oc
▁b ir
an c
▁trans form
ull y
ten d
▁r ichtig
▁ob vious
▁ne uen
▁mo b
▁inter act
▁cent er
▁or ig
▁l ow
ä hr
▁are a
▁spe cial
▁sch wer
▁im age
▁hand s
▁fra g
h le
e f
▁your self
▁19 9
▁sim p
▁need ed
▁kr ank
▁di ag
r um
▁sc re
▁rob ot
▁problem e
▁ha us
▁po st
▁kl ar
r ä
▁per form
▁lab or
▁goog le
w elt
▁n er
▁maj or
▁loc al
▁ch ance
ün st
▁a ch
▁sein er
w or
o f
▁us a
▁turn ed
ö l
▁mo ving
▁innov ation
▁be vor
y stem
▁ris k
▁her um
▁li k
b es
▁polit ical
▁pat tern
▁näch sten
▁es s
▁ste p
▁h ig
▁k unst
▁gen ug
▁fund ament
m et
isch es
id s
▁k ult
▁hum ans
▁expl ain
▁erzä hlen
a kt
▁ter ms
▁r u
▁beginn ing
▁w est
▁em p
y ear
▁er l
▁ele kt
ver age
▁re du
▁per fect
▁pr ess
▁bl ood
b ra
at ur
a w
▁f elt
ent ly
▁power ful
olog y
▁n u
o k
▁simp ly
▁en c
▁we b
▁con c
▁d ich
ist an
hr er
b y
▁pra ct
▁gr ound
ou d
am es
▁prote ct
▁e ight
▁bo x
▁sur v
▁real ized
▁fe ed
ahr ung
▁l ange
▁antw ort
▁what ever
▁ne u
▁long er
▁o cc
s o
r ück
▁tr u
h m
▁ze igt
▁unsere m
▁oce an
▁dar um
vie w
h ö
▁rec ogn
at ure
▁w icht
▁part s
▁organ is
l ing
▁econom ic
h ood
ard s
▁unter nehmen
▁o p
▁k ennen
▁b auen
▁m äd
▁k ü
b or
▁über all
▁mo de
▁bis schen
▁er n
it ect
den ken
ast ic
▁sur pr
▁hel fen
▁can not
▁behav ior
▁arch itect
ten s
▁stre et
▁einz el
▁beg ann
▁su d
o de
lich keit
▁med ic
▁me chan
iden ce
ch s
▁v e
▁man ch
▁f ore
▁wer t
is ed
▁ph one
▁o il
▁f ather
▁d ir
ar ing
▁u lt
▁s ize
▁milliar den
▁f le
ä ren
he im
ed er
▁appro ach
it z
heit en
▁cons ider
▁bu y
▁ “
gan gen
▁wonder ful
▁n ah
▁manch mal
▁dire ct
et t
en de
▁l og
▁er k
r ast
▁str ong
▁l in
z us
lich es
h and
▁a w
▁pro jekt
▁f em
äch e
ac y
▁lo st
for der
▁t at
▁re qu
▁par k
▁kom m
▁h osp
ap t
▁se i
▁ide en
▁afrik a
um s
n itt
c ious
in ary
ib ility
▁tr ied
ent e
▁s ü
▁quick ly
▁con v
▁planet en
▁f ur
▁beh and
om s
▁lie be
▁lead ers
in y
▁w us
▁s an
▁ab ility
▁repr es
▁k il
▁f ight
▁ar ten
▁e th
f ully
▁intern ational
▁program m
▁mar s
▁challen ge
▁cl imate
pr ess
is ing
▁resp ons
▁e ither
▁man ag
▁know n
▁ke y
▁stat t
il ar
▁sp ent
▁sc ale
zie h
▁re le
▁imp act
▁grow th
our ces
▁terr or
▁mäd chen
▁m ent
▁lie gt
▁g one
▁s ent
▁dar k
iv ed
▁gesell schaft
▁ste hen
z ess
▁n ennen
▁d ad
iz ing
▁tra vel
▁information en
▁chang es
▁pap er
x y
ik er
▁sein en
▁s am
▁k or
▁ha u
▁soft ware
▁jo hn
led ge
▁wr ite
▁would n
▁un f
▁t au
st ra
a hlen
▁wee ks
▁verb ind
▁groß art
ie lt
▁tr ust
▁so ld
▁opportun ity
▁interest ed
▁entsche id
ß e
▁1 6
ot h
g lichen
iv ing
en e
▁sy n
▁p unkt
g ra
b el
▁r ies
▁nie m
▁bl ock
▁fä higkeit
p or
ive ly
▁sl ow
▁m er
▁got t
▁for sch
u gen
ken nen
▁l ed
▁sol ar
▁bas ed
▁c e
▁9 0
g re
▁sch ul
▁meas ure
▁h on
▁con vers
utz t
ad es
▁s qu
▁e mer
▁veränd ern
▁st äd
▁c aus
ut h
r as
ll ig
ain s
▁pro t
▁gr ünd
▁b at
or m
ff t
a ur
▁spiel en
▁ne igh
▁ges am
▁erfol g
▁b orn
▁scient ists
▁s at
▁patient s
▁insp ir
▁des halb
▁pred ict
▁kop f
▁bet ra
▁besond ers
ent ed
b it
▁s itting
▁ma in
▁lö s
▁l as
f inden
▁ar r
ie ht
▁p ort
▁incred ible
▁cir c
er te
▁f ish
▁cl os
▁ä hn
▁re den
▁col or
sy stem
▁kont ro
▁j ap
▁hundred s
▁grow ing
▁show s
▁mus ste
▁7 0
mal s
▁s and
▁pr om
▁pr im
le t
c i
▁mor al
▁geh ört
we it
b ook
▁ver halten
▁o ber
h au
▁sur face
▁p ath
▁le uten
ser v
▁sch ule
▁phys ical
at ors
▁re pl
▁n etz
▁far m
▁f rei
▁d om
▁se chs
▁econom y
▁individ ual
▁jap an
▁c op
▁1 4
▁sim ilar
▁ne g
▁jahr h
ze pt
al ten
▁sud den
▁mor ning
s pr
▁str ateg
▁mil it
▁ho ff
▁fl u
▁entwick elt
und ert
c in
▁er reichen
▁de ad
m m
al en
▁understand ing
▁cam p
ou ch
▁pu ll
▁feel ing
k er
b on
b an
▁det ail
te xt
▁val ue
▁geschich ten
▁ent f
w end
▁w ild
▁sch ein
▁co de
▁any one
▁an st
▁phot ograph
▁comp l
▁amerik an
h or
▁b ü
ch ter
▁ander es
gen de
▁e uch
▁bere its
▁al one
pp en
ing t
g em
▁d ou
▁ver m
▁f oot
ä l
▁verschieden e
▁fl o
op h
nis se
ent ially
▁s n
▁p en
▁fa vor
on om
▁girl s
▁gen e
▁br ought
ä re
▁vo ice
▁r ück
▁m ount
▁exper ien
▁hö ren
▁bild er
▁a verage
ig ten
▁stru cture
▁are as
ou n
c ially
▁vir t
▁liter ally
r es
5 0
r ied
iz in
▁t it
▁med ical
▁intell igen
▁ind ien
▁absolut ely
h nt
▁develop ment
it es
ick en
▁su ff
▁number s
▁h iv
o x
▁o ben
▁move ment
▁h it
▁giv ing
▁fr ü
▁fe et
▁tell ing
▁nam ens
▁at m
us ion
▁h om
▁geb äu
f ol
▁v ö
▁tool s
▁hal ten
d es
▁mill ions
▁gener al
▁com b
st ru
▁vis ion
▁in te
▁comput ers
▁att ention
▁ang st
o ve
ic ated
an ces
▁for ce
▁tr uth
▁technolog ies
▁ser ious
▁n ar
▁go ld
▁ge fühl
▁so on
▁ent sch
▁c ivil
▁univers ity
▁ro ad
▁job s
▁bew usst
ro te
b all
▁mach te
▁a k
▁s le
▁imag es
pr ession
pl oy
▁teil en
▁sm art
▁s inn
▁bott om
▁1 7
ig ung
if ied
er ed
▁start ing
▁mo dern
▁vir us
▁seem s
▁p oll
▁or d
▁j un
▁aus s
an zen
ak ter
▁ro ck
▁know ledge
s k
i fe
▁s au
▁g ala
▁famil ie
▁br it
ore d
iv al
b are
▁niem and
▁er kennen
▁th er
▁ste ht
▁n ice
▁dra w
▁dar in
▁19 8
ö s
le ct
▁w and
▁anim al
a un
▁pl ant
▁k ap
▁car s
▁be ob
▁aut o
olog ie
▁sp read
▁real ize
▁net work
▁incl ud
▁develop ed
in nen
▁for est
▁fa ir
▁b ur
▁a ktiv
▁pol ic
▁gu ess
▁cur r
▁book s
ra ge
▁t aus
▁r ate
▁mean ing
ur en
▁sag ten
▁reg ierung
▁pot ential
▁i ce
▁da her
▁aut om
gr und
▁f ire
▁bra ucht
he ad
ar ten
▁vis ual
▁of fen
▁ x
w ort
ur ing
end s
ah n
▁wor th
▁w rote
▁sein em
an a
▁se a
▁fl ow
▁ben utzen
am a
▁s al
▁k ünst
▁irgendw ie
▁for ward
▁att ack
g o
n al
an te
▁ko sten
▁su g
▁k oll
▁inner halb
▁e at
▁1 3
▁ /
b ol
▁cr it
▁colle ge
▁p ur
▁iss ue
t ed
ie le
▁st age
▁fre und
▁an n
ö ff
äch t
v ent
▁ty pe
▁tem per
▁run ning
▁g erne
▁fü hr
▁dem o
▁elect ric
ust ain
ru ck
it te
il ities
▁recent ly
on en
om mt
b re
▁re port
▁indust ry
▁af gh
▁vor stellen
▁to m
▁es pe
▁cons um
a ke
▁mil es
▁ma p
ließ lich
▁ste ll
▁lu ft
▁espe cially
▁es t
ich en
b ere
a den
▁in se
▁ha ll
th e
sch nitt
▁jed em
▁gru ppe
▁mas ch
▁begin nen
▁c it
▁v ill
▁interess ant
ust r
▁schw ar
▁sch re
▁lik ely
▁hät ten
wer k
kr at
ill s
▁pro per
▁discover ed
▁b ud
▁2 1
p unkt
i od
ann te
ab or
▁v erein
▁r ul
ö hn
im mer
cle ar
▁we gen
▁opt im
▁med izin
▁m ik
▁in fl
▁ey e
▁bo y
▁be iden
▁am ong
it ter
▁se ver
▁p fl
än ger
ick s
▁no body
▁jahrh undert
▁afgh an
▁aff ect
ien en
ges tellt
▁j u
▁i gn
▁best imm
▁p an
▁giv es
▁creat ing
▁unter s
▁sol ve
▁patient en
▁m is
▁komple x
▁e inge
▁cho ice
▁ar en
p ed
▁er geb
▁con cept
▁v ac
▁fü hren
▁ex cept
▁bes ten
▁b al
▁as king
i ation
h ält
▁um welt
▁per iod
▁män ner
▁mit tel
▁d or
ip s
▁ver tra
▁fl ug
▁ben ef
▁be mer
▁verschieden en
ra b
end et
▁z iel
▁s ong
ur ity
u als
r ichten
ar m
▁st unden
▁bit te
it et
▁un i
▁ob wohl
▁el tern
▁chr is
▁chang ing
▁cap ital
▁av ail
▁ach ie
u ld
m as
▁t ouch
▁re act
▁mus e
▁hau pt
▁g as
▁b om
ict ion
i ant
ach ten
▁tre ffen
▁iss ues
ät z
om et
id ge
▁t on
▁pro p
▁ ändern
▁t iny
▁sa ve
el es
▁the ory
▁be y
t ies
▁in e
▁bewe gen
if y
▁jour nal
▁fall s
▁cr is
im p
ed i
▁t able
▁reg ion
▁min uten
▁l ay
üt zen
ur t
b au
▁trans port
▁sever al
▁se arch
▁al tern
▁sol ution
▁pos ition
▁design ed
fü hrt
▁viol ence
▁ra nd
▁fin an
▁gew alt
▁gebäu de
o on
▁woll ten
▁develop ing
il en
▁verw enden
▁talk ed
▁re in
▁stud ent
▁grou ps
m ar
▁s ustain
▁bey ond
▁sug gest
▁show ed
▁einz ige
▁dr ive
▁car bon
ust ellen
▁se ll
▁nä mlich
k re
an ten
▁unglaub lich
▁res ources
▁p al
▁ha ven
▁gleich e
▁dam als
▁c ause
as ing
▁erst aun
▁er halten
▁di str
ä ten
▁cit iz
h äng
ag er
▁heraus forder
ze ugen
▁t ut
▁st ück
▁spra che
▁fe hl
▁f ert
▁co ver
▁t um
▁entwick eln
▁eng ag
it i
ha ft
er st
▁komm un
▁n ation
▁int ro
▁diag n
▁commun ities
i ben
▁sub ject
▁produ ce
▁bl ind
▁sound s
▁sch we
▁play ing
▁l aut
▁dru g
am er
▁unter st
es ten
ck er
▁wor t
▁an c
br ingen
▁reas ons
▁ein igen
äs st
l am
ip le
▁hosp ital
▁veränd ert
▁right s
▁put ting
▁p ack
▁he y
▁dru gs
▁cle an
▁avail able
rie b
hau pt
g or
b i
▁k reat
▁ch in
ig te
▁ö k
▁f ix
▁s icht
▁ple ase
▁eur op
▁e her
▁cons cious
▁anf ang
rast ru
p ut
▁z ent
▁v ater
▁pos itive
▁democ ra
▁d anger
▁b reat
ant wort
▁any body
oo se
▁incred ibly
▁ha use
▁bas ic
▁to wards
▁sle ep
▁min ute
▁kind ern
▁engl ish
z ieren
ar en
a i
▁e t
▁e c
▁be zieh
f r
▁mensch lichen
▁inte gr
▁bec omes
o es
▁tro tz
▁act ion
▁we bs
▁sh ape
▁pict ures
▁get an
▁big ger
p fen
▁li ved
▁2 4
zu g
h nen
ent lichen
▁zw ar
▁t al
▁sp ir
▁pro gress
▁ev idence
ph one
▁sec urity
▁pe ace
▁mor gen
▁l ond
er weise
▁obvious ly
if en
▁wer k
▁t ief
▁act iv
u it
▁neigh bor
gen ommen
▁chr ist
ro om
ll er
▁l ad
▁know s
▁inf rastru
ous ly
fl äche
▁me er
v öl
▁li st
▁f and
l o
gor ith
▁er scha
▁dire kt
▁comp et
▁atm osph
i for
▁verb ess
▁h ung
op p
▁z ahl
▁ver fü
▁off ice
▁n ine
▁l änder
▁inv olved
los sen
▁spe ed
▁r iver
▁mik ro
▁ne cess
is ions
ik um
▁sol che
▁sa ge
a ktion
▁t ar
▁s achen
▁comp ass
ifor n
▁gr en
▁entwick lung
pp ed
m el
ct ors
ar ily
▁sa fe
▁lond on
▁li ber
▁k raft
k ü
as st
▁h ot
▁event ually
▁die d
▁bra uch
▁arch ite
▁vers ion
▁relig ion
▁fundament al
▁extra ord
d r
▁re ce
▁pers ön
▁näch ste
▁del iver
▁b or
op s
it ch
▁stat ist
▁scre en
▁jour ney
▁f ahr
▁e is
▁acc ount
▁mess age
▁certain ly
▁all em
h aus
▁über haupt
▁th reat
▁demo krat
▁betra chten
▁ap art
z in
pro du
as se
▁li f
▁l age
▁b ür
um en
▁read y
▁ne ues
▁5 00
nah me
l in
▁verb re
▁sk y
▁rul es
▁particular ly
▁fol gen
▁f ern
▁char acter
ra g
ow s
▁kre bs
▁kam en
il s
hl te
▁inde ed
▁b acter
▁fun ction
ra gen
it or
ier s
▁vers ucht
▁ro t
▁fur ther
ü cke
st re
▁rob o
▁ro le
▁mot iv
▁bere it
▁m ember
▁gesch äft
▁bring t
w and
b and
▁l ate
p ers
ot y
▁pers pect
▁möglichkeit en
▁instit ution
▁univers um
▁kl im
▁jun ge
▁auf ga
im s
▁über ras
▁prof ession
▁gleich en
o id
all e
▁wr iting
▁scient ific
▁pro zess
▁mo vie
▁al gorith
iz iert
h y
▁wa it
▁start s
▁p un
▁famil ies
▁di v
▁dev ice
ste in
am p
ach st
▁t end
▁letz te
c ome
▁t iere
▁str ess
▁is land
▁3 00
x ic
g th
fl ict
▁o ze
▁mus sten
▁j ud
▁f ab
▁cra zy
▁colle ag
▁ze llen
▁stru ktur
▁hig her
▁al ter
yn am
op er
ich te
b te
▁w id
▁show ing
▁mein es
▁medic ine
▁en orm
▁do or
▁d ram
▁bere ich
or es
el te
▁st ick
▁fr ank
men s
▁weit ere
▁ver t
▁sch ließlich
▁i ra
▁er mö
▁compass ion
r at
enn e
▁vor her
▁stand ard
▁pl ants
▁partic ip
▁exam ples
▁ele ment
m on
▁school s
▁erinn ern
▁do ctor
▁cam era
ik en
▁walk ing
▁sicher heit
▁im pl
▁he ll
▁erf ahrung
▁ch oose
▁bo den
▁19 7
än gt
ra um
▁train ing
▁repres ent
▁pl atz
▁ne ben
▁cap t
▁nu clear
▁fre ed
▁democra cy
▁c ross
▁ är
pe kt
m ore
▁w ish
▁mo ved
▁mensch liche
▁kult ur
▁fe ll
ver t
▁pr äs
▁gemein sam
es h
▁wo chen
▁se par
▁p ush
▁de b
▁d ingen
▁che ck
on se
is hing
ak ing
ak es
▁wor den
▁tr ä
▁sta aten
▁s we
▁ged anken
▁c at
▁afric an
▁afghan istan
s w
in os
f ahren
▁pol ice
▁not ice
▁me ant
▁fal sch
▁convers ation
i ot
▁want s
▁schle cht
▁jed och
▁cou n
▁ac cept
▁supp osed
▁au str
es se
▁un ten
▁part ner
▁material s
▁impro ve
▁e ast
▁der en
ver ty
od ies
k n
d ruck
▁ö l
▁imm edi
▁hist or
▁eff ic
it ation
▁ro ll
▁ra us
▁nach dem
▁gen aus
▁eigen e
▁d ynam
▁chin ese
w ind
p re
olog ical
h ow
fall s
▁ü br
▁tot al
▁tag es
▁sü d
▁ret urn
▁r om
▁on to
▁face book
▁creat ive
▁contin ue
▁bek am
ig r
▁tot ally
▁t ier
▁publ ikum
▁mar kt
▁he ld
im men
▁favor ite
▁every where
▁con text
▁aut os
iz ieren
gr ound
▁vö llig
▁prof ess
▁po verty
▁big gest
▁19 6
▁serv ice
▁resp onse
▁phil os
▁man che
▁inter view
▁chem ical
ogra f
ate ll
▁ster ben
▁organ ization
▁kr anken
▁go al
zie hen
icht lich
ct ions
▁wä ren
▁was hing
▁ver stand
▁m ist
▁intelligen ce
u be
bar en
▁rob ots
▁pass ion
▁de ut
▁con flict
iss ion
▁tra ck
▁re i
▁pl at
▁mem ory
▁m ine
▁individ uals
▁grund e
▁erl au
▁bir th
änd e
▁genaus o
▁gen et
▁ben öt
se in
▁ur ban
▁sudden ly
▁hil fe
▁exc iting
▁connect ed
ze llen
m ing
▁n an
▁lar gest
▁ges icht
▁any way
om ing
b auen
▁verw and
▁t ree
▁ste llt
▁result s
▁cl in
▁a rab
i ke
ber t
▁zwe ite
▁wor se
▁sh ift
▁le a
▁gre w
▁co ld
re l
im ens
ens ive
▁s amm
▁re gen
▁qu ality
▁muse um
▁mind s
▁d essen
l ungs
▁us ually
▁sch reiben
▁ra in
▁p f
z z
st on
el be
ant ly
▁sie ben
▁schwier ig
▁pr ison
▁mach ines
▁m r
▁link s
▁l ässt
▁k at
▁flie gen
▁ess entially
al es
▁tre es
▁sh own
▁o xy
▁nam ed
▁bür ger
▁ander er
et h
▁watch ing
▁w ife
▁extraord inary
▁allow ed
▁wel ches
▁v ort
▁se k
▁sch ritt
▁k en
▁her vor
▁h op
▁fre unde
ann ten
▁sec ret
▁mode ll
▁gew or
▁ge ist
▁fas ter
▁c art
or ie
▁includ ing
▁gra ph
▁f ill
z ip
▁z ahlen
▁verb unden
▁s ource
▁project s
▁lu ck
▁l ose
▁k ing
▁find ing
▁extrem ely
▁bra nd
ö tz
▁sym bol
▁pr int
▁p il
▁l ower
▁fing er
▁dem on
▁dan ach
▁arbeit s
we g
ra el
n y
b ack
▁sp ort
▁rad io
▁r id
▁perspect ive
▁object s
▁miss ion
▁dau ghter
▁bas is
▁aus ge
sp iel
is se
▁s us
▁m ale
▁funktion ieren
▁de pression
▁an zu
▁an sch
▁a cht
ic le
er ungen
▁s atell
▁robo ter
▁priv ate
▁e p
▁cris is
▁const ru
▁r uss
▁pl ötz
▁mon ate
▁lö sen
▁imp oss
▁gemein schaft
▁gala x
▁ent ste
▁cent ral
▁build ings
▁ble iben
▁beste ht
li ke
j ähr
▁thank s
▁stand ing
▁qu ant
▁me ist
▁g ames
▁add ress
▁ad ult
wir tschaft
ch sel
▁ze hn
▁h ör
▁dec ision
▁car ry
fl uss
▁was te
▁v ict
▁pres ident
ä ss
w ood
mö glich
el ess
▁webs ite
▁them a
▁ta ge
▁r at
▁mod els
▁le iden
▁koll e
▁do c
▁famil ien
▁f ro
▁di mens
zent r
▁tell s
▁le hrer
▁har v
▁fü hlen
▁austr al
w ert
ge fühl
▁zu vor
▁zu erst
▁tra um
▁t v
▁s ad
▁old er
▁met er
▁how ever
▁gen es
▁exc ited
▁conc ern
▁coll abor
lie ßen
ad a
▁zer o
▁some where
▁gesch a
▁freed om
▁dav id
▁so llen
▁sk in
▁be if
r ial
k raft
iz ations
▁wo che
▁ver antwort
▁intell ig
▁be ge
▁verg leich
▁um geb
▁s ke
▁lang sam
w är
or ge
j a
▁unser es
▁un be
▁qu al
▁ir an
▁aus sehen
u ßen
f ahr
▁ter m
▁s uchen
▁j ungen
▁is rael
or gan
▁par ad
▁is lam
äch st
ure d
▁teach ers
▁kill ed
▁fü hrt
▁des p
um b
▁wus ste
▁treat ment
▁ther ap
▁lös ung
▁det ect
it zen
ier end
er y
al y
▁tau ght
▁squ are
▁la unch
▁happ iness
▁gut en
▁er sch
▁b unch
▁b and
ct ed
▁resp ond
▁stru g
▁some how
▁sign ific
▁l esen
▁imposs ible
▁demon str
▁dar aus
▁d eter
▁citiz ens
▁br ill
▁ab ove
nah men
is es
ic a
fü hren
fe ld
ad em
▁vill age
▁tru ly
▁re ich
▁frag te
völ k
sch r
r or
m end
inn er
▁wissenschaft ler
▁success ful
▁j en
▁erscha ffen
▁design er
▁b urn
es ter
e x
▁unf ortun
▁dra ußen
u h
el ten
▁intro du
▁stim me
▁ment al
▁m c
▁gen etic
▁er re
▁c ases
▁arg ument
o le
ie ten
▁krank heit
▁inf ect
▁incre ase
▁compl icated
▁aut hor
ze igt
kt or
▁tr ial
▁polic y
▁f it
▁er le
▁eing es
at ory
arbeit et
▁zer st
▁we alth
▁to wn
▁spir it
▁plötz lich
▁nam en
▁l at
je kte
ge gen
▁ste lle
▁mal ar
▁le icht
▁h ine
▁gl ass
▁ex press
▁entde ck
z ogen
h ers
▁l ändern
▁h ast
▁clear ly
▁b ist
ism s
▁lo ved
▁dec isions
▁bet racht
▁architect ure
o ver
is ieren
ib r
▁instit utions
▁gra d
▁do ctors
▁cond itions
▁bl og
▁anal y
ze uge
i pl
▁tradition al
▁k al
▁erkl är
▁disc uss
▁beif all
▁anst att
▁ver gangen
▁tar get
▁s ite
▁recogn ize
▁product s
▁milit ary
▁krie g
▁ke pt
▁c ry
▁bl ut
▁be ein
iver s
ie g
i os
ass er
▁st ars
▁sp an
▁en j
▁eff e
▁b odies
▁a ids
▁wa hl
▁nach t
▁brain s
▁allow s
s on
▁spe z
▁emot ional
▁eff ort
▁biolog y
▁app ear
ound s
ge f
▁resp ect
▁c ard
▁b ase
▁all ein
se quen
ic ed
i ber
▁zu g
▁z ä
▁met ap
▁lar ger
▁f ine
▁em ploy
▁aff ord
z w
▁technolog ien
▁pie ces
▁part y
▁mag net
völk erung
ul ate
os ystem
▁über w
▁städ te
▁infl uen
▁health y
▁d ing
▁act ivity
re g
l ier
▁mo der
▁bewe gung
▁achie ve
on nen
▁te en
▁sp ect
▁sort s
▁qu e
▁j ung
▁human ity
▁her r
▁größ te
▁entf ernt
▁em ail
▁bacter ia
▁a str
▁ $
äu ft
un t
ri ff
re ten
as ter
▁rem ind
▁rem ark
▁read ing
▁perform ance
▁my ster
▁l ines
▁great est
▁ge le
▁erkl ären
▁cont rib
▁st är
▁mus l
▁m ention
▁form s
▁c ook
▁b akter
igkeit en
f ig
e c
▁verb ra
▁techn ik
▁pre c
▁mit einander
▁lau gh
▁govern ments
▁do g
▁a kt
wir k
ue lle
m ed
▁teach er
▁pattern s
▁k aufen
▁geb aut
▁elekt r
▁eg al
▁bo ard
▁any more
ät ze
and a
▁se he
▁schein t
▁point s
▁off ic
▁mot or
▁mass ive
▁l ern
▁incre asing
▁gef unden
▁electric ity
▁distr ib
▁dec ades
u ed
ab l
▁washing ton
▁kon zentr
▁gel ernt
▁durch schnitt
▁tats ache
▁ta x
▁meth od
▁lau fen
▁e hr
▁besch äft
r ument
ik ament
▁wor ry
▁v ul
▁pur p
▁inst rument
▁finan cial
▁auf re
sp ro
o ke
ic ians
for d
▁w is
▁t ie
▁stud ies
▁so w
▁r an
▁p hen
▁män n
▁desc ri
▁dem and
▁che ap
▁be ide
▁4 00
s a
ol f
for sch
al ter
▁th row
▁produ kt
▁expl or
p end
l icht
is iert
hö ren
gew öhn
▁to d
▁n ut
▁mö chten
▁gegen über
▁dis k
▁com fort
▁an zahl
l a
g liche
▁über leben
▁n immt
▁er d
▁danger ous
▁begin nt
l agen
ff ic
au ft
▁up on
▁son nen
▁ra ce
▁jem als
▁ihr es
▁f ahren
z er
w in
ne h
ab les
▁wer en
▁w achsen
▁spra ch
▁ser ies
▁off ens
▁künst ler
▁größ er
▁gewor den
w ers
pro chen
au er
▁wr itten
▁wh e
▁mag az
▁kle ines
▁d inos
▁conv in
▁al th
▁sur ve
▁sol utions
▁nah m
▁nach denken
▁e cht
▁c ru
▁b ang
▁ass oc
h ere
ffe e
d ro
▁verbind ung
▁te ile
▁spec ific
▁pass ieren
▁fin al
▁end ed
▁bek annt
ä ß
ri ft
j en
ind et
id ing
▁star k
▁dom in
▁defin ition
▁bec oming
▁auf zu
▁americ ans
ver se
b ten
art et
▁verw endet
▁verl oren
▁stra ight
▁serv ices
▁prov ide
▁being s
▁alth ough
▁stra ßen
▁sk ills
▁mach e
▁klein er
▁gew esen
äl fte
zeit ig
h re
▁wahr heit
▁ver rück
▁to ll
▁through out
▁p age
▁mag ic
▁bl ick
n ers
l ang
it ude
f ore
▁kontro ll
▁g ift
▁ear lier
▁de in
▁d unk
r ig
pl an
in ing
d om
▁will ing
▁stru ct
▁neighbor hood
▁n ord
▁act ual
le x
▁tr ick
▁richt ung
▁pfl anzen
▁heraus zu
▁fot o
▁f anden
▁dr ink
att le
▁wa iting
▁trans par
▁trans l
▁n utz
▁mob ile
▁law s
▁komple tt
▁g un
▁for men
▁for get
▁em pf
▁challen ges
i us
▁there fore
▁small er
▁n iger
▁malar ia
▁k an
▁immedi ately
▁flo or
▁fem ale
▁15 0
m ut
▁ner v
▁l etzt
▁europ a
▁dise ases
▁crit ical
e ch
▁unfortun ately
▁tra de
▁pain ting
▁med ikament
eren ces
a ben
▁reg el
▁o d
▁gen annt
▁fam ous
▁bro ad
▁bild ung
om eter
k on
▁tr ou
▁t ur
▁sch e
▁rest aur
▁rei he
▁dep end
▁c row
▁bat ter
▁al ive
ik al
achst um
▁ü b
▁tw itter
▁h ü
▁fu ß
p o
m p
le br
im ately
▁we ap
▁profess or
▁pre is
▁philos oph
▁phen omen
▁any where
i ate
bl ick
▁work ers
▁sur r
▁mole c
▁hin aus
▁herausforder ung
▁engine ering
zeug t
ru ption
ke hr
au l
▁st immt
▁opp os
▁must er
▁app ly
▁ver le
▁sur ger
▁ge fähr
▁fas cin
▁curr ent
▁cl im
▁bab ies
▁versch w
▁st ore
▁sh ot
▁ge zeigt
▁g h
▁desc rib
▁anf angen
it äten
▁typ es
▁relationship s
▁re ise
▁polit ics
▁p et
▁gra du
▁exp ensive
f s
ab il
▁press ure
▁per fe
▁colleag ues
▁be z
t ime
ct s
▁we ight
▁sign al
▁share d
▁n one
▁k äm
▁j ump
▁indust rial
▁environment al
▁di vers
▁care er
t ter
ik o
ce ed
▁t ö
▁stell te
▁speak ing
▁nie mals
▁ern st
▁be e
stell t
r ing
ot t
hn ung
▁sl ight
▁occ ur
▁inc ome
▁fr anc
▁beein fl
is ierung
b ur
▁wes tern
▁prin zip
▁mit t
▁l ag
▁in j
▁ger man
▁fa c
▁at tra
k el
gem ein
▁h us
▁fu el
▁cont ent
▁ben utzt
▁aufga be
▁ad apt
st ood
am i
▁welt weit
▁ur spr
▁level s
▁glück lich
▁fin anz
ra d
ct ive
▁str om
▁orig inal
▁mit gefühl
▁med ien
▁kom pl
▁hy p
▁fant astic
▁f oss
▁f isch
▁enc ou
▁cost s
▁ce lebr
▁auf ge
▁anal ys
f on
▁ver n
▁st ock
▁prin c
▁größ e
▁di en
▁ze ige
▁y ell
▁uni que
▁r ange
▁masch ine
▁le ist
▁him self
▁al ten
ier ungen
h ig
▁val ues
▁so fort
▁sex ual
▁second s
▁sa f
▁real ität
▁pl astic
▁mount ain
▁hon est
▁geb oren
▁cal cul
▁c ust
we gen
ut age
itt ed
▁zie hen
▁vor stellung
▁veränd erung
▁t iss
▁listen ing
▁h älfte
▁great er
▁effect ive
est s
e hen
at iv
▁rand om
▁r ise
▁ma ß
änd ig
ru pt
ic ations
ain ed
▁w ow
▁str ange
▁ober fläche
▁net wor
▁jahr ze
▁größ ten
▁dr iving
▁beaut y
▁a head
w asser
kr ank
ac ity
▁who se
▁w ann
▁tum or
▁re de
▁phys ics
▁neur ons
▁e pid
z ustellen
v ision
at ives
▁schnell er
▁richt ige
▁pract ice
▁organ izations
▁h ous
▁fehl er
▁entsche iden
▁dec ade
▁b ald
▁2 000
ä fte
uch s
ro ffen
im in
▁walk ed
▁umgeb ung
▁the ater
▁pr ice
▁fr üh
▁find et
▁einfach e
▁dire ction
▁b on
än ge
ä ume
re p
ir es
▁sim pl
▁rel ative
▁he utz
▁heutz utage
▁gen ome
▁a id
wo hn
ue llen
ot en
k am
f angen
▁wor st
▁s ick
▁res ist
▁lie ben
▁exp and
gen cy
es te
as a
▁ve h
▁terr ible
▁polit ik
▁inv ent
▁franc is
▁for th
▁ex isten
▁enj oy
▁an w
os m
ks am
▁z un
▁prot oty
▁nach zu
▁mit te
▁inst all
k o
ind er
▁pro st
▁oze an
▁most ly
▁h ang
▁fas zin
▁epid em
▁emot ion
▁bek ommt
l age
it ze
il ing
ant ic
▁ze ich
▁trotz dem
▁meet ing
▁l änger
▁ha ir
▁frü her
▁cho ices
▁auf mer
änd ert
tem ber
ar ies
▁verein igten
▁t eles
▁syn th
▁stra ße
▁sh ap
▁ro lle
▁man uf
▁ign or
▁et c
▁erre icht
▁erfolg reich
▁bra chte
än gen
ren e
▁übr igen
▁w ider
▁produ ction
▁experien ces
▁connect ion
▁ch a
imens ional
▁verb r
▁var ious
▁sum mer
▁follow ing
y l
u ck
r ate
h ör
▁sor ry
▁famil iar
▁con serv
s es
▁st ren
▁forsch ung
▁f at
▁d ance
▁c atch
▁3 5
▁ ere
p fl
▁ver öff
▁stre ets
▁n ennt
▁manuf act
▁m ix
▁inv ol
▁ge heim
▁fant ast
▁effect s
▁dec ide
▁aufmer ksam
▁a h
s um
neh mer
ab häng
▁sozial e
▁son st
▁recht s
▁nä her
▁mat ch
▁is ol
▁hin zu
▁gra v
▁ge geben
▁be at
ut ed
us ed
se ite
c ies
be w
▁vide os
▁pop ular
▁le gs
▁found ation
▁entwick lungs
▁dest ro
▁amerik a
zeich net
y le
w ise
ul f
ag s
▁var i
▁t our
▁so b
▁re ag
▁nor m
▁mo nd
▁land sc
▁hund ert
▁help ed
z iert
le y
▁techn i
▁t en
▁sch mer
▁mo on
▁ho ffe
▁hine in
at ically
arbeit en
▁unterst ütz
▁under stood
▁tra gen
▁teach ing
▁stop ped
▁sa ving
▁s etzen
▁just ice
▁hoff nung
▁g ent
▁ab stra
v ention
g u
a ß
▁cal iforn
▁art ist
w art
s etzen
ient s
am in
▁vor aus
▁ra ise
▁mö gen
▁gleich zeitig
▁g ingen
▁at om
▁ant i
s icht
o ber
ess ed
bo ard
▁stud enten
▁socie ties
▁h ind
▁conscious ness
▁bo ys
▁bl au
▁ant ib
üs sel
pro b
▁sh ar
▁einzel ne
▁desp ite
▁d rop
k et
h ung
ar ian
▁versuch e
▁ver urs
▁su bst
▁son ne
▁phot os
▁mach ten
▁deter m
qu ence
ld er
g te
▁use ful
▁reg eln
▁program s
▁near ly
▁in gen
▁high ly
▁erw ä
▁com mer
r om
os en
ie ty
ic ation
i ated
bild ung
▁r en
▁mein ung
▁m ad
▁leg al
▁kom p
▁fir ma
▁elect ron
ät zen
ul pt
le men
k rie
▁tas k
▁po et
▁ha b
▁fly ing
▁experim ents
▁er schein
▁best immt
▁app le
▁an sehen
ra id
▁verg essen
▁us es
▁pra kt
▁pl ann
▁lo k
▁lie gen
▁he im
▁direct ly
▁demokrat ie
▁communic ate
▁began nen
▁bau m
▁ass um
th rop
m us
h ib
c ol
ar ter
▁wicht ige
▁w ies
▁tra g
▁sor gen
▁rich ard
▁remark able
▁my th
▁inst ance
▁groß er
▁camp a
▁campa ign
▁californ ia
▁af raid
pl ay
g le
an cy
▁offens ichtlich
▁interess iert
▁gen ommen
▁g ender
▁g ang
▁bel ow
▁ag ric
▁agric ult
ü gen
v ant
ue ll
ent liche
d ing
▁t or
▁r ule
▁planet s
▁l oss
▁gesam te
▁detail s
u bl
imp an
▁ähn lich
▁wus sten
▁sym met
▁surv ive
▁surger y
▁neg ative
▁inv ented
▁ident ity
▁extre me
▁dis app
▁con cl
rep rene
lo ad
l assen
▁spe zie
▁ref lect
▁pre vent
▁or te
▁na he
▁lie f
▁l ack
▁dad urch
▁cult ural
▁biolog ical
▁bedeut ung
▁atmosph ere
ri pt
pp ing
au m
▁vac c
▁ra re
▁qu ad
▁pap ier
▁member s
▁know ing
▁he ut
▁feel s
▁cl a
ou th
▁oxy gen
▁kar te
▁infrastru cture
▁bro ken
▁ »
▁t ens
▁prof ound
▁l en
▁ir gende
▁einzel nen
▁dor f
▁b an
▁b a
▁am b
l auf
cul es
an ced
▁t ür
▁prof it
▁kann st
▁indust rie
▁gesch ieht
▁fähigkeit en
▁erk ennt
▁br ief
▁anc ient
ück en
te ile
l ter
k op
ab et
▁wicht iger
▁surpr ising
▁purp ose
▁normal erweise
▁l apt
▁har m
▁ent reprene
▁enorm ous
re cht
pl ant
ll ed
jen igen
g al
ag o
▁scient ist
▁not iced
▁hy dro
▁entscheid ungen
▁clos er
▁bess ere
v iel
b u
▁übrigen s
▁sym pt
▁seem ed
▁poss ibly
▁pass ierte
▁m ur
▁herauszu finden
▁he at
▁ger ät
▁fr ustr
▁cust om
▁cond ition
▁caus es
s etz
ra gt
▁ä lter
▁zu gang
▁un c
▁temper ature
▁nach richten
▁gren zen
▁erw achsen
▁an z
▁ «
te x
ol ogen
h am
▁s ä
▁respons ibility
▁mon aten
▁l es
▁int u
▁ergeb nis
▁an ges
g leich
▁spe ech
▁se quen
▁s me
▁pa id
▁nach halt
▁mob il
▁kon zept
▁ho tel
▁ho le
▁ha m
▁g ay
▁fra me
▁de ine
▁cor ner
▁communic ation
▁cl oud
▁bewe gt
▁ans wers
▁altern ative
▁4 5
ter m
ik ation
ik a
c en
▁vul ner
▁vis it
▁sch rieb
▁networ ks
▁jo y
▁j an
▁dach ten
▁bakter ien
▁ad op
k a
bl ing
ac ed
▁sh ock
▁ne un
▁k a
▁jemand en
▁gru ppen
▁d ying
▁cor re
▁buch st
▁be völkerung
une hmen
ke y
▁intellig ent
▁for ces
▁bezieh ung
▁a ware
ör ter
red it
or ten
et y
▁se p
▁expl ore
▁design ers
▁beob achten
▁außer dem
▁auf t
z te
p ret
o ß
g ru
en ch
▁v alle
▁surr ound
▁sp re
▁sozial en
▁pr ior
▁nar r
▁miss ing
▁g ern
▁fl ü
▁eas ily
▁creat ivity
▁ar me
▁ag ree
▁add ition
y m
sp e
sch w
l ungen
▁sl ide
▁ra pid
▁hus band
▁ein fluss
ll ing
if ying
ich ter
ed ia
▁slight ly
▁sa hen
▁n asa
▁m ü
▁in tens
▁engl and
▁c ore
▁bud get
v al
ir m
ill e
h ouse
▁tw ice
▁st amm
▁r ess
▁mas ter
▁gesch rieben
▁fin de
▁ein stein
▁bestimm ten
▁aus zu
y a
um m
ra y
▁ver h
▁ult imately
▁part ners
▁ha bit
▁ges prochen
▁dar win
▁cor por
▁c ro
▁bro ther
z il
le ment
gend es
al og
▁zum ind
▁ze ug
▁u g
▁supp ly
▁stud ie
▁sep tember
▁g ather
▁francis co
▁fert ig
▁ac adem
os c
ic kt
i est
fü hr
▁w ood
▁signific ant
▁p ak
▁n ations
▁mö glichen
▁mat ters
▁ge orge
▁eas ier
▁different ly
▁dev ices
▁des ert
▁cap acity
▁beob acht
▁afrik an
iz es
▁öff entlich
▁v ast
▁sustain able
▁se lt
▁publ ished
▁n ied
▁ho st
▁fun ny
▁fe uer
▁as pect
w ür
hy th
f re
▁insp ired
▁bom b
▁aufmerksam keit
▁acc om
olog ists
ll y
ar f
am s
2 0
▁virt ual
▁to ile
▁r ough
▁produ zieren
▁jo in
▁ges etz
▁bra zil
▁ble ibt
▁ab sch
olog ist
m ark
and el
▁vertra uen
▁land es
▁ha ut
▁dep art
▁co oper
▁bü cher
▁at l
▁ab end
▁ 000
in ct
ik el
es is
▁stren gth
▁st ändig
▁sp ot
▁play ed
▁phot o
▁no te
▁mole cules
▁ind ian
▁i lle
▁gut es
▁ent er
▁end s
▁b ought
▁9 9
is ation
h ne
el f
cept ion
aut en
▁ver fol
▁um f
▁st ol
▁redu ce
▁kein er
▁cont act
▁br idge
▁ansch auen
ö sen
y pt
er c
▁zwe iten
▁zumind est
▁yell ow
▁wind ow
▁verl ieren
▁verl assen
▁plat form
▁k ong
▁hor iz
▁ge fü
▁g al
▁divers ity
▁ch air
ö ren
ul ations
u ing
▁win z
▁t ough
▁sp aces
▁or ten
▁met ers
▁he av
▁emp ath
ill ion
ight s
eren z
▁sp aß
▁sit zen
▁sh aring
▁orig in
▁irgend wo
▁ha ck
▁got ten
▁ev olved
▁conf erence
▁comp on
▁aus wirk
im al
er as
▁vort rag
▁vergangen heit
▁sob ald
▁so d
▁richt igen
▁prote in
▁mom ents
▁mensch heit
▁mark ets
▁geb iet
▁for g
▁ev ol
▁effic ient
▁bild en
stoff e
s atz
our cen
h i
ar a
▁taus ende
▁schul en
▁schre ck
▁r und
▁n av
▁k ür
▁ira q
▁harv ard
▁ge arbeitet
▁be in
▁bal ance
ö st
teil en
sch ritt
in o
ich er
as en
▁ver ständ
▁un abhäng
▁tele vision
▁struct ures
▁produ ced
▁light s
▁leaders hip
▁fore ver
▁doc ument
▁de gre
tem pt
▁v ent
▁tre mend
▁se iten
▁se ed
▁schl uss
▁pr ä
▁oppos ite
▁m outh
▁h äu
▁ge k
▁co ast
▁archite ktur
▁7 5
wind igkeit
g ment
al ing
▁ver te
▁ver st
▁valle y
▁ta gen
▁sn ow
▁sch ü
▁nach richt
▁invest ment
▁important ly
▁he il
▁ge he
▁entire ly
▁den kt
▁degre es
▁bir ds
w ater
uch ten
▁w ire
▁t aten
▁sh oot
▁se as
▁mon at
▁ge we
▁g iant
▁amaz on
qu es
ne hm
ist ry
d o
▁wies o
▁w ü
▁reg ular
▁ref uge
▁ob jekt
▁k ost
▁ir on
▁her o
▁gr ü
▁es c
ust er
s m
ord ers
or g
mas ch
▁wirklich keit
▁spez ies
▁relig ious
▁pre p
▁off er
▁interess ante
▁imag ination
▁f old
▁ber ü
ün ft
t te
g ese
▁trou ble
▁sw itch
▁or g
▁me xic
▁man ip
▁inter pret
▁help ing
▁groß es
▁gar den
▁g olf
▁farm ers
▁cy ber
▁app ar
▁act ive
um ents
m achen
il es
ic les
▁verbess ern
▁re pe
▁pass ed
▁p ig
▁hear ing
▁ges p
▁fle x
▁erlau bt
▁descri be
▁creat es
▁cop y
▁bring ing
▁anders on
we is
ond s
g ree
g lie
▁zwe it
▁t ap
▁t anz
▁stud ien
▁spend ing
▁s hr
▁ro w
▁partic les
▁magaz ine
▁b erg
▁av oid
▁antib iot
w issen
r ü
ere i
d ig
▁z ivil
▁stud ying
▁st ation
▁re aktion
▁kontro lle
▁k er
▁gesch ehen
▁focus ed
▁dou ble
▁art ists
▁ag re
pr ü
g ust
ch end
c r
▁mole kü
▁med ium
▁h oll
▁fir men
▁er zeugen
▁eng age
▁ch ines
▁bü ro
▁back ground
▁acc ord
ing u
at isch
▁win ter
▁w ik
▁verb inden
▁hor r
▁full y
▁em iss
▁be ar
▁auf grund
▁arm ut
▁a st
▁200 8
▁ 0
u fen
pp er
▁zu fä
▁voll er
▁versuch te
▁t ä
▁inv is
▁großart ig
▁er h
▁dream s
zus ch
re ci
o chen
im inal
ik an
g ere
▁tiss ue
▁suff ering
▁k aum
▁fr ench
▁em bra
p ass
it ung
c a
au ght
at ures
▁team s
▁nachzu denken
▁n enne
▁kreat iv
▁ge g
▁einz ig
▁e ating
▁den k
▁commer cial
▁auss ieht
▁acc ur
▁a lex
p ol
id den
i h
at iven
▁pu zz
▁ple as
▁other wise
▁mon t
▁kom b
▁beisp iele
▁19 4
we isen
k om
▁we ird
▁univers ität
▁rec over
▁poss ibility
▁mo s
▁lead s
▁krank heiten
▁ide al
▁emot ions
▁bef inden
▁al te
us ive
un te
m ission
le gt
el er
at ten
▁we chsel
▁ste m
▁ob ser
▁ma x
▁landsc ape
▁g all
▁fore ign
▁co ffee
äch en
schl uss
ipp ed
c ar
b ased
alt et
▁turn ing
▁priv ile
▁pre vious
▁lin ie
▁in iti
▁hy per
▁gro ss
▁fem in
▁fail ure
▁fa ith
▁bill ions
▁arbeit ete
▁adv ant
▁2 3
t ube
legen heit
il ien
au lt
▁urspr ün
▁stu ck
▁so wohl
▁phys ic
▁opportun ities
▁m ort
▁le bt
▁erzä hlt
▁em b
▁discover y
▁brit ish
▁bed ro
▁2 2
wer ke
ific ation
ab el
a el
▁war m
▁pl ast
▁n ahrung
▁m art
▁kil omet
▁j ames
▁him mel
▁geb ra
▁g ere
▁feed back
▁ex erc
▁diff erences
▁dass elbe
▁coun ter
▁char les
▁ch ann
▁brill iant
▁br ings
▁at tempt
schl ag
d ed
▁un möglich
▁spra chen
▁ra ised
▁pr ize
▁pak istan
▁mar ri
▁ill ustr
▁großart ige
▁diag ram
▁cont ra
▁bis her
▁beh au
t r
le ist
ber g
ak er
▁tra f
▁präs ident
▁open ed
▁k m
▁h ur
▁gr as
▁geb racht
▁fot ograf
▁complex ity
▁au ßen
▁ar zt
▁app reci
▁ab ge
wer fen
ul ated
os is
ic ate
▁m essen
▁global en
▁ge ograph
▁eg ypt
▁eben e
▁b one
▁201 0
ink en
ier ter
icht et
h em
b ung
▁w örter
▁tra ffic
▁sme ll
▁sek unden
▁ries ige
▁reg ierungen
▁p aul
▁necess arily
▁li br
▁let ter
▁k ore
▁gew innen
▁fall en
▁die jenigen
▁da hin
▁collect ive
▁ch ic
▁bu b
▁b ienen
▁art ific
▁arbeit et
w ide
ul ous
u ern
es th
▁w ald
▁typ ical
▁sin ne
▁person en
▁inde pend
▁ev ents
▁entde cken
▁comp ared
▁call s
▁bo at
▁außer halb
▁aus z
l ern
f alt
▁wor te
▁univers al
▁test s
▁talk s
▁strateg y
▁so hn
▁sch r
▁respons ible
▁rem ain
▁major ity
▁hö ch
▁entw eder
▁entde ckt
▁aut h
ogn itive
bl ed
▁w ol
▁v en
▁should n
▁par ent
▁luck y
▁ingen ie
▁expl os
▁elekt ron
▁dru ck
▁bu ll
ul s
or ben
h es
d essen
▁we ib
▁wall s
▁verstand en
▁st an
▁pr oud
▁lead ing
▁le ider
▁hand elt
▁h i
▁ent stand
▁elect r
▁ehr lich
▁child hood
▁benef its
▁an geb
er ve
e per
am b
▁we ar
▁sol chen
▁s ister
▁rep ubl
▁p assen
▁niger ia
▁mult iple
▁manag ement
▁erzä hl
▁engine ers
▁des ire
▁c and
▁bro wn
pro gram
n am
ien s
▁über tra
▁w achstum
▁rec y
▁nam es
▁kranken haus
▁hör te
▁gef ragt
▁führ te
▁fas h
▁destro y
▁cond u
▁betracht et
▁ber üh
▁belie ved
▁b ird
▁ &
v ere
tend ed
t es
os ition
k y
d imensional
▁weap ons
▁un er
▁tele fon
▁sp l
▁re ve
▁letzt es
▁land wirtschaft
▁k ern
▁hö her
▁gesam ten
▁fort schritt
▁europe an
▁er leben
▁ele ments
▁eben so
▁corre ct
▁ch urch
▁be ach
▁b g
▁antw orten
sp ap
licher weise
in ter
am ing
▁vol unte
▁restaur ant
▁ress ourcen
▁kl in
▁ge kommen
▁erf ahren
▁er g
▁chic ago
d lich
b ing
▁ph ones
▁pat ent
▁not wend
▁kolle gen
▁k ol
▁je w
▁j er
▁f ör
▁exper t
▁er hö
▁entscheid ung
▁emp ower
▁deep ly
▁accord ing
▁a ster
pr int
l ight
ist e
ie de
3 0
▁rem ote
▁rec on
▁not ion
▁mich ael
▁kr it
▁instit ute
▁ermö gl
▁entsch ieden
▁d ate
▁ äu
w a
sp re
d y
▁s ir
▁meth ode
▁less on
▁invis ible
▁in nen
▁hö he
▁hyp oth
▁gra b
▁fight ing
▁ermögl icht
▁cr ime
▁co al
▁br ust
▁bel ong
▁bef indet
▁b ib
üh ne
ständ ig
p fe
kn own
it ely
im ent
if ically
ag ed
▁vor stell
▁schmer z
▁run ter
▁pa ir
▁mathemat ik
▁m igr
▁gl am
▁gew iss
▁flug zeug
▁fail ed
▁eff iz
▁dist ance
▁cir cle
▁bi om
▁bewe g
▁bestimm te
▁b ound
▁anc est
▁anal og
st es
m ann
i at
gr öß
f el
et ze
e es
▁wä hlen
▁war ten
▁teles c
▁suc ceed
▁stat us
▁po em
▁necess ary
▁kont in
▁kon fl
▁hil ft
▁help s
▁h ate
▁g ap
▁fr ieden
▁figure d
▁f angen
▁equ al
üs s
st ück
r ight
p ack
▁wel cher
▁tremend ous
▁t u
▁stud ied
▁ste ve
▁r it
▁profession al
▁ob s
▁mag n
▁lo ck
▁l ust
▁fash ion
▁ein kommen
▁dr itte
▁d ue
▁curr ently
end es
c are
▁z o
▁z it
▁wo hn
▁ret ten
▁oper ation
▁hold ing
▁fot os
▁f en
▁ergeb nisse
▁ec osystem
▁außer gewöhn
▁ang eles
änd en
se its
qu it
ip e
ind ust
be ite
▁sh ip
▁se ctor
▁sch ö
▁phenomen on
▁ph än
▁p y
▁mathemat ics
▁kam pf
▁k it
▁ges pr
▁fol ks
▁fl ight
▁fl ag
▁di pl
▁bre ast
▁benef it
▁behand lung
▁astr onom
▁amerikan er
▁am e
▁adult s
▁acc ident
▁a th
s ame
r än
hol en
en ken
ed y
▁we aring
▁th om
▁sta at
▁requ ire
▁organ isms
▁new spap
▁mot ion
▁m är
▁l äuft
▁k ä
▁hund erte
▁g ig
▁ex ch
▁con cent
▁bewusst sein
z we
ony m
m äß
▁öff entlichen
▁ze lle
▁the orie
▁t ick
▁sch ützen
▁no ise
▁mehr ere
▁lim it
▁leiden schaft
▁lead er
▁le isten
▁l unch
▁kön ig
▁kil ometer
▁j ack
▁hand eln
▁au ff
w ick
pl atz
▁whe el
▁sod ass
▁samm eln
▁pre gn
▁pol ar
▁o ly
▁musl im
▁manag ed
▁lös ungen
▁lea ving
▁head s
▁h ält
▁g ps
▁br ight
▁bo ston
▁an wend
us sen
ste lle
mittel n
k le
indust rie
fr ont
▁ze igte
▁system e
▁pro to
▁oly mp
▁netz werk
▁masch inen
▁j ul
▁inspir ation
▁fair ly
▁every day
▁d ür
▁compet ition
▁b ag
voll e
h ang
h an
▁tra ined
▁tr ip
▁tr end
▁sch m
▁re form
▁plan e
▁norm ally
▁mater ie
▁le hr
▁k ick
▁influen ce
▁fre m
▁erst ens
▁er a
▁ein ander
▁char ge
▁bi o
▁as ia
p iel
ent ie
chn ologie
a x
▁verm ut
▁un l
▁tr i
▁sp ielt
▁so il
▁r hyth
▁lim ited
▁frei heit
▁fascin ating
▁dipl om
▁c aught
▁b ru
▁app e
äus ch
r atic
ir ur
ie gen
c les
at om
▁unters uchen
▁un less
▁research ers
▁r ational
▁ord nung
▁mo v
▁mar ried
▁m el
▁lad y
▁intell ect
▁dar f
▁cy cle
▁cour t
▁con sequen
▁consequen ces
qu ality
p ing
ing ungen
ie gel
gr ünd
e k
▁wunder bar
▁w ün
▁w it
▁schl imm
▁min ister
▁man age
▁invest ig
▁hope fully
▁h ände
▁gef äng
▁einz igen
▁cl osed
ri fft
re w
os ing
id ents
arbeit er
af rik
▁zun ächst
▁surpr ise
▁ste ps
▁prin ci
▁market ing
▁m ouse
▁ha w
▁h idden
▁gründ en
▁gründ e
▁exp on
▁e arn
▁da ily
▁artific ial
k ar
is st
ieren de
ie ßen
ib ilities
▁wunder sch
▁rel ated
▁p urs
▁o x
▁nut r
▁le id
▁jahrze hn
▁har der
▁fin ished
▁ent h
▁ar beite
▁6 00
n ungen
k ur
ent y
e lle
an ter
▁z one
▁v an
▁so ph
▁opt ion
▁jahr es
▁gut er
▁ele ph
▁dinos aur
▁depart ment
▁cr ash
▁col ors
▁br an
▁biolog ie
▁all gemein
▁ak zept
os sen
ival ent
igh ten
ce ll
b ahn
▁zeit punkt
▁te x
▁surpr ised
▁strug gle
▁princ iple
▁ph ase
▁num mer
▁her unter
▁grund legen
▁ges tellt
▁fr esh
▁follow ed
▁er for
▁de gree
▁d ol
▁bit s
▁be zug
▁analys is
er v
alt ung
▁zeit en
▁w ide
▁sel ben
▁r ates
▁präs ent
▁par is
▁pain t
▁far be
▁dra g
▁dam age
▁const antly
▁arg ue
sp rechen
se it
▁w al
▁un ver
▁serious ly
▁mention ed
▁heut igen
▁heraus finden
▁her stellen
▁gro wn
▁foss il
▁fa ces
▁ein zu
▁describ ed
▁cl ick
▁beg ins
▁2 7
ind ung
de ut
d rück
d i
b uch
b lich
▁zu stand
▁watch ed
▁to chter
▁sou l
▁separ ate
▁r ound
▁qu ote
▁pl us
▁high est
▁ed ge
▁cre ation
▁caus ed
▁c ateg
▁business es
▁bezieh ungen
▁b read
▁ar ms
▁acc eler
▁200 9
▁199 0
äus er
us hing
est ed
c il
at ers
▁u hr
▁stud io
▁spr ing
▁slow ly
▁schle chte
▁saf ety
▁quant um
▁princi ples
▁p ac
▁metap hor
▁kam era
▁fl uss
▁ere ign
▁eben falls
▁dr itten
▁comp are
▁ber uf
ot ing
l en
k ommt
ges etzt
▁we tt
▁vo te
▁ver me
▁u t
▁trans ition
▁t ons
▁str ang
▁sh oes
▁sel ten
▁pos it
▁li ft
▁h omes
▁gescha ffen
▁gen om
▁four th
▁fol gendes
▁engl isch
▁cont ain
▁concern ed
▁br ut
▁aus l
▁advant age
▁200 7
sch t
it tel
i op
▁wen ige
▁veränd erungen
▁surv ival
▁schön heit
▁re produ
▁phän omen
▁p ounds
▁kilomet ers
▁increasing ly
▁in it
▁field s
▁exper ts
▁erzä hlte
▁erinn ere
▁einfach en
▁dis play
▁dig it
▁creat ures
▁consider ed
▁aut ism
▁auswirk ungen
▁aus sch
▁arm y
ss ystem
se c
ot ed
ic an
gen er
b a
ater ial
ann e
▁tr ib
▁thom as
▁st ood
▁kap ital
▁glob ale
▁gener ations
▁cle ver
▁ch ap
▁bus h
▁breat h
ä te
teil ung
r ation
p a
bo x
as i
5 00
▁verle tz
▁sp richt
▁sh ut
▁sch uld
▁perfect ly
▁oce ans
▁nie der
▁marri age
▁i i
▁hand y
▁erstaun lich
▁durch ge
▁comm it
▁b attle
▁25 0
ur ies
th in
le ction
g in
▁when ever
▁sur ge
▁rece ived
▁mov ies
▁lapt op
▁klim aw
▁far ben
▁end lich
▁d inner
▁d h
▁cur ious
▁cha os
▁ben utz
▁amerikan ischen
st ud
so ft
s weise
f erenz
ed en
▁verk aufen
▁transpar en
▁sicher lich
▁se quence
▁pick ed
▁ob ama
▁mo ves
▁m am
▁it al
▁hung er
▁h urt
▁h ill
▁go als
▁geb urt
▁comfort able
▁ann oun
z immer
v in
i as
ck et
▁wh om
▁treat ed
▁sc ulpt
▁rad ical
▁plann ing
▁p ages
▁mexic o
▁let ters
▁h art
▁german y
▁existen ce
▁en s
▁deb ate
▁be zahl
▁ar men
y wood
v it
u um
st adt
ro chen
pro f
im eter
erg ie
▁wichtig ste
▁vor bei
▁vers us
▁ve get
▁unterst ützen
▁selt sam
▁re chte
▁m ächt
▁li es
▁ex ists
▁call ing
▁belie f
ru ction
iel ten
h me
d ings
ar r
▁zus ätz
▁wor ried
▁tit an
▁t isch
▁sc ene
▁sc en
▁organis ation
▁m assen
▁kre is
▁ident ify
▁des wegen
▁d ry
▁circ um
▁beste hen
▁be es
▁198 0
p ten
or row
ktion en
ir t
ie ß
ie te
ie b
er k
▁unters uch
▁such e
▁statt dessen
▁li qu
▁jahrhundert s
▁inv ited
▁has n
▁h em
▁gr ass
▁fl at
▁cla im
▁cap able
▁aus w
▁att ach
sel ben
pt y
ier ungs
an ke
ahr ungs
▁wa ke
▁vers or
▁verrück t
▁unter sche
▁unglaub liche
▁tom orrow
▁schwar z
▁oper ating
▁op in
▁ob serv
▁lea ves
▁kür z
▁j ene
▁größ ere
▁get roffen
▁g ain
▁fre quen
▁experien ced
▁ass ist
▁art s
z a
ma ß
keit en
ind ern
be wer
▁unterschied liche
▁transform ation
▁statist ics
▁som mer
▁r ub
▁n ütz
▁kön nt
▁inter esse
▁independ ent
▁h irn
▁ger ing
▁ex hib
▁e chte
▁austral ia
▁art icle
▁adv anced
▁ab zu
id a
gef unden
bar keit
ay s
▁zus ch
▁v ibr
▁sc ann
▁lif et
▁hum or
▁grand m
▁exist iert
▁ess ential
▁design ing
▁de eper
▁c ow
▁agricult ure
ic ity
gesch ichte
as ion
▁zweit ens
▁wo hin
▁wid ers
▁wer te
▁w esen
▁vo ices
▁se lect
▁r ing
▁qu iet
▁mot hers
▁milit är
▁ill ness
▁ex ec
▁er ne
▁einzig art
▁disapp ear
▁chr om
▁b äume
▁ange fangen
w as
u ous
stre am
re te
ipp ing
e e
ch em
▁wis dom
▁st one
▁set ting
▁sch icken
▁o l
▁neur onen
▁keep ing
▁gew icht
▁deal ing
▁c osm
▁bemer k
▁absol ute
▁196 0
üt ter
w ord
ot ic
o h
m at
h end
▁wit ness
▁war s
▁wa ve
▁to ward
▁st unde
▁se at
▁rele vant
▁käm pfen
▁jan u
▁inse cts
▁hon or
▁fü hlte
▁fort un
▁expect ed
▁erf unden
▁engine er
▁einfach er
▁can ada
▁au ge
un sch
sch utz
ri ere
os h
c raft
▁yes ter
▁we ather
▁sit es
▁pro jekte
▁lad ies
▁k ir
▁interact ion
▁fin ish
▁emiss ions
▁eigen schaften
▁dor thin
▁contin ent
▁best and
▁b are
wär ts
u c
st a
po int
i kt
h old
▁wik ip
▁val u
▁su it
▁sold iers
▁sign als
▁re ward
▁r ural
▁r ou
▁ord inary
▁mess ages
▁material ien
▁ma c
▁kont akt
▁inf in
▁gehirn s
▁fill ed
▁fe ld
zus agen
pl ace
p assen
net e
l ose
▁stu pid
▁stim men
▁sol id
▁schü ler
▁pol io
▁pe ak
▁li ste
▁j ün
▁er zeugt
▁char ac
▁charac ters
▁behand eln
▁assoc iated
▁ab häng
te ch
qu al
od es
o den
it als
ill ed
ast rop
▁städ ten
▁sent ence
▁react ion
▁nah men
▁hal b
▁erw arten
▁eigen es
▁dien st
▁di am
▁di abet
▁convers ations
sen s
ge ht
fä lle
f in
es ome
el ine
d own
at te
ap se
▁yester day
▁un it
▁to y
▁t ieren
▁sch rift
▁sau er
▁produ kte
▁par all
▁nä he
▁ne uer
▁lay er
▁infrastru ktur
▁had n
▁geh ir
▁equ ip
▁char akter
▁bl ow
▁bege ist
z ü
v as
ies en
ic ide
heim er
halt ung
d p
▁wor ten
▁verfü g
▁t rop
▁surve y
▁strug gl
▁send ing
▁pun kte
▁poll en
▁p ure
▁nerv ous
▁nav ig
▁launch ed
▁inter face
▁ganz es
▁fil ms
▁enc oun
▁clin ical
ür f
w ill
s et
r is
min ister
g y
con nect
br it
▁öff nen
▁wonder ing
▁verw end
▁techn ical
▁som it
▁schön e
▁schwar ze
▁res ource
▁re chten
▁process es
▁organ ic
▁nor den
▁kom me
▁kl asse
▁ille gal
▁de press
▁chrom os
▁c ognitive
▁b ühne
▁auf genommen
▁ans atz
ör ung
oll ar
iff t
an ia
ab ilities
a e
▁wikip edia
▁ver an
▁t ank
▁t all
▁spe kt
▁sh ad
▁se ien
▁schl ag
▁ro of
▁organ ized
▁org ans
▁gesundheit s
▁ge gangen
▁class room
▁beg onnen
▁be it
▁auth ent
p te
ma ßen
c ast
ak ers
ac le
▁verständ nis
▁verantwort ung
▁sing ing
▁satell ite
▁s ar
▁ner ven
▁micro sc
▁m amm
▁in sel
▁groß teil
▁ged acht
▁g ree
▁f er
▁ermö glichen
▁er fü
▁col on
▁bud d
▁aut onom
▁arr ived
▁a x
▁a hnung
▁200 5
brit ann
ach te
▁wichtig sten
▁we ak
▁wa ves
▁verfü gung
▁st abil
▁sp oke
▁set t
▁proper ty
▁pay ing
▁ne ut
▁n öt
▁mar ch
▁lern te
▁kn ochen
▁gl o
▁fact ory
▁est abl
▁dr iver
▁conv ention
or fen
ktiv en
b ank
ass ung
▁är zte
▁vulner able
▁var iety
▁un ion
▁se es
▁sch utz
▁sch aut
▁sc r
▁ris ks
▁priv acy
▁mer k
▁mar y
▁ma ps
▁lo ch
▁liqu id
▁gesch ah
▁for ced
▁feel ings
▁e ure
▁atmosph äre
▁al z
▁6 5
z unehmen
mar kt
in de
i ors
g ers
d ien
am mt
▁we ge
▁un bed
▁stan ford
▁spre che
▁requ ires
▁re view
▁parad ig
▁näch stes
▁molec ule
▁manufact uring
▁los ing
▁lo ad
▁l äch
▁impro v
▁haupt s
▁h ört
▁gesch windigkeit
▁exerc ise
▁entste hen
▁draw ing
▁dou bt
▁dest o
▁cou rage
▁ch ain
▁bel o
▁b ay
▁al ph
öt et
t aus
or der
o ßen
inn ing
▁verbind ungen
▁v ess
▁tr ifft
▁techni ques
▁south ern
▁sch au
▁sa ved
▁rele ase
▁re icht
▁re fer
▁prom ise
▁per ce
▁medikament e
▁ma int
▁m all
▁h inge
▁gl as
▁ge be
▁erst es
▁equ ivalent
▁en em
▁eins atz
▁effe kt
▁do k
▁cr iminal
▁cart oon
▁brauch te
▁be ll
▁alz heimer
ud es
s ichtig
ot he
is f
il fe
he ben
e y
▁vor h
▁to lle
▁to ler
▁th ro
▁test ing
▁spec ifically
▁sh ame
▁sein es
▁ries igen
▁pre m
▁polit ische
▁poet ry
▁la den
▁ken ya
▁in put
▁import ance
▁gescha fft
▁fl or
▁fa cing
▁equip ment
▁econom ics
▁connect ions
▁b ow
▁aw esome
▁aller dings
▁act ions
▁abs or
äs ent
we il
ständ e
rie den
p et
ist ers
b ü
▁verbr ingen
▁ver hält
▁trans plant
▁tr illion
▁reg ul
▁n ahrungs
▁mount ains
▁man h
▁konzentr ieren
▁je ff
▁invest ieren
▁in cent
▁fact ors
▁dynam ic
▁dro gen
▁dis s
▁ad vert
▁3 6
▁ änder
os es
ograph y
lie gen
f un
b rechen
b ors
ag ing
▁unter nehmer
▁temper atur
▁schl üssel
▁na ja
▁me at
▁langu ages
▁ju gend
▁ge fä
▁g dp
▁ent ertain
▁en or
▁cover ed
▁ch irur
▁cam eras
▁bro ke
▁behand elt
▁algorith m
▁ad m
▁3 2
ie ben
b et
a ff
▁verw ir
▁us ers
▁to des
▁su bt
▁su bs
▁ste in
▁ris iko
▁micro bes
▁ko hlen
▁jemand em
▁intelligen z
▁her zen
▁h ide
▁gr ün
▁fre ude
▁expl an
▁erlau ben
▁erfor schen
▁ent lang
▁ein sch
▁distrib ution
▁democ ratic
▁d opp
▁cut ting
▁constru ction
▁civil ization
▁ch ip
▁ch art
▁c as
▁an atom
▁adop t
y al
ste hen
p ft
me ister
le un
ieren den
d ollar
ab led
▁the ore
▁se m
▁produ ziert
▁polit ischen
▁offic ial
▁met al
▁lie ß
▁libr ary
▁le gen
▁k auf
▁imm un
▁holl ywood
▁hig gs
▁hal t
▁groß britann
▁gala xy
▁entreprene urs
▁entf ern
▁di alog
▁da gegen
▁crow d
▁comm and
▁bar r
z ing
r t
li fe
it ution
ien cy
ien ces
▁valu able
▁swe et
▁stand ards
▁sp iele
▁sch n
▁pro ve
▁p ink
▁n est
▁law y
▁inse kten
▁herz ustellen
▁grandm other
▁gr ö
▁fä llt
▁fä llen
▁forest s
▁eth n
▁erw art
▁dok ument
▁dimens ions
▁cl oth
▁capt ure
▁c ure
▁bet rifft
üs se
ro ph
pl ane
it arian
ga ben
for men
f rieden
c el
al ed
▁zu h
▁wes ten
▁us er
▁t s
▁sport s
▁so gen
▁relative ly
▁or ch
▁mus cle
▁mon itor
▁m s
▁journal ist
▁ha bt
▁ge legenheit
▁fell ow
▁chem istry
▁be teil
▁art ikel
▁an ger
zeich nen
u el
n el
le g
l u
ic y
b ie
ant a
a a
▁w ra
▁vor hers
▁think s
▁tal ent
▁soph istic
▁rück en
▁reg ard
▁p ow
▁p m
▁ob st
▁lebens mittel
▁kon stru
▁innov ative
▁imm igr
▁fre unden
▁f eder
▁entwicklungs l
▁entste ht
▁empath y
▁effect ively
▁cor al
▁con gress
▁add ed
▁19 50
▁ ändert
ö se
zeich en
p es
in er
end ing
c ers
▁zusammen arbeit
▁world wide
▁war ming
▁veh icle
▁stol z
▁sil ence
▁sc ared
▁put s
▁p in
▁o ct
▁move ments
▁kreativ ität
▁kontroll ieren
▁kill ing
▁interess anter
▁intellect ual
▁häu fig
▁hous es
▁health care
▁größ eren
▁gesell schaften
▁galax ies
▁f is
▁erf ahr
▁er öff
▁emer ging
▁em bar
▁diabet es
▁da ß
▁da vor
▁d ed
▁collect ion
▁c ave
▁air plane
▁2 6
z ed
ro ll
or ien
o ons
masch ine
m ail
ktiv ität
f ar
ant ed
▁z ut
▁wieder um
▁und erne
▁underne ath
▁ty pen
▁t we
▁sta ff
▁sel ber
▁prote ction
▁port ra
▁polit icians
▁occ up
▁no vel
▁las er
▁k ennt
▁irgendw ann
▁hoff entlich
▁gra de
▁gen utzt
▁fil ter
▁fen ster
▁consum ption
▁cl ip
▁block s
▁bit ten
▁benöt igen
▁ass em
▁ant ar
▁algorith ms
▁ad am
▁ q
sp ra
ord in
ic on
f ra
ere m
enn ung
d a
▁werk zeuge
▁weiter hin
▁shap es
▁sc an
▁s zen
▁pol ize
▁min im
▁milliar de
▁lifet ime
▁lie bl
▁l ied
▁l angen
▁kult ure
▁kal iforn
▁h ielt
▁gh ana
▁geschäft s
▁gefäng nis
▁ge omet
▁forg ot
▁erfahr ungen
▁em pty
▁dunk el
▁cor ruption
▁bro th
▁bemerk ens
▁an ts
▁an onym
▁all t
▁accom pl
n s
kt on
g ie
f il
ct ing
a fen
▁zuk ünft
▁zent rum
▁where as
▁uns icht
▁transport ation
▁taus end
▁res c
▁rele ased
▁manh att
▁loc ation
▁l on
▁k unden
▁hol es
▁exch ange
▁design s
▁care fully
▁aw ful
▁a qu
p art
▁vict ims
▁un ex
▁typ ically
▁thought s
▁ta il
▁ra b
▁r out
▁proper ties
▁meer es
▁kost et
▁kl ass
▁ine quality
▁heav y
▁gem e
▁ex pression
▁employ ees
▁denn och
▁convin ced
▁c redit
▁brit ain
▁bere chn
▁bed ürf
▁au st
ä st
iz ität
hl ung
g ro
forsch ung
▁ä lt
▁wind ows
▁w unsch
▁v ag
▁ste cken
▁rough ly
▁re isen
▁parall el
▁neigh bors
▁n ull
▁männ ern
▁myster y
▁kommun ikation
▁klim a
▁incre ased
▁gro s
▁g ates
▁entsch ied
▁dol ph
▁def ine
▁chemical s
sch irm
res p
pekt ive
og ram
it zt
if ten
h te
afrik a
▁zusammen hang
▁viel falt
▁unterstütz ung
▁untersch iede
▁spect rum
▁sp itze
▁sign s
▁s etz
▁ro bert
▁pro s
▁las st
▁ira k
▁gradu ate
▁g ilt
▁g aben
▁frü hen
▁fact s
▁environ ments
▁entwick elten
▁bes uch
▁beeinfl usst
▁ame isen
▁activ ities
zw ischen
u z
u ff
t ten
rä ge
ph ones
nd e
krie g
ch nen
br uch
▁un like
▁trans fer
▁sur f
▁repr äsent
▁rem o
▁poss ibilities
▁p hr
▁n ick
▁m elt
▁lu x
▁in her
▁gra f
▁gest alten
▁fü hlt
▁f ach
▁encou ra
▁defin itely
▁ch impan
▁chimpan ze
▁bee ind
▁appro pr
se h
ogra p
mö gen
ic it
f ish
et te
con t
ang t
▁wundersch ön
▁world s
▁tex as
▁sell ing
▁sauer stoff
▁s ources
▁requ ired
▁rapid ly
▁r ide
▁pot entially
▁particip ate
