<T> 0
<U> 0
<BT> 0
<S> 0
<PHL> 0
<mask> 0
▁ 8673952
e 4775964
n 2882077
t 2796015
i 2699203
a 2482155
s 2246144
r 2032506
o 1917698
h 1713471
d 1396760
l 1328728
u 1132291
c 967326
m 848182
g 793386
w 749775
f 590320
b 569079
, 557991
▁, 554105
p 484372
y 462594
. 456489
▁. 438050
k 383271
v 327553
▁the 218167
z 181466
▁and 156572
▁to 133831
' 130543
▁' 130543
▁in 124502
▁of 120581
▁a 115021
" 110193
▁" 110190
▁that 100172
▁i 88408
▁und 85561
ü 80354
▁die 80025
▁it 78499
▁we 74278
▁you 73929
ä 68829
▁is 66551
j 66503
▁so 52040
▁sie 51905
▁this 51250
▁das 51105
▁der 50334
0 49354
▁ich 49272
▁was 46601
▁ist 44851
ö 44602
▁wir 44246
x 43325
- 42663
▁es 42406
▁zu 39060
? 38141
▁? 38141
▁they 34668
▁an 33200
▁for 32731
— 31395
▁— 31395
: 30275
▁: 30275
▁are 29549
▁ein 28971
▁have 28906
▁but 28761
▁what 27851
▁on 27765
ing 27743
▁be 26535
▁with 26199
▁can 25619
ed 25513
) 25426
▁) 25426
( 25399
▁( 25399
▁von 24108
▁eine 23992
▁nicht 23743
1 23413
re 23249
▁dass 23135
▁all 22642
▁about 22282
▁as 22084
▁there 21922
▁auf 21216
▁mit 21082
er 21070
▁at 20816
▁den 20736
▁not 20632
▁do 20193
ß 19804
▁my 19189
q 18932
es 18528
▁wie 18244
▁one 18162
▁people 17661
en 17511
▁man 17494
▁like 16921
▁if 16827
▁he 16498
▁from 16225
▁or 15967
▁sich 15730
▁also 15715
▁er 15705
2 15697
▁our 15669
▁sind 15435
▁now 15234
▁aber 15037
▁für 14942
▁just 14809
▁haben 14746
▁these 14605
▁war 14538
▁me 14309
▁when 14184
▁wenn 14151
▁um 14147
▁out 13895
▁als 13469
▁aus 13389
▁because 13370
▁diese 12773
▁by 12729
▁very 12591
▁up 12450
▁them 12423
▁how 12421
ve 12046
▁know 11815
▁going 11757
▁more 11749
▁im 11731
▁had 11459
▁see 11246
▁who 11150
▁think 11063
▁your 10934
in 10914
5 10901
▁their 10850
▁were 10801
▁dem 10712
▁über 10681
▁us 10582
▁get 10576
▁would 10405
te 10385
▁which 10309
▁here 10218
▁will 10144
▁really 9993
▁uns 9905
ung 9727
▁then 9556
▁einen 9532
st 9525
▁world 9468
▁time 9307
ten 9302
al 9275
▁some 9262
▁können 9261
ic 9173
▁hier 9136
▁don 9123
▁laughter 9050
an 9027
▁has 8961
▁vor 8953
ers 8855
▁b 8843
▁oder 8814
▁hat 8692
▁des 8673
▁werden 8642
▁no 8548
9 8543
et 8451
▁into 8310
▁where 8260
▁actually 8229
le 8203
▁p 8126
▁way 8114
on 8103
it 8015
▁go 7978
▁years 7889
▁things 7843
▁auch 7840
3 7780
▁other 7685
▁einer 7664
▁could 7648
▁want 7644
▁kann 7599
▁well 7554
or 7551
▁♫ 7517
♫ 7517
▁nur 7498
▁been 7454
ll 7442
el 7439
▁she 7402
ation 7392
ig 7317
▁make 7300
▁einem 7221
▁sehr 7169
▁dann 7148
▁wird 7082
ly 6986
▁t 6967
▁nach 6961
▁new 6955
▁over 6927
▁right 6847
▁s 6782
▁those 6781
at 6690
▁f 6690
▁menschen 6659
▁r 6643
▁first 6640
▁her 6622
▁l 6616
▁mich 6596
▁something 6574
ate 6558
▁am 6513
ie 6494
ar 6486
▁said 6466
▁h 6436
▁two 6426
– 6419
▁– 6419
▁un 6389
▁ihnen 6353
▁than 6348
▁k 6343
▁gibt 6338
4 6333
ern 6322
▁st 6268
▁much 6192
as 6101
▁kind 6101
▁back 6091
▁c 6031
▁sehen 5997
ch 5991
▁look 5987
▁w 5974
▁sein 5941
is 5889
▁noch 5874
▁even 5853
est 5835
▁dieser 5834
▁work 5829
▁etwas 5773
▁d 5752
▁little 5738
▁thing 5709
▁most 5692
▁sch 5686
▁ab 5682
▁mir 5678
▁got 5672
▁welt 5557
se 5549
▁life 5507
; 5500
▁; 5500
8 5496
▁only 5493
▁m 5478
▁need 5469
▁his 5450
▁say 5444
▁habe 5432
be 5419
ieren 5345
▁mehr 5336
▁many 5297
▁re 5293
ent 5267
▁take 5255
ge 5206
ter 5204
ist 5194
▁alle 5101
▁durch 5095
ungen 5068
▁g 5060
6 5057
us 5050
▁bei 4985
▁did 4954
ur 4942
▁good 4940
▁lot 4918
▁applause 4861
▁ver 4861
ische 4859
▁let 4838
▁da 4766
▁leben 4756
▁every 4738
▁why 4704
7 4683
▁around 4674
lich 4646
il 4607
ischen 4601
▁different 4583
id 4555
den 4554
▁down 4542
igen 4538
▁j 4523
▁problem 4523
▁ihre 4518
▁zum 4483
iert 4463
▁sp 4452
▁meine 4445
▁n 4435
▁le 4427
em 4414
▁dies 4368
um 4348
▁wurde 4313
▁weil 4308
▁art 4295
▁through 4290
▁same 4260
ien 4257
000 4256
ine 4237
▁zeit 4235
▁dieses 4232
de 4229
ik 4189
▁e 4186
ol 4176
▁nun 4139
▁come 4136
▁viel 4136
▁machen 4076
▁tun 4076
▁being 4059
▁wirklich 4023
gen 3981
▁use 3969
ion 3967
▁day 3934
▁immer 3934
ver 3930
▁three 3922
sch 3918
▁unsere 3899
ut 3877
ated 3847
▁wo 3836
▁doing 3830
▁jetzt 3800
am 3794
▁put 3792
op 3784
! 3775
▁! 3775
▁wissen 3768
▁system 3721
able 3717
▁human 3714
end 3698
ro 3684
im 3681
▁- 3668
▁any 3667
ra 3662
ive 3661
▁percent 3661
isch 3658
ag 3655
▁ihr 3653
th 3649
ant 3635
ot 3633
▁10 3617
▁after 3609
▁today 3589
ir 3578
▁du 3541
▁keine 3506
▁hatte 3501
▁called 3496
ies 3494
▁sh 3488
▁tell 3488
▁find 3454
▁viele 3451
ia 3443
ul 3441
▁made 3435
ions 3428
▁thank 3421
▁fact 3418
▁selbst 3418
▁ge 3417
▁einfach 3400
ab 3388
▁own 3387
▁v 3387
ity 3375
▁ch 3375
ke 3363
ige 3361
ad 3340
▁great 3333
▁off 3325
▁person 3284
▁diesem 3269
ere 3262
▁hand 3250
▁müssen 3247
▁20 3241
▁year 3231
▁denn 3229
▁unter 3218
os 3217
▁leute 3216
▁waren 3207
▁didn 3204
▁change 3199
▁eines 3193
▁zwei 3191
▁last 3188
▁part 3186
▁talk 3165
▁diesen 3162
ungs 3159
▁dr 3157
lichen 3156
kt 3148
▁mal 3148
ations 3144
▁bin 3140
liche 3132
▁should 3125
▁alles 3112
om 3106
ste 3085
▁andere 3085
▁z 3079
▁before 3073
▁pro 3071
▁bl 3070
▁dinge 3064
ck 3063
▁its 3062
▁another 3060
▁big 3058
▁still 3056
ert 3054
ben 3052
▁jahren 3049
ier 3040
▁never 3031
▁sagen 3018
▁started 3017
▁fl 3016
▁mein 3013
▁end 3009
▁land 2997
▁real 2997
▁idea 2992
▁de 2989
▁better 2974
▁se 2956
ical 2935
he 2924
▁might 2922
chen 2906
▁start 2898
▁wieder 2893
▁thought 2891
▁sagte 2889
and 2884
un 2883
▁give 2878
ens 2864
ian 2862
▁able 2844
▁zur 2827
▁together 2815
ber 2803
▁dis 2803
▁important 2801
▁ob 2799
▁went 2789
▁bis 2784
▁anderen 2780
▁o 2777
▁him 2774
ne 2773
▁story 2773
▁damit 2770
▁würde 2770
ze 2753
▁long 2739
ce 2737
▁next 2729
▁again 2727
iz 2718
▁gut 2716
▁vielleicht 2697
▁show 2695
▁ra 2680
we 2679
▁each 2668
▁ent 2660
▁moment 2652
▁ro 2649
▁car 2644
if 2643
▁bit 2640
hen 2632
ure 2627
▁al 2616
ance 2615
▁does 2608
▁jahre 2601
▁brain 2595
▁women 2591
▁geht 2589
ors 2580
▁course 2580
▁ja 2577
sten 2575
ating 2570
▁applaus 2565
▁found 2554
▁water 2547
▁ago 2544
▁few 2542
ary 2540
▁came 2536
▁heute 2527
ip 2525
▁form 2515
▁used 2510
▁place 2504
▁design 2499
ale 2493
her 2492
ang 2491
▁technology 2483
▁zurück 2480
▁lachen 2479
ment 2469
▁gelächter 2464
▁data 2460
▁teil 2460
▁too 2460
▁best 2458
▁love 2454
ill 2453
▁per 2446
au 2441
▁question 2437
▁between 2428
▁mean 2428
▁zusammen 2428
me 2425
▁point 2414
▁u 2388
ger 2385
▁maybe 2382
▁may 2379
▁computer 2375
men 2368
▁ste 2364
▁muss 2360
age 2354
▁tr 2354
nen 2327
▁understand 2326
▁co 2315
ap 2303
▁live 2301
▁warum 2296
▁ever 2288
ach 2280
▁doesn 2280
ile 2270
▁br 2269
▁genau 2263
▁schon 2262
▁sc 2261
▁school 2255
▁example 2254
▁möchte 2240
fen 2234
▁information 2223
▁done 2216
▁cl 2212
▁ins 2211
▁looking 2209
▁high 2201
▁million 2201
▁einige 2195
▁call 2190
ans 2188
der 2183
icht 2174
▁help 2171
ally 2166
▁children 2164
ess 2147
▁ganz 2143
▁wanted 2143
▁weiter 2141
▁kinder 2137
▁four 2135
▁video 2134
▁always 2130
fe 2124
▁tatsächlich 2124
ics 2121
▁... 2117
▁whole 2106
▁under 2090
▁macht 2080
▁second 2076
▁away 2071
▁feel 2067
bar 2065
▁dort 2065
▁trying 2063
▁davon 2060
▁play 2052
ism 2050
▁power 2045
▁working 2045
▁believe 2039
▁sort 2038
ete 2035
lle 2035
▁country 2035
ken 2031
▁try 2020
▁times 2018
▁pl 2011
▁everything 2007
▁drei 2001
▁3 2000
eln 1998
ins 1998
▁okay 1997
od 1996
▁geschichte 1993
▁space 1983
▁denken 1980
▁jahr 1970
ry 1969
▁hard 1969
▁small 1965
▁using 1964
▁bild 1962
▁home 1957
ib 1956
▁paar 1951
▁hatten 1949
ct 1946
▁inter 1925
▁30 1921
▁könnte 1917
▁far 1914
▁old 1913
▁100 1912
▁number 1911
▁fe 1910
▁ne 1907
▁weg 1904
▁thinking 1901
ons 1900
▁means 1898
ast 1897
▁money 1896
▁five 1892
iger 1884
▁ted 1883
ise 1882
▁50 1882
ug 1880
ass 1875
▁hin 1871
▁music 1870
▁less 1869
▁ex 1868
▁vielen 1867
▁meiner 1863
▁city 1859
gt 1858
▁light 1856
▁kids 1854
▁darüber 1849
▁create 1847
▁ihn 1847
▁weiß 1847
▁took 1846
▁wollen 1842
▁fr 1838
all 1837
ous 1827
▁gehen 1827
▁oh 1823
▁internet 1818
▁beispiel 1815
ac 1813
▁kon 1813
[ 1812
▁[ 1812
iv 1809
] 1808
art 1808
▁] 1808
tern 1802
ph 1798
▁seine 1796
▁di 1794
zu 1791
▁global 1791
▁social 1777
▁gab 1775
▁wurden 1775
heit 1774
▁become 1771
▁enough 1771
▁1 1770
▁bes 1770
ru 1769
▁mar 1768
zen 1766
▁werde 1766
▁care 1764
ak 1762
▁ihren 1761
▁jeder 1759
▁left 1759
▁such 1753
ah 1751
llen 1751
▁men 1750
ierte 1747
ial 1745
fer 1744
▁kein 1743
▁lassen 1743
▁earth 1741
ue 1738
▁future 1738
▁en 1731
▁ask 1729
▁without 1729
ich 1728
▁ca 1725
▁con 1721
▁sondern 1719
▁ar 1718
ri 1717
▁gr 1716
▁tag 1714
▁open 1713
▁getting 1711
▁arbeit 1710
▁ok 1709
ust 1706
▁grund 1706
▁unserer 1706
▁gegen 1698
eren 1691
fl 1689
its 1688
▁making 1688
ings 1687
▁food 1682
▁interesting 1682
▁science 1682
▁comes 1680
▁kl 1680
▁wäre 1680
qu 1674
▁body 1670
▁quite 1663
ow 1658
▁2 1655
▁probably 1655
▁tra 1655
▁natürlich 1652
▁mind 1651
▁energy 1649
▁neue 1649
▁sense 1649
▁doch 1648
ically 1645
▁half 1644
▁talking 1642
▁gew 1640
oc 1636
hr 1635
ren 1634
sp 1633
▁lives 1633
▁vom 1632
▁happened 1631
▁heraus 1631
ite 1629
▁während 1627
ide 1626
▁build 1626
▁par 1626
cht 1625
▁sogar 1625
▁fast 1624
▁kommen 1621
▁process 1621
▁building 1620
▁told 1614
ob 1608
▁dazu 1606
aus 1603
ität 1602
els 1599
▁unser 1599
▁ges 1597
▁health 1597
▁room 1595
▁bet 1590
ents 1589
▁zwischen 1585
▁frage 1584
▁erste 1583
▁set 1583
▁wer 1582
▁schl 1576
▁fall 1575
▁denke 1572
▁15 1571
mer 1570
▁countries 1570
▁wasser 1570
▁project 1569
ful 1568
▁anything 1567
per 1566
ts 1565
▁ha 1565
▁pretty 1565
▁te 1565
▁sl 1559
igkeit 1555
▁kam 1554
▁pre 1554
▁imagine 1553
▁finden 1552
▁family 1551
land 1547
▁side 1544
▁nichts 1543
▁stuff 1541
▁res 1540
▁across 1539
ges 1538
▁gerade 1535
▁ohne 1535
▁glaube 1534
les 1533
▁einmal 1533
ium 1532
▁head 1531
▁reason 1529
▁remember 1528
ates 1526
ick 1523
▁schw 1523
▁coming 1521
▁ma 1520
▁air 1519
aten 1518
▁bad 1516
▁while 1516
ard 1515
▁top 1513
▁else 1511
▁planet 1511
ose 1506
ys 1506
▁denen 1506
▁th 1506
▁besch 1501
▁geben 1501
pr 1499
▁dollars 1498
▁gemacht 1498
ht 1496
pl 1494
▁200 1490
▁young 1490
ish 1487
ized 1486
▁ihrer 1486
▁met 1477
ient 1476
▁saw 1476
iten 1474
▁job 1474
bt 1472
▁later 1471
ord 1470
▁having 1470
▁letzten 1466
io 1463
▁happen 1462
▁kommt 1462
▁gel 1461
▁nie 1459
▁once 1459
ute 1458
▁makes 1458
▁stop 1458
▁york 1454
▁dafür 1450
▁sa 1447
▁zeigen 1447
▁experience 1446
▁simple 1446
▁asked 1444
▁yet 1443
▁ad 1442
igt 1441
▁living 1441
▁reg 1441
▁y 1441
▁ways 1436
▁prozent 1434
▁seen 1434
▁lebens 1432
▁keep 1429
▁learn 1429
▁würden 1428
▁rest 1427
als 1426
elt 1424
eten 1424
▁ger 1424
che 1422
ness 1422
are 1421
▁film 1421
▁star 1419
▁bed 1418
▁bi 1418
▁case 1418
▁almost 1417
▁sure 1414
ight 1408
▁nothing 1406
▁qu 1405
ative 1404
ists 1404
▁sieht 1404
▁public 1402
ition 1400
▁mo 1399
▁billion 1398
▁days 1398
▁six 1398
pe 1396
ay 1393
sen 1389
▁etwa 1389
▁verstehen 1388
▁gra 1387
▁gen 1383
▁someone 1383
▁problems 1382
▁sk 1382
▁stand 1382
ize 1375
▁community 1375
▁dank 1375
▁move 1374
▁passiert 1374
ore 1371
wer 1371
schaft 1370
ged 1369
▁konnte 1369
▁single 1368
▁read 1366
▁sw 1365
▁answer 1363
▁millionen 1363
▁says 1363
▁stellen 1360
▁often 1359
▁comp 1356
ps 1355
und 1355
▁happens 1354
hl 1352
▁4 1352
ind 1351
▁goes 1350
▁both 1349
▁daran 1348
▁ersten 1348
▁pr 1344
▁besser 1342
▁states 1341
är 1340
▁already 1339
▁frauen 1338
ationen 1336
▁gl 1336
▁vier 1335
man 1334
▁inside 1333
▁research 1330
▁whether 1330
▁africa 1329
bl 1328
▁gesch 1328
ats 1326
▁child 1325
enn 1324
ves 1321
▁picture 1320
▁große 1318
og 1316
ät 1314
▁red 1309
▁lang 1307
▁business 1305
▁wichtig 1302
▁within 1301
▁ganze 1300
▁matter 1300
▁history 1299
▁5 1298
ction 1295
ks 1294
▁dabei 1294
geb 1292
▁geld 1292
ied 1290
▁saying 1290
▁gu 1289
▁run 1289
▁amazing 1288
▁experiment 1286
▁str 1285
▁musik 1284
▁super 1283
▁idee 1282
ced 1279
▁fragen 1276
▁nehmen 1274
ator 1273
▁act 1273
▁instead 1273
▁sollte 1273
▁hope 1271
▁myself 1270
▁ag 1269
▁yes 1268
▁possible 1267
ines 1266
ath 1264
▁40 1262
▁book 1262
▁ziemlich 1262
▁könnten 1260
▁team 1257
ffen 1256
▁je 1256
▁basically 1255
ely 1253
▁looked 1253
▁sollten 1253
▁sometimes 1253
▁china 1252
▁night 1251
▁dollar 1250
▁19 1249
ma 1246
▁wrong 1246
to 1245
▁daten 1243
ink 1237
▁self 1236
▁control 1234
▁sm 1233
▁everybody 1232
▁line 1232
kommen 1231
▁name 1230
▁arbeiten 1229
old 1226
one 1226
▁danke 1224
▁test 1224
▁18 1223
▁raum 1222
cken 1218
▁months 1218
▁bring 1217
pt 1216
▁black 1213
uch 1211
▁words 1211
kl 1210
▁hoch 1210
▁kn 1209
ff 1208
▁po 1208
ucht 1207
▁ging 1206
▁government 1206
▁heart 1206
hren 1204
ischer 1203
ven 1203
▁cells 1202
▁wollte 1202
▁face 1201
▁order 1201
▁sprechen 1201
▁imp 1200
▁united 1200
▁age 1199
▁cancer 1199
▁lo 1199
ha 1198
br 1197
▁gar 1196
▁welche 1196
▁meinen 1195
▁seit 1195
▁until 1195
▁12 1194
▁meisten 1193
▁wasn 1193
▁meinem 1192
ock 1191
gel 1190
▁true 1189
ined 1187
ets 1185
▁group 1182
ters 1177
▁ideas 1177
▁ber 1176
ice 1175
▁looks 1174
▁friends 1173
▁isn 1173
acht 1171
▁psych 1171
▁since 1171
red 1169
▁woman 1169
ain 1162
ou 1162
ft 1161
▁guy 1161
ving 1160
ual 1158
oren 1157
▁ende 1156
▁bekommen 1155
▁front 1155
▁must 1155
▁turn 1155
▁national 1154
▁house 1153
auf 1152
iss 1152
ud 1149
▁fa 1148
▁mann 1147
▁nature 1146
▁heard 1145
▁kleinen 1145
ible 1143
ane 1142
▁works 1141
alt 1140
▁sagt 1140
▁darauf 1134
▁normal 1132
mal 1129
▁weniger 1129
anz 1128
ese 1127
▁erst 1126
▁eigentlich 1125
ingen 1124
our 1124
▁middle 1124
▁el 1123
▁gehirn 1123
▁model 1121
▁beg 1119
▁everyone 1119
▁beautiful 1118
▁built 1118
ase 1111
▁somebody 1111
▁weit 1111
▁yeah 1111
nd 1110
▁ind 1110
▁lie 1109
▁sex 1108
geben 1106
▁stories 1106
ierten 1104
ved 1104
▁su 1104
▁technologie 1104
▁jeden 1102
ör 1100
gehen 1099
▁past 1096
00 1095
▁unseren 1094
▁learned 1093
▁mon 1093
bs 1091
▁bo 1091
▁couple 1091
▁sound 1089
▁glauben 1088
ack 1087
ign 1087
▁ang 1086
nis 1085
▁though 1084
▁kleine 1081
halten 1080
ster 1080
▁geb 1080
▁bedeutet 1079
up 1078
▁dec 1078
▁places 1078
▁gleich 1077
▁knew 1077
ler 1076
ire 1075
▁sicher 1074
▁fre 1073
▁study 1073
▁♪ 1072
♪ 1072
ures 1069
▁li 1067
▁exactly 1066
▁state 1066
▁piece 1064
ities 1063
▁society 1062
▁cell 1061
▁decided 1060
▁became 1059
▁share 1058
▁against 1057
▁lernen 1057
▁god 1056
▁jedes 1056
gs 1055
▁taking 1055
▁word 1054
▁hear 1053
▁jemand 1051
▁natur 1049
zeit 1048
▁großen 1048
▁species 1048
ond 1046
▁questions 1043
vers 1042
▁evolution 1041
▁groß 1040
▁company 1039
▁completely 1038
▁dar 1038
▁gener 1038
▁möglich 1038
▁pass 1036
▁walk 1036
▁dna 1035
▁sache 1035
▁bringen 1034
▁large 1034
▁america 1033
▁mother 1033
▁trans 1033
▁wissenschaft 1033
▁conf 1032
▁wahr 1032
▁wirtschaft 1032
▁news 1031
▁sens 1030
▁la 1029
ld 1028
▁ganzen 1028
▁ihm 1028
kte 1027
▁körper 1027
▁lab 1026
▁level 1026
▁themselves 1025
▁bar 1024
▁ourselves 1024
ub 1023
▁exist 1023
▁happening 1023
▁free 1022
int 1019
▁brauchen 1019
▁education 1019
▁wahrscheinlich 1018
▁green 1017
▁9 1016
ement 1013
▁behind 1013
▁cor 1010
▁energie 1009
▁verl 1008
▁rather 1006
▁gets 1005
▁stadt 1005
iges 1003
ability 1002
iter 1001
gend 999
▁8 999
▁disease 998
▁gesehen 998
gew 996
ments 996
▁turns 996
▁ones 995
▁others 995
▁rel 995
▁dre 994
▁zukunft 994
▁view 993
att 992
▁language 992
▁sol 990
▁kinds 989
▁min 989
▁weise 989
ild 987
▁int 987
aut 985
ür 985
▁60 985
▁itself 984
▁material 984
ious 983
▁ph 983
▁spiel 983
▁along 981
▁seite 981
▁systems 981
▁hours 980
sh 979
▁revolution 978
ides 977
▁difficult 977
▁fest 977
▁nutzen 977
▁class 976
▁universe 974
▁beim 973
▁couldn 973
cy 972
▁versuchen 972
▁ihrem 969
▁essen 968
ots 967
▁hinter 967
▁schnell 966
▁sub 966
ismus 964
ular 964
▁wenig 964
▁worked 963
▁environment 962
▁huge 961
▁created 958
cing 957
pf 957
▁frau 957
▁animals 956
▁pe 956
hlen 955
assen 954
▁los 953
agen 952
▁death 952
▁fun 952
less 950
▁fünf 950
▁won 950
% 949
▁% 949
ann 948
▁dachte 945
▁early 944
▁non 944
▁pay 944
▁third 944
▁thousands 944
los 942
ort 942
▁menge 941
▁7 938
▁nein 938
▁cur 937
▁gef 937
▁gest 937
ty 936
▁finally 936
▁perhaps 935
▁sun 935
▁später 934
▁speak 932
▁students 932
„ 931
▁plan 931
▁„ 931
ives 929
▁cr 929
▁em 926
▁cost 924
▁mag 924
▁oft 922
ars 921
az 921
angen 919
▁learning 919
licher 917
ants 916
▁leg 916
▁alt 915
▁minutes 915
▁indem 914
▁11 913
▁ball 913
▁ass 910
▁full 909
▁machine 909
▁ho 908
▁natural 908
▁ort 908
nehmen 906
▁bu 905
▁least 905
▁keinen 904
▁ed 902
▁cool 901
▁entire 899
▁rec 899
oo 898
▁erde 898
▁grow 898
▁invest 897
▁kurz 895
▁particular 895
▁sah 895
▁schaffen 895
▁ur 895
use 894
▁phys 894
▁wh 894
bo 893
▁during 893
▁population 893
▁stre 893
gesch 892
▁jede 891
▁versch 891
com 888
lie 888
▁happy 888
▁inst 888
▁hätte 887
▁organ 887
▁spend 887
cks 885
▁figure 885
▁poor 885
▁ser 885
▁support 884
chten 883
▁jo 883
▁lots 883
isten 881
▁generation 881
▁gave 880
iden 879
▁vers 879
▁gesagt 878
▁neur 878
▁outside 878
▁ref 877
▁arm 876
▁augen 876
▁record 876
▁american 875
▁fü 874
▁kid 874
▁cities 873
▁sit 873
▁amount 872
▁changed 872
▁taken 872
weise 871
▁bef 871
▁verd 871
tel 869
▁eigenen 869
▁gute 869
▁week 869
essen 868
▁mutter 868
▁takes 868
▁funktioniert 867
kr 865
▁80 865
▁anders 865
ont 863
▁ke 862
▁digital 861
▁schauen 861
▁white 861
stand 860
▁25 860
enden 859
▁access 859
▁voll 859
▁companies 858
▁licht 858
ank 857
ric 857
▁kr 857
ionen 856
▁ze 856
kten 855
’ 855
▁present 855
▁reality 855
▁’ 855
▁north 854
▁close 853
▁result 853
▁situation 852
▁game 851
▁guys 851
▁needs 851
ash 850
▁ant 850
▁century 850
▁market 850
▁vis 850
▁wind 850
▁common 849
ktion 848
way 848
▁given 848
▁leave 848
▁difference 847
▁media 847
▁personal 847
▁konnten 846
▁seeing 846
▁fear 845
ost 844
for 843
king 842
▁seven 842
▁baby 841
▁india 841
fä 840
ging 840
▁easy 840
▁erf 840
ble 839
än 839
▁text 839
▁ungefähr 839
▁wohl 837
eter 836
▁allen 836
▁culture 836
▁eyes 836
ckt 835
▁program 835
amm 834
▁heißt 834
▁reach 834
ict 833
olog 833
▁audience 833
imm 832
▁parents 832
▁bank 831
cl 830
form 830
▁break 830
▁stay 829
pp 828
▁ben 828
▁blue 828
▁exp 827
▁geh 827
▁ko 827
▁short 827
▁online 826
▁dist 825
▁ret 825
ms 824
▁center 823
▁neuen 823
▁richtig 823
ina 822
▁low 822
▁area 821
▁product 821
▁hands 820
▁image 820
▁schwer 820
▁special 820
cher 819
hle 819
▁yourself 818
▁bas 816
▁needed 816
▁wa 815
▁haus 814
▁mass 814
▁probleme 814
▁rad 814
▁robot 814
▁6 813
▁began 813
▁bill 813
▁klar 813
▁post 813
▁recht 813
▁google 812
▁labor 812
ome 811
inden 810
inn 810
▁chance 810
▁local 810
ds 809
inen 809
▁seiner 808
▁wor 808
▁turned 807
▁usa 807
▁bevor 806
▁innovation 806
▁moving 806
▁eins 805
▁herum 805
▁risk 805
net 804
hip 803
▁certain 803
▁nächsten 803
▁political 803
voll 802
▁step 802
uer 801
▁kunst 801
▁south 801
glich 800
pro 800
▁bra 800
▁friend 800
▁genug 800
isches 799
▁erzählen 797
▁explain 797
▁humans 797
▁beginning 796
▁ru 796
▁terms 796
hn 795
year 795
▁west 795
cent 794
▁blood 792
▁girl 792
▁add 791
▁pick 789
erung 788
▁adv 788
▁felt 788
ology 787
▁powerful 787
ok 786
ying 785
▁simply 785
▁verb 785
▁web 784
by 783
ination 783
▁dich 783
▁ground 782
▁ans 781
▁box 781
▁eight 781
▁glück 781
▁protect 781
▁realized 780
chn 779
mit 779
▁antwort 779
▁lange 779
▁tre 779
▁longer 778
▁neu 778
▁whatever 778
▁deal 777
▁darum 775
▁ocean 775
▁unserem 775
▁zeigt 775
ality 772
ling 772
▁che 772
▁parts 772
▁economic 771
pen 770
▁bauen 770
▁kennen 770
▁unternehmen 770
par 769
▁equ 769
▁kü 769
▁bisschen 768
▁überall 768
▁ange 765
▁behavior 765
▁cannot 765
▁helfen 765
▁street 764
▁begann 763
lichkeit 762
äu 761
▁bew 761
▁deep 760
▁mechan 760
▁mensch 760
led 759
▁sign 759
▁cont 758
▁wert 757
▁father 756
▁oil 756
▁phone 756
▁dir 755
▁milliarden 754
▁size 754
itz 753
▁approach 753
▁unterschied 753
ner 752
“ 752
▁buy 752
▁“ 752
ett 751
▁manchmal 751
▁wonderful 751
ization 750
ting 749
▁log 749
▁connect 748
▁strong 747
air 746
hand 746
liches 746
tra 744
▁projekt 743
▁lost 742
▁mus 742
istic 741
▁park 741
▁tat 741
ums 740
▁afrika 740
▁ideen 740
▁sei 740
ente 738
▁buch 738
▁tried 738
▁oper 737
ones 736
▁quickly 736
▁verk 736
hal 735
oms 735
▁expect 735
▁hold 735
▁planeten 735
▁ac 734
▁liebe 734
▁ability 732
▁com 732
▁del 732
▁san 732
▁sil 732
▁arten 731
▁ged 731
▁produ 731
▁patient 730
ces 729
teil 729
▁allow 729
▁har 729
▁grand 728
▁international 728
▁send 728
ational 727
▁challenge 727
▁mars 727
▁programm 727
▁zwe 727
▁climate 726
sche 725
▁either 725
▁pain 725
▁aut 724
▁field 724
▁key 724
▁known 724
▁fol 722
▁scale 722
▁spent 722
iven 721
▁growth 721
▁impact 721
issen 720
ong 720
▁ident 720
▁rem 720
▁terror 720
▁gone 719
▁liegt 719
▁mädchen 719
hrt 718
ume 718
▁char 718
▁dark 718
na 717
▁def 717
▁gesellschaft 717
▁stehen 716
izing 715
ory 715
ser 715
ßen 715
▁nennen 715
ange 714
co 714
▁changes 714
▁inc 714
▁informationen 714
▁travel 714
fall 713
iker 713
▁paper 713
ender 712
▁kor 712
▁sam 712
▁seinen 712
▁john 711
▁software 711
uss 710
▁wouldn 710
▁write 710
▁mult 709
▁schön 708
▁weeks 708
ade 707
ians 707
stoff 707
▁trust 707
▁interested 706
▁opportunity 706
▁stra 706
▁16 705
▁vol 705
etzt 704
iff 704
esen 703
▁punkt 703
bel 702
gra 702
▁herz 702
▁meet 702
▁pres 702
ches 700
▁dan 699
▁gott 699
unter 698
▁led 698
lem 697
▁based 697
▁focus 697
▁solar 697
ime 696
▁90 696
▁kar 696
▁extra 695
▁law 695
▁measure 695
▁micro 695
▁verändern 693
ton 692
▁complex 692
▁fra 692
▁watch 692
▁born 691
▁spielen 691
legen 689
▁bre 689
▁deshalb 689
▁hol 689
▁mem 689
▁patients 689
▁sat 689
▁scientists 689
▁treat 689
▁bau 688
▁besonders 688
▁kopf 688
▁predict 688
▁main 687
▁sitting 687
ppe 686
que 686
▁prov 686
▁soll 686
ired 685
ult 685
▁incredible 685
▁fish 684
▁fort 684
iel 683
ith 683
ony 683
system 683
▁color 683
▁reden 683
▁growing 682
▁hundreds 682
▁70 681
▁musste 681
▁shows 681
let 680
▁prim 680
▁sand 680
▁gehört 679
▁moral 679
chte 678
lt 678
schen 678
▁dro 678
▁verhalten 678
▁leuten 677
▁path 677
▁surface 677
ators 676
fü 676
▁physical 676
▁scha 676
▁schule 676
▁cut 675
▁repl 675
bed 674
reich 674
sel 674
ulation 674
▁economy 674
▁sechs 674
▁individual 673
av 672
▁14 672
▁japan 672
▁similar 671
▁morning 670
▁wel 670
▁entwickelt 669
▁flu 669
alen 668
▁dead 668
▁erreichen 668
ffe 667
hol 667
▁understanding 667
act 666
ker 666
▁feeling 666
▁pull 666
ilt 665
itt 665
▁na 665
▁geschichten 664
▁gesundheit 664
▁value 664
gl 663
▁anyone 663
▁code 663
▁wild 663
app 662
ories 662
▁photograph 662
▁wall 662
▁anderes 660
▁appl 660
▁miss 660
ingt 659
ope 659
▁alone 659
▁bereits 659
▁euch 659
row 658
zt 658
▁foot 657
off 656
▁verschiedene 656
▁pen 654
▁brought 653
▁clear 653
▁collect 653
▁gene 653
▁girls 653
▁sim 653
▁aller 652
▁voice 652
▁bilder 651
▁hören 651
zeug 650
▁average 650
▁rich 650
▁son 650
▁success 650
une 649
▁areas 649
▁structure 649
oll 648
▁inv 647
▁literally 647
hnt 645
▁absolutely 645
▁cap 645
▁indien 645
▁listen 645
▁medical 645
ites 644
mm 644
▁development 644
▁fund 644
ox 643
▁hiv 643
▁kur 643
▁numbers 643
▁seem 643
ander 642
rä 642
▁feet 642
▁giving 642
▁hit 642
▁movement 642
▁oben 642
min 641
usion 641
▁ir 641
▁namens 641
▁telling 641
ünd 640
▁hom 640
ichten 639
stell 639
▁ele 639
▁halten 639
▁tools 639
▁chem 638
▁comb 638
▁general 638
▁millions 638
itive 637
▁computers 637
▁vision 637
ances 636
▁angst 636
▁attention 636
▁cra 635
▁dra 635
▁force 635
▁ev 634
▁gefühl 633
▁gold 633
▁rep 633
▁technologies 633
▁truth 633
ress 632
▁soon 632
ball 631
▁jobs 631
▁road 631
▁university 631
▁cons 630
▁machte 630
▁object 630
▁dream 629
▁images 629
▁inf 629
ered 628
ified 628
igung 628
▁17 628
▁bottom 628
▁sinn 628
▁smart 628
▁teilen 628
▁modern 627
▁starting 627
▁seems 626
▁virus 626
atic 625
▁interact 625
etzen 624
sk 624
▁bro 624
▁knowledge 624
▁rock 624
bare 623
ored 623
▁familie 623
▁wunder 623
bes 622
▁201 622
▁erkennen 622
▁kill 622
▁niemand 622
▁transform 622
schl 621
ös 621
▁darin 621
▁nice 621
▁steht 621
▁animal 620
▁col 620
▁mut 620
▁wand 620
▁auto 619
▁cars 619
▁plant 619
▁developed 618
▁network 618
▁realize 618
▁spread 618
of 617
▁aktiv 617
▁bur 617
▁books 616
▁guess 616
sc 615
uren 615
▁meaning 615
▁rate 615
gung 614
▁potential 614
▁regierung 614
▁sagten 614
▁spr 614
▁autom 613
▁daher 613
▁ice 613
ierung 612
▁braucht 612
▁comm 612
▁fire 612
af 611
ends 611
▁offen 611
▁visual 611
▁x 611
▁seinem 610
▁worth 610
▁wrote 610
▁benutzen 609
▁flow 609
▁sea 609
▁spe 609
go 608
ump 608
▁attack 608
▁forward 608
▁irgendwie 608
▁sal 608
▁hum 607
atur 606
▁kosten 606
stellen 605
wn 605
▁tradition 605
/ 604
ift 604
▁/ 604
▁13 604
▁eat 604
▁innerhalb 604
▁college 603
ace 602
ram 602
ted 602
vel 602
▁contin 602
▁issue 602
▁199 601
▁develop 601
▁freund 601
▁stage 601
akt 600
▁fly 600
▁gerne 600
▁running 600
▁type 600
halt 599
richt 599
bre 598
▁mas 598
▁pat 598
▁recently 598
▁report 597
isen 596
▁industry 596
ake 595
▁europe 595
▁mat 595
▁teach 595
▁vorstellen 595
orn 594
▁map 594
▁miles 594
ages 593
reiben 593
aden 592
ared 592
bere 592
ichen 592
▁especially 592
▁hal 592
▁luft 592
ards 591
gh 591
the 591
▁hall 591
▁gruppe 590
▁jedem 590
ep 589
▁beginnen 589
str 587
▁interessant 587
▁link 587
get 586
▁hätten 586
▁klein 586
▁likely 586
annte 585
▁21 585
▁begin 585
▁discovered 585
gest 583
tend 583
▁among 583
▁beiden 583
▁boy 583
▁eye 583
▁medizin 583
▁optim 583
▁wegen 583
icks 582
▁count 582
▁perfect 582
cke 581
rei 581
▁nobody 581
gestellt 580
über 580
▁affect 580
aw 579
schaften 579
ail 578
▁creating 578
▁gives 578
▁pan 578
bild 577
hlt 577
tt 577
▁aren 577
▁choice 577
▁einge 577
▁komplex 577
▁mis 577
▁patienten 577
▁solve 577
ibt 576
ues 576
▁concept 576
▁tas 576
iation 575
änd 575
▁asking 575
▁besten 575
▁bus 575
▁except 575
▁führen 575
▁net 575
ips 574
▁mittel 574
▁männer 574
▁period 574
▁pop 574
▁umwelt 574
▁ta 573
▁verschiedenen 572
arm 571
▁mathemat 571
▁song 571
▁ziel 571
itet 570
▁bitte 570
▁stunden 570
ief 569
ural 569
▁capital 569
▁changing 569
▁chris 569
▁eltern 569
▁obwohl 569
ahr 568
iction 568
▁cam 568
▁fal 568
▁gas 568
▁mark 568
▁touch 568
ence 567
▁issues 567
▁treffen 567
▁op 566
▁organis 566
▁prop 566
▁ton 566
▁ändern 566
unden 565
▁cent 565
▁major 565
▁save 565
▁tiny 565
▁möglichkeit 564
▁tem 564
▁theory 564
rieben 563
▁bewegen 563
ipp 562
▁falls 562
allen 561
bau 561
ogen 561
ound 561
▁beste 561
▁minuten 561
▁region 561
▁relationship 561
▁table 561
▁wonder 561
ix 560
▁inform 560
▁search 560
▁several 560
enten 559
▁wä 559
führt 558
▁designed 558
▁kre 558
▁position 558
▁solution 558
etz 557
iere 557
▁violence 557
ater 556
▁gebäude 556
▁gewalt 556
▁train 556
acy 555
ently 555
ilen 555
▁developing 555
▁wollten 555
▁rein 554
▁talked 554
▁verwenden 554
▁dau 553
▁disc 553
▁effect 553
▁groups 553
▁student 553
▁beyond 552
osed 551
▁bek 551
▁carbon 551
▁coll 551
▁drive 551
▁einzige 551
▁showed 551
▁suggest 551
anten 550
gang 550
kre 550
äm 550
▁eth 550
▁nämlich 550
stellung 549
▁cause 549
▁damals 549
▁gleiche 549
▁haven 549
▁pal 549
▁resources 549
▁unglaublich 549
▁erhalten 548
ager 547
ote 547
ss 547
▁sy 546
▁cal 545
▁sprache 545
▁stück 545
▁tut 545
haft 544
oss 544
▁engag 544
▁entwickeln 544
▁kom 544
out 542
▁communities 542
▁diagn 542
▁nation 542
▁blind 541
▁produce 541
▁subject 541
amer 540
▁drug 540
▁laut 540
▁playing 540
▁schwe 540
▁sounds 540
cker 539
esten 539
ple 539
▁consider 539
anden 538
bringen 538
▁wort 538
▁einigen 537
▁reasons 537
▁sen 537
keit 536
▁follow 536
▁hospital 536
▁typ 536
bi 535
▁available 535
▁clean 535
▁drugs 535
▁erinn 535
▁hey 535
▁pack 535
▁putting 535
▁rights 535
▁verändert 535
iver 534
zie 534
▁wes 534
▁fix 533
▁ök 533
▁anfang 532
▁eher 532
▁kle 532
▁please 532
▁sicht 532
bra 531
▁mom 531
▁positive 531
▁vater 531
▁wr 531
urs 530
▁anybody 530
▁pol 530
▁techn 530
hing 529
▁basic 529
▁feed 529
▁hause 529
▁incredibly 529
ai 528
aren 528
▁english 528
▁kindern 528
▁minute 528
▁sleep 528
▁towards 528
ell 527
ward 527
ode 526
▁becomes 526
▁integr 526
▁menschlichen 526
uchen 525
▁action 525
▁block 525
atz 524
▁bigger 524
▁getan 524
▁pictures 524
▁shape 524
▁stat 524
hnen 523
äd 523
▁24 523
▁lived 523
▁mil 523
▁sent 523
▁sum 523
achen 522
ame 522
ively 522
phone 522
tem 522
▁belie 522
▁bewe 522
▁evidence 522
▁imag 522
▁progress 522
▁zwar 522
ering 521
▁hö 521
▁morgen 521
▁peace 521
▁security 521
ifen 520
▁gem 520
▁obviously 520
ually 519
uit 519
▁tief 519
▁ä 519
▁interest 518
▁near 518
▁statt 518
▁tw 518
ller 517
äng 517
üt 517
▁christ 517
▁emer 517
inge 516
ously 516
▁knows 516
▁redu 516
ific 515
ited 515
▁gemein 515
ately 514
ört 514
▁fand 514
▁list 514
äch 513
▁direkt 513
einander 512
gr 512
lossen 511
▁involved 511
▁länder 511
▁mer 511
▁nine 511
▁office 511
▁zahl 511
ider 510
▁mikro 510
▁river 510
▁speed 510
ains 509
imate 509
▁port 509
▁sold 509
hm 508
▁nor 508
▁sage 508
▁solche 508
▁sachen 507
pped 506
ush 506
▁entwicklung 506
asst 505
▁kraft 505
▁liber 505
▁london 505
▁safe 505
▁died 504
▁eventually 504
▁hel 504
▁hot 504
▁hundred 504
dr 503
▁fundamental 503
▁religion 503
▁version 503
ops 502
uen 502
▁bor 502
▁deliver 502
▁nächste 502
▁persön 502
▁verste 502
alten 501
etic 501
▁account 501
▁bedeut 501
▁dam 501
▁eis 501
▁fahr 501
▁fing 501
▁journey 501
▁mill 501
▁screen 501
rie 500
▁allem 500
▁certainly 500
▁exc 500
▁message 500
▁apart 499
▁betrachten 499
▁threat 499
▁überhaupt 499
heiten 498
umen 498
▁lage 498
ably 497
lin 497
nahme 497
▁500 497
▁app 497
▁neues 497
▁ready 497
ession 496
igh 496
▁arr 496
▁character 496
▁fern 496
▁folgen 496
▁particularly 496
▁rules 496
▁sky 496
▁verbre 496
ils 495
▁fight 495
▁kamen 495
▁krebs 495
met 494
▁indeed 494
▁lin 494
▁mess 494
▁prom 494
ragen 493
▁function 493
ücke 492
▁further 492
▁rot 492
▁ster 492
▁versucht 492
port 491
▁bereit 491
▁einz 491
▁motiv 491
▁pot 491
▁role 491
vor 490
wand 490
▁bringt 490
▁fle 490
▁hor 490
pers 489
▁late 489
▁lim 489
cer 488
▁institution 488
▁möglichkeiten 488
ron 487
▁junge 487
▁universum 487
▁biolog 486
▁dep 486
▁gleichen 486
▁ris 486
▁überras 486
arn 485
iziert 485
line 485
▁month 485
▁movie 485
▁prozess 485
▁scientific 485
▁writing 485
amp 484
▁device 484
▁div 484
▁families 484
▁slow 484
▁starts 484
▁wait 484
come 483
uf 483
▁letzte 483
▁tend 483
▁300 482
▁expl 482
▁island 482
▁stress 482
▁tiere 482
▁crazy 481
▁fab 481
▁jud 481
▁mussten 481
▁struktur 480
▁zellen 480
ases 479
bte 479
ende 479
▁alter 479
▁circ 479
▁higher 479
anc 478
tens 478
▁door 478
▁medicine 478
▁meines 478
▁showing 478
ark 477
ature 477
elte 477
ores 477
racht 477
▁bereich 477
▁dram 477
▁pra 477
ga 476
▁frank 476
▁prob 476
▁stick 476
lung 475
rat 475
res 475
▁compassion 475
▁hy 475
▁lead 475
▁schließlich 475
▁vert 475
▁weitere 475
alk 474
ject 474
mon 474
▁element 474
▁examples 474
▁plants 474
▁rück 474
▁standard 474
▁vorher 474
iken 473
▁camera 473
▁discover 473
▁doctor 473
▁erinnern 473
▁ext 473
▁schools 473
ral 472
raum 472
ängt 472
▁197 472
▁boden 472
▁choose 472
▁erfahrung 472
▁erw 472
▁hell 472
▁impl 472
▁sicherheit 472
▁walking 472
ov 471
unk 471
▁krie 471
▁neben 471
▁platz 471
▁represent 471
▁training 471
con 470
rum 470
wor 470
▁cross 470
▁democracy 470
▁elect 470
▁nuclear 470
50 469
mt 469
▁au 469
▁kultur 469
▁menschliche 469
▁moved 469
▁ult 469
▁wish 469
unde 468
▁fil 468
▁fin 468
▁gemeinsam 468
akes 467
aking 467
ishing 467
▁check 467
▁dingen 467
▁push 467
▁wochen 467
fahren 466
sw 466
▁afghanistan 466
▁african 466
▁cat 466
▁fu 466
▁gedanken 466
▁staaten 466
▁trä 466
▁worden 466
äre 465
▁meant 465
▁mod 465
▁notice 465
▁police 465
▁conversation 464
▁falsch 464
▁accept 463
▁jedoch 463
▁leaders 463
▁schlecht 463
▁wants 463
▁const 462
▁inspir 462
▁supposed 462
druck 461
▁deren 461
▁east 461
▁improve 461
▁materials 461
▁partner 461
▁unten 461
▁versuch 461
ices 460
itation 460
stru 460
▁histor 460
▁sing 460
▁öl 460
ological 459
pre 459
▁chinese 459
▁eigene 459
▁nachdem 459
▁raus 459
▁roll 459
llt 458
▁bekam 458
▁continue 458
▁creative 458
▁facebook 458
▁onto 458
▁return 458
▁rom 458
▁süd 458
▁tages 458
▁tool 458
▁total 458
des 457
immen 457
▁held 457
▁markt 457
▁publikum 457
▁stud 457
▁tier 457
▁totally 457
day 456
izieren 456
▁autos 456
▁context 456
▁everywhere 456
▁favorite 456
erte 455
▁biggest 455
▁med 455
▁poverty 455
▁völlig 455
▁interview 454
▁manche 454
▁response 454
▁service 454
ctions 453
ziehen 453
▁goal 453
▁organization 453
▁sterben 453
baren 452
▁ill 452
▁inn 452
▁intelligence 452
▁mist 452
▁pers 452
▁wären 452
▁conflict 451
▁deut 451
▁passion 451
▁robots 451
▁tro 451
ein 450
▁birth 450
▁civil 450
▁frei 450
▁grunde 450
▁individuals 450
▁memory 450
▁mine 450
▁track 450
ständ 449
tell 449
▁genauso 449
▁genet 449
▁supp 449
▁terr 449
▁vir 449
wh 448
zellen 448
▁beh 448
▁connected 448
▁erk 448
▁exciting 448
▁hilfe 448
▁netz 448
▁suddenly 448
▁urban 448
bauen 447
▁anyway 447
▁gesicht 447
▁largest 447
▁nan 447
aps 446
ike 446
ished 446
▁arab 446
▁pract 446
▁results 446
▁stellt 446
▁tree 446
▁verwand 446
chter 445
li 445
rel 445
▁cold 445
▁grew 445
▁shift 445
▁worse 445
▁zweite 445
cle 444
icken 444
mittel 444
▁aud 444
▁dessen 444
▁fä 444
▁hour 444
▁minds 444
▁museum 444
▁quality 444
▁regen 444
▁zie 444
▁zw 444
itions 443
▁pf 443
▁rain 443
▁schreiben 443
▁usually 443
ales 442
▁direct 442
▁essentially 442
▁fliegen 442
▁kat 442
▁links 442
▁lässt 442
▁machines 442
▁mr 442
▁prison 442
▁schwierig 442
▁sieben 442
eth 441
▁anderer 441
▁bürger 441
▁comput 441
▁named 441
▁press 441
▁shown 441
▁trees 441
▁allowed 440
▁econom 440
▁extraordinary 440
▁watching 440
▁wife 440
annten 439
ktiv 439
ün 439
▁freunde 439
▁hervor 439
▁hop 439
▁schritt 439
▁tele 439
▁tit 439
▁welches 439
ograph 438
▁faster 438
▁geist 438
▁modell 438
▁secret 438
▁zer 438
▁arch 437
▁dev 437
▁forest 437
▁graph 437
▁including 437
▁brand 436
▁extremely 436
▁finding 436
▁king 436
▁lose 436
▁projects 436
▁source 436
▁univers 436
▁verbunden 436
▁zahlen 436
ana 435
weg 435
▁abs 435
▁arbeits 435
▁danach 435
▁finger 435
▁liter 435
▁lower 435
▁pil 435
▁print 435
▁symbol 435
dern 434
isse 434
ower 434
spiel 434
▁ausge 434
▁basis 434
▁daughter 434
▁draw 434
▁lau 434
▁mission 434
▁objects 434
▁perspective 434
▁radio 434
▁rid 434
ital 433
itten 433
äus 433
▁acht 433
▁anzu 433
▁depression 433
▁funktionieren 433
▁male 433
▁sus 433
▁crisis 432
▁ep 432
▁poll 432
▁private 432
▁roboter 432
▁verm 432
jähr 431
▁besteht 431
▁bleiben 431
▁buildings 431
▁central 431
▁gemeinschaft 431
▁lösen 431
▁monate 431
▁russ 431
▁schle 431
own 430
rop 430
▁address 430
▁cy 430
▁games 430
▁meist 430
▁pu 430
▁standing 430
▁thanks 430
rage 429
▁carry 429
▁decision 429
▁sau 429
▁zehn 429
eless 428
zent 428
äss 428
▁president 428
▁waste 428
▁wirk 428
ising 427
▁models 427
▁phil 427
▁rat 427
▁tage 427
▁thema 427
▁website 427
▁extrem 426
▁familien 426
▁fro 426
▁innov 426
gre 425
wert 425
▁fühlen 425
▁lehrer 425
▁mach 425
▁tells 425
ließen 424
nisse 424
nt 424
uring 424
ury 424
▁collabor 424
▁excited 424
▁genes 424
▁however 424
▁meter 424
▁older 424
▁perform 424
▁sad 424
▁strateg 424
▁traum 424
▁tv 424
▁zuerst 424
▁zuvor 424
▁david 423
▁freedom 423
▁schul 423
▁somewhere 423
▁zero 423
kraft 422
▁eing 422
▁skin 422
▁sollen 422
ivity 421
▁win 421
▁woche 421
▁langsam 420
▁ske 420
▁vergleich 420
fahr 419
ück 419
▁aussehen 419
▁consum 419
▁iran 419
▁mor 419
▁qual 419
▁unbe 419
▁unseres 419
organ 418
▁außer 418
▁ern 418
▁israel 418
▁jungen 418
▁opt 418
▁pattern 418
▁suchen 418
▁term 418
arten 417
ured 417
▁islam 417
▁thousand 417
umb 416
▁führt 416
▁killed 416
▁serious 416
▁teachers 416
aly 415
ery 415
ierend 415
itzen 415
por 415
▁198 415
▁arg 415
▁detect 415
▁lösung 415
▁therap 415
▁treatment 415
▁wusste 415
cted 414
▁band 414
▁bunch 414
▁ersch 414
▁fail 414
▁guten 414
▁happiness 414
▁square 414
▁taught 414
halb 413
▁polit 413
▁respond 413
feld 412
führen 412
ica 412
ises 412
nahmen 412
wards 412
▁above 412
▁citizens 412
▁daraus 412
▁dat 412
▁demonstr 412
▁impossible 412
▁lesen 412
▁somehow 412
entlich 411
ror 411
schr 411
▁dad 411
▁fragte 411
▁reich 411
▁truly 411
▁village 411
ester 410
▁ak 410
▁burn 410
▁designer 410
▁erschaffen 410
▁farm 410
▁jen 410
▁successful 410
▁wissenschaftler 410
ident 409
ility 409
uh 409
▁draußen 409
▁frag 409
▁imm 409
▁ap 408
▁cop 408
▁dest 408
▁introdu 408
ieten 407
ole 407
ön 407
▁argument 407
▁att 407
▁cases 407
▁genetic 407
▁kap 407
▁mc 407
▁mental 407
▁stimme 407
ktor 406
▁author 406
▁complicated 406
▁increase 406
▁infect 406
▁krankheit 406
atory 405
▁einges 405
▁erle 405
▁fig 405
▁fit 405
▁policy 405
▁sta 405
▁trial 405
ily 404
▁funktion 404
▁lat 404
▁namen 404
▁plötzlich 404
▁spirit 404
▁town 404
▁wealth 404
▁zerst 404
auen 403
bit 403
zogen 403
▁entdeck 403
▁est 403
▁express 403
▁glass 403
▁leicht 403
▁stelle 403
ids 402
▁bist 402
▁clearly 402
▁hast 402
▁ländern 402
isieren 401
▁architecture 401
▁bewusst 401
▁decisions 401
▁loved 401
ama 400
ipl 400
▁analy 400
▁blog 400
▁conditions 400
▁doctors 400
▁fähigkeit 400
▁grad 400
▁institutions 400
ney 399
▁anstatt 399
▁beifall 399
▁discuss 399
▁erklär 399
▁traditional 399
ieg 398
ios 398
ivers 398
onen 398
▁blut 398
▁cry 398
▁educ 398
▁kept 398
▁krieg 398
▁military 398
▁products 398
▁recognize 398
▁site 398
▁target 398
▁aids 397
▁bodies 397
▁span 397
▁stars 397
du 396
son 396
▁allows 396
▁brains 396
▁flie 396
▁ju 396
▁nacht 396
▁rob 396
▁wahl 396
ison 395
sehen 395
▁appear 395
▁biology 395
▁effort 395
▁emotional 395
▁gre 395
iber 394
ächt 394
▁allein 394
▁base 394
▁card 394
▁respect 394
fte 393
ologie 393
▁afford 393
▁fine 393
▁larger 393
▁zug 393
▁zä 393
ulate 392
▁ann 392
▁magnet 392
▁party 392
▁pieces 392
▁technologien 392
▁verg 392
ahn 391
hält 391
reg 391
stra 391
ähr 391
▁activity 391
▁ding 391
▁healthy 391
▁städte 391
▁tom 391
▁überw 391
annt 390
ister 390
▁achieve 390
▁bewegung 390
▁fair 390
▁ine 390
▁moder 390
$ 389
ache 389
aster 389
ect 389
reten 389
riff 389
unt 389
▁$ 389
▁bacteria 389
▁email 389
▁entfernt 389
▁größte 389
▁herr 389
▁humanity 389
▁jung 389
▁que 389
▁schwier 389
▁sorts 389
▁teen 389
▁verw 389
▁contrib 388
▁erklären 388
▁gele 388
▁greatest 388
▁lines 388
▁performance 388
▁reading 388
▁remind 388
igkeiten 387
omen 387
▁cook 387
▁forms 387
▁stär 387
med 386
uelle 386
▁akt 386
▁aw 386
▁clos 386
▁dog 386
▁governments 386
▁laugh 386
▁miteinander 386
▁prec 386
▁technik 386
▁thr 386
▁transport 386
▁verbra 386
anda 385
arch 385
iet 385
ätze 385
▁anymore 385
▁board 385
▁egal 385
▁elektr 385
▁gebaut 385
▁kaufen 385
▁patterns 385
▁sn 385
▁suff 385
▁teacher 385
erg 384
ued 384
▁contro 384
▁decades 384
▁electricity 384
▁gefunden 384
▁massive 384
▁motor 384
▁points 384
▁scheint 384
▁sehe 384
ented 383
▁durchschnitt 383
▁gelernt 383
▁journal 383
▁washington 383
ook 382
ption 382
▁beschäft 382
▁laufen 382
▁method 382
▁mot 382
▁tatsache 382
▁tax 382
spro 381
▁aufre 381
▁defin 381
▁financial 381
▁haupt 381
▁instrument 381
▁sell 381
▁worry 381
alter 380
sa 380
▁400 380
▁beide 380
▁cheap 380
▁demand 380
▁ran 380
▁sow 380
▁studies 380
▁tie 380
hören 379
isiert 379
iting 379
licht 379
▁explor 379
▁math 379
▁produkt 379
▁throw 379
gliche 378
la 378
yn 378
ße 378
▁anzahl 378
▁disk 378
▁gegenüber 378
▁möchten 378
▁tod 378
▁ähn 378
auft 377
lagen 377
ude 377
▁beginnt 377
▁dangerous 377
▁eg 377
▁erd 377
▁nimmt 377
▁überleben 377
ables 376
zer 376
▁bot 376
▁fahren 376
▁ihres 376
▁jahrhundert 376
▁jemals 376
▁race 376
▁sonnen 376
▁upon 376
auer 375
cept 375
immer 375
inal 375
work 375
▁forsch 375
▁geworden 375
▁größer 375
▁ide 375
▁künstler 375
▁recogn 375
▁series 375
▁sprach 375
▁syn 375
▁wachsen 375
▁weren 375
arbeit 374
ree 374
▁kleines 374
▁written 374
ause 373
here 373
sam 373
▁bang 373
▁bemer 373
▁cru 373
▁echt 373
▁nachdenken 373
▁nahm 373
▁react 373
▁solutions 373
aub 372
iding 372
▁bekannt 372
▁ended 372
▁final 372
▁intern 372
▁passieren 372
▁specific 372
▁teile 372
▁verbindung 372
artet 371
bten 371
innen 371
verse 371
▁americans 371
▁anf 371
▁aufzu 371
▁becoming 371
▁definition 371
▁domin 371
▁kommun 371
▁stark 371
oon 370
▁although 370
▁beings 370
▁individ 370
▁provide 370
▁sec 370
▁services 370
▁straight 370
▁verloren 370
▁verwendet 370
hre 369
ood 369
▁gewesen 369
▁kleiner 369
▁mache 369
▁nat 369
▁skills 369
▁straßen 369
aufen 368
ior 368
itude 368
och 368
▁auss 368
▁blick 368
▁magic 368
▁mid 368
▁page 368
▁throughout 368
▁toll 368
▁wahrheit 368
ften 367
ining 367
plan 367
ppen 367
rig 367
utz 367
zy 367
▁dein 367
▁earlier 367
▁gift 367
▁lay 367
▁virt 367
ahl 366
itte 366
iving 366
punkt 366
ären 366
▁actual 366
▁neg 366
▁neighborhood 366
▁nord 366
▁willing 366
mar 365
urn 365
▁drink 365
▁fanden 365
▁foto 365
▁pflanzen 365
▁richtung 365
▁trick 365
▁tru 365
ius 364
▁architect 364
▁challenges 364
▁empf 364
▁event 364
▁forget 364
▁formen 364
▁gun 364
▁komplett 364
▁laws 364
▁mobile 364
▁nutz 364
▁relig 364
▁transl 364
▁waiting 364
fol 363
mut 363
ütz 363
▁150 363
▁entw 363
▁erfolg 363
▁female 363
▁floor 363
▁immediately 363
▁kan 363
▁malaria 363
▁smaller 363
▁therefore 363
▁cover 362
▁critical 362
▁diseases 362
▁europa 362
▁stu 362
ially 361
ätz 361
▁painting 361
▁prot 361
▁trade 361
▁unfortunately 361
kon 360
urch 360
▁bildung 360
▁broad 360
▁conc 360
▁famous 360
▁genannt 360
▁lö 360
▁od 360
▁regel 360
gende 359
ikal 359
werk 359
▁alive 359
▁batter 359
▁camp 359
▁depend 359
▁detail 359
▁führ 359
▁reihe 359
▁sche 359
▁tur 359
hrer 358
ided 358
uld 358
▁fuß 358
▁hü 358
▁schne 358
▁twitter 358
▁üb 358
blick 357
iate 357
ify 357
▁anywhere 357
▁philosoph 357
▁preis 357
▁professor 357
▁zent 357
ape 356
kehr 356
▁engineering 356
▁herausforderung 356
▁hinaus 356
▁workers 356
▁apply 355
▁glau 355
▁muster 355
▁stimmt 355
▁wen 355
ience 354
▁acc 354
▁babies 354
▁clim 354
▁current 354
▁gefähr 354
▁sor 354
grund 353
itäten 353
▁anfangen 353
▁gezeigt 353
▁shot 353
▁store 353
▁verschw 353
fs 352
scha 352
▁ce 352
▁expensive 352
▁pet 352
▁politics 352
▁reise 352
▁relationships 352
▁types 352
time 351
▁bez 351
▁colleagues 351
▁perfe 351
▁pressure 351
▁sozial 351
tter 350
▁career 350
▁environmental 350
▁industrial 350
▁jump 350
▁none 350
▁shared 350
▁signal 350
▁weight 350
ala 349
ott 349
ring 349
stellt 349
▁ernst 349
▁niemals 349
▁speaking 349
▁stellte 349
▁tö 349
anger 348
bur 348
isierung 348
ließ 348
▁activ 348
▁income 348
▁occur 348
atch 347
kel 347
put 347
▁attra 347
▁fac 347
▁inj 347
▁lag 347
▁mitt 347
▁prinzip 347
▁western 347
ami 346
▁adapt 346
▁aufgabe 346
▁benutzt 346
▁content 346
▁fuel 346
ctive 345
rad 345
▁ear 345
▁finanz 345
▁glücklich 345
▁levels 345
▁weltweit 345
sy 344
▁anim 344
▁aufge 344
▁bere 344
▁celebr 344
▁costs 344
▁erl 344
▁fantastic 344
▁fisch 344
▁kompl 344
▁medien 344
▁mitgefühl 344
▁nar 344
▁original 344
▁strom 344
▁tal 344
▁werk 344
ald 343
je 343
▁absolut 343
▁größe 343
▁stock 343
▁vern 343
hig 342
kes 342
▁alten 342
▁himself 342
▁leist 342
▁maschine 342
▁meer 342
▁range 342
▁technolog 342
▁unique 342
▁zeige 342
ante 341
itted 341
▁bel 341
▁calcul 341
▁geboren 341
▁honest 341
▁mountain 341
▁plastic 341
▁realität 341
▁seconds 341
▁sexual 341
▁sofort 341
▁values 341
ather 340
ativ 340
ests 340
hin 340
osph 340
rik 340
▁effective 340
▁greater 340
▁hund 340
▁hälfte 340
▁las 340
▁listening 340
▁ober 340
▁veränderung 340
▁vorstellung 340
▁ziehen 340
ained 339
ications 339
ries 339
rupt 339
ule 339
▁maß 339
▁pap 339
▁random 339
▁rise 339
krank 338
ution 338
wasser 338
é 338
▁ahead 338
▁beauty 338
▁driving 338
▁flug 338
▁größten 338
▁oberfläche 338
▁prote 338
▁strange 338
▁wow 338
atives 337
zustellen 337
▁erstaun 337
▁neurons 337
▁physics 337
▁rede 337
▁tumor 337
▁wann 337
▁whose 337
cess 336
dem 336
imin 336
uchs 336
äfte 336
▁2000 336
▁bald 336
▁decade 336
▁entscheiden 336
▁fehler 336
▁organizations 336
▁practice 336
▁richtige 336
▁schneller 336
änge 335
▁bon 335
▁direction 335
▁einfache 335
▁findet 335
▁früh 335
▁price 335
▁theater 335
▁umgebung 335
▁walked 335
kam 334
oten 334
uellen 334
weit 334
wohn 334
▁aid 334
▁genome 334
▁heutzutage 334
▁simpl 334
este 333
fully 333
gency 333
ienen 333
▁bat 333
▁expand 333
▁lieben 333
▁resist 333
▁sick 333
▁worst 333
mals 332
▁anw 332
▁enjoy 332
▁forth 332
▁invent 332
▁politik 332
▁terrible 332
eder 331
ellen 331
inder 331
ko 331
omes 331
▁install 331
▁loc 331
▁mitte 331
▁mö 331
▁prototy 331
antic 330
iling 330
lage 330
opp 330
▁bekommt 330
▁emotion 330
▁epidem 330
▁faszin 330
▁hang 330
▁mode 330
▁mostly 330
▁ozean 330
▁prost 330
▁tim 330
▁viol 330
aries 329
ention 329
▁choices 329
▁früher 329
▁hair 329
▁länger 329
▁meeting 329
▁trotzdem 329
▁zeich 329
ängen 328
▁brachte 328
▁erfolgreich 328
▁erreicht 328
▁etc 328
▁ignor 328
▁quick 328
▁rolle 328
▁straße 328
▁synth 328
▁vereinigten 328
ough 327
so 327
▁connection 327
▁einf 327
▁experiences 327
▁production 327
▁wider 327
genommen 326
hör 326
rate 326
room 326
uck 326
yl 326
▁following 326
▁recent 326
▁summer 326
▁various 326
pfen 325
ses 325
spr 325
▁conserv 325
▁familiar 325
▁sorry 325
ows 324
pfl 324
▁35 324
▁catch 324
▁dance 324
▁fat 324
▁forschung 324
side 323
sum 323
▁ah 323
▁decide 323
▁effects 323
▁fantast 323
▁geheim 323
▁invol 323
▁mix 323
▁nennt 323
▁streets 323
▁veröff 323
bew 322
cies 322
igten 322
seite 322
used 322
uted 322
▁beat 322
▁gegeben 322
▁grav 322
▁hinzu 322
▁interess 322
▁isol 322
▁match 322
▁näher 322
▁rechts 322
▁sonst 322
▁soziale 322
ags 321
pect 321
ulf 321
yle 321
zeichnet 321
▁amerika 321
▁foundation 321
▁legs 321
▁popular 321
▁videos 321
ley 320
ool 320
▁helped 320
▁hundert 320
▁mond 320
▁reag 320
▁tour 320
▁vari 320
▁öff 320
arbeiten 319
atically 319
uten 319
▁breat 319
▁eben 319
▁hinein 319
▁hoffe 319
▁moon 319
▁ten 319
gu 318
ived 318
vention 318
änder 318
▁abstra 318
▁brauch 318
▁gent 318
▁hoffnung 318
▁justice 318
▁saving 318
▁setzen 318
▁stopped 318
▁teaching 318
▁tragen 318
▁understood 318
amin 317
ients 317
setzen 317
tw 317
ull 317
wart 317
▁artist 317
board 316
essed 316
ober 316
sicht 316
▁anti 316
▁atom 316
▁fir 316
▁gingen 316
▁gleichzeitig 316
▁mögen 316
▁nu 316
▁pa 316
▁raise 316
▁voraus 316
cin 315
prob 315
▁blau 315
▁boys 315
▁complete 315
▁consciousness 315
▁det 315
▁geschäft 315
▁hind 315
▁prof 315
▁societies 315
▁studenten 315
hung 314
ims 314
itor 314
ket 314
▁despite 314
▁drop 314
▁einzelne 314
▁priv 314
▁schre 314
▁shar 314
ave 313
gte 313
lder 313
ret 313
▁determ 313
▁machten 313
▁photos 313
▁scre 313
▁sonne 313
▁subst 313
▁ter 313
▁versuche 313
▁verurs 313
bildung 312
gem 312
ication 312
oes 312
osen 312
rom 312
▁erwä 312
▁highly 312
▁irgend 312
▁ment 312
▁nearly 312
▁programs 312
▁regeln 312
▁useful 312
ades 311
immt 311
lemen 311
ätzen 311
▁electron 311
▁firma 311
▁komp 311
▁legal 311
▁mad 311
▁meinung 311
▁ren 311
gar 310
▁ansehen 310
▁apple 310
▁bestimmt 310
▁erschein 310
▁experiments 310
▁flying 310
▁hab 310
▁task 310
arter 309
col 309
mus 309
throp 309
▁assum 309
▁baum 309
▁begannen 309
▁communicate 309
▁demokratie 309
▁directly 309
▁heim 309
▁liegen 309
▁lok 309
▁prakt 309
▁uses 309
▁vergessen 309
ancy 308
ielt 308
▁afraid 308
▁california 308
▁campaign 308
▁großer 308
▁instance 308
▁lar 308
▁myth 308
▁remarkable 308
▁richard 308
▁sorgen 308
▁trag 308
▁wichtige 308
asse 307
ding 307
entliche 307
igte 307
uell 307
ügen 307
▁below 307
▁gang 307
▁gender 307
▁genommen 307
▁interessiert 307
▁offensichtlich 307
▁details 306
▁gesamte 306
▁loss 306
▁müs 306
▁planets 306
▁rule 306
▁tor 306
ctor 305
lassen 305
load 305
wo 305
▁av 305
▁concl 305
▁extreme 305
▁identity 305
▁invented 305
▁negative 305
▁particip 305
▁surgery 305
▁survive 305
▁symmet 305
▁wussten 305
▁ähnlich 305
leben 304
nung 304
pping 304
ript 304
zial 304
zug 304
▁atmosphere 304
▁bedeutung 304
▁biological 304
▁cultural 304
▁dadurch 304
▁dom 304
▁lack 304
▁lief 304
▁nahe 304
▁orte 304
▁prevent 304
▁reflect 304
▁spezie 304
ision 303
üh 303
▁bal 303
▁engine 303
▁feels 303
▁hung 303
▁knowing 303
▁members 303
▁obvious 303
▁papier 303
▁quad 303
▁rare 303
▁vacc 303
mas 302
» 302
▁broken 302
▁infrastructure 302
▁karte 302
▁oxygen 302
▁» 302
lauf 301
▁amb 301
▁ba 301
▁ban 301
▁dorf 301
▁einzelnen 301
▁irgende 301
▁len 301
▁profound 301
▁tens 301
▁unf 301
kop 300
oot 300
teile 300
ücken 300
▁ancient 300
▁brief 300
▁erkennt 300
▁fähigkeiten 300
▁geschieht 300
▁industrie 300
▁kannst 300
▁profit 300
▁tür 300
▁var 300
fr 299
lled 299
oph 299
recht 299
▁enormous 299
▁harm 299
▁normalerweise 299
▁purpose 299
▁surprising 299
▁vo 299
▁wichtiger 299
bu 298
pekt 298
viel 298
▁bessere 298
▁closer 298
▁entscheidungen 298
▁hydro 298
▁noticed 298
▁scientist 298
▁statist 298
iß 297
setz 297
vent 297
▁causes 297
▁condition 297
▁custom 297
▁frustr 297
▁fundament 297
▁gerät 297
▁heat 297
▁herauszufinden 297
▁mur 297
▁passierte 297
▁possibly 297
▁seemed 297
▁sympt 297
▁übrigens 297
ham 296
iers 296
ologen 296
tex 296
« 296
▁anz 296
▁erwachsen 296
▁grenzen 296
▁lif 296
▁nachrichten 296
▁temperature 296
▁unc 296
▁zugang 296
▁« 296
▁älter 296
gleich 295
ware 295
▁anges 295
▁ec 295
▁ergebnis 295
▁intu 295
▁les 295
▁meth 295
▁monaten 295
▁responsibility 295
▁sä 295
▁tau 295
ene 294
entlichen 294
ika 294
term 294
▁45 294
▁alternative 294
▁answers 294
▁bewegt 294
▁cloud 294
▁communication 294
▁corner 294
▁deine 294
▁frame 294
▁gay 294
▁ham 294
▁hole 294
▁hotel 294
▁konzept 294
▁mobil 294
▁nachhalt 294
▁paid 294
▁sequen 294
▁speech 294
▁vertra 294
aced 293
bling 293
ka 293
▁bakterien 293
▁dachten 293
▁flo 293
▁joy 293
▁networks 293
▁schrieb 293
▁visit 293
key 292
other 292
öl 292
▁bevölkerung 292
▁buchst 292
▁dying 292
▁gruppen 292
▁incl 292
▁jemanden 292
▁ka 292
▁neun 292
▁rece 292
▁shock 292
iti 291
stre 291
zus 291
▁aware 291
▁beziehung 291
▁capt 291
▁cre 291
▁forces 291
▁intelligent 291
▁pun 291
gru 290
idge 290
oß 290
▁auft 290
▁außerdem 290
▁beobachten 290
▁designers 290
▁explore 290
▁fell 290
▁val 290
lungen 289
oth 289
schw 289
spe 289
ym 289
▁addition 289
▁agree 289
▁arme 289
▁creativity 289
▁easily 289
▁flü 289
▁gern 289
▁missing 289
▁narr 289
▁prior 289
▁sozialen 289
▁surround 289
ichter 288
ifying 288
ised 288
lling 288
zahl 288
äl 288
▁einfluss 288
▁husband 288
▁slide 288
house 287
ille 287
val 287
▁bom 287
▁budget 287
▁core 287
▁england 287
▁intens 287
▁mü 287
▁nasa 287
▁sahen 287
▁slightly 287
produ 286
ray 286
umm 286
▁auszu 286
▁bestimmten 286
▁compet 286
▁einstein 286
▁finde 286
▁geschrieben 286
▁master 286
▁stamm 286
▁swe 286
▁twice 286
lement 285
vert 285
zeugen 285
▁brother 285
▁corpor 285
▁cou 285
▁cro 285
▁darwin 285
▁gesprochen 285
▁habit 285
▁heiß 285
▁partners 285
▁pred 285
▁ultimately 285
▁verh 285
ahren 284
fft 284
führ 284
ickt 284
iest 284
osc 284
▁academ 284
▁fertig 284
▁francisco 284
▁gather 284
▁hil 284
▁september 284
▁studie 284
▁supply 284
▁ug 284
▁zeug 284
izes 283
▁afrikan 283
▁beobacht 283
▁capacity 283
▁desert 283
▁devices 283
▁differently 283
▁easier 283
▁george 283
▁matters 283
▁medic 283
▁möglichen 283
▁nations 283
▁significant 283
▁wood 283
fre 282
ional 282
wür 282
▁aspect 282
▁chemical 282
▁emp 282
▁feuer 282
▁funny 282
▁host 282
▁nied 282
▁published 282
▁sustainable 282
▁vast 282
▁är 282
▁öffentlich 282
20 281
ams 281
arf 281
lly 281
ologists 281
▁aufmerksamkeit 281
▁bomb 281
▁cult 281
▁inspired 281
andel 280
anken 280
ield 280
mark 280
ologist 280
▁absch 280
▁beginn 280
▁bleibt 280
▁brazil 280
▁gesetz 280
▁join 280
▁produzieren 280
▁squ 280
▁toile 280
▁virtual 280
cial 279
esis 279
inct 279
▁000 279
▁abend 279
▁atl 279
▁bücher 279
▁cooper 279
▁haut 279
▁landes 279
▁schein 279
▁vertrauen 279
achten 278
auten 278
ception 278
elf 278
hne 278
isation 278
▁99 278
▁bought 278
▁ends 278
▁enter 278
▁gutes 278
▁indian 278
▁molecules 278
▁note 278
▁phot 278
▁photo 278
▁played 278
▁prin 278
▁spot 278
▁strength 278
▁ständig 278
▁sü 278
achsen 277
ichte 277
ösen 277
▁anschauen 277
▁bridge 277
▁contact 277
▁keiner 277
▁kreat 277
▁natür 277
▁reduce 277
▁sym 277
▁umf 277
▁verfol 277
▁wid 277
agt 276
uing 276
ulations 276
ören 276
▁chair 276
▁diversity 276
▁gal 276
▁gefü 276
▁horiz 276
▁kong 276
▁platform 276
▁verlassen 276
▁verlieren 276
▁window 276
▁yellow 276
▁zumindest 276
▁zweiten 276
bert 275
ights 275
richten 275
▁bott 275
▁dynam 275
▁id 275
▁meters 275
▁orten 275
▁soc 275
▁spaces 275
▁tough 275
▁winz 275
head 274
imal 274
ommen 274
▁compon 274
▁conference 274
▁evolved 274
▁gotten 274
▁hack 274
▁irgendwo 274
▁origin 274
▁sharing 274
▁sitzen 274
▁spaß 274
▁sur 274
ahlen 273
ara 273
hi 273
satz 273
stoffe 273
▁benöt 273
▁bilden 273
▁efficient 273
▁evol 273
▁gebiet 273
▁markets 273
▁menschheit 273
▁moments 273
▁protein 273
▁richtigen 273
▁sobald 273
▁vergangenheit 273
▁vortrag 273
asen 272
icher 272
ino 272
teilen 272
öst 272
▁balance 272
▁bein 272
▁ble 272
▁gearbeitet 272
▁harvard 272
▁iraq 272
▁rund 272
▁schreck 272
▁schulen 272
▁tausende 272
▁vac 272
ming 271
▁document 271
▁eigen 271
▁forever 271
▁leadership 271
▁lights 271
▁produced 271
▁structures 271
▁television 271
▁unabhäng 271
aling 270
gment 270
▁75 270
▁architektur 270
▁coast 270
▁gek 270
▁mouth 270
▁opposite 270
▁prä 270
▁schluss 270
▁seed 270
▁seiten 270
▁sustain 270
▁vent 270
itting 269
uchten 269
water 269
▁birds 269
▁degrees 269
▁denkt 269
▁entirely 269
▁gehe 269
▁heil 269
▁importantly 269
▁investment 269
▁nachricht 269
▁ries 269
▁situ 269
▁snow 269
▁tagen 269
▁valley 269
▁verst 269
▁verte 269
do 268
ew 268
nehm 268
schein 268
▁amazon 268
▁eng 268
▁gewe 268
▁giant 268
▁monat 268
▁seas 268
▁shoot 268
▁taten 268
▁wire 268
orders 267
org 267
rib 267
sm 267
uster 267
▁esc 267
▁grü 267
▁hero 267
▁iron 267
▁objekt 267
▁refuge 267
▁regular 267
▁stim 267
▁wieso 267
▁wü 267
gese 266
hmen 266
tte 266
▁altern 266
▁berü 266
▁fold 266
▁imagination 266
▁interessante 266
▁offer 266
▁prep 266
▁religious 266
▁spezies 266
▁wirklichkeit 266
ennen 265
icles 265
iles 265
machen 265
uments 265
▁active 265
▁appar 265
▁cyber 265
▁farmers 265
▁garden 265
▁golf 265
▁großes 265
▁helping 265
▁interpret 265
▁manip 265
▁switch 265
▁trouble 265
▁vie 265
glie 264
onds 264
under 264
weis 264
▁anderson 264
▁anst 264
▁bringing 264
▁copy 264
▁creates 264
▁describe 264
▁erlaubt 264
▁flex 264
▁gesp 264
▁hearing 264
▁meas 264
▁passed 264
▁pig 264
▁repe 264
▁verbessern 264
ament 263
dig 263
erei 263
read 263
rü 263
vie 263
wissen 263
▁aff 263
▁antibiot 263
▁avoid 263
▁berg 263
▁dire 263
▁magazine 263
▁particles 263
▁row 263
▁shr 263
▁spending 263
▁studien 263
▁tanz 263
▁tap 263
chend 262
cr 262
gust 262
prü 262
▁agre 262
▁artists 262
▁dig 262
▁double 262
▁focused 262
▁geschehen 262
▁ker 262
▁kontrolle 262
▁reaktion 262
▁station 262
▁studying 262
▁surv 262
▁zivil 262
atisch 261
bst 261
ingu 261
like 261
▁background 261
▁büro 261
▁chines 261
▁engage 261
▁erzeugen 261
▁fert 261
▁firmen 261
▁medium 261
▁molekü 261
anzen 260
erein 260
pper 260
tz 260
ufen 260
▁0 260
▁2008 260
▁armut 260
▁ast 260
▁aufgrund 260
▁bear 260
▁fully 260
▁gro 260
▁horr 260
▁inner 260
▁repres 260
▁verbinden 260
▁winter 260
arily 259
bei 259
esse 259
gere 259
haus 259
ikan 259
ped 259
zusch 259
▁deb 259
▁dreams 259
▁erh 259
▁großartig 259
▁tä 259
▁versuchte 259
▁voller 259
▁zufä 259
atures 258
ca 258
itung 258
pass 258
reat 258
▁embra 258
▁french 258
▁kaum 258
▁ner 258
▁suffering 258
▁tissue 258
ativen 257
ih 257
pol 257
▁accur 257
▁alex 257
▁aussieht 257
▁commercial 257
▁denk 257
▁eating 257
▁geg 257
▁nachzudenken 257
▁nenne 257
▁teams 257
imp 256
kom 256
weisen 256
▁194 256
▁beispiele 256
▁compl 256
▁komb 256
▁mont 256
▁otherwise 256
▁pleas 256
▁puzz 256
▁verein 256
atten 255
legt 255
mel 255
mission 255
usive 255
▁196 255
▁alte 255
▁befinden 255
▁emotions 255
▁ideal 255
▁krankheiten 255
▁leads 255
▁mos 255
▁possibility 255
▁recover 255
▁sport 255
▁universität 255
▁vict 255
▁weird 255
altet 254
based 254
car 254
ipped 254
schluss 254
ächen 254
▁coffee 254
▁foreign 254
▁galax 254
▁gall 254
▁govern 254
▁ken 254
▁landscape 254
▁manag 254
▁max 254
▁obser 254
▁stem 254
▁wechsel 254
ault 253
ilien 253
tube 253
änger 253
▁23 253
▁arbeitete 253
▁billions 253
▁clin 253
▁failure 253
▁faith 253
▁femin 253
▁gross 253
▁hyper 253
▁initi 253
▁linie 253
▁occ 253
▁previous 253
▁privile 253
▁profession 253
▁turning 253
abel 252
ification 252
ought 252
werke 252
zä 252
▁22 252
▁bedro 252
▁british 252
▁cart 252
▁discovery 252
▁emb 252
▁erzählt 252
▁lebt 252
▁mort 252
▁opportunities 252
▁physic 252
▁sowohl 252
▁stuck 252
▁ursprün 252
aring 251
bor 251
ded 251
olution 251
schlag 251
▁attempt 251
▁brilliant 251
▁brings 251
▁chann 251
▁charles 251
▁counter 251
▁dasselbe 251
▁differences 251
▁feedback 251
▁gebra 251
▁gere 251
▁himmel 251
▁ign 251
▁james 251
▁kil 251
▁kop 251
▁mart 251
▁nahrung 251
▁plast 251
▁separ 251
▁warm 251
aker 250
berg 250
leist 250
tr 250
▁behau 250
▁bisher 250
▁constru 250
▁contra 250
▁diagram 250
▁großartige 250
▁illustr 250
▁pakistan 250
▁prize 250
▁raised 250
▁sprachen 250
▁unmöglich 250
esh 249
icate 249
osis 249
ples 249
ulated 249
werfen 249
▁abge 249
▁appreci 249
▁arzt 249
▁außen 249
▁challen 249
▁complexity 249
▁fotograf 249
▁gebracht 249
▁gras 249
▁hur 249
▁km 249
▁opened 249
▁präsident 249
▁traf 249
bung 248
hem 248
ichtet 248
ierter 248
inken 248
zieren 248
▁2010 248
▁bone 248
▁ebene 248
▁egypt 248
▁enc 248
▁geograph 248
▁globalen 248
▁gründ 248
▁messen 248
▁opp 248
▁verbess 248
esth 247
uern 247
ulous 247
▁arbeitet 247
▁bienen 247
▁bub 247
▁collective 247
▁dahin 247
▁diejenigen 247
▁fallen 247
▁gewinnen 247
▁kore 247
▁letter 247
▁necessarily 247
▁paul 247
▁regierungen 247
▁riesige 247
▁sekunden 247
▁smell 247
▁traffic 247
▁wörter 247
aktion 246
ef 246
lern 246
oun 246
▁ausz 246
▁außerhalb 246
▁bab 246
▁boat 246
▁calls 246
▁compared 246
▁dimens 246
▁entdecken 246
▁events 246
▁personen 246
▁sinne 246
▁typical 246
▁wald 246
bled 245
ning 245
oud 245
▁entdeckt 245
▁entweder 245
▁höch 245
▁majority 245
▁remain 245
▁responsible 245
▁schr 245
▁sohn 245
▁strategy 245
▁talks 245
▁tests 245
▁universal 245
▁worte 245
falls 244
hes 244
kü 244
orben 244
uls 244
ält 244
üs 244
▁bull 244
▁druck 244
▁elektron 244
▁explos 244
▁ingenie 244
▁lucky 244
▁parent 244
▁shouldn 244
▁ven 244
▁wol 244
amb 243
erve 243
▁angeb 243
▁benefits 243
▁childhood 243
▁ehrlich 243
▁electr 243
▁entstand 243
▁fur 243
▁handelt 243
▁hi 243
▁leading 243
▁leider 243
▁proud 243
▁stell 243
▁verstanden 243
▁walls 243
▁weib 243
ased 242
iens 242
nam 242
program 242
rieb 242
ways 242
▁brown 242
▁cand 242
▁desire 242
▁engineers 242
▁erzähl 242
▁management 242
▁multiple 242
▁nigeria 242
▁passen 242
▁republ 242
▁satell 242
▁sister 242
▁solchen 242
▁som 242
▁wear 242
& 241
dimensional 241
ky 241
osition 241
tended 241
tes 241
vere 241
▁& 241
▁believed 241
▁berüh 241
▁betrachtet 241
▁bird 241
▁condu 241
▁crit 241
▁destroy 241
▁führte 241
▁gefragt 241
▁hörte 241
▁krankenhaus 241
▁names 241
▁recy 241
▁wachstum 241
▁übertra 241
aming 240
inter 240
licherweise 240
▁ach 240
▁antworten 240
▁beach 240
▁bg 240
▁church 240
▁correct 240
▁ebenso 240
▁elements 240
▁erleben 240
▁european 240
▁fill 240
▁fortschritt 240
▁gesamten 240
▁höher 240
▁impro 240
▁kern 240
▁landwirtschaft 240
▁letztes 240
▁reve 240
▁spl 240
▁telefon 240
▁uner 240
▁weapons 240
bing 239
dlich 239
osp 239
▁chicago 239
▁creat 239
▁eig 239
▁erfahren 239
▁erg 239
▁gekommen 239
▁klin 239
▁ressourcen 239
▁restaurant 239
▁volunte 239
30 238
elten 238
idence 238
iste 238
light 238
llig 238
print 238
welt 238
▁according 238
▁aster 238
▁deeply 238
▁empower 238
▁entscheidung 238
▁erhö 238
▁expert 238
▁för 238
▁jer 238
▁jew 238
▁kol 238
▁kollegen 238
▁lu 238
▁notwend 238
▁patent 238
▁phones 238
dy 237
ex 237
heim 237
itch 237
ja 237
spre 237
wa 237
▁communic 237
▁date 237
▁entschieden 237
▁institute 237
▁krit 237
▁michael 237
▁notion 237
▁recon 237
▁remote 237
▁äu 237
aged 236
iment 236
known 236
pfe 236
ploy 236
ständig 236
▁befindet 236
▁belong 236
▁bib 236
▁brust 236
▁coal 236
▁crime 236
▁ermöglicht 236
▁fighting 236
▁grab 236
▁hypoth 236
▁höhe 236
▁innen 236
▁invisible 236
▁lesson 236
▁methode 236
▁sir 236
ential 235
etze 235
fel 235
größ 235
iat 235
mann 235
▁analog 235
▁ancest 235
▁bestimmte 235
▁beweg 235
▁biom 235
▁bound 235
▁circle 235
▁distance 235
▁effiz 235
▁failed 235
▁flugzeug 235
▁gewiss 235
▁glam 235
▁mathematik 235
▁migr 235
▁pair 235
▁publ 235
▁runter 235
▁schmerz 235
▁vorstell 235
pack 234
right 234
stück 234
üss 234
▁archite 234
▁dur 234
▁equal 234
▁fangen 234
▁figured 234
▁frieden 234
▁gap 234
▁hate 234
▁helps 234
▁hilft 234
▁konfl 234
▁kontin 234
▁necessary 234
▁poem 234
▁status 234
▁succeed 234
▁telesc 234
▁warten 234
▁wählen 234
endes 233
onom 233
▁chr 233
▁currently 233
▁dritte 233
▁due 233
▁einkommen 233
▁entwick 233
▁fashion 233
▁fore 233
▁inde 233
▁künst 233
▁lock 233
▁lust 233
▁magn 233
▁obs 233
▁professional 233
▁rit 233
▁steve 233
▁studied 233
▁tremendous 233
▁tu 233
▁welcher 233
glichen 232
ipe 232
quit 232
seits 232
änden 232
öt 232
▁angeles 232
▁außergewöhn 232
▁ecosystem 232
▁ergebnisse 232
▁fotos 232
▁holding 232
▁operation 232
▁retten 232
▁wohn 232
▁zit 232
▁zo 232
edy 231
enken 231
ennt 231
holen 231
rän 231
same 231
zess 231
▁accident 231
▁adults 231
▁amerikaner 231
▁astronom 231
▁ath 231
▁behandlung 231
▁benefit 231
▁breast 231
▁flag 231
▁flight 231
▁folks 231
▁gespr 231
▁kampf 231
▁kit 231
▁mathematics 231
▁phenomenon 231
▁py 231
▁schö 231
▁sector 231
▁ship 231
▁verantwort 231
▁wür 231
icated 230
mäß 230
zwe 230
▁bewusstsein 230
▁concent 230
▁gig 230
▁hunderte 230
▁kä 230
▁läuft 230
▁motion 230
▁mär 230
▁newspap 230
▁organisms 230
▁parad 230
▁require 230
▁staat 230
▁wearing 230
cul 229
platz 229
ument 229
wick 229
▁af 229
▁auff 229
▁handeln 229
▁jack 229
▁kilometer 229
▁könig 229
▁leader 229
▁leidenschaft 229
▁leisten 229
▁limit 229
▁lunch 229
▁mehrere 229
▁noise 229
▁rev 229
▁schützen 229
▁theorie 229
▁tick 229
▁zelle 229
▁öffentlichen 229
front 228
industrie 228
kle 228
mitteln 228
stelle 228
ussen 228
▁anwend 228
▁boston 228
▁bright 228
▁gps 228
▁heads 228
▁hält 228
▁leaving 228
▁lösungen 228
▁managed 228
▁muslim 228
▁polar 228
▁pregn 228
▁sammeln 228
▁sodass 228
▁wheel 228
han 227
volle 227
äche 227
ände 227
▁bag 227
▁bege 227
▁competition 227
▁dür 227
▁everyday 227
▁fairly 227
▁inspiration 227
▁jul 227
▁maschinen 227
▁netzwerk 227
▁olymp 227
▁proto 227
▁systeme 227
▁uni 227
▁zeigte 227
aces 226
ax 226
chnologie 226
entie 226
piel 226
▁asia 226
▁bio 226
▁charge 226
▁einander 226
▁era 226
▁erstens 226
▁frem 226
▁influence 226
▁kick 226
▁lehr 226
▁materie 226
▁normally 226
▁plane 226
▁reform 226
▁schm 226
▁trained 226
▁trend 226
▁trip 226
ada 225
antly 225
cles 225
iegen 225
itter 225
kn 225
zeuge 225
äusch 225
▁appe 225
▁bru 225
▁caught 225
▁diplom 225
▁fascinating 225
▁freiheit 225
▁limited 225
▁rhyth 225
▁soil 225
▁spielt 225
▁tri 225
▁unl 225
▁vermut 225
ek 224
gründ 224
iegel 224
ingungen 224
ove 224
ping 224
ther 224
▁consequences 224
▁court 224
▁cycle 224
▁darf 224
▁kal 224
▁lady 224
▁married 224
▁mel 224
▁ordnung 224
▁rational 224
▁researchers 224
▁unless 224
▁untersuchen 224
arbeiter 223
erence 223
gegen 223
idents 223
ktur 223
oid 223
osing 223
rag 223
rew 223
▁closed 223
▁einzigen 223
▁entsch 223
▁hopefully 223
▁hände 223
▁investig 223
▁manage 223
▁minister 223
▁proper 223
▁schlimm 223
▁wunderbar 223
▁wün 223
erweise 222
ierende 222
ießen 222
isst 222
kar 222
wär 222
zw 222
▁artificial 222
▁austral 222
▁daily 222
▁earn 222
▁expon 222
▁gründe 222
▁gründen 222
▁haw 222
▁hidden 222
▁kör 222
▁marketing 222
▁mouse 222
▁steps 222
▁sudden 222
▁surprise 222
▁unge 222
▁zunächst 222
book 221
elle 221
enty 221
kur 221
nungen 221
utes 221
▁600 221
▁amerikan 221
▁arbeite 221
▁enth 221
▁finished 221
▁harder 221
▁jahrzehn 221
▁launch 221
▁leid 221
▁nutr 221
▁ox 221
▁pur 221
▁purs 221
▁related 221
bahn 220
cell 220
erungen 220
ighten 220
ossen 220
wood 220
▁akzept 220
▁allgemein 220
▁biologie 220
▁bran 220
▁colors 220
▁crash 220
▁department 220
▁dinosaur 220
▁eleph 220
▁employ 220
▁guter 220
▁jahres 220
▁option 220
▁sin 220
▁van 220
▁ve 220
▁zone 220
altung 219
erv 219
sein 219
▁analysis 219
▁bezug 219
▁bits 219
▁degree 219
▁followed 219
▁fresh 219
▁gestellt 219
▁grundlegen 219
▁herunter 219
▁nummer 219
▁phase 219
▁principle 219
▁struggle 219
▁surprised 219
▁zeitpunkt 219
ban 218
enne 218
seit 218
sprechen 218
▁argue 218
▁constantly 218
▁damage 218
▁drag 218
▁farbe 218
▁lik 218
▁paint 218
▁paris 218
▁präsent 218
▁rand 218
▁rates 218
▁selben 218
▁spect 218
▁wide 218
▁zeiten 218
blich 217
buch 217
deut 217
di 217
drück 217
ills 217
indung 217
xic 217
▁27 217
▁begins 217
▁click 217
▁conscious 217
▁described 217
▁einzu 217
▁faces 217
▁fossil 217
▁grown 217
▁herausfinden 217
▁herstellen 217
▁heutigen 217
▁mentioned 217
▁pfl 217
▁seriously 217
▁unt 217
▁unver 217
▁wal 217
aters 216
cil 216
ested 216
rast 216
ried 216
ushing 216
äuser 216
▁1990 216
▁2009 216
▁acceler 216
▁arms 216
▁beziehungen 216
▁bread 216
▁businesses 216
▁categ 216
▁caused 216
▁creation 216
▁edge 216
▁highest 216
▁myster 216
▁plus 216
▁quote 216
▁richt 216
▁round 216
▁samm 216
▁separate 216
▁soul 216
▁tochter 216
▁watched 216
▁zustand 216
era 215
gesetzt 215
kommt 215
len 215
oting 215
ston 215
▁beruf 215
▁besond 215
▁compare 215
▁dritten 215
▁ebenfalls 215
▁electric 215
▁ereign 215
▁fluss 215
▁kamera 215
▁metaphor 215
▁pac 215
▁principles 215
▁quant 215
▁quantum 215
▁safety 215
▁schlechte 215
▁slowly 215
▁spring 215
▁studio 215
▁uhr 215
iop 214
ittel 214
orm 214
scht 214
▁2007 214
▁advantage 214
▁ausl 214
▁brut 214
▁concerned 214
▁contain 214
▁eas 214
▁englisch 214
▁folgendes 214
▁fourth 214
▁genom 214
▁geschaffen 214
▁homes 214
▁lift 214
▁posit 214
▁selten 214
▁shoes 214
▁strang 214
▁tons 214
▁transition 214
▁ut 214
▁verme 214
▁vote 214
▁wett 214
anne 213
aterial 213
ba 213
gener 213
ican 213
oted 213
sec 213
ssystem 213
▁army 213
▁aussch 213
▁auswirkungen 213
▁autism 213
▁considered 213
▁creatures 213
▁digit 213
▁display 213
▁einfachen 213
▁erinnere 213
▁erzählte 213
▁experts 213
▁fields 213
▁increasingly 213
▁init 213
▁kilometers 213
▁phänomen 213
▁pounds 213
▁reprodu 213
▁schönheit 213
▁survival 213
▁veränderungen 213
▁wenige 213
500 212
asi 212
box 212
ource 212
pa 212
ration 212
teilung 212
äte 212
▁breath 212
▁bush 212
▁chap 212
▁clever 212
▁coun 212
▁generations 212
▁globale 212
▁inse 212
▁kapital 212
▁kranken 212
▁sel 212
▁stood 212
▁thomas 212
▁trib 212
gin 211
lection 211
uries 211
▁250 211
▁battle 211
▁commit 211
▁durchge 211
▁effe 211
▁erstaunlich 211
▁handy 211
▁ii 211
▁marriage 211
▁nieder 211
▁oceans 211
▁perfectly 211
▁polic 211
▁schuld 211
▁shut 211
▁spricht 211
▁verletz 211
eden 210
ferenz 210
fig 210
rechen 210
soft 210
stud 210
sweise 210
▁amerikanischen 210
▁benutz 210
▁chaos 210
▁cho 210
▁concern 210
▁curious 210
▁dh 210
▁dinner 210
▁endlich 210
▁farben 210
▁gren 210
▁klimaw 210
▁laptop 210
▁movies 210
▁received 210
▁surge 210
▁whenever 210
cket 209
ear 209
ias 209
lo 209
orie 209
text 209
vin 209
zimmer 209
▁announ 209
▁comfortable 209
▁dou 209
▁eur 209
▁exact 209
▁fehl 209
▁geburt 209
▁goals 209
▁hill 209
▁hunger 209
▁hurt 209
▁ital 209
▁mam 209
▁moves 209
▁obama 209
▁picked 209
▁pos 209
▁sequence 209
▁sicherlich 209
▁transparen 209
▁verkaufen 209
▁verstand 209
cious 208
ergie 208
imeter 208
prof 208
rochen 208
schnitt 208
stadt 208
uum 208
vit 208
▁armen 208
▁bezahl 208
▁debate 208
▁ens 208
▁existence 208
▁germany 208
▁hart 208
▁letters 208
▁mexico 208
▁männ 208
▁pages 208
▁planning 208
▁radical 208
▁sculpt 208
▁treated 208
▁whom 208
arr 207
forsch 207
hme 207
ielten 207
ras 207
ruction 207
▁belief 207
▁calling 207
▁exists 207
▁exper 207
▁lies 207
▁mächt 207
▁rechte 207
▁seltsam 207
▁tum 207
▁unterstützen 207
▁veget 207
▁versus 207
▁vorbei 207
▁wichtigste 207
erk 206
ieb 206
iete 206
ieß 206
irt 206
jekte 206
ktionen 206
pten 206
▁1980 206
▁bees 206
▁bestehen 206
▁circum 206
▁deswegen 206
▁dry 206
▁identify 206
▁kreis 206
▁massen 206
▁organisation 206
▁scen 206
▁scene 206
▁ther 206
▁tisch 206
▁titan 206
▁worried 206
▁zusätz 206
anke 205
icians 205
ierungs 205
imes 205
ograf 205
selben 205
öhn 205
▁attach 205
▁ausw 205
▁capable 205
▁claim 205
▁flat 205
▁grass 205
▁hasn 205
▁hem 205
▁hosp 205
▁invited 205
▁jahrhunderts 205
▁stattdessen 205
▁suche 205
▁untersuch 205
▁ö 205
bewer 204
gth 204
indern 204
jekt 204
keiten 204
maß 204
za 204
ändern 204
▁arts 204
▁assist 204
▁experienced 204
▁frequen 204
▁gain 204
▁getroffen 204
▁größere 204
▁jene 204
▁kürz 204
▁leaves 204
▁observ 204
▁operating 204
▁opin 204
▁ord 204
▁orig 204
▁schwarz 204
▁tomorrow 204
▁unglaubliche 204
▁untersche 204
▁verrückt 204
▁versor 204
▁wake 204
ays 203
barkeit 203
fort 203
gefunden 203
hy 203
ida 203
xt 203
▁abzu 203
▁advanced 203
▁article 203
▁australia 203
▁echte 203
▁exhib 203
▁fas 203
▁gering 203
▁hirn 203
▁independent 203
▁interesse 203
▁könnt 203
▁nütz 203
▁offic 203
▁rub 203
▁sommer 203
▁statistics 203
▁transformation 203
▁unterschiedliche 203
▁youn 203
asion 202
band 202
endet 202
geschichte 202
icity 202
ünst 202
▁agriculture 202
▁appro 202
▁cow 202
▁deeper 202
▁designing 202
▁distrib 202
▁essential 202
▁existiert 202
▁humor 202
▁scann 202
▁vibr 202
▁zusch 202
chem 201
inner 201
iot 201
ipping 201
raft 201
rete 201
stream 201
uous 201
was 201
ystem 201
▁angefangen 201
▁bäume 201
▁convin 201
▁disappear 201
▁einzigart 201
▁erne 201
▁exec 201
▁illness 201
▁militär 201
▁mothers 201
▁quiet 201
▁ring 201
▁select 201
▁vi 201
▁voices 201
▁werte 201
▁wesen 201
▁widers 201
▁wohin 201
▁zweitens 201
hend 200
iness 200
mat 200
oh 200
oper 200
otic 200
word 200
ütter 200
▁1960 200
▁absolute 200
▁cosm 200
▁dealing 200
▁gewicht 200
▁keeping 200
▁neuronen 200
▁ol 200
▁schicken 200
▁setting 200
▁stone 200
▁wisdom 200
ateg 199
ci 199
craft 199
ibr 199
onnen 199
osh 199
riere 199
schutz 199
ube 199
▁adult 199
▁auge 199
▁canada 199
▁cour 199
▁einfacher 199
▁engineer 199
▁erfunden 199
▁et 199
▁expected 199
▁fortun 199
▁fühlte 199
▁großart 199
▁honor 199
▁insects 199
▁janu 199
▁konzentr 199
▁kämpfen 199
▁relevant 199
▁seat 199
▁stunde 199
▁toward 199
▁wars 199
▁wave 199
▁witness 199
hold 198
ikt 198
point 198
sta 198
stein 198
uc 198
wend 198
wärts 198
▁bare 198
▁bestand 198
▁brit 198
▁continent 198
▁dorthin 198
▁eigenschaften 198
▁emissions 198
▁favor 198
▁finish 198
▁interaction 198
▁kir 198
▁komm 198
▁ladies 198
▁leiden 198
▁projekte 198
▁sites 198
▁weather 198
▁wur 198
alle 197
lose 197
nete 197
passen 197
place 197
zusagen 197
▁feld 197
▁filled 197
▁gehirns 197
▁infin 197
▁kontakt 197
▁mac 197
▁materialien 197
▁messages 197
▁ordinary 197
▁reward 197
▁rou 197
▁rural 197
▁signals 197
▁soldiers 197
▁suit 197
astrop 196
forder 196
illed 196
ission 196
itals 196
oden 196
odes 196
qual 196
tech 196
▁abhäng 196
▁associated 196
▁behandeln 196
▁characters 196
▁erzeugt 196
▁jün 196
▁liste 196
▁peak 196
▁polio 196
▁schüler 196
▁solid 196
▁stimmen 196
▁stupid 196
▁trotz 196
abl 195
apse 195
atte 195
down 195
eline 195
fin 195
fälle 195
geht 195
ground 195
sens 195
zieh 195
ächst 195
äten 195
▁conversations 195
▁diam 195
▁dienst 195
▁eigenes 195
▁erwarten 195
▁halb 195
▁lern 195
▁nahmen 195
▁reaction 195
▁sentence 195
▁städten 195
ford 194
haltung 194
icide 194
iesen 194
vas 194
zü 194
▁begeist 194
▁blow 194
▁charakter 194
▁gehir 194
▁hadn 194
▁infrastruktur 194
▁layer 194
▁neuer 194
▁nähe 194
▁produkte 194
▁schrift 194
▁tieren 194
▁toy 194
▁unit 194
▁veränd 194
▁yesterday 194
connect 193
gy 193
minister 193
ris 193
set 193
will 193
▁clinical 193
▁encoun 193
▁films 193
▁ganzes 193
▁interface 193
▁launched 193
▁navig 193
▁nervous 193
▁pollen 193
▁punkte 193
▁pure 193
▁sending 193
▁struggl 193
▁survey 193
▁trop 193
▁verfüg 193
▁verschieden 193
▁worten 193
abilities 192
ae 192
ania 192
elbe 192
gef 192
oke 192
rück 192
örung 192
▁ansatz 192
▁aufgenommen 192
▁bühne 192
▁chromos 192
▁cognitive 192
▁depress 192
▁dunk 192
▁illegal 192
▁infl 192
▁klasse 192
▁komme 192
▁luck 192
▁norden 192
▁organic 192
▁processes 192
▁rechten 192
▁resource 192
▁schwarze 192
▁schöne 192
▁sek 192
▁somit 192
▁technical 192
▁verwend 192
▁wondering 192
▁öffnen 192
acle 191
akers 191
cast 191
maßen 191
pte 191
ächlich 191
▁authent 191
▁begonnen 191
▁beit 191
▁classroom 191
▁gegangen 191
▁gesundheits 191
▁organized 191
▁organs 191
▁roof 191
▁schlag 191
▁seien 191
▁shad 191
▁spekt 191
▁tall 191
▁tank 191
▁veran 191
▁wikipedia 191
aben 190
achte 190
ival 190
wirtschaft 190
▁2005 190
▁ahnung 190
▁arrived 190
▁autonom 190
▁ax 190
▁budd 190
▁colon 190
▁demokrat 190
▁erfü 190
▁ermöglichen 190
▁fer 190
▁gedacht 190
▁gree 190
▁großteil 190
▁herausforder 190
▁insel 190
▁kontroll 190
▁mamm 190
▁microsc 190
▁nerven 190
▁sar 190
▁satellite 190
▁schwar 190
▁singing 190
▁verantwortung 190
▁verständnis 190
assung 189
bank 189
ibility 189
ktiven 189
orfen 189
wind 189
▁betra 189
▁convention 189
▁driver 189
▁establ 189
▁factory 189
▁glo 189
▁knochen 189
▁kolle 189
▁lernte 189
▁march 189
▁neut 189
▁nöt 189
▁paying 189
▁property 189
▁sett 189
▁spoke 189
▁stabil 189
▁stru 189
▁verfügung 189
▁waves 189
▁weak 189
▁wichtigsten 189
ammt 188
dien 188
erne 188
gers 188
iar 188
inde 188
iors 188
ither 188
markt 188
zunehmen 188
▁65 188
▁atmosphäre 188
▁eure 188
▁feelings 188
▁forced 188
▁geschah 188
▁hör 188
▁liquid 188
▁loch 188
▁maps 188
▁mary 188
▁merk 188
▁privacy 188
▁risks 188
▁schaut 188
▁schutz 188
▁scr 188
▁sees 188
▁union 188
▁variety 188
▁vulnerable 188
▁ärzte 188
▁ü 188
cture 187
inning 187
order 187
oßen 187
taus 187
ötet 187
▁alph 187
▁bay 187
▁belo 187
▁chain 187
▁courage 187
▁desto 187
▁doubt 187
▁drawing 187
▁effic 187
▁entstehen 187
▁exercise 187
▁geschwindigkeit 187
▁haupts 187
▁hört 187
▁improv 187
▁load 187
▁losing 187
▁läch 187
▁manufacturing 187
▁member 187
▁molecule 187
▁nächstes 187
▁paradig 187
▁requires 187
▁review 187
▁spreche 187
▁stanford 187
▁tot 187
▁trad 187
▁unbed 187
▁wege 187
ec 186
ey 186
heben 186
ilfe 186
isf 186
lang 186
othe 186
sichtig 186
udes 186
▁alzheimer 186
▁bell 186
▁bess 186
▁brauchte 186
▁cartoon 186
▁cond 186
▁criminal 186
▁effekt 186
▁einsatz 186
▁enem 186
▁equivalent 186
▁erstes 186
▁gebe 186
▁glas 186
▁hinge 186
▁maint 186
▁mall 186
▁medikamente 186
▁nam 186
▁perce 186
▁promise 186
▁refer 186
▁reicht 186
▁release 186
▁saved 186
▁schau 186
▁southern 186
▁techniques 186
▁trifft 186
▁verbindungen 186
▁vess 186
bü 185
ee 185
ilities 185
isters 185
pet 185
stände 185
weil 185
zz 185
▁absor 185
▁actions 185
▁allerdings 185
▁awesome 185
▁bow 185
▁connections 185
▁economics 185
▁equipment 185
▁facing 185
▁flor 185
▁geschafft 185
▁happ 185
▁importance 185
▁input 185
▁kenya 185
▁laden 185
▁poetry 185
▁politische 185
▁prem 185
▁respons 185
▁riesigen 185
▁seines 185
▁shame 185
▁spec 185
▁specifically 185
▁testing 185
▁thro 185
▁toler 185
▁tolle 185
▁vorh 185
aging 184
ahre 184
back 184
brechen 184
fun 184
ife 184
liegen 184
ography 184
oses 184
wir 184
▁36 184
▁advert 184
▁diss 184
▁drogen 184
▁dynamic 184
▁factors 184
▁incent 184
▁investieren 184
▁jeff 184
▁konzentrieren 184
▁mountains 184
▁nahrungs 184
▁regul 184
▁transplant 184
▁trillion 184
▁verbringen 184
▁verhält 184
▁vö 184
▁änder 184
aff 183
bet 183
eut 183
ieben 183
▁32 183
▁adm 183
▁algorithm 183
▁behandelt 183
▁broke 183
▁cameras 183
▁chirur 183
▁covered 183
▁enor 183
▁entertain 183
▁gdp 183
▁gefä 183
▁jugend 183
▁languages 183
▁meat 183
▁nah 183
▁naja 183
▁schlüssel 183
▁temperatur 183
▁unternehmer 183
abled 182
dollar 182
ierenden 182
leun 182
meister 182
ounds 182
pft 182
stehen 182
yal 182
▁adopt 182
▁anatom 182
▁cas 182
▁chart 182
▁chip 182
▁civilization 182
▁construction 182
▁cutting 182
▁democratic 182
▁diff 182
▁distribution 182
▁dopp 182
▁einsch 182
▁entlang 182
▁erforschen 182
▁erlauben 182
▁explan 182
▁freude 182
▁grün 182
▁herzen 182
▁hide 182
▁intelligenz 182
▁jemandem 182
▁kohlen 182
▁microbes 182
▁risiko 182
▁stein 182
▁subs 182
▁subt 182
▁todes 182
▁users 182
▁verwir 182
iences 181
iency 181
itution 181
life 181
oney 181
rt 181
ruption 181
zing 181
▁barr 181
▁command 181
▁crowd 181
▁dagegen 181
▁dialog 181
▁entfern 181
▁entrepreneurs 181
▁galaxy 181
▁gradu 181
▁großbritann 181
▁halt 181
▁higgs 181
▁hollywood 181
▁immun 181
▁includ 181
▁insp 181
▁kauf 181
▁legen 181
▁library 181
▁ließ 181
▁metal 181
▁official 181
▁politischen 181
▁produziert 181
▁sem 181
▁theore 181
▁unglaub 181
aled 180
cel 180
formen 180
frieden 180
gaben 180
itarian 180
leich 180
roph 180
üsse 180
▁betrifft 180
▁capture 180
▁caus 180
▁cloth 180
▁cure 180
▁dimensions 180
▁dokument 180
▁erwart 180
▁ethn 180
▁forests 180
▁fällen 180
▁fällt 180
▁grandmother 180
▁grö 180
▁herzustellen 180
▁insekten 180
▁lawy 180
▁nest 180
▁pink 180
▁prove 180
▁schn 180
▁spiele 180
▁standards 180
▁surve 180
▁sweet 180
▁valuable 180
▁wis 180
anta 179
bie 179
icy 179
leg 179
lu 179
nel 179
uel 179
zeichnen 179
▁achie 179
▁anger 179
▁artikel 179
▁bee 179
▁beteil 179
▁chemistry 179
▁enorm 179
▁fellow 179
▁gelegenheit 179
▁habt 179
▁journalist 179
▁monitor 179
▁ms 179
▁muscle 179
▁orch 179
▁relatively 179
▁sogen 179
▁sports 179
▁ts 179
▁user 179
▁vide 179
▁westen 179
▁zuh 179
cers 178
ending 178
ernt 178
fläche 178
iner 178
möglich 178
not 178
pes 178
rift 178
zeichen 178
öse 178
▁1950 178
▁added 178
▁congress 178
▁coral 178
▁crow 178
▁effectively 178
▁empathy 178
▁entsteht 178
▁entwicklungsl 178
▁feder 178
▁freunden 178
▁gh 178
▁immigr 178
▁innovative 178
▁konstru 178
▁lebensmittel 178
▁metap 178
▁obst 178
▁pm 178
▁pow 178
▁regard 178
▁rücken 178
▁sophistic 178
▁talent 178
▁thinks 178
▁vorhers 178
▁wra 178
▁ändert 178
anted 177
far 177
ktivität 177
mail 177
maschine 177
oons 177
orien 177
roll 177
zed 177
▁26 177
▁airplane 177
▁assoc 177
▁beeinfl 177
▁cave 177
▁collection 177
▁davor 177
▁daß 177
▁ded 177
▁diabetes 177
▁embar 177
▁emerging 177
▁eröff 177
▁fis 177
▁galaxies 177
▁gesellschaften 177
▁größeren 177
▁healthcare 177
▁houses 177
▁häufig 177
▁intellectual 177
▁interessanter 177
▁killing 177
▁koll 177
▁kontrollieren 177
▁kreativität 177
▁movements 177
▁oct 177
▁pin 177
▁puts 177
▁scared 177
▁silence 177
▁stolz 177
▁vehicle 177
▁warming 177
▁worldwide 177
▁zusammenarbeit 177
chsel 176
da 176
ennung 176
erem 176
fra 176
icon 176
ordin 176
spra 176
▁adam 176
▁algorithms 176
▁antar 176
▁assem 176
▁benötigen 176
▁bitten 176
▁blocks 176
▁clip 176
▁consumption 176
▁fenster 176
▁filter 176
▁finan 176
▁genutzt 176
▁grade 176
▁hoffentlich 176
▁irgendwann 176
▁kennt 176
▁laser 176
▁novel 176
▁occup 176
▁politicians 176
▁portra 176
▁protection 176
▁q 176
▁selber 176
▁staff 176
▁twe 176
▁typen 176
▁underneath 176
▁vill 176
▁wiederum 176
▁zut 176
afen 175
cting 175
fil 175
gie 175
kton 175
ns 175
▁accompl 175
▁allt 175
▁anonym 175
▁ants 175
▁bemerkens 175
▁broth 175
▁corruption 175
▁dunkel 175
▁empty 175
▁erfahrungen 175
▁forgot 175
▁gefängnis 175
▁geomet 175
▁geschäfts 175
▁ghana 175
▁hielt 175
▁hoff 175
▁incre 175
▁kaliforn 175
▁kulture 175
▁langen 175
▁liebl 175
▁lied 175
▁lifetime 175
▁medikament 175
▁milliarde 175
▁minim 175
▁polize 175
▁scan 175
▁shapes 175
▁szen 175
▁weiterhin 175
▁werkzeuge 175
ever 174
part 174
unch 174
▁aqu 174
▁awful 174
▁carefully 174
▁designs 174
▁encou 174
▁exchange 174
▁holes 174
▁kunden 174
▁location 174
▁lon 174
▁manhatt 174
▁nä 174
▁plat 174
▁released 174
▁resc 174
▁tausend 174
▁transportation 174
▁unsicht 174
▁whereas 174
▁zentrum 174
▁zukünft 174
finden 173
forschung 173
gro 173
hlung 173
izität 173
utzt 173
äst 173
▁aust 173
▁bedürf 173
▁berechn 173
▁britain 173
▁conv 173
▁convinced 173
▁credit 173
▁dennoch 173
▁employees 173
▁exam 173
▁expression 173
▁geme 173
▁heavy 173
▁inequality 173
▁klass 173
▁kostet 173
▁meeres 173
▁properties 173
▁rab 173
▁rout 173
▁tail 173
▁thoughts 173
▁typically 173
▁unex 173
▁victims 173
afrika 172
hte 172
iften 172
ird 172
isms 172
itzt 172
ogram 172
ork 172
pektive 172
resp 172
schirm 172
▁chemicals 172
▁define 172
▁dolph 172
▁entschied 172
▁gates 172
▁gros 172
▁increased 172
▁klima 172
▁kommunikation 172
▁mystery 172
▁männern 172
▁neighbors 172
▁null 172
▁parallel 172
▁reisen 172
▁roughly 172
▁stecken 172
▁vag 172
▁windows 172
▁wunsch 172
▁ält 172
bruch 171
chnen 171
krieg 171
nde 171
ody 171
phones 171
räge 171
tten 171
uff 171
unft 171
uz 171
zwischen 171
▁activities 171
▁ameisen 171
▁beeinflusst 171
▁besuch 171
▁entwickelten 171
▁environments 171
▁facts 171
▁frühen 171
▁gaben 171
▁gilt 171
▁graduate 171
▁increasing 171
▁irak 171
▁lasst 171
▁pros 171
▁robert 171
▁setz 171
▁signs 171
▁spectrum 171
▁spitze 171
▁unterschiede 171
▁unterstützung 171
▁vielfalt 171
▁zusammenhang 171
angt 170
cont 170
ette 170
fish 170
icit 170
mögen 170
ograp 170
seh 170
sequen 170
▁appropr 170
▁beeind 170
▁chimpanze 170
▁definitely 170
▁encoura 170
▁entscheid 170
▁europ 170
▁fach 170
▁fühlt 170
▁gestalten 170
▁graf 170
▁inher 170
▁lux 170
▁melt 170
▁mention 170
▁nick 170
▁num 170
▁phr 170
▁possibilities 170
▁remo 170
▁repräsent 170
▁surf 170
▁transfer 170
▁unlike 170
bol 169
iny 169
utions 169
zin 169
▁comfort 169
▁molec 169
▁nerv 169
▁participate 169
▁potentially 169
▁rapidly 169
▁required 169
▁ride 169
▁sauerstoff 169
▁selling 169
▁soft 169
▁sources 169
▁taus 169
▁texas 169
▁worlds 169
▁wunderschön 169
gn 168
iko 168
dom 167
für 167
zeich 167
▁erfol 167
▁fant 167
ember 166
iele 166
▁ty 166
▁vort 166
asing 165
äft 165
▁elekt 165
▁energ 165
▁influen 165
▁mob 165
▁wicht 165
ßer 164
▁distr 164
▁verrück 164
abil 163
duc 163
gangen 163
▁fut 163
▁ple 163
▁ungl 163
higkeit 162
hood 162
▁rele 162
abor 161
ammen 161
▁brill 161
▁indust 161
dle 160
osystem 160
po 160
reichen 160
zeugt 160
▁betracht 160
hnung 159
isp 159
itze 159
äuft 159
▁ess 159
▁hous 159
▁musl 159
hö 158
oty 158
▁astr 158
usst 157
zept 157
▁nut 157
▁sag 157
▁ansch 156
▁doc 156
chan 155
▁hon 155
▁krank 155
▁relative 155
▁requ 155
▁spra 155
▁transpar 155
▁veh 155
attle 154
ght 154
ibly 154
▁behav 154
▁danger 154
▁dinos 154
ny 153
ugen 153
▁gesund 153
▁harv 153
▁kult 153
▁shap 153
cts 152
vir 152
▁neighbor 152
ändert 151
▁käm 151
▁oze 151
▁verbind 150
cc 149
nitt 149
ount 149
oy 149
▁dru 149
aa 148
ires 148
serv 148
▁dien 148
▁einzel 148
▁unters 148
gewöhn 147
▁unterstütz 147
ichtlich 146
over 146
▁engl 146
▁whe 146
▁gesam 145
▁irgendw 145
gress 144
verage 144
▁glob 144
▁hau 144
hau 143
onder 143
urt 143
▁entwicklungs 143
▁erzä 143
▁verle 143
gram 142
äter 142
äß 142
▁frü 142
▁hig 142
▁verbr 142
fluss 141
mend 141
omet 141
▁aufga 141
krie 140
nehmer 140
ziert 139
▁ehr 139
▁german 139
▁oxy 139
ertain 138
ogn 138
ritt 138
ruck 138
▁jun 138
cover 137
denken 137
orge 137
impan 136
indet 136
▁describ 136
▁manufact 136
wegen 135
▁citiz 135
▁mic 135
▁sond 135
arian 134
view 134
äume 134
▁intro 134
▁zus 134
arbeitet 133
fangen 133
pend 133
▁techni 133
osm 132
roffen 132
üssel 132
mp 131
nah 131
ometer 131
press 131
▁cle 131
▁übr 131
ffic 130
utzen 130
▁colleag 130
▁cris 130
▁intellig 130
▁untersch 130
▁wom 130
ieht 129
▁fascin 129
▁signific 129
▁spez 129
▁verfü 129
adem 128
erent 128
irl 128
mö 128
▁atm 128
▁letz 128
gemein 127
▁fem 127
▁foss 127
▁mount 127
rab 126
▁algorith 126
▁phenomen 126
▁saf 126
▁tats 126
achst 125
ützen 125
▁analys 125
▁behand 125
▁pie 125
▁poet 125
▁vergangen 125
iety 124
▁existen 124
▁muse 124
▁princ 124
lungs 123
ikation 122
▁letzt 122
▁partic 122
uals 121
▁bü 121
▁experien 121
▁niger 121
▁temper 121
erst 120
lam 120
▁restaur 120
ffee 119
▁comple 119
▁dach 119
▁rapid 119
achstum 118
imens 118
ließlich 118
redit 118
▁entreprene 118
▁spir 118
gan 117
▁cha 117
▁fam 117
▁jahrze 117
▁weap 117
ceed 116
iated 116
lect 116
▁descri 116
bon 115
irm 115
olf 115
plant 115
▁afghan 115
clear 114
aur 113
▁democ 113
▁mole 113
wirk 112
iben 111
á 111
▁adop 111
▁afric 111
▁emot 111
▁inte 111
▁magaz 111
antwort 110
erences 110
aul 109
ieden 109
lex 109
▁ere 109
▁tar 109
▁zun 109
isions 108
vant 108
▁afrik 108
▁bud 108
▁commun 108
▁hyp 108
▁rough 108
gal 107
▁bir 107
▁städ 107
ctors 106
hib 106
uge 106
▁accom 106
▁woll 106
abet 105
where 105
▁agricult 105
▁bacter 105
▁klim 105
▁vulner 105
alog 104
fon 104
quence 104
unehmen 104
völ 104
▁absol 104
▁disapp 104
ulpt 103
▁erscha 103
edi 102
ernen 102
inary 102
zte 102
▁desp 102
▁heav 102
▁sou 102
▁spre 102
ames 101
ya 101
öff 101
▁demo 101
▁plann 101
▁serv 101
▁sle 101
ichtig 100
ikel 100
vern 100
völkerung 100
▁desc 100
▁stol 100
ouch 99
▁benef 99
▁deter 99
▁kont 99
anced 98
▁cla 98
▁forg 98
▁profess 98
edia 97
▁empath 97
▁immedi 97
▁philos 97
▁webs 97
apt 96
iced 96
öß 96
face 95
fühl 95
ierungen 95
play 95
ässt 95
▁struct 95
ully 94
▁bakter 94
▁entf 94
▁jan 94
▁kost 94
▁lad 94
▁norm 94
▁teles 94
▁trou 94
ensive 93
▁häu 93
▁urspr 93
inos 92
ünft 92
▁amaz 92
▁relations 92
▁sud 92
eras 91
illion 91
win 91
xy 91
▁instit 91
▁rei 91
masch 90
prochen 90
scheinlich 90
zip 90
▁jahrh 90
▁kön 90
gle 89
istry 89
▁lapt 89
undert 88
▁rul 88
▁vul 88
ether 87
irn 87
krat 87
ledge 87
▁größ 87
▁quest 87
chs 86
imensional 86
izations 86
äs 86
▁heut 86
▁ille 86
more 85
▁oppos 85
▁umgeb 85
▁gebäu 84
▁hine 84
▁komple 84
▁schmer 84
hlte 83
ners 83
windigkeit 83
wohl 83
astic 82
most 82
ques 82
unst 82
í 82
▁purp 82
▁tiss 82
gefühl 81
quen 81
wers 81
▁beautif 81
▁verständ 81
wort 80
▁destro 80
▁gru 80
▁holl 80
▁kreativ 80
▁poss 80
▁remark 80
▁erre 79
▁nav 79
▁niem 79
# 78
ehen 78
kennen 77
unkt 77
ety 76
iple 76
oming 76
ties 76
▁iss 76
dro 75
falt 75
▁chin 75
▁dor 75
▁selt 75
legenheit 74
▁divers 74
▁fot 74
▁goog 74
▁import 74
▁nachzu 74
▁org 74
imately 73
iminal 73
jen 73
▁mik 73
▁schü 73
aun 72
ouse 72
rial 72
▁fün 72
= 71
gendes 71
tellt 71
▁cir 71
ochen 70
wide 70
▁dav 70
▁milit 70
fect 69
selves 69
▁näch 69
▁washing 69
ech 68
ghter 68
ould 68
▁doll 68
▁herauszu 68
▁ingen 68
▁kür 68
▁offens 68
iede 67
istan 67
nte 67
▁surr 67
itely 66
vision 66
ó 66
▁entste 66
▁landsc 66
▁libr 66
▁yell 66
erenz 65
ivid 65
olved 65
wise 65
▁enj 65
▁peop 65
odies 64
ubl 64
▁exerc 64
▁jour 64
alth 63
izin 63
▁extraord 63
▁gewor 63
▁wik 63
+ 62
ees 62
mlich 62
▁emiss 62
▁zweit 62
emat 61
hrend 61
ändig 61
▁amerik 61
▁auswirk 61
▁democra 61
▁slight 61
ago 60
asser 60
uth 60
▁ame 60
▁resp 60
body 59
▁depart 59
▁robo 59
▁scient 59
oose 58
▁bestimm 58
▁hus 58
▁ye 58
ahrung 57
hyth 57
▁bür 57
▁mexic 57
care 56
cially 56
hang 56
ragt 56
self 56
▁.. 56
▁einzig 56
▁erkl 56
▁exch 56
▁fen 56
▁stan 56
acity 55
onym 55
▁ander 55
▁commer 55
▁auth 54
▁perspect 54
▁sug 54
icle 53
neh 53
ognitive 53
ommt 53
zeigt 53
zeitig 53
▁anal 53
▁extre 53
▁kontro 53
▁maj 53
abhäng 52
ibilities 52
ikum 52
ilar 52
jenigen 52
è 52
‘ 52
▁antib 52
▁corre 52
▁wundersch 52
afrik 51
ifically 51
orten 51
quality 51
▁colle 51
mens 50
nten 50
urity 50
velop 50
ween 50
” 50
‹ 50
› 50
▁beein 50
▁mäd 50
▁tex 50
iant 49
▁ergeb 49
▁somet 49
▁surger 49
ogra 48
stes 48
▁ermö 48
▁francis 48
▁gefäng 48
▁unfortun 48
how 47
ustain 47
▁dol 47
▁freed 47
▁intellect 47
▁litt 47
▁ress 47
▁sme 47
▁sob 47
asa 46
aum 46
▁beob 46
▁stren 46
entially 45
gree 45
igr 45
nal 45
tember 45
▁hist 45
▁networ 45
▁sod 45
akter 44
anter 44
aß 44
örter 44
ühne 44
▁cust 44
▁ey 44
▁lös 44
atom 43
conom 43
icult 43
ratic 43
rifft 43
zentr 43
▁independ 43
▁repr 43
irur 42
ollow 42
ã 42
… 42
▁aufmerksam 42
▁soph 42
eper 41
hor 41
ross 41
° 41
▁cit 41
▁jem 41
▁wies 41
@ 40
ustr 40
² 40
β 40
▁malar 40
▁socie 40
dessen 39
eler 39
▁advant 39
▁marri 39
beit 38
▁kilomet 38
▁austr 37
▁compan 37
▁erfor 37
▁psy 37
▁tremend 37
▁univer 37
^ 36
haupt 36
▁convers 36
idden 35
stem 35
ivalent 34
ourcen 34
pid 34
ustellen 34
▁avail 34
aught 33
outh 33
tschaft 33
▁pak 33
ench 32
schritt 32
▁compass 32
▁ira 32
flict 31
nect 31
ñ 31
▁simp 31
▁zuk 31
pty 30
rep 30
½ 30
▁famil 30
▁übrigen 30
gorith 29
ypt 29
älfte 29
ç 29
▁americ 29
▁curr 29
häng 28
stood 28
▁necess 28
_ 27
unsch 27
ywood 27
‟ 27
▁gese 27
▁lifet 27
▁plötz 27
erc 26
ächter 26
▁surpr 26
pret 25
▁artific 25
▁bemerk 25
▁hät 25
▁sauer 25
▁suc 25
fähr 24
hers 24
lier 24
à 24
‚ 24
▁beisp 24
▁diag 24
▁gescha 24
▁wit 24
cules 23
pression 23
rene 23
thing 23
´ 23
▁accord 23
▁beif 23
▁chang 23
▁demon 23
▁invis 23
▁phen 23
atell 22
dings 22
▁entde 22
▁grandm 22
▁jed 22
▁mater 22
▁parall 22
▁sever 22
ahrungs 21
cen 21
gor 21
ikament 21
ocus 21
rote 21
▁atmosph 21
▁gan 21
▁pret 21
ousand 20
tempt 20
ynam 20
ürf 20
▁bezieh 20
▁eff 20
▁infrastru 20
▁masch 20
▁valle 20
völk 19
▁imposs 19
▁diabet 18
▁phän 18
▁thom 18
acter 17
rael 17
▁liqu 17
▁valu 17
rastru 16
unte 16
viron 16
▁franc 16
▁lond 16
ael 15
iforn 15
äsent 15
▁afgh 15
lebr 14
ready 14
▁gesell 14
▁grou 14
▁mov 14
▁oth 14
▁unterst 14
▁wee 14
onse 13
ortun 13
thin 13
▁antw 13
▁lea 13
▁wus 13
bors 12
▁bey 12
▁män 12
beite 11
dp 11
iod 11
vious 11
ï 11
ù 11
▁amer 11
▁beaut 11
▁entsche 11
▁gala 11
▁intelligen 11
▁pict 11
▁rese 11
esome 10
ivil 10
ollar 10
reci 10
spap 10
ußen 10
‒ 10
▁genaus 10
▁jap 10
▁manh 10
<lang:de> 0
<lang:en> 0
madeupword0000 0
